<unk>	0
<s>	0
</s>	0
▁d	-0
es	-1
▁l	-2
on	-3
en	-4
▁p	-5
▁a	-6
▁c	-7
ti	-8
▁s	-9
▁de	-10
▁,	-11
ur	-12
er	-13
an	-14
re	-15
os	-16
is	-17
qu	-18
▁e	-19
in	-20
ent	-21
▁m	-22
pos	-23
▁.	-24
▁la	-25
it	-26
le	-27
ou	-28
tion	-29
ar	-30
or	-31
apos	-32
il	-33
un	-34
▁t	-35
▁le	-36
▁et	-37
▁n	-38
▁f	-39
om	-40
▁r	-41
te	-42
▁qu	-43
▁un	-44
▁en	-45
ment	-46
▁les	-47
▁pr	-48
▁v	-49
▁à	-50
▁des	-51
▁é	-52
ra	-53
our	-54
▁b	-55
el	-56
al	-57
am	-58
▁au	-59
ation	-60
▁con	-61
▁1	-62
si	-63
ant	-64
▁par	-65
▁g	-66
ic	-67
▁in	-68
▁com	-69
ans	-70
▁&	-71
▁es	-72
me	-73
us	-74
▁il	-75
és	-76
▁:	-77
▁j	-78
ta	-79
ir	-80
ve	-81
ce	-82
▁’	-83
ch	-84
▁du	-85
▁2	-86
as	-87
que	-88
▁;	-89
ie	-90
op	-91
▁pour	-92
amp	-93
ne	-94
au	-95
té	-96
▁dé	-97
▁est	-98
ol	-99
▁dans	-100
▁h	-101
tr	-102
▁une	-103
▁pro	-104
tre	-105
ci	-106
▁re	-107
ous	-108
▁)	-109
▁que	-110
ire	-111
▁ce	-112
ont	-113
ag	-114
▁(	-115
▁se	-116
se	-117
de	-118
▁an	-119
▁ch	-120
▁apos	-121
im	-122
▁ré	-123
ul	-124
ité	-125
▁pl	-126
▁sur	-127
ée	-128
▁ma	-129
ts	-130
ter	-131
les	-132
pr	-133
ig	-134
ot	-135
ér	-136
00	-137
ons	-138
▁ac	-139
ois	-140
▁y	-141
▁qui	-142
ff	-143
▁o	-144
▁ex	-145
di	-146
lement	-147
▁comm	-148
▁tr	-149
ers	-150
urs	-151
res	-152
iv	-153
por	-154
▁fa	-155
▁-	-156
ue	-157
sion	-158
ère	-159
li	-160
em	-161
ux	-162
ab	-163
▁3	-164
ouv	-165
▁su	-166
▁pas	-167
ap	-168
▁eur	-169
ques	-170
ces	-171
tu	-172
▁gr	-173
end	-174
ine	-175
▁ave	-176
ure	-177
pe	-178
▁0	-179
ac	-180
at	-181
ées	-182
▁av	-183
ais	-184
ite	-185
tte	-186
ati	-187
▁avec	-188
ique	-189
▁ap	-190
▁éta	-191
age	-192
opé	-193
▁ou	-194
▁plus	-195
ier	-196
▁ne	-197
▁ya	-198
and	-199
ge	-200
tes	-201
▁mo	-202
▁/	-203
tions	-204
▁pe	-205
▁ent	-206
▁sont	-207
▁ar	-208
ale	-209
du	-210
ib	-211
pl	-212
▁pré	-213
ion	-214
▁tra	-215
▁aux	-216
elle	-217
▁je	-218
oit	-219
ès	-220
mes	-221
▁nous	-222
ations	-223
id	-224
▁am	-225
aux	-226
▁im	-227
ut	-228
ins	-229
ance	-230
onn	-231
▁mar	-232
▁4	-233
ien	-234
▁tou	-235
ille	-236
che	-237
▁19	-238
▁cons	-239
bre	-240
ys	-241
aire	-242
opéen	-243
iti	-244
▁al	-245
▁européen	-246
ires	-247
ten	-248
for	-249
▁ser	-250
ction	-251
▁cr	-252
▁20	-253
▁5	-254
ient	-255
▁ad	-256
bl	-257
oc	-258
▁parti	-259
▁mon	-260
▁vo	-261
▁sa	-262
port	-263
og	-264
▁or	-265
▁pa	-266
tra	-267
je	-268
▁k	-269
être	-270
▁dis	-271
ence	-272
▁vous	-273
ise	-274
▁el	-275
▁so	-276
ission	-277
▁entre	-278
én	-279
ments	-280
▁200	-281
ière	-282
▁mais	-283
ill	-284
teur	-285
▁ces	-286
▁conc	-287
▁cette	-288
▁res	-289
▁été	-290
um	-291
▁être	-292
▁as	-293
▁comp	-294
▁éc	-295
▁pu	-296
ond	-297
▁acc	-298
ad	-299
ours	-300
ait	-301
▁inter	-302
▁no	-303
ens	-304
▁commission	-305
▁son	-306
tif	-307
▁por	-308
▁co	-309
par	-310
ants	-311
▁si	-312
▁ont	-313
▁for	-314
▁201	-315
▁di	-316
ures	-317
aires	-318
éra	-319
tres	-320
▁pol	-321
ct	-322
▁commun	-323
ord	-324
▁dev	-325
▁u	-326
▁ins	-327
▁w	-328
▁cl	-329
▁fr	-330
éd	-331
▁ob	-332
ui	-333
▁per	-334
ble	-335
til	-336
▁ans	-337
▁me	-338
elles	-339
▁ég	-340
▁comme	-341
▁sou	-342
▁fin	-343
▁mem	-344
ors	-345
▁rap	-346
sid	-347
▁car	-348
▁eff	-349
ème	-350
ma	-351
oir	-352
▁rés	-353
▁ann	-354
▁elle	-355
▁mois	-356
▁déc	-357
va	-358
▁nom	-359
ités	-360
ésent	-361
ég	-362
▁pos	-363
ix	-364
ing	-365
bres	-366
ande	-367
▁x	-368
tin	-369
iques	-370
ves	-371
▁rég	-372
tér	-373
▁»	-374
▁18	-375
▁6	-376
able	-377
teurs	-378
ign	-379
▁po	-380
▁br	-381
ang	-382
ales	-383
quot	-384
ard	-385
▁trans	-386
form	-387
alement	-388
▁soci	-389
▁pays	-390
▁mes	-391
onne	-392
ouve	-393
▁dire	-394
▁ag	-395
▁vis	-396
ph	-397
ice	-398
tel	-399
oy	-400
tru	-401
▁pre	-402
iss	-403
▁produ	-404
ouver	-405
ition	-406
oi	-407
▁ter	-408
ines	-409
▁propos	-410
▁év	-411
▁politi	-412
▁ti	-413
fin	-414
▁util	-415
els	-416
▁aut	-417
▁gros	-418
isation	-419
ication	-420
▁&#	-421
▁fait	-422
▁leur	-423
▁«	-424
▁membres	-425
▁pers	-426
onom	-427
▁deux	-428
▁cer	-429
lé	-430
▁em	-431
int	-432
▁européenne	-433
▁états	-434
uv	-435
ême	-436
▁7	-437
▁ass	-438
cul	-439
▁at	-440
▁sé	-441
▁dr	-442
ace	-443
ist	-444
if	-445
gra	-446
ub	-447
ici	-448
▁prem	-449
▁ses	-450
ven	-451
emp	-452
cle	-453
▁autres	-454
sie	-455
▁te	-456
▁env	-457
▁conse	-458
cip	-459
▁né	-460
cess	-461
▁8	-462
tis	-463
▁10	-464
ich	-465
▁mé	-466
ies	-467
ob	-468
ope	-469
ères	-470
ents	-471
cti	-472
▁on	-473
▁économ	-474
▁peut	-475
ri	-476
▁aus	-477
▁ab	-478
▁rec	-479
▁serv	-480
▁concer	-481
▁également	-482
▁conseil	-483
igne	-484
▁tout	-485
▁cul	-486
▁présent	-487
its	-488
vel	-489
▁9	-490
▁man	-491
▁sec	-492
▁%	-493
cher	-494
tique	-495
èg	-496
▁sp	-497
▁march	-498
▁diff	-499
av	-500
ante	-501
▁trava	-502
▁ils	-503
▁ph	-504
▁col	-505
▁rel	-506
titu	-507
ises	-508
▁ind	-509
co	-510
▁tous	-511
isse	-512
▁union	-513
velop	-514
près	-515
nes	-516
▁dévelop	-517
▁ren	-518
▁th	-519
min	-520
met	-521
ide	-522
▁app	-523
▁lors	-524
ov	-525
ica	-526
▁cel	-527
▁00	-528
▁ni	-529
▁der	-530
ner	-531
▁bien	-532
▁appr	-533
iste	-534
alité	-535
▁aussi	-536
▁arti	-537
▁import	-538
▁obje	-539
▁même	-540
tég	-541
▁prin	-542
▁nombre	-543
ilité	-544
▁cas	-545
anc	-546
lu	-547
▁jus	-548
▁donn	-549
▁org	-550
▁ain	-551
ré	-552
▁ainsi	-553
▁mil	-554
endre	-555
▁présid	-556
▁sal	-557
th	-558
▁ju	-559
oup	-560
▁ca	-561
ia	-562
▁contr	-563
olu	-564
ong	-565
▁dem	-566
▁droit	-567
ourn	-568
▁z	-569
enti	-570
▁min	-571
itu	-572
▁nouv	-573
▁sup	-574
gram	-575
▁be	-576
▁certa	-577
▁program	-578
▁quot	-579
▁fond	-580
uis	-581
▁gén	-582
▁sys	-583
▁utilis	-584
▁règ	-585
onc	-586
▁après	-587
ieu	-588
▁effe	-589
▁bas	-590
▁inform	-591
▁politique	-592
tement	-593
▁personn	-594
▁dern	-595
▁esp	-596
era	-597
▁dom	-598
io	-599
▁conf	-600
use	-601
tiv	-602
all	-603
▁non	-604
ente	-605
▁12	-606
ell	-607
ham	-608
ellement	-609
ture	-610
▁?	-611
▁rem	-612
▁hom	-613
▁i	-614
une	-615
tant	-616
▁votre	-617
▁entrepr	-618
alis	-619
▁gra	-620
12	-621
▁nation	-622
ctive	-623
des	-624
▁rép	-625
mbre	-626
ster	-627
▁porn	-628
▁cor	-629
ices	-630
▁faire	-631
▁ue	-632
oire	-633
▁organ	-634
▁article	-635
olog	-636
▁syst	-637
▁nécess	-638
▁15	-639
endant	-640
▁doit	-641
▁sous	-642
▁sans	-643
▁&#9	-644
▁rapport	-645
▁st	-646
cep	-647
ctif	-648
ver	-649
pement	-650
▁communau	-651
aine	-652
tière	-653
opéra	-654
ez	-655
rait	-656
▁repr	-657
com	-658
▁cent	-659
▁199	-660
▁cré	-661
▁nouve	-662
▁off	-663
cu	-664
▁actu	-665
▁éle	-666
oupe	-667
iers	-668
▁prof	-669
▁op	-670
ud	-671
▁cap	-672
▁envir	-673
▁très	-674
▁europe	-675
▁bl	-676
..	-677
▁él	-678
ément	-679
▁anal	-680
▁équ	-681
▁toute	-682
hamster	-683
▁xhamster	-684
estion	-685
uer	-686
ues	-687
céd	-688
▁leurs	-689
ision	-690
▁avant	-691
ions	-692
▁temp	-693
▁cha	-694
▁vie	-695
▁généra	-696
▁accord	-697
▁11	-698
▁aff	-699
▁fois	-700
▁contre	-701
▁particul	-702
▁était	-703
▁ver	-704
▁parlement	-705
▁compr	-706
▁suiv	-707
ages	-708
▁prop	-709
▁dou	-710
▁notre	-711
éci	-712
sions	-713
▁grand	-714
▁nive	-715
▁marché	-716
▁développement	-717
chn	-718
▁inf	-719
ole	-720
nement	-721
▁trois	-722
▁autor	-723
tionn	-724
térie	-725
atique	-726
▁déb	-727
▁concern	-728
▁fil	-729
ances	-730
▁situ	-731
▁lég	-732
▁permet	-733
ser	-734
dre	-735
▁dispos	-736
▁jours	-737
▁30	-738
▁hô	-739
iter	-740
▁+	-741
▁lib	-742
▁où	-743
be	-744
taire	-745
▁cad	-746
▁sta	-747
cl	-748
rit	-749
ate	-750
▁–	-751
▁empl	-752
▁fem	-753
nation	-754
▁techn	-755
ro	-756
tés	-757
▁rou	-758
▁publ	-759
▁form	-760
▁char	-761
▁!	-762
▁he	-763
▁lui	-764
▁sema	-765
bli	-766
▁objectif	-767
puis	-768
▁gar	-769
▁do	-770
ables	-771
sem	-772
▁cours	-773
▁groupe	-774
▁afin	-775
▁té	-776
▁président	-777
cur	-778
▁princip	-779
raph	-780
▁dur	-781
ôle	-782
▁différ	-783
▁cour	-784
▁dont	-785
▁mesures	-786
▁depuis	-787
anti	-788
amment	-789
▁mal	-790
ative	-791
▁spéci	-792
▁plu	-793
été	-794
one	-795
▁quel	-796
oci	-797
▁sera	-798
ay	-799
▁16	-800
▁seins	-801
ip	-802
▁proje	-803
▁possi	-804
▁travail	-805
core	-806
▁fon	-807
ange	-808
ences	-809
▁état	-810
aut	-811
xx	-812
antes	-813
▁cela	-814
▁17	-815
▁sol	-816
▁jou	-817
ital	-818
▁seu	-819
▁...	-820
▁pouv	-821
▁hôtel	-822
▁recher	-823
▁exp	-824
▁peti	-825
idé	-826
itions	-827
▁adop	-828
▁cadre	-829
▁13	-830
ession	-831
▁autre	-832
la	-833
▁14	-834
aise	-835
▁services	-836
▁dép	-837
▁économique	-838
▁internation	-839
▁long	-840
ort	-841
▁appar	-842
▁niveau	-843
▁main	-844
équ	-845
porn	-846
èmes	-847
ass	-848
jour	-849
ats	-850
▁mod	-851
▁moy	-852
▁probl	-853
▁dém	-854
▁ligne	-855
▁système	-856
ivent	-857
▁vue	-858
▁oc	-859
▁public	-860
▁mam	-861
ième	-862
▁not	-863
bles	-864
▁comité	-865
▁prix	-866
▁soit	-867
▁mise	-868
▁vers	-869
▁matière	-870
▁cet	-871
agn	-872
▁directive	-873
▁consid	-874
xe	-875
omm	-876
▁prév	-877
▁déf	-878
ain	-879
▁milli	-880
lem	-881
124	-882
entes	-883
▁sim	-884
▁fer	-885
od	-886
ivers	-887
▁encore	-888
▁camp	-889
anci	-890
▁toutes	-891
éli	-892
▁page	-893
▁étu	-894
▁ess	-895
dif	-896
ber	-897
érie	-898
▁arr	-899
124;	-900
▁&#124;	-901
▁conn	-902
▁personnes	-903
▁temps	-904
su	-905
sance	-906
agne	-907
▁programme	-908
▁sécur	-909
▁05	-910
▁met	-911
▁œ	-912
are	-913
ites	-914
▁produits	-915
uvent	-916
▁imm	-917
▁point	-918
▁appl	-919
▁première	-920
▁fut	-921
▁peuvent	-922
▁jour	-923
▁activ	-924
▁sign	-925
▁nat	-926
▁région	-927
20	-928
to	-929
ari	-930
▁stra	-931
ibu	-932
▁peu	-933
isme	-934
▁représent	-935
▁fonction	-936
aison	-937
▁ten	-938
uvre	-939
▁condi	-940
ose	-941
tiques	-942
▁éch	-943
▁proposition	-944
▁année	-945
bilité	-946
olution	-947
▁financi	-948
oin	-949
ler	-950
onde	-951
▁sécurité	-952
▁avis	-953
▁fé	-954
▁entreprises	-955
fs	-956
▁règlement	-957
est	-958
▁plan	-959
▁procéd	-960
ile	-961
▁donc	-962
▁résul	-963
▁ve	-964
▁recherche	-965
▁compte	-966
▁men	-967
▁jusqu	-968
▁hui	-969
▁maison	-970
▁fran	-971
ps	-972
▁pér	-973
tien	-974
▁allem	-975
▁loc	-976
sieurs	-977
▁gouver	-978
.1	-979
▁demande	-980
onnement	-981
▁partie	-982
▁compé	-983
truct	-984
eur	-985
▁enf	-986
▁grande	-987
▁notamment	-988
gé	-989
▁moins	-990
▁nos	-991
▁premier	-992
tur	-993
▁avoir	-994
▁monde	-995
▁imp	-996
▁nouveau	-997
▁can	-998
▁modif	-999
▁bou	-1000
▁exemp	-1001
isl	-1002
▁télé	-1003
▁eng	-1004
cid	-1005
man	-1006
atr	-1007
▁crois	-1008
mis	-1009
▁sel	-1010
▁publi	-1011
▁améli	-1012
▁commer	-1013
▁rédu	-1014
ulation	-1015
aient	-1016
▁inc	-1017
▁25	-1018
▁06	-1019
▁vi	-1020
▁beau	-1021
▁place	-1022
▁chaque	-1023
rée	-1024
▁doivent	-1025
itement	-1026
tée	-1027
▁ta	-1028
▁vol	-1029
▁mer	-1030
▁sub	-1031
illeurs	-1032
▁nor	-1033
▁droits	-1034
▁particip	-1035
▁organis	-1036
▁amélior	-1037
▁indi	-1038
▁politiques	-1039
▁sy	-1040
▁fl	-1041
ttes	-1042
▁cou	-1043
az	-1044
▁li	-1045
▁fourn	-1046
icul	-1047
yp	-1048
liqu	-1049
▁concernant	-1050
jourd	-1051
ieux	-1052
▁aujourd	-1053
▁alors	-1054
▁environnement	-1055
▁réf	-1056
atives	-1057
▁lieu	-1058
▁ép	-1059
▁années	-1060
opération	-1061
▁contra	-1062
▁société	-1063
▁vou	-1064
ctr	-1065
▁part	-1066
▁ai	-1067
minis	-1068
▁07	-1069
uses	-1070
▁pass	-1071
▁institu	-1072
▁som	-1073
▁question	-1074
ible	-1075
rent	-1076
▁avons	-1077
▁cit	-1078
▁cal	-1079
▁nouvelle	-1080
▁coll	-1081
▁informations	-1082
▁08	-1083
enne	-1084
▁base	-1085
▁éner	-1086
rais	-1087
▁selon	-1088
▁voir	-1089
▁mas	-1090
ustr	-1091
▁résulta	-1092
▁défin	-1093
▁maman	-1094
▁initi	-1095
ateur	-1096
éné	-1097
▁vidé	-1098
▁elles	-1099
lique	-1100
▁assur	-1101
▁homme	-1102
▁aur	-1103
▁stratég	-1104
tent	-1105
ête	-1106
▁plusieurs	-1107
▁manière	-1108
lar	-1109
▁amp	-1110
▁bar	-1111
iz	-1112
▁cham	-1113
tisse	-1114
rer	-1115
▁adminis	-1116
▁données	-1117
▁déta	-1118
ca	-1119
térieur	-1120
tection	-1121
▁hab	-1122
▁gl	-1123
▁24	-1124
▁auc	-1125
ense	-1126
pon	-1127
▁sor	-1128
gr	-1129
ières	-1130
▁secteur	-1131
▁préc	-1132
▁01	-1133
▁prom	-1134
rier	-1135
▁œuvre	-1136
▁ital	-1137
▁respe	-1138
▁comment	-1139
▁liv	-1140
▁établ	-1141
ém	-1142
tro	-1143
▁certains	-1144
▁doc	-1145
▁id	-1146
▁sant	-1147
ha	-1148
▁renfor	-1149
tenir	-1150
ras	-1151
▁21	-1152
ches	-1153
semble	-1154
▁exemple	-1155
▁fam	-1156
▁effic	-1157
▁déj	-1158
▁pendant	-1159
▁°	-1160
▁seulement	-1161
▁déjà	-1162
▁bud	-1163
▁lim	-1164
sieur	-1165
▁méd	-1166
ow	-1167
▁monsieur	-1168
▁constru	-1169
▁bes	-1170
▁domaine	-1171
êt	-1172
3;	-1173
▁&#93;	-1174
aî	-1175
▁ville	-1176
▁hum	-1177
▁industr	-1178
▁contin	-1179
▁conditions	-1180
▁inves	-1181
ke	-1182
ications	-1183
jac	-1184
fois	-1185
1;	-1186
▁&#91;	-1187
▁resp	-1188
▁sep	-1189
▁fe	-1190
imin	-1191
▁protection	-1192
cer	-1193
▁tour	-1194
br	-1195
▁pres	-1196
▁législ	-1197
▁km	-1198
▁réser	-1199
▁aug	-1200
acité	-1201
▁tant	-1202
net	-1203
▁nu	-1204
▁agr	-1205
ende	-1206
voir	-1207
▁visite	-1208
▁ensemble	-1209
fr	-1210
▁mondi	-1211
▁parag	-1212
▁ra	-1213
▁is	-1214
illes	-1215
enir	-1216
ienne	-1217
▁trav	-1218
jou	-1219
mi	-1220
▁ris	-1221
ène	-1222
▁coopération	-1223
▁ress	-1224
▁pop	-1225
▁avait	-1226
▁franç	-1227
▁rappor	-1228
▁che	-1229
▁paragraph	-1230
ann	-1231
ll	-1232
▁22	-1233
gie	-1234
con	-1235
ctions	-1236
▁nouvelles	-1237
▁situation	-1238
▁meille	-1239
▁100	-1240
▁ici	-1241
▁sc	-1242
vi	-1243
▁inté	-1244
▁us	-1245
▁ceux	-1246
érence	-1247
.2	-1248
▁respons	-1249
▁23	-1250
nent	-1251
▁jap	-1252
▁puis	-1253
aines	-1254
ton	-1255
▁garanti	-1256
▁éval	-1257
▁membre	-1258
issement	-1259
vé	-1260
-1	-1261
▁chez	-1262
▁pi	-1263
▁administra	-1264
abor	-1265
▁décision	-1266
raient	-1267
mé	-1268
▁expl	-1269
▁hist	-1270
per	-1271
▁unique	-1272
unis	-1273
▁amér	-1274
atrice	-1275
▁aide	-1276
he	-1277
▁effet	-1278
▁phot	-1279
▁ii	-1280
▁atte	-1281
▁dispon	-1282
▁dit	-1283
▁action	-1284
hub	-1285
▁japon	-1286
jours	-1287
dam	-1288
▁devrait	-1289
▁we	-1290
▁actuellement	-1291
ges	-1292
▁associ	-1293
▁qualité	-1294
▁nég	-1295
▁objectifs	-1296
▁pornhub	-1297
▁citoy	-1298
▁ho	-1299
iles	-1300
atiques	-1301
cien	-1302
▁dél	-1303
▁pério	-1304
▁réalis	-1305
▁demand	-1306
▁198	-1307
▁intér	-1308
▁augment	-1309
▁lu	-1310
▁toujours	-1311
▁jan	-1312
▁utilisation	-1313
▁voy	-1314
▁paragraphe	-1315
▁simp	-1316
▁semaine	-1317
gement	-1318
▁vill	-1319
▁ba	-1320
▁inv	-1321
▁concerne	-1322
vention	-1323
alisation	-1324
▁constitu	-1325
▁particulier	-1326
▁nécessaire	-1327
▁parten	-1328
▁rom	-1329
▁pouvoir	-1330
▁service	-1331
▁camping	-1332
▁er	-1333
ût	-1334
▁fix	-1335
▁résultats	-1336
▁application	-1337
▁cese	-1338
▁salope	-1339
▁inst	-1340
▁rus	-1341
▁projet	-1342
▁emploi	-1343
▁rôle	-1344
▁natur	-1345
▁compl	-1346
▁centre	-1347
él	-1348
▁annon	-1349
▁mis	-1350
tenant	-1351
out	-1352
érer	-1353
▁exam	-1354
▁poin	-1355
▁lar	-1356
▁bi	-1357
ources	-1358
▁traité	-1359
▁bon	-1360
▁mesure	-1361
▁ir	-1362
▁26	-1363
▁©	-1364
taires	-1365
▁essenti	-1366
ior	-1367
▁exc	-1368
▁priv	-1369
pendant	-1370
▁site	-1371
▁jur	-1372
uelle	-1373
▁appro	-1374
▁instru	-1375
▁orig	-1376
dr	-1377
char	-1378
ils	-1379
▁béné	-1380
▁spécif	-1381
▁enfants	-1382
tive	-1383
iser	-1384
▁change	-1385
▁vér	-1386
▁dés	-1387
▁fonds	-1388
▁activités	-1389
forme	-1390
▁50	-1391
unes	-1392
▁amatrice	-1393
▁investisse	-1394
▁sh	-1395
prim	-1396
▁28	-1397
xte	-1398
▁ret	-1399
▁siè	-1400
▁conform	-1401
▁déclar	-1402
▁direc	-1403
▁mettre	-1404
▁abs	-1405
coup	-1406
▁compos	-1407
ime	-1408
tage	-1409
▁communauté	-1410
▁fich	-1411
▁process	-1412
▁mu	-1413
▁semaines	-1414
▁lorsque	-1415
▁prendre	-1416
▁quelques	-1417
▁aid	-1418
oles	-1419
ses	-1420
▁celui	-1421
▁important	-1422
▁conséqu	-1423
▁processus	-1424
▁femme	-1425
▁millions	-1426
mo	-1427
ger	-1428
atif	-1429
▁ouver	-1430
▁vale	-1431
ibles	-1432
▁ali	-1433
▁mars	-1434
▁général	-1435
▁bénéf	-1436
▁ang	-1437
▁beaucoup	-1438
▁électr	-1439
ouvent	-1440
▁â	-1441
▁suite	-1442
▁france	-1443
▁struct	-1444
▁gu	-1445
▁rev	-1446
▁04	-1447
50	-1448
act	-1449
▁juin	-1450
▁hôtels	-1451
ker	-1452
isc	-1453
▁to	-1454
▁santé	-1455
▁recomm	-1456
▁reconn	-1457
▁cin	-1458
▁obl	-1459
idi	-1460
ira	-1461
▁consul	-1462
▁partir	-1463
▁arg	-1464
▁possible	-1465
▁traitement	-1466
▁déce	-1467
▁gouvernement	-1468
▁dieu	-1469
vier	-1470
▁femmes	-1471
▁rése	-1472
tern	-1473
▁mai	-1474
abilité	-1475
▁ty	-1476
▁ur	-1477
▁02	-1478
ateurs	-1479
▁eu	-1480
lex	-1481
▁comb	-1482
illet	-1483
▁mont	-1484
▁moyen	-1485
iens	-1486
▁social	-1487
cles	-1488
▁seront	-1489
ération	-1490
▁faut	-1491
▁oblig	-1492
▁exig	-1493
tient	-1494
can	-1495
▁27	-1496
▁contrôle	-1497
ili	-1498
▁oct	-1499
▁période	-1500
▁val	-1501
▁décembre	-1502
▁évalu	-1503
▁règles	-1504
▁all	-1505
ète	-1506
▁docu	-1507
▁vidéo	-1508
ellation	-1509
tie	-1510
▁disc	-1511
▁univers	-1512
▁aér	-1513
▁programmes	-1514
▁entrée	-1515
▁hau	-1516
▁élé	-1517
▁pati	-1518
▁gestion	-1519
▁sch	-1520
erie	-1521
▁29	-1522
▁ques	-1523
▁civ	-1524
▁nouveaux	-1525
▁soul	-1526
urr	-1527
st	-1528
▁information	-1529
▁réun	-1530
land	-1531
ocra	-1532
▁2015	-1533
hé	-1534
▁31	-1535
▁ay	-1536
▁anim	-1537
▁nav	-1538
uel	-1539
et	-1540
▁opéra	-1541
▁communication	-1542
▁esti	-1543
▁gratu	-1544
▁citoyens	-1545
▁questions	-1546
▁sem	-1547
▁qua	-1548
▁coup	-1549
êtes	-1550
▁ados	-1551
▁ber	-1552
anger	-1553
▁janvier	-1554
obre	-1555
part	-1556
çon	-1557
▁div	-1558
ds	-1559
▁tot	-1560
▁03	-1561
▁amende	-1562
▁sociale	-1563
iel	-1564
▁chr	-1565
▁problème	-1566
ak	-1567
▁commune	-1568
omb	-1569
▁croissance	-1570
itaire	-1571
ié	-1572
▁cô	-1573
▁commerci	-1574
▁clas	-1575
bil	-1576
essionn	-1577
▁tu	-1578
▁guer	-1579
▁jo	-1580
▁indé	-1581
▁rapide	-1582
tention	-1583
▁octobre	-1584
▁accue	-1585
▁produit	-1586
▁autorités	-1587
▁log	-1588
▁environ	-1589
▁asi	-1590
iller	-1591
▁dernière	-1592
▁particulière	-1593
▁pris	-1594
ath	-1595
▁appel	-1596
▁accès	-1597
▁présente	-1598
▁production	-1599
▁the	-1600
leur	-1601
auv	-1602
▁fac	-1603
▁technolog	-1604
▁mor	-1605
▁stratégie	-1606
ôt	-1607
▁reg	-1608
▁cependant	-1609
tées	-1610
▁concurr	-1611
▁vos	-1612
▁ban	-1613
▁titre	-1614
.3	-1615
vor	-1616
▁contribu	-1617
▁suc	-1618
▁toutefois	-1619
▁€	-1620
▁2007	-1621
▁communautaire	-1622
ock	-1623
▁raison	-1624
▁fellation	-1625
tation	-1626
▁mature	-1627
▁nove	-1628
atis	-1629
▁conv	-1630
▁ajou	-1631
▁197	-1632
▁ejac	-1633
▁européens	-1634
▁go	-1635
▁problèmes	-1636
▁40	-1637
▁dès	-1638
▁prov	-1639
▁bre	-1640
▁enc	-1641
▁type	-1642
cipe	-1643
ert	-1644
▁cir	-1645
▁dispositions	-1646
umér	-1647
▁mul	-1648
▁and	-1649
▁destin	-1650
aissance	-1651
▁lo	-1652
sique	-1653
▁soutien	-1654
▁gt	-1655
▁sus	-1656
▁consom	-1657
▁sein	-1658
▁novembre	-1659
▁seul	-1660
▁juillet	-1661
tem	-1662
erc	-1663
ager	-1664
▁champ	-1665
yl	-1666
▁étaient	-1667
ore	-1668
cup	-1669
▁série	-1670
duc	-1671
▁terme	-1672
ex	-1673
ctu	-1674
ancement	-1675
▁jeu	-1676
▁ref	-1677
▁2014	-1678
.0	-1679
▁américa	-1680
tembre	-1681
▁ache	-1682
▁favor	-1683
▁outre	-1684
ché	-1685
▁voit	-1686
▁rév	-1687
▁consomma	-1688
▁formation	-1689
tit	-1690
èrent	-1691
▁dav	-1692
▁sud	-1693
veur	-1694
▁inn	-1695
quel	-1696
taur	-1697
▁saint	-1698
▁savoir	-1699
▁fra	-1700
porte	-1701
èle	-1702
▁@	-1703
bour	-1704
▁har	-1705
▁bo	-1706
▁celle	-1707
ograph	-1708
▁septembre	-1709
▁laqu	-1710
ress	-1711
tend	-1712
▁nombreux	-1713
▁intérieur	-1714
▁avez	-1715
▁recommand	-1716
▁pourrait	-1717
▁09	-1718
quer	-1719
▁journ	-1720
istre	-1721
▁porno	-1722
▁centra	-1723
▁hotel	-1724
▁fév	-1725
▁prior	-1726
▁derniers	-1727
▁obser	-1728
▁équi	-1729
ogue	-1730
ouvez	-1731
ront	-1732
▁suis	-1733
▁bite	-1734
omp	-1735
suite	-1736
▁réglement	-1737
istes	-1738
▁forme	-1739
▁agit	-1740
▁certaines	-1741
▁actions	-1742
▁laquelle	-1743
▁2010	-1744
▁jeunes	-1745
ka	-1746
▁mm	-1747
tenu	-1748
xim	-1749
▁impos	-1750
▁tur	-1751
▁roy	-1752
ki	-1753
▁transport	-1754
tube	-1755
▁devons	-1756
ril	-1757
▁février	-1758
▁deuxième	-1759
▁débat	-1760
▁cli	-1761
▁grosse	-1762
▁démocra	-1763
▁entreprise	-1764
▁accep	-1765
▁2013	-1766
▁000	-1767
▁national	-1768
▁cher	-1769
▁face	-1770
▁numér	-1771
▁quand	-1772
▁étant	-1773
▁appliqu	-1774
ination	-1775
▁parties	-1776
▁colle	-1777
▁hommes	-1778
▁annonces	-1779
tier	-1780
▁ayant	-1781
jet	-1782
▁soient	-1783
xxx	-1784
▁joue	-1785
▁projets	-1786
▁lang	-1787
▁énergie	-1788
pec	-1789
uss	-1790
▁ven	-1791
▁guerre	-1792
▁professionn	-1793
▁*	-1794
mer	-1795
▁entra	-1796
▁étr	-1797
▁nord	-1798
▁position	-1799
▁date	-1800
qué	-1801
aiss	-1802
tribu	-1803
▁fils	-1804
oph	-1805
ffis	-1806
éré	-1807
▁parce	-1808
rir	-1809
▁double	-1810
▁mort	-1811
▁taux	-1812
▁différents	-1813
▁prépar	-1814
▁expér	-1815
ze	-1816
▁ressources	-1817
▁assurer	-1818
▁suppl	-1819
▁procédure	-1820
▁près	-1821
▁conformément	-1822
▁régions	-1823
ève	-1824
▁2012	-1825
issant	-1826
▁txxx	-1827
▁bran	-1828
▁adap	-1829
▁total	-1830
reg	-1831
alités	-1832
▁ple	-1833
▁avril	-1834
▁systèmes	-1835
▁négoci	-1836
▁2011	-1837
▁2009	-1838
▁maintenant	-1839
▁signif	-1840
▁pla	-1841
écu	-1842
▁économie	-1843
▁améliorer	-1844
▁sommes	-1845
▁marchés	-1846
▁196	-1847
▁création	-1848
▁2008	-1849
▁jam	-1850
▁mom	-1851
▁orient	-1852
din	-1853
▁2006	-1854
êts	-1855
yse	-1856
▁expos	-1857
oth	-1858
▁rempl	-1859
bo	-1860
mon	-1861
▁aliment	-1862
▁san	-1863
itation	-1864
▁quatre	-1865
▁viv	-1866
.4	-1867
▁attein	-1868
.5	-1869
▁existe	-1870
▁besoin	-1871
ueur	-1872
▁début	-1873
ug	-1874
lo	-1875
▁194	-1876
▁engage	-1877
yn	-1878
let	-1879
▁façon	-1880
▁trouver	-1881
▁bure	-1882
tag	-1883
▁personne	-1884
▁mme	-1885
▁serait	-1886
▁va	-1887
▁grâ	-1888
▁heures	-1889
▁reste	-1890
iment	-1891
▁faci	-1892
▁anti	-1893
quoi	-1894
▁économiques	-1895
lise	-1896
▁2016	-1897
fe	-1898
sive	-1899
▁élabor	-1900
▁pourquoi	-1901
▁dernier	-1902
▁liste	-1903
ran	-1904
▁juridi	-1905
▁conclu	-1906
▁immob	-1907
▁abord	-1908
▁français	-1909
▁pouvez	-1910
▁web	-1911
▁commiss	-1912
▁chois	-1913
▁2000	-1914
édi	-1915
▁patients	-1916
▁grâce	-1917
tifs	-1918
-2	-1919
hésion	-1920
ament	-1921
▁souvent	-1922
▁points	-1923
▁divers	-1924
▁aucun	-1925
▁respect	-1926
▁international	-1927
▁vic	-1928
termin	-1929
▁rend	-1930
▁compris	-1931
▁importance	-1932
▁proch	-1933
dio	-1934
▁coord	-1935
▁pie	-1936
▁allemagne	-1937
ètres	-1938
▁ordre	-1939
▁prés	-1940
10	-1941
éh	-1942
lin	-1943
▁dim	-1944
▁glob	-1945
▁ouv	-1946
▁eau	-1947
mment	-1948
oupes	-1949
▁libre	-1950
▁supplément	-1951
vez	-1952
mp	-1953
▁évaluation	-1954
▁répond	-1955
▁mus	-1956
▁concurrence	-1957
▁vac	-1958
▁japonaise	-1959
▁clim	-1960
▁bra	-1961
lette	-1962
▁famille	-1963
sembl	-1964
venir	-1965
▁objet	-1966
ception	-1967
▁italie	-1968
▁utiliser	-1969
▁voud	-1970
▁bal	-1971
▁détaill	-1972
▁blonde	-1973
▁sau	-1974
▁table	-1975
êche	-1976
▁effor	-1977
▁eux	-1978
▁territ	-1979
▁etats	-1980
ension	-1981
▁32	-1982
oires	-1983
trodu	-1984
▁bel	-1985
▁anne	-1986
tir	-1987
▁condu	-1988
ube	-1989
issent	-1990
▁pan	-1991
▁trouve	-1992
▁équipe	-1993
oise	-1994
▁intég	-1995
▁législation	-1996
▁sens	-1997
▁propose	-1998
▁film	-1999
▁principe	-2000
▁efficace	-2001
▁emp	-2002
▁nécessaires	-2003
▁carte	-2004
▁autom	-2005
▁chambre	-2006
ade	-2007
ones	-2008
▁propri	-2009
▁mari	-2010
▁faveur	-2011
▁parmi	-2012
▁propositions	-2013
tré	-2014
▁185	-2015
▁reç	-2016
▁2005	-2017
ting	-2018
▁devraient	-2019
▁visant	-2020
▁bonne	-2021
▁introdu	-2022
▁conta	-2023
▁heure	-2024
▁intégra	-2025
▁2004	-2026
isions	-2027
mar	-2028
▁euros	-2029
▁consommateurs	-2030
ind	-2031
get	-2032
▁jeune	-2033
aît	-2034
▁coû	-2035
▁euro	-2036
▁donné	-2037
▁fondament	-2038
30	-2039
▁ense	-2040
▁européennes	-2041
▁vra	-2042
▁fais	-2043
ok	-2044
tric	-2045
▁intérêt	-2046
ël	-2047
ck	-2048
iennes	-2049
▁enreg	-2050
▁argent	-2051
▁bureau	-2052
,5	-2053
ina	-2054
▁expérien	-2055
unette	-2056
▁arm	-2057
cès	-2058
▁commissaire	-2059
▁pense	-2060
▁techniques	-2061
oque	-2062
ablement	-2063
hn	-2064
▁relative	-2065
dll	-2066
ba	-2067
▁téléchar	-2068
▁ol	-2069
▁affaires	-2070
cter	-2071
sif	-2072
▁différentes	-2073
▁travaux	-2074
nements	-2075
eux	-2076
turb	-2077
▁retour	-2078
▁porte	-2079
▁35	-2080
▁effets	-2081
▁large	-2082
ctives	-2083
▁poursu	-2084
▁ha	-2085
▁2001	-2086
▁gen	-2087
▁offre	-2088
000	-2089
▁encour	-2090
▁détermin	-2091
▁siècle	-2092
▁install	-2093
▁moment	-2094
▁pé	-2095
▁commen	-2096
▁risque	-2097
▁rencon	-2098
rip	-2099
▁atta	-2100
porter	-2101
▁internationale	-2102
▁hor	-2103
alogue	-2104
▁aucune	-2105
▁mine	-2106
▁ensuite	-2107
▁décid	-2108
ports	-2109
▁dési	-2110
▁asiatique	-2111
▁nationales	-2112
grès	-2113
▁institutions	-2114
▁renforcer	-2115
▁compéti	-2116
▁voudrais	-2117
▁ailleurs	-2118
▁lit	-2119
ian	-2120
tières	-2121
▁haut	-2122
▁garantir	-2123
▁crise	-2124
▁chambres	-2125
▁document	-2126
▁tels	-2127
▁trouv	-2128
table	-2129
up	-2130
▁visiteurs	-2131
▁bu	-2132
▁trop	-2133
▁habit	-2134
oix	-2135
▁étudi	-2136
▁innov	-2137
aume	-2138
▁durable	-2139
ards	-2140
▁médica	-2141
▁mieux	-2142
rain	-2143
gar	-2144
▁ci	-2145
▁cam	-2146
▁red	-2147
▁méth	-2148
▁approche	-2149
ède	-2150
tice	-2151
oût	-2152
▁domaines	-2153
pend	-2154
▁valeur	-2155
▁mg	-2156
▁mondiale	-2157
▁devant	-2158
▁propre	-2159
▁initiative	-2160
▁=	-2161
▁là	-2162
▁rais	-2163
▁nécessité	-2164
▁réseau	-2165
cte	-2166
cin	-2167
antage	-2168
▁effectu	-2169
▁réc	-2170
▁population	-2171
▁sû	-2172
cier	-2173
▁lum	-2174
▁séle	-2175
▁travailleurs	-2176
da	-2177
▁arriv	-2178
▁brunette	-2179
▁bâ	-2180
der	-2181
èces	-2182
▁gal	-2183
▁pêche	-2184
▁exploit	-2185
bourg	-2186
▁exist	-2187
ule	-2188
▁compil	-2189
▁accueil	-2190
èce	-2191
▁internet	-2192
▁zone	-2193
▁noir	-2194
▁jeux	-2195
tor	-2196
ige	-2197
ox	-2198
▁efficacité	-2199
▁août	-2200
▁dér	-2201
▁rapporteur	-2202
▁financement	-2203
▁pal	-2204
▁tiers	-2205
cr	-2206
turbation	-2207
ase	-2208
esse	-2209
▁thé	-2210
▁conser	-2211
mm	-2212
isé	-2213
▁solution	-2214
▁adopté	-2215
▁mécan	-2216
▁lux	-2217
▁2002	-2218
▁lesqu	-2219
ik	-2220
▁of	-2221
▁civile	-2222
▁histoire	-2223
▁pren	-2224
tégor	-2225
▁compéten	-2226
▁sujet	-2227
▁requ	-2228
▁origine	-2229
▁tar	-2230
▁convient	-2231
▁peup	-2232
▁participation	-2233
▁fig	-2234
opri	-2235
▁répar	-2236
▁restaur	-2237
▁maj	-2238
▁conver	-2239
ame	-2240
▁capacité	-2241
▁2003	-2242
▁pot	-2243
▁catégor	-2244
ane	-2245
tine	-2246
▁efforts	-2247
▁vieux	-2248
▁avenir	-2249
▁organisation	-2250
vre	-2251
▁petit	-2252
▁église	-2253
▁travers	-2254
actér	-2255
tives	-2256
▁afr	-2257
▁dir	-2258
▁créer	-2259
▁hd	-2260
▁exécu	-2261
▁36	-2262
ess	-2263
▁offici	-2264
▁industrie	-2265
crip	-2266
▁_	-2267
▁pap	-2268
téra	-2269
▁chap	-2270
▁espagne	-2271
fa	-2272
▁sociaux	-2273
▁commerce	-2274
otporn	-2275
▁claire	-2276
ern	-2277
▁paris	-2278
▁éduc	-2279
étés	-2280
▁matér	-2281
iche	-2282
lic	-2283
▁groupes	-2284
▁possibilité	-2285
▁compilation	-2286
▁égard	-2287
▁liber	-2288
▁acqu	-2289
▁nationaux	-2290
▁régul	-2291
▁viol	-2292
▁petits	-2293
▁construction	-2294
▁permettre	-2295
▁lesb	-2296
▁allemand	-2297
ack	-2298
▁appartement	-2299
▁dépl	-2300
▁contrô	-2301
ana	-2302
ilier	-2303
▁livre	-2304
veill	-2305
▁pén	-2306
orm	-2307
▁entraî	-2308
▁technique	-2309
atifs	-2310
dess	-2311
▁“	-2312
▁masturbation	-2313
▁gre	-2314
▁mag	-2315
dition	-2316
▁relations	-2317
▁visité	-2318
▁hu	-2319
▁enfin	-2320
▁î	-2321
▁utilisé	-2322
aître	-2323
▁organisations	-2324
iné	-2325
iner	-2326
▁parc	-2327
▁moi	-2328
gré	-2329
itaires	-2330
▁syn	-2331
▁oe	-2332
aud	-2333
ano	-2334
▁33	-2335
▁budgé	-2336
▁budget	-2337
▁cla	-2338
pression	-2339
▁publique	-2340
▁relatives	-2341
▁études	-2342
▁celles	-2343
▁lutte	-2344
▁concent	-2345
▁cop	-2346
▁éléments	-2347
né	-2348
oses	-2349
▁minu	-2350
-0	-2351
inement	-2352
▁occa	-2353
▁activité	-2354
na	-2355
dic	-2356
▁écrit	-2357
▁suisse	-2358
▁nombreuses	-2359
▁minim	-2360
▁terre	-2361
▁agricul	-2362
ome	-2363
▁espr	-2364
▁vin	-2365
▁dan	-2366
▁cinq	-2367
▁super	-2368
▁étude	-2369
▁portu	-2370
▁donner	-2371
ides	-2372
ast	-2373
▁tard	-2374
▁blanc	-2375
▁gaz	-2376
▁fre	-2377
▁modèle	-2378
▁publics	-2379
urent	-2380
▁supérie	-2381
▁45	-2382
▁répon	-2383
▁gé	-2384
▁rob	-2385
▁lis	-2386
usion	-2387
arg	-2388
ball	-2389
▁salle	-2390
ège	-2391
bur	-2392
.6	-2393
▁”	-2394
▁popul	-2395
▁sélection	-2396
▁appropri	-2397
▁partenaires	-2398
▁plupart	-2399
▁rece	-2400
▁prog	-2401
▁sex	-2402
▁analyse	-2403
▁brit	-2404
ration	-2405
▁normes	-2406
▁cy	-2407
▁histor	-2408
▁sac	-2409
▁tel	-2410
▁rapp	-2411
▁réunion	-2412
▁assembl	-2413
mb	-2414
▁del	-2415
▁précéd	-2416
▁contrib	-2417
▁troisième	-2418
▁font	-2419
▁royaume	-2420
ologie	-2421
▁lequel	-2422
▁vig	-2423
▁lorsqu	-2424
ensi	-2425
▁meilleur	-2426
▁agric	-2427
▁34	-2428
ai	-2429
▁volon	-2430
▁prend	-2431
▁réalité	-2432
▁voie	-2433
▁isra	-2434
même	-2435
ori	-2436
vation	-2437
▁voix	-2438
▁cause	-2439
▁arch	-2440
▁conte	-2441
▁nationale	-2442
▁soulign	-2443
▁êtes	-2444
▁métho	-2445
anche	-2446
▁caractér	-2447
onnes	-2448
▁répub	-2449
▁major	-2450
▁brux	-2451
▁os	-2452
▁mic	-2453
▁dialogue	-2454
▁procédures	-2455
▁195	-2456
▁jamais	-2457
ancer	-2458
▁amb	-2459
▁disponibles	-2460
ariat	-2461
▁durant	-2462
art	-2463
▁espagn	-2464
▁texte	-2465
oins	-2466
▁crit	-2467
▁coûts	-2468
istance	-2469
▁bois	-2470
icile	-2471
▁juridique	-2472
▁seule	-2473
▁60	-2474
titue	-2475
oul	-2476
▁davantage	-2477
resp	-2478
iée	-2479
▁bruxelles	-2480
▁financière	-2481
▁protég	-2482
▁industri	-2483
▁intégration	-2484
atoire	-2485
tim	-2486
éc	-2487
▁qual	-2488
▁capit	-2489
▁incl	-2490
▁république	-2491
▁ge	-2492
▁pratiques	-2493
▁réduire	-2494
▁section	-2495
▁air	-2496
▁chac	-2497
▁importante	-2498
vous	-2499
êmes	-2500
inte	-2501
▁club	-2502
▁exerc	-2503
▁amar	-2504
▁estime	-2505
▁britann	-2506
iés	-2507
▁new	-2508
▁besoins	-2509
val	-2510
▁moyens	-2511
▁phil	-2512
izz	-2513
temps	-2514
▁présidence	-2515
▁justice	-2516
▁chem	-2517
▁pier	-2518
▁ro	-2519
▁maxim	-2520
▁rapidement	-2521
▁constitue	-2522
▁but	-2523
onique	-2524
▁let	-2525
▁progrès	-2526
▁générale	-2527
arité	-2528
itable	-2529
▁photo	-2530
▁administration	-2531
▁cm	-2532
ules	-2533
cture	-2534
▁père	-2535
▁nature	-2536
▁branlette	-2537
▁gratuit	-2538
▁suffis	-2539
son	-2540
ilib	-2541
tiss	-2542
▁transpar	-2543
pé	-2544
▁grandes	-2545
▁occasion	-2546
ologique	-2547
▁vir	-2548
formes	-2549
▁élev	-2550
▁instruments	-2551
▁potenti	-2552
▁roi	-2553
▁solo	-2554
▁dess	-2555
▁six	-2556
▁exclu	-2557
usement	-2558
▁gotporn	-2559
▁ancien	-2560
▁pratique	-2561
tal	-2562
▁régime	-2563
cteurs	-2564
▁erre	-2565
▁termes	-2566
▁ras	-2567
▁cuis	-2568
▁véh	-2569
▁référence	-2570
tout	-2571
▁méde	-2572
resse	-2573
▁positi	-2574
hait	-2575
ini	-2576
▁telle	-2577
▁cu	-2578
▁conne	-2579
▁souhait	-2580
▁code	-2581
▁fisc	-2582
cs	-2583
▁statis	-2584
asse	-2585
▁subst	-2586
▁disponible	-2587
▁résolution	-2588
▁choix	-2589
▁attention	-2590
▁promouv	-2591
▁tradu	-2592
▁indépend	-2593
▁39	-2594
▁chine	-2595
▁obtenir	-2596
▁quelque	-2597
▁autorité	-2598
▁considéra	-2599
▁médi	-2600
▁association	-2601
aisse	-2602
▁surtout	-2603
▁contexte	-2604
▁spécifiques	-2605
▁corresp	-2606
▁pens	-2607
▁poursuiv	-2608
▁exigences	-2609
▁réduction	-2610
-20	-2611
▁tourn	-2612
▁considér	-2613
tt	-2614
▁éducation	-2615
▁amarill	-2616
▁193	-2617
▁alb	-2618
▁iden	-2619
▁articles	-2620
▁extérieur	-2621
▁vacances	-2622
▁envoy	-2623
▁37	-2624
▁lou	-2625
▁38	-2626
▁transf	-2627
▁étrang	-2628
▁correspond	-2629
▁fron	-2630
cident	-2631
▁haute	-2632
▁second	-2633
▁accomp	-2634
▁nuit	-2635
▁cercl	-2636
▁scien	-2637
▁durée	-2638
▁semble	-2639
▁côté	-2640
▁ul	-2641
▁art	-2642
atisf	-2643
▁charge	-2644
▁ministre	-2645
lande	-2646
▁réponse	-2647
▁version	-2648
▁scientif	-2649
▁oppos	-2650
▁responsabilité	-2651
▁intéress	-2652
▁entend	-2653
▁principes	-2654
▁structur	-2655
▁sais	-2656
▁compar	-2657
▁corps	-2658
.8	-2659
▁russie	-2660
▁juste	-2661
▁van	-2662
▁typ	-2663
▁prise	-2664
dame	-2665
trer	-2666
13	-2667
▁om	-2668
▁souha	-2669
▁esprit	-2670
▁multi	-2671
ung	-2672
▁situé	-2673
▁59	-2674
▁vari	-2675
olutions	-2676
rière	-2677
▁audi	-2678
▁énergé	-2679
▁secteurs	-2680
tionnel	-2681
cé	-2682
▁pauv	-2683
▁infras	-2684
▁port	-2685
▁chose	-2686
ft	-2687
▁mun	-2688
▁fonctionnement	-2689
▁stock	-2690
▁évé	-2691
▁voyage	-2692
15	-2693
▁infrastruct	-2694
▁sexe	-2695
ître	-2696
ignes	-2697
▁naturel	-2698
▁fo	-2699
▁assemblée	-2700
aul	-2701
rie	-2702
▁expérience	-2703
▁hy	-2704
▁aérop	-2705
▁soutenir	-2706
▁espace	-2707
▁promo	-2708
▁tex	-2709
▁1999	-2710
▁actuelle	-2711
▁amarillas	-2712
▁convention	-2713
we	-2714
▁loi	-2715
▁promouvoir	-2716
sh	-2717
ara	-2718
▁fabr	-2719
▁taille	-2720
ville	-2721
did	-2722
▁termin	-2723
▁risques	-2724
▁feu	-2725
▁donne	-2726
▁meilleure	-2727
▁outil	-2728
isée	-2729
térieure	-2730
▁minettes	-2731
▁satisf	-2732
▁mot	-2733
▁vu	-2734
▁changement	-2735
▁44	-2736
▁impact	-2737
▁voiture	-2738
▁négociations	-2739
titude	-2740
▁investissements	-2741
▁tota	-2742
▁amendement	-2743
▁jean	-2744
▁mess	-2745
tell	-2746
▁cultur	-2747
▁extr	-2748
18	-2749
▁éviter	-2750
▁atteindre	-2751
▁envis	-2752
ada	-2753
▁conférence	-2754
▁aider	-2755
▁sour	-2756
quie	-2757
.7	-2758
ids	-2759
▁poss	-2760
▁décisions	-2761
▁paix	-2762
▁fichier	-2763
▁animaux	-2764
▁ill	-2765
▁modifier	-2766
otte	-2767
▁augmentation	-2768
ogne	-2769
▁jés	-2770
▁employ	-2771
▁fichiers	-2772
▁bat	-2773
leurs	-2774
▁certain	-2775
iff	-2776
▁harmon	-2777
irm	-2778
▁quo	-2779
▁direction	-2780
ach	-2781
▁accords	-2782
▁aura	-2783
▁suivi	-2784
▁distribu	-2785
▁suivant	-2786
▁remar	-2787
▁observ	-2788
mission	-2789
▁petite	-2790
▁55	-2791
▁vidéos	-2792
▁dépens	-2793
rés	-2794
▁investissement	-2795
▁én	-2796
▁anci	-2797
fic	-2798
▁cat	-2799
14	-2800
action	-2801
▁photos	-2802
▁rendre	-2803
▁dernières	-2804
▁reven	-2805
▁class	-2806
org	-2807
▁route	-2808
▁châ	-2809
▁personnel	-2810
uve	-2811
▁sorte	-2812
▁consta	-2813
tivité	-2814
▁inten	-2815
▁amendements	-2816
▁•	-2817
cteur	-2818
▁grands	-2819
▁lé	-2820
▁telles	-2821
▁mouve	-2822
pré	-2823
▁qualif	-2824
▁statu	-2825
▁tenu	-2826
▁examen	-2827
▁acheter	-2828
▁surveill	-2829
▁chau	-2830
▁continu	-2831
rez	-2832
▁48	-2833
▁passe	-2834
▁équip	-2835
berg	-2836
▁vit	-2837
▁communautaires	-2838
▁consomm	-2839
▁niveaux	-2840
▁élarg	-2841
▁critères	-2842
▁collabor	-2843
tification	-2844
▁aides	-2845
▁zones	-2846
ino	-2847
▁stu	-2848
▁facil	-2849
ains	-2850
▁devient	-2851
▁madame	-2852
▁territoire	-2853
▁mach	-2854
œur	-2855
▁ling	-2856
▁candid	-2857
▁pen	-2858
▁école	-2859
▁annexe	-2860
pens	-2861
99	-2862
▁dos	-2863
▁amélioration	-2864
▁vote	-2865
primer	-2866
▁cuisine	-2867
auche	-2868
▁transports	-2869
▁artis	-2870
▁bus	-2871
▁ara	-2872
▁logici	-2873
▁mass	-2874
▁́	-2875
▁jésus	-2876
▁aurait	-2877
▁vigueur	-2878
▁paie	-2879
▁0,	-2880
aï	-2881
▁46	-2882
▁minutes	-2883
▁importants	-2884
ates	-2885
clé	-2886
▁mat	-2887
▁âge	-2888
teau	-2889
▁caract	-2890
▁financiers	-2891
▁voul	-2892
▁station	-2893
ouse	-2894
▁créd	-2895
pects	-2896
▁hé	-2897
▁puiss	-2898
▁progres	-2899
endra	-2900
▁couple	-2901
▁culture	-2902
▁innovation	-2903
▁ach	-2904
▁succès	-2905
▁̈	-2906
▁affe	-2907
▁42	-2908
gence	-2909
▁bâti	-2910
▁adoption	-2911
▁profonde	-2912
▁quant	-2913
iance	-2914
11	-2915
▁autr	-2916
▁évent	-2917
▁permettant	-2918
▁angl	-2919
▁compagn	-2920
rant	-2921
▁calend	-2922
bun	-2923
rées	-2924
▁essentiel	-2925
▁cro	-2926
▁rien	-2927
istiques	-2928
imes	-2929
▁intérêts	-2930
▁enregis	-2931
▁interne	-2932
ret	-2933
▁43	-2934
▁changements	-2935
ho	-2936
bas	-2937
▁origin	-2938
▁conséquent	-2939
▁aller	-2940
▁her	-2941
▁université	-2942
▁émis	-2943
▁mariti	-2944
iennent	-2945
▁immédi	-2946
lev	-2947
▁you	-2948
adi	-2949
▁dix	-2950
▁difficul	-2951
▁écr	-2952
ith	-2953
▁peuple	-2954
▁80	-2955
▁classe	-2956
▁radio	-2957
jo	-2958
tas	-2959
▁autant	-2960
trait	-2961
▁liberté	-2962
▁saison	-2963
40	-2964
pes	-2965
▁deven	-2966
▁collèg	-2967
▁réforme	-2968
▁directement	-2969
cent	-2970
oss	-2971
▁accr	-2972
▁manif	-2973
uni	-2974
icité	-2975
▁final	-2976
▁192	-2977
▁aspects	-2978
▁quar	-2979
▁jouer	-2980
▁consac	-2981
▁phy	-2982
▁initiatives	-2983
16	-2984
▁fille	-2985
▁pouvons	-2986
▁clairement	-2987
bonne	-2988
èque	-2989
▁relig	-2990
▁nations	-2991
▁contribuer	-2992
▁circul	-2993
▁discus	-2994
▁da	-2995
▁enqu	-2996
▁sensi	-2997
▁bul	-2998
▁couver	-2999
dan	-3000
▁vendre	-3001
gique	-3002
▁secré	-3003
ii	-3004
ick	-3005
▁ét	-3006
▁rue	-3007
▁57	-3008
za	-3009
▁détaillée	-3010
▁56	-3011
▁rep	-3012
▁terr	-3013
▁90	-3014
▁tes	-3015
▁passé	-3016
▁difficile	-3017
▁ml	-3018
▁ait	-3019
face	-3020
▁str	-3021
▁image	-3022
▁49	-3023
▁sav	-3024
ventions	-3025
olf	-3026
▁grosses	-3027
▁lignes	-3028
▁coordination	-3029
▁pc	-3030
▁calendrier	-3031
▁dimin	-3032
▁emplois	-3033
tures	-3034
lez	-3035
▁avaient	-3036
▁fréqu	-3037
▁58	-3038
▁faible	-3039
▁communes	-3040
▁évolution	-3041
▁perspe	-3042
yle	-3043
▁compétences	-3044
▁iv	-3045
▁majorité	-3046
▁hong	-3047
▁développer	-3048
▁agence	-3049
▁plut	-3050
▁petites	-3051
▁contenu	-3052
▁souhaite	-3053
▁contient	-3054
cre	-3055
arre	-3056
▁financier	-3057
▁cath	-3058
cam	-3059
▁montre	-3060
▁rapports	-3061
▁bénéfic	-3062
orge	-3063
enn	-3064
reté	-3065
▁$	-3066
▁riv	-3067
▁pil	-3068
▁pourraient	-3069
moins	-3070
▁principaux	-3071
▁obs	-3072
▁française	-3073
erts	-3074
eurs	-3075
▁acces	-3076
▁rac	-3077
▁applic	-3078
ows	-3079
▁propres	-3080
tic	-3081
▁britannique	-3082
▁hol	-3083
▁journal	-3084
▁félic	-3085
▁ble	-3086
ibilité	-3087
▁souff	-3088
cial	-3089
exuelle	-3090
▁principal	-3091
▁uniquement	-3092
▁#	-3093
▁54	-3094
▁plage	-3095
▁bord	-3096
▁jizz	-3097
▁centrale	-3098
▁arrê	-3099
▁prot	-3100
mun	-3101
▁pou	-3102
bunker	-3103
▁tor	-3104
▁criti	-3105
▁jizzbunker	-3106
▁équilib	-3107
▁chin	-3108
▁mètres	-3109
pro	-3110
▁norm	-3111
rage	-3112
▁toi	-3113
ron	-3114
▁jouets	-3115
▁pme	-3116
▁désig	-3117
▁résid	-3118
▁fi	-3119
éral	-3120
▁poids	-3121
tiche	-3122
▁mos	-3123
ust	-3124
èse	-3125
▁chef	-3126
ky	-3127
.9	-3128
▁portug	-3129
tration	-3130
▁israël	-3131
▁surveillance	-3132
▁délég	-3133
▁moyenne	-3134
▁logement	-3135
▁ec	-3136
▁vente	-3137
▁vporn	-3138
▁séjour	-3139
▁raisons	-3140
▁immobilier	-3141
▁transexuelle	-3142
▁seigne	-3143
▁déclaration	-3144
ry	-3145
ork	-3146
▁att	-3147
▁maje	-3148
▁enseigne	-3149
ister	-3150
▁instrument	-3151
▁prob	-3152
vidu	-3153
▁lisbonne	-3154
igh	-3155
▁coh	-3156
▁russe	-3157
▁influ	-3158
▁tag	-3159
▁banque	-3160
▁dol	-3161
▁passer	-3162
▁réseaux	-3163
▁bain	-3164
▁individu	-3165
▁technologies	-3166
▁plutôt	-3167
▁valeurs	-3168
32	-3169
▁47	-3170
▁dll	-3171
▁pièces	-3172
▁location	-3173
▁laiss	-3174
▁simple	-3175
▁cee	-3176
▁réserve	-3177
▁corre	-3178
▁engagement	-3179
▁navig	-3180
▁pros	-3181
▁retr	-3182
▁époque	-3183
▁chacun	-3184
▁force	-3185
▁ste	-3186
▁compétitivité	-3187
lai	-3188
▁hyp	-3189
▁entière	-3190
▁budgétaire	-3191
vité	-3192
▁mand	-3193
étaire	-3194
▁longue	-3195
▁patr	-3196
isant	-3197
▁renforce	-3198
▁inde	-3199
lif	-3200
yer	-3201
▁lumière	-3202
▁mission	-3203
anie	-3204
▁fournir	-3205
▁préf	-3206
▁établissement	-3207
▁seconde	-3208
vrette	-3209
▁gens	-3210
▁consommation	-3211
do	-3212
▁compét	-3213
ss	-3214
▁tent	-3215
▁prises	-3216
▁tend	-3217
▁agriculture	-3218
▁lesbiennes	-3219
▁langue	-3220
▁52	-3221
▁vérif	-3222
ternel	-3223
▁allemande	-3224
tile	-3225
▁pierre	-3226
▁rouge	-3227
mage	-3228
▁etc	-3229
▁dose	-3230
▁ben	-3231
▁sociétés	-3232
▁village	-3233
▁uni	-3234
▁décidé	-3235
dit	-3236
▁île	-3237
▁ceci	-3238
▁christ	-3239
tements	-3240
▁attend	-3241
▁caractère	-3242
▁1,	-3243
▁préoc	-3244
ga	-3245
▁prévoit	-3246
▁vois	-3247
▁promotion	-3248
▁réalisation	-3249
▁erreur	-3250
▁spécifique	-3251
▁fort	-3252
▁dépenses	-3253
▁représente	-3254
▁chemin	-3255
▁échange	-3256
▁ton	-3257
▁vend	-3258
▁suivants	-3259
▁excell	-3260
▁couv	-3261
▁quanti	-3262
▁détails	-3263
▁70	-3264
▁pov	-3265
▁renouv	-3266
▁équitation	-3267
▁délai	-3268
▁aéroport	-3269
▁rome	-3270
▁sil	-3271
▁seigneur	-3272
▁choses	-3273
▁élevé	-3274
▁clair	-3275
▁répondre	-3276
▁41	-3277
▁cab	-3278
▁féd	-3279
▁terrain	-3280
▁ps	-3281
▁travaill	-3282
sez	-3283
▁présenter	-3284
▁afrique	-3285
▁utilisateurs	-3286
▁principalement	-3287
▁levrette	-3288
▁disposition	-3289
▁publiques	-3290
itre	-3291
▁américain	-3292
▁confiance	-3293
▁jard	-3294
▁dra	-3295
▁propor	-3296
▁téléph	-3297
▁manque	-3298
▁énergétique	-3299
▁mens	-3300
▁couleur	-3301
ico	-3302
▁exten	-3303
utés	-3304
▁loin	-3305
▁auprès	-3306
▁autour	-3307
▁transform	-3308
▁eg	-3309
▁190	-3310
▁sûr	-3311
sible	-3312
ora	-3313
▁rub	-3314
fond	-3315
▁extra	-3316
▁xxx	-3317
▁sociales	-3318
▁pisc	-3319
▁tal	-3320
ros	-3321
▁bil	-3322
▁beauté	-3323
▁cohésion	-3324
▁mur	-3325
▁confl	-3326
▁financières	-3327
▁iss	-3328
cription	-3329
▁émissions	-3330
▁gauche	-3331
▁apporter	-3332
▁supplémentaires	-3333
▁mondial	-3334
▁rich	-3335
▁contribution	-3336
▁actuel	-3337
anges	-3338
▁franc	-3339
tait	-3340
▁médicaments	-3341
▁fémin	-3342
▁tradi	-3343
▁publié	-3344
tionnelle	-3345
bilités	-3346
▁défense	-3347
èles	-3348
▁cos	-3349
▁rur	-3350
▁parfois	-3351
▁53	-3352
▁établir	-3353
dire	-3354
usse	-3355
▁éto	-3356
uide	-3357
▁stabilité	-3358
join	-3359
▁adresse	-3360
▁contraire	-3361
▁musique	-3362
▁anglais	-3363
▁2017	-3364
ètes	-3365
▁tarif	-3366
vers	-3367
tan	-3368
60	-3369
▁ã	-3370
▁active	-3371
80	-3372
▁fetiche	-3373
▁recours	-3374
▁villes	-3375
▁sport	-3376
25	-3377
▁priorités	-3378
▁perform	-3379
▁fonc	-3380
▁néan	-3381
▁néanmoins	-3382
▁tran	-3383
▁court	-3384
▁marque	-3385
▁cé	-3386
itée	-3387
oz	-3388
icules	-3389
▁hier	-3390
▁foot	-3391
vis	-3392
▁tom	-3393
▁repos	-3394
▁acteurs	-3395
▁réglementation	-3396
▁adhésion	-3397
▁appu	-3398
▁clients	-3399
ja	-3400
▁human	-3401
▁tâ	-3402
▁forte	-3403
▁montant	-3404
▁représentants	-3405
▁premiers	-3406
▁sang	-3407
étique	-3408
▁importantes	-3409
▁source	-3410
▁frais	-3411
▁alli	-3412
▁extrême	-3413
▁perman	-3414
▁tempéra	-3415
cel	-3416
▁fu	-3417
▁partenariat	-3418
▁mété	-3419
▁évid	-3420
▁danger	-3421
asme	-3422
▁mig	-3423
▁gard	-3424
del	-3425
uf	-3426
▁fournit	-3427
▁présence	-3428
▁iii	-3429
▁mou	-3430
▁établi	-3431
ym	-3432
istique	-3433
▁bouche	-3434
issements	-3435
▁adopter	-3436
▁catégorie	-3437
cide	-3438
▁pom	-3439
▁tenir	-3440
▁connaiss	-3441
▁appare	-3442
▁résultat	-3443
▁commande	-3444
▁moder	-3445
▁ouverture	-3446
▁engag	-3447
▁cra	-3448
go	-3449
cad	-3450
▁suivantes	-3451
▁préoccup	-3452
bes	-3453
▁demander	-3454
▁intervention	-3455
▁cru	-3456
▁malgré	-3457
▁sommet	-3458
iant	-3459
▁lin	-3460
▁lanc	-3461
▁fonctionn	-3462
▁types	-3463
▁exercice	-3464
ed	-3465
▁vise	-3466
▁documents	-3467
▁obligations	-3468
▁mère	-3469
▁chiff	-3470
▁formul	-3471
▁phar	-3472
uille	-3473
▁bate	-3474
▁solutions	-3475
▁champion	-3476
▁tax	-3477
▁consci	-3478
▁présenté	-3479
▁exécution	-3480
▁généralement	-3481
▁définition	-3482
▁nouvel	-3483
▁trib	-3484
▁idé	-3485
▁espagnol	-3486
▁ep	-3487
▁élément	-3488
▁proposé	-3489
▁berlin	-3490
chets	-3491
▁lesquels	-3492
ologiques	-3493
▁inclu	-3494
acement	-3495
▁gam	-3496
▁continuer	-3497
acer	-3498
▁sci	-3499
▁quelle	-3500
▁permis	-3501
▁habitants	-3502
▁marchand	-3503
▁q	-3504
▁véhicules	-3505
▁500	-3506
▁liés	-3507
▁bio	-3508
▁idée	-3509
▁stand	-3510
▁rappel	-3511
▁internationales	-3512
dia	-3513
▁phase	-3514
▁rester	-3515
▁connu	-3516
▁étoiles	-3517
gh	-3518
▁®	-3519
▁fru	-3520
▁possibilités	-3521
▁élimin	-3522
mettre	-3523
▁déclaré	-3524
▁prochaine	-3525
main	-3526
▁vert	-3527
▁enfant	-3528
▁piscine	-3529
▁conséquences	-3530
▁victi	-3531
▁conclusions	-3532
▁modification	-3533
▁tags	-3534
▁voyeur	-3535
ash	-3536
cal	-3537
▁infrastructures	-3538
tagne	-3539
▁villa	-3540
▁mouvement	-3541
▁malad	-3542
gg	-3543
▁via	-3544
▁matéri	-3545
▁command	-3546
▁vraiment	-3547
▁amour	-3548
▁sorti	-3549
▁véritable	-3550
▁dispar	-3551
▁ja	-3552
▁précis	-3553
▁approuv	-3554
▁connaissance	-3555
▁élections	-3556
▁ferr	-3557
▁dépend	-3558
▁télécharger	-3559
▁prim	-3560
▁armée	-3561
vie	-3562
▁sl	-3563
erme	-3564
▁comprend	-3565
▁regard	-3566
▁mich	-3567
▁reçu	-3568
▁château	-3569
▁livrais	-3570
▁appliquer	-3571
▁it	-3572
ature	-3573
▁1998	-3574
ague	-3575
▁coût	-3576
▁vas	-3577
▁venir	-3578
▁combat	-3579
olique	-3580
oqu	-3581
▁milieu	-3582
▁étend	-3583
▁siège	-3584
▁exploitation	-3585
ontal	-3586
▁simil	-3587
▁responsable	-3588
▁simplement	-3589
andis	-3590
▁avantages	-3591
▁kg	-3592
lier	-3593
▁park	-3594
▁signific	-3595
den	-3596
▁confir	-3597
sivement	-3598
▁signifie	-3599
▁occup	-3600
▁attribu	-3601
▁milliards	-3602
▁turquie	-3603
▁élaboration	-3604
▁tête	-3605
▁transparence	-3606
térieures	-3607
bal	-3608
▁identif	-3609
▁ferme	-3610
▁lac	-3611
▁atteint	-3612
▁deme	-3613
▁départ	-3614
▁simplif	-3615
▁assez	-3616
nous	-3617
▁trafic	-3618
▁protéger	-3619
▁renforcement	-3620
ars	-3621
▁acier	-3622
▁hors	-3623
▁premières	-3624
ènes	-3625
agers	-3626
▁sépar	-3627
▁pression	-3628
▁volonté	-3629
▁cœur	-3630
▁médecin	-3631
▁statut	-3632
19	-3633
▁note	-3634
▁tube	-3635
▁exis	-3636
▁structure	-3637
▁conten	-3638
▁wil	-3639
blement	-3640
ctivement	-3641
ètre	-3642
▁bour	-3643
▁senti	-3644
▁condition	-3645
▁don	-3646
▁mode	-3647
yr	-3648
▁corr	-3649
▁ordin	-3650
▁historique	-3651
▁concep	-3652
▁surface	-3653
▁chaî	-3654
iez	-3655
▁égalité	-3656
▁importe	-3657
▁75	-3658
▁maritime	-3659
icaine	-3660
▁mac	-3661
droit	-3662
vision	-3663
rons	-3664
▁avanc	-3665
▁médic	-3666
▁veut	-3667
▁musée	-3668
▁nuclé	-3669
▁den	-3670
ek	-3671
17	-3672
▁comprim	-3673
▁découv	-3674
▁travailler	-3675
mique	-3676
▁événements	-3677
telles	-3678
▁pieds	-3679
▁chauss	-3680
oite	-3681
▁sembl	-3682
▁oeuvre	-3683
▁utilisés	-3684
▁réformes	-3685
▁démocratie	-3686
jus	-3687
▁capital	-3688
▁étape	-3689
▁pleinement	-3690
isez	-3691
▁chô	-3692
▁amérique	-3693
▁consultation	-3694
onie	-3695
▁chapitre	-3696
▁italien	-3697
isent	-3698
▁accro	-3699
▁acquis	-3700
▁presse	-3701
▁signal	-3702
▁lab	-3703
▁directeur	-3704
orde	-3705
atéra	-3706
▁indis	-3707
▁tableau	-3708
▁breve	-3709
▁latine	-3710
oll	-3711
▁incid	-3712
▁train	-3713
▁hand	-3714
isées	-3715
▁endroit	-3716
▁partage	-3717
▁emb	-3718
▁attra	-3719
▁bénéfici	-3720
▁album	-3721
▁spécialis	-3722
▁tandis	-3723
dé	-3724
▁dirige	-3725
▁dyn	-3726
cons	-3727
▁webcam	-3728
isés	-3729
▁frontières	-3730
▁musi	-3731
▁solid	-3732
▁terror	-3733
▁déchets	-3734
▁continue	-3735
▁nour	-3736
▁considère	-3737
▁défis	-3738
landais	-3739
▁bleu	-3740
▁adéqu	-3741
▁conç	-3742
▁participer	-3743
▁impliqu	-3744
▁rencontre	-3745
▁porta	-3746
▁comté	-3747
ovi	-3748
otube	-3749
▁archite	-3750
▁presque	-3751
▁immig	-3752
tionnels	-3753
ive	-3754
▁difficultés	-3755
▁mob	-3756
▁mi	-3757
▁lut	-3758
ama	-3759
▁caf	-3760
▁insu	-3761
ésil	-3762
illon	-3763
▁chim	-3764
▁john	-3765
▁provin	-3766
▁numéro	-3767
▁xxxdan	-3768
▁éb	-3769
▁livraison	-3770
▁—	-3771
▁dist	-3772
▁dû	-3773
▁commence	-3774
ium	-3775
▁uk	-3776
▁dispose	-3777
▁fournisse	-3778
▁vient	-3779
▁bé	-3780
▁fonctions	-3781
▁fixer	-3782
▁ajouter	-3783
▁encourager	-3784
▁dén	-3785
▁compati	-3786
▁souligne	-3787
▁éternel	-3788
▁propriété	-3789
▁furent	-3790
tons	-3791
▁volu	-3792
▁espère	-3793
▁assistance	-3794
iterran	-3795
▁ham	-3796
▁ru	-3797
▁wind	-3798
dessus	-3799
sa	-3800
▁magn	-3801
▁organismes	-3802
tex	-3803
▁clar	-3804
▁dimension	-3805
ormais	-3806
▁régional	-3807
▁gouvernements	-3808
rimin	-3809
▁priorité	-3810
▁aim	-3811
▁faisant	-3812
▁extension	-3813
▁désormais	-3814
arretelles	-3815
▁moteur	-3816
cepti	-3817
▁tourisme	-3818
ué	-3819
▁central	-3820
▁milliers	-3821
70	-3822
▁relatif	-3823
▁développ	-3824
▁recommandations	-3825
mail	-3826
▁grèce	-3827
ctor	-3828
▁brésil	-3829
▁agricole	-3830
car	-3831
▁jardin	-3832
▁inférie	-3833
▁statistique	-3834
▁dépos	-3835
▁lingerie	-3836
▁51	-3837
▁collègues	-3838
ote	-3839
88	-3840
▁privé	-3841
▁complète	-3842
▁créé	-3843
▁puisse	-3844
▁augmenter	-3845
▁brav	-3846
uels	-3847
▁belgique	-3848
▁expr	-3849
▁conséquence	-3850
itié	-3851
▁opérations	-3852
▁max	-3853
▁bais	-3854
▁péné	-3855
▁ram	-3856
▁domin	-3857
▁message	-3858
▁élargissement	-3859
mann	-3860
▁plate	-3861
▁noires	-3862
▁calcul	-3863
▁droite	-3864
▁absence	-3865
▁sources	-3866
▁cherche	-3867
▁médicament	-3868
fort	-3869
▁fête	-3870
▁démon	-3871
▁secrétaire	-3872
oudre	-3873
▁ouvert	-3874
▁devenir	-3875
▁insuffis	-3876
▁mentionn	-3877
▁présidente	-3878
▁commentaires	-3879
▁renouvel	-3880
▁sept	-3881
▁graph	-3882
▁réaliser	-3883
▁transfr	-3884
pa	-3885
▁prévu	-3886
▁suivante	-3887
▁pied	-3888
▁ed	-3889
▁carre	-3890
90	-3891
▁fins	-3892
▁puissance	-3893
▁circulation	-3894
crit	-3895
quet	-3896
▁lien	-3897
▁fondamentaux	-3898
▁mex	-3899
iteur	-3900
▁trou	-3901
▁urb	-3902
atement	-3903
▁choisir	-3904
▁orgasme	-3905
-3	-3906
▁traités	-3907
▁lond	-3908
▁annonc	-3909
erai	-3910
▁unies	-3911
▁jarretelles	-3912
ute	-3913
▁quit	-3914
▁longtemps	-3915
▁accom	-3916
▁complément	-3917
▁impl	-3918
▁méthode	-3919
▁coordonn	-3920
porno	-3921
▁députés	-3922
▁enseignement	-3923
▁invite	-3924
▁accompl	-3925
▁échanges	-3926
▁flex	-3927
▁appelle	-3928
▁enseign	-3929
▁faciliter	-3930
uré	-3931
gen	-3932
▁poste	-3933
▁langues	-3934
ça	-3935
▁vols	-3936
gements	-3937
▁échelle	-3938
oie	-3939
▁reti	-3940
▁trouvé	-3941
▁potentiel	-3942
uvres	-3943
énage	-3944
▁biens	-3945
▁préparation	-3946
▁flor	-3947
▁suscepti	-3948
illa	-3949
▁cerclages	-3950
▁jud	-3951
▁obsta	-3952
gés	-3953
ola	-3954
▁dég	-3955
ares	-3956
▁ger	-3957
hr	-3958
▁sam	-3959
▁usage	-3960
▁ip	-3961
▁pac	-3962
cemment	-3963
mette	-3964
▁clit	-3965
▁étro	-3966
▁plans	-3967
▁tch	-3968
▁autriche	-3969
▁lesquelles	-3970
▁pauvreté	-3971
▁récemment	-3972
atie	-3973
▁boî	-3974
▁concernés	-3975
▁doute	-3976
▁redtube	-3977
▁na	-3978
▁unité	-3979
▁habitu	-3980
▁globale	-3981
▁300	-3982
▁mercre	-3983
▁proche	-3984
▁bravotube	-3985
ismes	-3986
dom	-3987
▁permettra	-3988
▁proven	-3989
▁collaboration	-3990
▁2020	-3991
▁mêmes	-3992
▁contact	-3993
ena	-3994
▁justif	-3995
▁éjac	-3996
▁faciale	-3997
▁lic	-3998
▁exer	-3999
▁infe	-4000
umer	-4001
▁dipl	-4002
▁dollar	-4003
ographique	-4004
▁affich	-4005
▁directives	-4006
▁mercredi	-4007
▁militaire	-4008
▁spec	-4009
vent	-4010
▁prol	-4011
itent	-4012
▁mobilité	-4013
vain	-4014
tionnelles	-4015
▁dossi	-4016
▁opport	-4017
▁immédiatement	-4018
▁ord	-4019
▁parole	-4020
onna	-4021
pect	-4022
▁appartements	-4023
▁reconnaissance	-4024
▁portant	-4025
heure	-4026
▁poil	-4027
▁indiqu	-4028
▁dispositi	-4029
▁exposition	-4030
uration	-4031
▁douche	-4032
▁suivre	-4033
▁isl	-4034
▁minis	-4035
▁enquête	-4036
▁électronique	-4037
▁empê	-4038
sement	-4039
▁clin	-4040
▁exprim	-4041
▁inje	-4042
▁humaine	-4043
ms	-4044
▁contrat	-4045
itant	-4046
▁autorisation	-4047
ley	-4048
▁1997	-4049
▁modifications	-4050
▁comprendre	-4051
tidi	-4052
▁candidats	-4053
oyer	-4054
▁préser	-4055
tence	-4056
▁mign	-4057
old	-4058
▁windows	-4059
joint	-4060
▁mariage	-4061
▁massage	-4062
▁forces	-4063
▁maladie	-4064
▁luxem	-4065
▁filles	-4066
▁interr	-4067
▁collège	-4068
▁spécial	-4069
racial	-4070
▁formes	-4071
▁professionnelle	-4072
ya	-4073
ida	-4074
▁vites	-4075
▁von	-4076
istan	-4077
▁garantie	-4078
rique	-4079
▁yeux	-4080
▁concr	-4081
cté	-4082
▁comprom	-4083
▁meilleurs	-4084
▁principales	-4085
▁sperme	-4086
▁adul	-4087
▁villas	-4088
▁images	-4089
▁poursuivre	-4090
iver	-4091
oun	-4092
emale	-4093
▁technologie	-4094
▁complet	-4095
▁ancienne	-4096
▁lettre	-4097
▁campagne	-4098
▁constituent	-4099
▁démar	-4100
▁etat	-4101
▁soins	-4102
▁essay	-4103
lie	-4104
▁parler	-4105
▁diverses	-4106
▁pous	-4107
▁paul	-4108
▁1996	-4109
▁quotidi	-4110
▁obligation	-4111
ly	-4112
ram	-4113
nés	-4114
▁tre	-4115
érée	-4116
▁matériel	-4117
▁kar	-4118
▁retra	-4119
▁hér	-4120
▁sin	-4121
▁gode	-4122
nie	-4123
▁bol	-4124
▁cre	-4125
terie	-4126
ru	-4127
▁entièrement	-4128
line	-4129
tiens	-4130
▁protoc	-4131
iées	-4132
▁concl	-4133
▁classique	-4134
▁connex	-4135
acé	-4136
▁écran	-4137
▁occident	-4138
▁démocratique	-4139
▁résoudre	-4140
▁quoi	-4141
▁célé	-4142
▁style	-4143
ark	-4144
▁chré	-4145
▁76	-4146
▁sites	-4147
▁conven	-4148
▁substances	-4149
▁vertu	-4150
▁liées	-4151
▁nommé	-4152
▁maisons	-4153
uras	-4154
icip	-4155
▁jac	-4156
▁fondée	-4157
▁locales	-4158
▁affaire	-4159
▁restaurant	-4160
▁150	-4161
▁actes	-4162
▁recons	-4163
▁my	-4164
▁parvenir	-4165
▁distribution	-4166
chés	-4167
▁municip	-4168
▁1990	-4169
ko	-4170
▁bonnes	-4171
▁lun	-4172
▁chat	-4173
delà	-4174
veux	-4175
▁sanc	-4176
iph	-4177
▁café	-4178
▁longueur	-4179
ulaire	-4180
▁refus	-4181
▁mél	-4182
▁option	-4183
▁devra	-4184
▁paiement	-4185
médi	-4186
▁david	-4187
abil	-4188
issez	-4189
▁mots	-4190
▁acte	-4191
▁virus	-4192
▁régulière	-4193
▁luxe	-4194
▁opin	-4195
▁match	-4196
▁thème	-4197
▁irlande	-4198
▁demandé	-4199
émie	-4200
▁kil	-4201
▁banques	-4202
▁diver	-4203
ovision	-4204
▁marchandises	-4205
▁64	-4206
▁matin	-4207
çant	-4208
▁big	-4209
▁remer	-4210
▁prévue	-4211
▁experts	-4212
▁victimes	-4213
▁export	-4214
atoires	-4215
▁home	-4216
▁interracial	-4217
irent	-4218
▁analys	-4219
▁alimentaire	-4220
▁responsables	-4221
▁sortie	-4222
▁pes	-4223
▁reje	-4224
▁facile	-4225
▁distance	-4226
porté	-4227
▁lait	-4228
▁dynam	-4229
▁bata	-4230
▁connaître	-4231
▁enregistre	-4232
êtres	-4233
▁grec	-4234
▁indispens	-4235
▁américaine	-4236
iger	-4237
▁ferrovi	-4238
▁modèles	-4239
▁tv	-4240
▁voici	-4241
▁maintenir	-4242
▁opérateurs	-4243
▁vice	-4244
▁win	-4245
▁local	-4246
▁auxqu	-4247
▁garde	-4248
▁conception	-4249
burg	-4250
actions	-4251
▁chauff	-4252
▁annonce	-4253
▁agricoles	-4254
▁var	-4255
▁mauv	-4256
▁convain	-4257
▁immobili	-4258
▁atti	-4259
isti	-4260
po	-4261
▁définir	-4262
▁appréci	-4263
▁same	-4264
▁chans	-4265
ogle	-4266
▁pourra	-4267
▁représentant	-4268
▁respecter	-4269
▁chômage	-4270
▁méthodes	-4271
▁pénétration	-4272
▁ros	-4273
▁championn	-4274
▁1995	-4275
▁soumis	-4276
▁principale	-4277
▁mém	-4278
▁montré	-4279
▁mécanisme	-4280
▁introduction	-4281
▁sole	-4282
▁objets	-4283
▁opportun	-4284
▁soir	-4285
▁révision	-4286
▁agré	-4287
ification	-4288
▁lecture	-4289
▁ouverte	-4290
▁discrimin	-4291
tiers	-4292
▁éjaculation	-4293
▁compren	-4294
▁veiller	-4295
hib	-4296
▁octr	-4297
▁faites	-4298
dy	-4299
▁mér	-4300
▁navires	-4301
▁austra	-4302
-200	-4303
▁alex	-4304
▁intention	-4305
▁travaille	-4306
dor	-4307
atin	-4308
▁lois	-4309
▁pont	-4310
▁york	-4311
▁scientifiques	-4312
▁fit	-4313
▁offres	-4314
▁pologne	-4315
▁oui	-4316
▁condam	-4317
▁communi	-4318
wa	-4319
▁instaur	-4320
▁banc	-4321
▁google	-4322
▁galerie	-4323
dessous	-4324
▁constitution	-4325
▁ejaculation	-4326
▁supplémentaire	-4327
énie	-4328
▁pouvoirs	-4329
▁mensuelle	-4330
▁ébène	-4331
▁expliqu	-4332
▁plein	-4333
▁preuve	-4334
lever	-4335
▁climatique	-4336
ony	-4337
tuber	-4338
dent	-4339
▁proxim	-4340
▁tab	-4341
▁marie	-4342
▁drtuber	-4343
▁messieurs	-4344
gies	-4345
▁capac	-4346
▁plas	-4347
fl	-4348
▁lire	-4349
less	-4350
▁catégories	-4351
ty	-4352
ity	-4353
▁pertin	-4354
▁accroître	-4355
▁engagements	-4356
hl	-4357
▁hauteur	-4358
▁mises	-4359
▁internationaux	-4360
▁demandes	-4361
▁immobiliã	-4362
▁compagnie	-4363
76	-4364
fait	-4365
▁fes	-4366
▁football	-4367
▁alimentaires	-4368
▁porter	-4369
▁samedi	-4370
▁journée	-4371
▁assurance	-4372
▁structures	-4373
▁consiste	-4374
▁largement	-4375
icateurs	-4376
▁météo	-4377
▁client	-4378
▁intermédi	-4379
▁dépar	-4380
▁clique	-4381
▁meilleures	-4382
▁extrêmement	-4383
andonn	-4384
ographie	-4385
▁carrière	-4386
▁scientifique	-4387
▁ot	-4388
▁finalement	-4389
▁eaux	-4390
▁bib	-4391
▁tim	-4392
agner	-4393
bri	-4394
▁cant	-4395
▁subs	-4396
▁procès	-4397
▁bru	-4398
▁poly	-4399
▁écou	-4400
▁2018	-4401
yst	-4402
▁excep	-4403
▁tribun	-4404
▁supérieur	-4405
df	-4406
-19	-4407
icaces	-4408
▁circons	-4409
urer	-4410
▁japonais	-4411
▁naissance	-4412
▁angle	-4413
▁proximité	-4414
tig	-4415
▁jui	-4416
▁cuir	-4417
▁méditerran	-4418
▁mobil	-4419
▁gouvern	-4420
trice	-4421
▁familles	-4422
▁précédent	-4423
érés	-4424
▁urgence	-4425
▁canada	-4426
--	-4427
cha	-4428
▁lune	-4429
tables	-4430
▁mandat	-4431
▁télévision	-4432
▁peint	-4433
ado	-4434
icap	-4435
▁belle	-4436
▁rén	-4437
▁diam	-4438
▁favoriser	-4439
jud	-4440
▁automatique	-4441
yd	-4442
▁pétr	-4443
cli	-4444
çons	-4445
▁utilisant	-4446
▁ouest	-4447
▁limite	-4448
ks	-4449
rions	-4450
▁appelé	-4451
▁famili	-4452
ona	-4453
▁capacités	-4454
▁bénéficier	-4455
▁65	-4456
mation	-4457
▁fabric	-4458
▁opération	-4459
▁accél	-4460
▁marqu	-4461
▁totale	-4462
▁vrai	-4463
▁communautés	-4464
▁95	-4465
▁end	-4466
▁session	-4467
▁cf	-4468
▁lour	-4469
▁vont	-4470
▁poilue	-4471
▁pib	-4472
▁access	-4473
zz	-4474
dez	-4475
▁vent	-4476
▁chinois	-4477
▁développe	-4478
pi	-4479
.000	-4480
▁cél	-4481
▁solidarité	-4482
▁bos	-4483
▁gorge	-4484
▁sk	-4485
cht	-4486
▁suit	-4487
▁certif	-4488
▁approvision	-4489
▁crédit	-4490
▁réalisé	-4491
dsm	-4492
erm	-4493
▁bed	-4494
▁ence	-4495
▁offrir	-4496
▁horiz	-4497
▁handicap	-4498
▁probablement	-4499
▁gare	-4500
▁accent	-4501
▁puissent	-4502
35	-4503
chement	-4504
▁vitesse	-4505
bit	-4506
▁symb	-4507
▁quartier	-4508
▁utile	-4509
▁parall	-4510
▁options	-4511
▁professionnels	-4512
▁multip	-4513
▁comptes	-4514
hi	-4515
ètement	-4516
oniques	-4517
▁dessin	-4518
▁automob	-4519
▁\	-4520
▁restric	-4521
▁bâtiment	-4522
-4	-4523
▁incom	-4524
▁existence	-4525
cm	-4526
▁entier	-4527
han	-4528
▁ouvrir	-4529
▁prévues	-4530
vo	-4531
tez	-4532
▁devront	-4533
▁lt	-4534
▁outils	-4535
75	-4536
▁hos	-4537
▁logiciels	-4538
▁transfrontal	-4539
▁mutu	-4540
▁stim	-4541
▁veuille	-4542
▁découver	-4543
▁malheure	-4544
uler	-4545
▁voitures	-4546
▁souligner	-4547
▁tem	-4548
▁desc	-4549
▁insp	-4550
▁2,	-4551
▁prévention	-4552
▁polon	-4553
oine	-4554
▁aqu	-4555
▁faud	-4556
cia	-4557
▁ax	-4558
▁londres	-4559
▁présentation	-4560
22	-4561
cée	-4562
chée	-4563
▁combin	-4564
▁joueur	-4565
dames	-4566
▁luxembourg	-4567
▁..	-4568
▁pron	-4569
▁minist	-4570
▁accepter	-4571
▁commencé	-4572
▁relation	-4573
▁enregistr	-4574
▁auteur	-4575
vd	-4576
▁célè	-4577
▁professe	-4578
▁amateur	-4579
▁équilibre	-4580
cadre	-4581
vement	-4582
▁arrivée	-4583
▁espèces	-4584
▁arrêt	-4585
▁téléphone	-4586
▁déterminer	-4587
chen	-4588
▁réd	-4589
▁pénis	-4590
chant	-4591
▁design	-4592
▁terras	-4593
▁discussion	-4594
▁sing	-4595
▁examiner	-4596
▁affir	-4597
▁mesdames	-4598
érences	-4599
▁vision	-4600
▁volume	-4601
án	-4602
▁judici	-4603
rables	-4604
▁altern	-4605
▁régionale	-4606
▁mécanismes	-4607
▁forum	-4608
matique	-4609
ider	-4610
inaire	-4611
estations	-4612
ival	-4613
▁efficaces	-4614
▁foi	-4615
itées	-4616
▁applicables	-4617
▁faibles	-4618
▁1994	-4619
▁amis	-4620
▁gang	-4621
▁189	-4622
▁portugal	-4623
▁transfert	-4624
▁réparation	-4625
▁69	-4626
tiles	-4627
aliser	-4628
érique	-4629
▁détru	-4630
▁comple	-4631
otes	-4632
▁agir	-4633
▁inqu	-4634
▁infl	-4635
▁az	-4636
▁moitié	-4637
her	-4638
lix	-4639
▁rubrique	-4640
▁encourage	-4641
bé	-4642
oï	-4643
ussi	-4644
sse	-4645
nis	-4646
▁consol	-4647
▁utilisée	-4648
▁fis	-4649
▁soleil	-4650
▁éro	-4651
▁break	-4652
chent	-4653
▁monna	-4654
andes	-4655
▁moderne	-4656
▁conseils	-4657
▁comprimés	-4658
▁numérique	-4659
▁limites	-4660
▁uniforme	-4661
▁veuillez	-4662
▁diminu	-4663
▁dollars	-4664
▁pouvant	-4665
▁monétaire	-4666
▁rasage	-4667
▁commencer	-4668
ita	-4669
▁iran	-4670
▁témo	-4671
▁modern	-4672
itz	-4673
rif	-4674
▁éd	-4675
toire	-4676
▁bdsm	-4677
▁rent	-4678
▁ving	-4679
▁global	-4680
▁située	-4681
▁pointeur	-4682
▁gi	-4683
osse	-4684
▁cliquez	-4685
▁contrôles	-4686
▁essentiellement	-4687
raine	-4688
▁voulons	-4689
▁matières	-4690
▁ash	-4691
▁machine	-4692
âtre	-4693
▁jeudi	-4694
▁privée	-4695
▁producteurs	-4696
▁faits	-4697
▁coupe	-4698
24	-4699
▁chaîne	-4700
rement	-4701
ych	-4702
▁rh	-4703
abe	-4704
nel	-4705
▁chargé	-4706
erait	-4707
▁libéral	-4708
▁trom	-4709
▁conjoin	-4710
▁définiti	-4711
▁accompagn	-4712
▁croiss	-4713
▁tat	-4714
▁sugg	-4715
▁division	-4716
▁standard	-4717
64	-4718
▁partis	-4719
▁maximum	-4720
▁ke	-4721
hors	-4722
▁permettent	-4723
▁révé	-4724
▁traite	-4725
▁ira	-4726
▁stratégique	-4727
▁passagers	-4728
▁conclusion	-4729
▁annuel	-4730
▁juridiques	-4731
eu	-4732
▁puisque	-4733
mêmes	-4734
▁passage	-4735
▁protocole	-4736
▁pourtant	-4737
....	-4738
onte	-4739
▁ministres	-4740
▁remercier	-4741
▁orientations	-4742
jets	-4743
▁suède	-4744
▁gouvernance	-4745
orie	-4746
▁déliv	-4747
▁genre	-4748
▁colomb	-4749
trent	-4750
▁physique	-4751
bie	-4752
▁peux	-4753
▁totalement	-4754
▁envisag	-4755
▁populaire	-4756
▁composants	-4757
▁installations	-4758
cts	-4759
▁règle	-4760
▁considéré	-4761
▁terres	-4762
▁bei	-4763
▁éché	-4764
▁roman	-4765
▁pensions	-4766
éder	-4767
▁défic	-4768
▁récup	-4769
▁cerclage	-4770
▁industrielle	-4771
▁médias	-4772
▁minimum	-4773
▁pâ	-4774
▁sw	-4775
▁ray	-4776
▁distin	-4777
aria	-4778
▁pales	-4779
ral	-4780
néra	-4781
▁chers	-4782
▁surpr	-4783
alistes	-4784
21	-4785
▁kb	-4786
▁culotte	-4787
▁lécher	-4788
▁alph	-4789
▁noël	-4790
▁suff	-4791
▁suffisamment	-4792
▁modalités	-4793
év	-4794
cif	-4795
ymp	-4796
▁400	-4797
▁générales	-4798
och	-4799
uté	-4800
▁sauve	-4801
▁barcel	-4802
▁impr	-4803
▁applications	-4804
,00	-4805
▁appren	-4806
oule	-4807
▁évaluer	-4808
▁‐	-4809
landaise	-4810
▁ski	-4811
telée	-4812
▁jose	-4813
opa	-4814
▁›	-4815
ader	-4816
▁guide	-4817
▁réellement	-4818
▁électricité	-4819
▁obten	-4820
▁province	-4821
▁influence	-4822
▁participants	-4823
▁ing	-4824
▁hen	-4825
indre	-4826
▁manifes	-4827
ode	-4828
wer	-4829
▁{	-4830
èvement	-4831
lan	-4832
▁pois	-4833
▁administratives	-4834
▁vendredi	-4835
▁locaux	-4836
pp	-4837
vée	-4838
ling	-4839
▁post	-4840
▁phén	-4841
▁analdin	-4842
▁verre	-4843
▁étique	-4844
▁mamie	-4845
▁quantité	-4846
▁parfa	-4847
▁}	-4848
▁bot	-4849
men	-4850
▁couleurs	-4851
▁seraient	-4852
▁conflit	-4853
▁cd	-4854
rive	-4855
▁concernées	-4856
▁ib	-4857
▁tchèque	-4858
▁mains	-4859
▁indési	-4860
icule	-4861
ument	-4862
▁bras	-4863
▁commerciales	-4864
flix	-4865
▁pollu	-4866
▁réuss	-4867
▁publication	-4868
▁pand	-4869
▁stric	-4870
▁supprim	-4871
▁tonnes	-4872
▁tient	-4873
▁équipements	-4874
adies	-4875
▁peine	-4876
▁statistiques	-4877
▁armes	-4878
▁futur	-4879
▁die	-4880
▁profil	-4881
▁specta	-4882
▁suéd	-4883
ieuse	-4884
▁facteurs	-4885
▁compromis	-4886
▁utilisées	-4887
▁finale	-4888
▁possède	-4889
▁compétentes	-4890
▁considération	-4891
igre	-4892
▁chale	-4893
▁favorable	-4894
manie	-4895
▁infra	-4896
▁stade	-4897
▁ice	-4898
▁jér	-4899
▁pin	-4900
▁intra	-4901
▁économies	-4902
▁adoptée	-4903
▁consulter	-4904
af	-4905
▁asc	-4906
▁vul	-4907
▁perspective	-4908
by	-4909
▁1992	-4910
▁maladies	-4911
▁gamme	-4912
fast	-4913
.20	-4914
opol	-4915
▁préal	-4916
▁exac	-4917
▁décide	-4918
▁logiciel	-4919
▁traduction	-4920
▁perspectives	-4921
rig	-4922
▁perte	-4923
▁intell	-4924
▁int	-4925
ctifs	-4926
isses	-4927
▁souligné	-4928
uption	-4929
▁scène	-4930
▁concept	-4931
▁indique	-4932
▁tri	-4933
▁entendu	-4934
▁profond	-4935
ovo	-4936
▁cell	-4937
▁parle	-4938
▁inscr	-4939
▁traiter	-4940
▁85	-4941
▁ly	-4942
▁féminine	-4943
▁coc	-4944
▁comporte	-4945
▁ajus	-4946
▁liqu	-4947
▁cheval	-4948
▁trouvent	-4949
85	-4950
gu	-4951
éma	-4952
▁malheureusement	-4953
▁crimin	-4954
▁compens	-4955
▁certaine	-4956
ters	-4957
▁structurels	-4958
▁compétence	-4959
▁bur	-4960
▁caché	-4961
▁certainement	-4962
moi	-4963
iction	-4964
▁symp	-4965
▁élaborer	-4966
▁obstacles	-4967
▁intellig	-4968
sig	-4969
▁écla	-4970
alisme	-4971
▁portée	-4972
▁potelée	-4973
▁fortement	-4974
▁organisée	-4975
▁exige	-4976
gées	-4977
▁spor	-4978
▁exter	-4979
▁rural	-4980
▁police	-4981
▁œuvres	-4982
▁nucléaire	-4983
▁félicite	-4984
▁conformité	-4985
▁jul	-4986
▁voté	-4987
▁oubli	-4988
▁rad	-4989
▁sainte	-4990
▁ministère	-4991
▁1993	-4992
▁cohér	-4993
▁remerc	-4994
intes	-4995
ctivité	-4996
truction	-4997
ris	-4998
▁cub	-4999
▁navigation	-5000
-5	-5001
▁pay	-5002
▁nourrit	-5003
▁bataille	-5004
▁remercie	-5005
▁céra	-5006
▁laisser	-5007
▁accueill	-5008
oris	-5009
▁olymp	-5010
▁servir	-5011
▁places	-5012
tiennent	-5013
▁violence	-5014
▁réception	-5015
ns	-5016
ight	-5017
bang	-5018
▁prochain	-5019
▁montrer	-5020
▁const	-5021
fi	-5022
érant	-5023
▁magas	-5024
▁interpré	-5025
ene	-5026
▁huit	-5027
▁bibli	-5028
hu	-5029
▁martin	-5030
tations	-5031
▁contrôl	-5032
bon	-5033
▁nuv	-5034
▁décor	-5035
▁souten	-5036
▁enceinte	-5037
▁relatifs	-5038
▁représentent	-5039
▁facilement	-5040
45	-5041
▁wh	-5042
▁four	-5043
vant	-5044
▁expériences	-5045
65	-5046
▁tit	-5047
▁identi	-5048
▁adoles	-5049
▁quelles	-5050
▁seuls	-5051
▁croatie	-5052
ald	-5053
▁empr	-5054
▁format	-5055
▁préparer	-5056
bert	-5057
ypte	-5058
ourir	-5059
tale	-5060
▁sujets	-5061
▁réservation	-5062
sons	-5063
▁hell	-5064
▁enti	-5065
▁absolu	-5066
▁stre	-5067
▁liens	-5068
▁coul	-5069
▁apparaît	-5070
.00	-5071
▁abou	-5072
▁nuvid	-5073
meurs	-5074
▁course	-5075
▁monte	-5076
uts	-5077
venue	-5078
▁dehors	-5079
▁dig	-5080
▁rig	-5081
sé	-5082
▁aspect	-5083
anes	-5084
▁terrasse	-5085
▁180	-5086
▁vivre	-5087
▁indiqué	-5088
présid	-5089
tition	-5090
▁livres	-5091
▁légère	-5092
▁applique	-5093
clips	-5094
▁hond	-5095
▁rare	-5096
économ	-5097
▁bande	-5098
▁strip	-5099
▁systé	-5100
▁multil	-5101
▁approfond	-5102
ades	-5103
tein	-5104
▁danse	-5105
▁détail	-5106
▁revenus	-5107
▁supérieure	-5108
▁lutter	-5109
duire	-5110
commun	-5111
▁bless	-5112
▁humain	-5113
▁fabrication	-5114
▁médec	-5115
▁philip	-5116
osph	-5117
▁festiv	-5118
▁ev	-5119
▁réfug	-5120
▁meur	-5121
▁supprimer	-5122
▁spir	-5123
▁discussions	-5124
ax	-5125
orme	-5126
istant	-5127
▁régionales	-5128
uner	-5129
▁free	-5130
diction	-5131
▁vienne	-5132
▁youporn	-5133
▁dimanche	-5134
▁tatou	-5135
▁commerciaux	-5136
▁far	-5137
▁films	-5138
▁arrière	-5139
▁98	-5140
▁vall	-5141
▁lig	-5142
▁prêts	-5143
oli	-5144
▁caus	-5145
▁clip	-5146
▁tirer	-5147
▁montagne	-5148
▁diversité	-5149
▁étudiants	-5150
▁deb	-5151
▁mel	-5152
▁estim	-5153
▁assure	-5154
▁diffusion	-5155
▁merci	-5156
▁idées	-5157
▁figure	-5158
idité	-5159
telle	-5160
▁autonom	-5161
▁édition	-5162
▁conduite	-5163
▁connaissances	-5164
enz	-5165
rich	-5166
▁bond	-5167
▁gas	-5168
▁héber	-5169
▁ele	-5170
▁roux	-5171
▁¡	-5172
▁perd	-5173
▁vérité	-5174
▁manuel	-5175
▁destinés	-5176
irs	-5177
mont	-5178
▁dét	-5179
▁parl	-5180
▁directr	-5181
▁relativement	-5182
▁vide	-5183
▁quatr	-5184
▁salon	-5185
▁chaussures	-5186
▁bis	-5187
▁née	-5188
èlement	-5189
▁capitale	-5190
▁produire	-5191
▁harmonisation	-5192
▁mener	-5193
▁micro	-5194
▁crédits	-5195
▁orth	-5196
▁réalisés	-5197
▁devenu	-5198
alisé	-5199
33	-5200
▁régulièrement	-5201
▁contrats	-5202
▁incidence	-5203
▁somme	-5204
▁devez	-5205
cession	-5206
▁transi	-5207
▁institution	-5208
▁af	-5209
▁adaptation	-5210
▁mardi	-5211
▁devait	-5212
▁mc	-5213
▁arabe	-5214
estation	-5215
▁ry	-5216
▁modes	-5217
▁signe	-5218
ee	-5219
▁salari	-5220
▁cinqu	-5221
▁plén	-5222
▁dossier	-5223
▁hard	-5224
▁aient	-5225
▁cheveux	-5226
▁conduire	-5227
▁étrangères	-5228
▁budgétaires	-5229
ón	-5230
oni	-5231
▁îles	-5232
▁littéra	-5233
▁contacter	-5234
▁département	-5235
pu	-5236
▁ém	-5237
▁quatrième	-5238
▁discu	-5239
▁mémoire	-5240
▁ferroviaire	-5241
▁rendu	-5242
▁mention	-5243
▁indispensable	-5244
uelles	-5245
▁situations	-5246
▁demi	-5247
▁fen	-5248
▁prêt	-5249
orient	-5250
érance	-5251
▁entraîner	-5252
éen	-5253
▁aig	-5254
▁sauf	-5255
▁anciens	-5256
▁gangbang	-5257
▁professionnel	-5258
▁ech	-5259
▁jos	-5260
▁réjou	-5261
▁parking	-5262
▁festival	-5263
ovs	-5264
cesse	-5265
▁gratuitement	-5266
▁immigration	-5267
▁vingt	-5268
▁lot	-5269
▁direct	-5270
▁1.1	-5271
▁recevoir	-5272
▁120	-5273
▁frères	-5274
▁portail	-5275
att	-5276
27	-5277
bol	-5278
gl	-5279
col	-5280
▁procéder	-5281
itations	-5282
▁destinées	-5283
▁aménage	-5284
▁approuvé	-5285
▁construit	-5286
▁250	-5287
▁commercial	-5288
▁sort	-5289
▁tempor	-5290
▁graphique	-5291
▁soup	-5292
▁graves	-5293
▁entraîne	-5294
28	-5295
▁entrer	-5296
▁stratégies	-5297
▁rang	-5298
▁kilom	-5299
▁climat	-5300
▁transpos	-5301
▁diffus	-5302
▁vip	-5303
▁santa	-5304
▁tiens	-5305
▁obtenu	-5306
▁responsabil	-5307
▁psych	-5308
▁effort	-5309
▁ajoutée	-5310
▁permette	-5311
êque	-5312
▁paquet	-5313
▁monnaie	-5314
ella	-5315
▁ign	-5316
no	-5317
▁baiser	-5318
▁ic	-5319
lova	-5320
▁contenant	-5321
▁test	-5322
▁opinion	-5323
arch	-5324
▁breakfast	-5325
▁utilisateur	-5326
mine	-5327
▁fondé	-5328
▁périph	-5329
▁équival	-5330
▁indépendance	-5331
ank	-5332
▁adultes	-5333
▁nourriture	-5334
▁professeur	-5335
euse	-5336
ctement	-5337
▁côte	-5338
▁frère	-5339
▁délais	-5340
ômes	-5341
▁explor	-5342
▁conscience	-5343
ani	-5344
▁empêcher	-5345
elons	-5346
▁--	-5347
▁mini	-5348
▁cartes	-5349
▁financ	-5350
▁circonst	-5351
▁proposer	-5352
▁espagnole	-5353
▁présentant	-5354
▁championnat	-5355
▁précisément	-5356
▁réflex	-5357
▁température	-5358
atre	-5359
▁critique	-5360
▁fondation	-5361
95	-5362
▁établissements	-5363
siques	-5364
▁tatouage	-5365
▁participe	-5366
▁inclus	-5367
▁office	-5368
▁retard	-5369
▁dvd	-5370
▁clés	-5371
▁alexand	-5372
▁pourront	-5373
ny	-5374
▁concert	-5375
▁fera	-5376
▁examin	-5377
▁électrique	-5378
▁baisse	-5379
▁emball	-5380
,4	-5381
▁actif	-5382
▁ports	-5383
▁jeunesse	-5384
▁installation	-5385
▁vib	-5386
▁complexe	-5387
▁officiel	-5388
23	-5389
gée	-5390
▁hal	-5391
oquer	-5392
▁cycle	-5393
▁repro	-5394
▁phénom	-5395
▁légiti	-5396
▁avantage	-5397
,3	-5398
fu	-5399
▁défi	-5400
▁continent	-5401
▁accessoires	-5402
▁clé	-5403
▁fruits	-5404
▁envers	-5405
▁soutient	-5406
▁charles	-5407
▁effectuer	-5408
▁lesbienne	-5409
sibles	-5410
▁gagn	-5411
▁chanson	-5412
▁96	-5413
▁mit	-5414
▁fabri	-5415
▁vaste	-5416
▁devoir	-5417
▁parents	-5418
▁érotique	-5419
▁flac	-5420
▁recue	-5421
rations	-5422
,6	-5423
ji	-5424
▁net	-5425
▁mood	-5426
dt	-5427
▁décrit	-5428
▁régimes	-5429
▁rappro	-5430
▁terrorisme	-5431
▁alimentation	-5432
ls	-5433
▁sun	-5434
▁pièce	-5435
▁différence	-5436
▁actifs	-5437
▁coeur	-5438
sifs	-5439
▁chefs	-5440
▁printemps	-5441
jeuner	-5442
▁bâtiments	-5443
▁texas	-5444
▁maintien	-5445
▁barcelone	-5446
▁suppos	-5447
ibl	-5448
▁indésirables	-5449
▁conduit	-5450
▁réunions	-5451
avant	-5452
eg	-5453
▁top	-5454
▁occu	-5455
▁américains	-5456
▁math	-5457
▁tribunal	-5458
▁bulgar	-5459
▁manqu	-5460
roso	-5461
▁param	-5462
▁cur	-5463
▁profit	-5464
aces	-5465
▁garan	-5466
▁sanctions	-5467
▁lancé	-5468
▁privil	-5469
▁mignonne	-5470
▁consommateur	-5471
ory	-5472
▁support	-5473
▁susceptibles	-5474
▁câ	-5475
▁accorder	-5476
▁législatives	-5477
▁vintage	-5478
▁tendance	-5479
▁sm	-5480
éter	-5481
▁asile	-5482
▁rappelle	-5483
▁similaires	-5484
▁ressor	-5485
▁peuples	-5486
▁fonde	-5487
▁céramique	-5488
▁wal	-5489
▁précise	-5490
▁fleurs	-5491
ensions	-5492
▁obtient	-5493
▁aliments	-5494
▁concentration	-5495
ulé	-5496
▁188	-5497
▁partag	-5498
ador	-5499
▁sacrif	-5500
▁catholique	-5501
▁mol	-5502
▁anton	-5503
▁hongr	-5504
▁adapter	-5505
▁concours	-5506
▁maigre	-5507
▁cod	-5508
▁unités	-5509
▁célèbre	-5510
▁significative	-5511
anne	-5512
▁centres	-5513
▁dirigeants	-5514
▁emplacement	-5515
26	-5516
▁optim	-5517
▁complex	-5518
ulent	-5519
▁auront	-5520
enda	-5521
▁louis	-5522
endrait	-5523
▁bateaux	-5524
▁restent	-5525
chi	-5526
cor	-5527
ubl	-5528
▁plac	-5529
▁voulez	-5530
▁résidence	-5531
▁transition	-5532
▁temple	-5533
▁limiter	-5534
▁carb	-5535
dd	-5536
▁fau	-5537
atisation	-5538
▁ciel	-5539
▁xvi	-5540
▁intit	-5541
▁témoign	-5542
▁gran	-5543
▁réussi	-5544
▁machines	-5545
▁accident	-5546
▁auquel	-5547
▁pharma	-5548
▁1991	-5549
▁envoyer	-5550
ffe	-5551
forma	-5552
▁grave	-5553
▁marche	-5554
tissement	-5555
len	-5556
▁pdf	-5557
▁décr	-5558
rég	-5559
roid	-5560
▁émission	-5561
▁derrière	-5562
ld	-5563
▁flux	-5564
▁huile	-5565
▁portes	-5566
▁communications	-5567
▁enregistrement	-5568
lib	-5569
▁quin	-5570
▁réel	-5571
▁iceporn	-5572
▁théâtre	-5573
ario	-5574
▁join	-5575
ura	-5576
▁opposition	-5577
▁émer	-5578
▁copine	-5579
▁agissant	-5580
▁extérieure	-5581
▁plur	-5582
▁civil	-5583
▁délégation	-5584
taux	-5585
▁lam	-5586
▁asie	-5587
▁brevet	-5588
▁changer	-5589
▁événement	-5590
44	-5591
▁rock	-5592
▁moodle	-5593
▁compter	-5594
▁organisme	-5595
77	-5596
▁sév	-5597
▁évolu	-5598
▁composé	-5599
▁modifiée	-5600
▁courant	-5601
▁exception	-5602
▁résistance	-5603
▁·	-5604
▁fleur	-5605
▁actuelles	-5606
▁ah	-5607
tastr	-5608
▁ukraine	-5609
terre	-5610
▁dois	-5611
▁admis	-5612
▁prennent	-5613
▁révolution	-5614
ical	-5615
▁notif	-5616
▁relev	-5617
ni	-5618
▁isol	-5619
▁inquié	-5620
▁mobile	-5621
▁raisonn	-5622
ah	-5623
▁biais	-5624
▁lieux	-5625
▁indépendant	-5626
▁cot	-5627
iteurs	-5628
▁catastr	-5629
▁commerciale	-5630
pér	-5631
▁neu	-5632
▁demeure	-5633
là	-5634
erais	-5635
▁plais	-5636
▁applicable	-5637
▁thom	-5638
aissent	-5639
umé	-5640
▁soi	-5641
▁tol	-5642
▁93	-5643
onor	-5644
▁recommandation	-5645
▁rose	-5646
▁reprises	-5647
pie	-5648
onses	-5649
▁élevés	-5650
▁chiffres	-5651
identi	-5652
▁maria	-5653
▁particuliers	-5654
▁tâche	-5655
lor	-5656
▁tomb	-5657
duction	-5658
▁maître	-5659
▁existantes	-5660
till	-5661
▁roumanie	-5662
▁hiver	-5663
▁minor	-5664
▁expression	-5665
▁commentaire	-5666
▁kos	-5667
▁pérou	-5668
▁humains	-5669
▁effectivement	-5670
▁maî	-5671
▁reçoit	-5672
▁transit	-5673
▁différences	-5674
▁élu	-5675
haus	-5676
heim	-5677
onné	-5678
▁ong	-5679
▁golf	-5680
étaires	-5681
▁tâches	-5682
▁proc	-5683
▁susp	-5684
▁adress	-5685
▁renouvelables	-5686
ür	-5687
▁nap	-5688
▁ment	-5689
▁sait	-5690
▁demain	-5691
rivez	-5692
▁sorties	-5693
▁évidence	-5694
▁associés	-5695
▁palestin	-5696
▁automobile	-5697
▁usa	-5698
▁souv	-5699
▁détaillé	-5700
▁réponses	-5701
▁agriculteurs	-5702
▁fusion	-5703
cafe	-5704
▁peau	-5705
▁souver	-5706
78	-5707
▁talons	-5708
▁quotidien	-5709
cra	-5710
▁faite	-5711
▁vérifier	-5712
▁chauffage	-5713
▁ami	-5714
▁inscrit	-5715
illées	-5716
▁prati	-5717
▁disque	-5718
▁titres	-5719
own	-5720
▁dor	-5721
▁néer	-5722
▁organes	-5723
porta	-5724
▁frau	-5725
▁prévoir	-5726
▁véhicule	-5727
▁grasse	-5728
▁dic	-5729
▁1980	-5730
▁réduit	-5731
▁profiter	-5732
▁frag	-5733
tén	-5734
▁ordinateur	-5735
asser	-5736
▁lie	-5737
▁mill	-5738
▁paiements	-5739
▁orientation	-5740
alem	-5741
▁apport	-5742
▁satell	-5743
▁responsabilités	-5744
▁appui	-5745
▁finances	-5746
▁déclarations	-5747
▁températures	-5748
79	-5749
▁bor	-5750
▁retraite	-5751
▁3.1	-5752
▁fid	-5753
▁spe	-5754
▁étroite	-5755
▁maximale	-5756
rants	-5757
▁institut	-5758
ere	-5759
ctue	-5760
qués	-5761
▁bateau	-5762
▁plénière	-5763
▁convertir	-5764
▁territori	-5765
angé	-5766
illi	-5767
▁nic	-5768
▁locale	-5769
▁horizon	-5770
▁indicateurs	-5771
▁intermédiaire	-5772
▁robe	-5773
▁voies	-5774
itablement	-5775
▁avale	-5776
dorf	-5777
▁donnée	-5778
▁menace	-5779
▁600	-5780
▁pic	-5781
▁étranger	-5782
▁industriels	-5783
▁arrive	-5784
▁patrim	-5785
▁étapes	-5786
▁essentielle	-5787
▁panne	-5788
▁positif	-5789
lage	-5790
▁pose	-5791
▁décenn	-5792
▁infirm	-5793
tionnaire	-5794
▁moyennes	-5795
▁catal	-5796
,8	-5797
▁angel	-5798
▁électroniques	-5799
▁myl	-5800
icier	-5801
▁juge	-5802
▁degré	-5803
▁abandonn	-5804
▁zo	-5805
▁xoz	-5806
▁confor	-5807
▁communs	-5808
▁xozilla	-5809
▁adoptées	-5810
sification	-5811
▁essentiels	-5812
clam	-5813
▁ral	-5814
▁docteur	-5815
▁excellent	-5816
ye	-5817
atur	-5818
naire	-5819
▁cohérence	-5820
▁ça	-5821
▁bag	-5822
emark	-5823
▁joué	-5824
▁issue	-5825
▁vendu	-5826
▁privés	-5827
▁pauvres	-5828
▁serré	-5829
▁1000	-5830
▁lundi	-5831
▁pouvait	-5832
▁disponibilité	-5833
▁pleine	-5834
▁joueurs	-5835
hal	-5836
▁soc	-5837
▁enne	-5838
▁positive	-5839
▁organisé	-5840
▁absolument	-5841
▁discrimination	-5842
cou	-5843
▁éth	-5844
▁pute	-5845
▁réserver	-5846
▁construire	-5847
ary	-5848
▁99	-5849
ocation	-5850
▁utilise	-5851
▁complètement	-5852
▁masse	-5853
eraient	-5854
ago	-5855
olue	-5856
▁future	-5857
▁réfugiés	-5858
ket	-5859
▁collection	-5860
▁obligatoire	-5861
▁populations	-5862
74	-5863
aye	-5864
▁marg	-5865
icateur	-5866
▁savons	-5867
oqué	-5868
▁xcafe	-5869
▁accus	-5870
▁reprise	-5871
▁victoire	-5872
▁auto	-5873
▁agents	-5874
▁accrue	-5875
▁écoles	-5876
ware	-5877
▁hclips	-5878
▁dimensions	-5879
▁sit	-5880
européen	-5881
▁mamelons	-5882
▁confidenti	-5883
▁négociation	-5884
▁los	-5885
▁regr	-5886
▁diminution	-5887
▁nr	-5888
aises	-5889
▁prolong	-5890
gi	-5891
▁pur	-5892
▁vain	-5893
▁danemark	-5894
key	-5895
▁épis	-5896
▁papier	-5897
▁approprié	-5898
▁idéal	-5899
▁appropriées	-5900
▁neuf	-5901
▁illég	-5902
▁palais	-5903
▁rappeler	-5904
38	-5905
▁bik	-5906
▁bloc	-5907
▁micr	-5908
▁séance	-5909
▁directrices	-5910
▁basé	-5911
▁éche	-5912
▁circonstances	-5913
66	-5914
▁décès	-5915
tienne	-5916
▁provenant	-5917
ieuses	-5918
▁annoncé	-5919
eront	-5920
▁sauv	-5921
▁fournisseurs	-5922
exe	-5923
▁judiciaire	-5924
▁compor	-5925
dro	-5926
▁slova	-5927
▁relever	-5928
▁pape	-5929
▁pipe	-5930
▁invités	-5931
▁associations	-5932
▁réglementaire	-5933
▁dispositif	-5934
▁réelle	-5935
▁casting	-5936
48	-5937
chou	-5938
▁alg	-5939
▁description	-5940
,0	-5941
▁omc	-5942
idemment	-5943
▁auxquels	-5944
▁convi	-5945
▁hongrie	-5946
▁norv	-5947
▁revenu	-5948
▁sciences	-5949
▁performances	-5950
29	-5951
pt	-5952
ator	-5953
agé	-5954
iale	-5955
▁colombie	-5956
▁1989	-5957
▁dirig	-5958
▁fixe	-5959
▁alpha	-5960
▁exprimer	-5961
▁réaction	-5962
▁téléchargement	-5963
hol	-5964
ial	-5965
nant	-5966
▁chev	-5967
usalem	-5968
▁observations	-5969
▁amen	-5970
ington	-5971
▁ratif	-5972
▁restruct	-5973
bilisation	-5974
née	-5975
rets	-5976
sidi	-5977
▁acad	-5978
▁parta	-5979
▁utilisez	-5980
▁possibles	-5981
▁fabricant	-5982
▁appropriée	-5983
▁directe	-5984
▁prononc	-5985
▁culturel	-5986
aug	-5987
ôme	-5988
▁programmation	-5989
▁joseph	-5990
▁implique	-5991
▁intégrer	-5992
▁naturelles	-5993
▁soum	-5994
▁tenant	-5995
▁kilomètres	-5996
gros	-5997
▁boîte	-5998
▁préjud	-5999
▁technologique	-6000
▁wor	-6001
▁coop	-6002
▁exces	-6003
▁humaines	-6004
▁angleterre	-6005
▁sn	-6006
▁charte	-6007
▁adolesc	-6008
▁facteur	-6009
▁mad	-6010
▁imag	-6011
▁irak	-6012
▁bulgarie	-6013
▁génération	-6014
▁évidemment	-6015
ott	-6016
oue	-6017
▁alco	-6018
emaletube	-6019
▁ashemaletube	-6020
▁administrative	-6021
vient	-6022
▁perdu	-6023
mbh	-6024
erto	-6025
icats	-6026
▁addi	-6027
34	-6028
▁vivud	-6029
sterdam	-6030
érées	-6031
▁canton	-6032
▁dg	-6033
▁figur	-6034
▁eglise	-6035
▁visites	-6036
ings	-6037
▁atten	-6038
tissage	-6039
▁conflits	-6040
▁scén	-6041
▁susc	-6042
▁music	-6043
▁science	-6044
▁proposées	-6045
▁tub	-6046
▁choc	-6047
▁motiv	-6048
▁absten	-6049
▁thèmes	-6050
▁poursuite	-6051
▁militaires	-6052
ney	-6053
▁pourcent	-6054
▁minimales	-6055
▁considérable	-6056
▁magnif	-6057
▁existants	-6058
▁étrangers	-6059
▁kr	-6060
▁largeur	-6061
▁bilatéra	-6062
▁intégrée	-6063
▁jérusalem	-6064
ato	-6065
pital	-6066
ilée	-6067
▁las	-6068
▁vite	-6069
▁explique	-6070
ood	-6071
▁proposée	-6072
▁exclusion	-6073
▁impossible	-6074
▁prochaines	-6075
▁pel	-6076
▁tva	-6077
▁orgie	-6078
▁disting	-6079
▁attendre	-6080
▁biblioth	-6081
▁amsterdam	-6082
▁dette	-6083
▁impression	-6084
▁cav	-6085
verse	-6086
▁dépass	-6087
▁heureux	-6088
▁discours	-6089
▁68	-6090
▁rav	-6091
▁tôt	-6092
▁monter	-6093
▁textes	-6094
▁lunettes	-6095
odo	-6096
▁sar	-6097
euses	-6098
▁efficacement	-6099
▁excl	-6100
▁philos	-6101
▁élevée	-6102
ématiques	-6103
71	-6104
▁voire	-6105
▁agences	-6106
▁développé	-6107
▁gmbh	-6108
▁capitaux	-6109
way	-6110
▁augmenté	-6111
▁restaurants	-6112
ifor	-6113
▁file	-6114
▁star	-6115
▁voter	-6116
▁entour	-6117
▁rot	-6118
▁bondage	-6119
▁engager	-6120
▁spiritu	-6121
▁destination	-6122
▁adh	-6123
▁chance	-6124
▁record	-6125
▁by	-6126
▁bern	-6127
▁croy	-6128
▁nett	-6129
▁ath	-6130
▁tenue	-6131
▁choisi	-6132
▁limitée	-6133
▁pacif	-6134
▁acheté	-6135
▁reconnu	-6136
▁bap	-6137
▁gon	-6138
▁color	-6139
camp	-6140
▁devrions	-6141
▁ms	-6142
▁sab	-6143
▁pure	-6144
▁robert	-6145
▁prévenir	-6146
bel	-6147
▁gir	-6148
inage	-6149
▁alliance	-6150
▁fiscale	-6151
▁requêtes	-6152
▁fonctionner	-6153
▁bikini	-6154
▁envoyé	-6155
▁échéant	-6156
▁élég	-6157
▁4.1	-6158
▁énergies	-6159
▁composition	-6160
36	-6161
tar	-6162
ématique	-6163
▁frontière	-6164
▁appareils	-6165
▁pétrole	-6166
ep	-6167
oto	-6168
▁boute	-6169
▁instal	-6170
▁recommande	-6171
▁compréh	-6172
side	-6173
▁pat	-6174
▁rat	-6175
▁matériaux	-6176
▁patrimoine	-6177
▁eut	-6178
uellement	-6179
ish	-6180
ysex	-6181
▁juifs	-6182
▁lancer	-6183
tain	-6184
▁unan	-6185
▁anysex	-6186
▁cens	-6187
▁payer	-6188
▁viptube	-6189
▁publicité	-6190
chées	-6191
▁infrastructure	-6192
sp	-6193
▁nyl	-6194
▁vulnéra	-6195
gent	-6196
▁veulent	-6197
▁parfaitement	-6198
▁apprentissage	-6199
▁investisseurs	-6200
▁taxe	-6201
▁bénéfices	-6202
▁garanties	-6203
ail	-6204
▁sard	-6205
▁sympt	-6206
▁acteur	-6207
▁actuels	-6208
▁nette	-6209
▁pages	-6210
▁paroles	-6211
ycl	-6212
ives	-6213
▁basée	-6214
▁cont	-6215
▁quels	-6216
▁recettes	-6217
▁performance	-6218
,2	-6219
mac	-6220
▁studio	-6221
▁consulta	-6222
▁exposé	-6223
▁salles	-6224
▁dérog	-6225
▁conforme	-6226
dique	-6227
ouest	-6228
▁signé	-6229
enc	-6230
▁chir	-6231
▁achat	-6232
▁gagner	-6233
▁compagnies	-6234
▁ate	-6235
▁crée	-6236
▁clito	-6237
▁répartition	-6238
▁pacte	-6239
▁ambiti	-6240
▁transformation	-6241
km	-6242
▁dynamique	-6243
▁tos	-6244
▁ouvre	-6245
▁considérée	-6246
▁fonctionne	-6247
▁reconnaître	-6248
fon	-6249
▁mén	-6250
▁accéder	-6251
▁finlande	-6252
▁conseill	-6253
▁critiques	-6254
▁ferm	-6255
▁play	-6256
▁basse	-6257
▁pandora	-6258
▁inox	-6259
▁alla	-6260
▁connexion	-6261
▁interdiction	-6262
73	-6263
▁ox	-6264
▁lits	-6265
▁black	-6266
▁essais	-6267
▁cellules	-6268
▁permettez	-6269
ala	-6270
quent	-6271
térieurs	-6272
obs	-6273
ctes	-6274
▁destiné	-6275
▁avi	-6276
ogues	-6277
▁incor	-6278
▁voisins	-6279
▁allemands	-6280
▁sold	-6281
▁charges	-6282
▁intelle	-6283
▁appareil	-6284
72	-6285
▁espoir	-6286
▁extérieures	-6287
ît	-6288
▁mylust	-6289
▁subsidi	-6290
▁découvrir	-6291
ties	-6292
▁fixé	-6293
▁commis	-6294
▁mix	-6295
▁rivière	-6296
▁stockage	-6297
▁interventions	-6298
▁voil	-6299
▁aliné	-6300
▁islam	-6301
▁pompe	-6302
▁hausse	-6303
▁entrepren	-6304
▁participé	-6305
▁sér	-6306
▁sand	-6307
▁mascul	-6308
▁réserv	-6309
ographiques	-6310
▁fourniture	-6311
▁recommandé	-6312
▁climatiques	-6313
▁soy	-6314
iliation	-6315
▁préoccupations	-6316
▁chatte	-6317
▁régionaux	-6318
▁partenaire	-6319
68	-6320
▁veux	-6321
bra	-6322
oud	-6323
èche	-6324
▁exercer	-6325
▁liée	-6326
culaire	-6327
▁intérieure	-6328
▁mons	-6329
▁sovi	-6330
▁vues	-6331
▁défaut	-6332
▁législatif	-6333
sur	-6334
sives	-6335
▁madr	-6336
▁honne	-6337
▁hellporno	-6338
▁représentation	-6339
▁gratuite	-6340
▁contrôler	-6341
▁tis	-6342
▁contem	-6343
▁menées	-6344
▁naturellement	-6345
▁800	-6346
▁disposer	-6347
.-	-6348
fre	-6349
the	-6350
▁prince	-6351
▁arrêter	-6352
▁introduit	-6353
▁↑	-6354
▁1970	-6355
▁sortir	-6356
▁inac	-6357
▁métal	-6358
▁combus	-6359
▁débats	-6360
don	-6361
▁willi	-6362
égé	-6363
▁abr	-6364
▁créée	-6365
▁écriv	-6366
▁vé	-6367
▁gol	-6368
▁distric	-6369
▁déficit	-6370
▁exemples	-6371
▁conçu	-6372
▁gérer	-6373
▁mexique	-6374
▁concrètes	-6375
fer	-6376
una	-6377
▁inspir	-6378
▁atteints	-6379
▁war	-6380
▁parven	-6381
▁équipement	-6382
▁mondialisation	-6383
▁simplification	-6384
▁affect	-6385
▁jurid	-6386
▁noire	-6387
▁transmis	-6388
▁intellectu	-6389
▁hém	-6390
▁remarqu	-6391
bi	-6392
▁hel	-6393
▁fumer	-6394
▁impose	-6395
ophe	-6396
▁âgés	-6397
▁boliv	-6398
▁avions	-6399
▁erreurs	-6400
▁bénéfice	-6401
pc	-6402
lip	-6403
chir	-6404
▁comportement	-6405
▁réex	-6406
iration	-6407
▁navire	-6408
39	-6409
▁rénov	-6410
▁congrès	-6411
rad	-6412
idation	-6413
▁indire	-6414
▁autrich	-6415
▁choisissez	-6416
,9	-6417
▁revient	-6418
président	-6419
▁bab	-6420
▁front	-6421
▁appartient	-6422
▁bénéficiaires	-6423
ores	-6424
▁lance	-6425
obation	-6426
▁venise	-6427
▁plantes	-6428
▁suppression	-6429
▁transmission	-6430
▁chinoise	-6431
▁ressortiss	-6432
▁essentielles	-6433
▁agenda	-6434
▁majeure	-6435
irus	-6436
uments	-6437
▁cougar	-6438
▁chacune	-6439
▁tromper	-6440
nez	-6441
▁ethn	-6442
▁confirm	-6443
▁carreaux	-6444
olo	-6445
▁morts	-6446
▁canadi	-6447
▁pourcentage	-6448
▁renv	-6449
outchou	-6450
▁92	-6451
▁effective	-6452
ône	-6453
uves	-6454
▁plat	-6455
▁partout	-6456
▁italienne	-6457
▁amer	-6458
▁sémin	-6459
▁échap	-6460
▁capable	-6461
▁libéralisation	-6462
▁fal	-6463
▁canal	-6464
▁royal	-6465
▁auraient	-6466
▁subventions	-6467
orus	-6468
imité	-6469
▁avoc	-6470
▁bases	-6471
▁rejoint	-6472
▁2.1	-6473
▁aime	-6474
▁proté	-6475
▁alcool	-6476
vin	-6477
▁thomas	-6478
▁arriver	-6479
▁décider	-6480
▁compétente	-6481
▁oise	-6482
▁plaque	-6483
▁instant	-6484
▁humanitaire	-6485
▁interprétation	-6486
▁abstentions	-6487
vid	-6488
▁dal	-6489
▁blan	-6490
▁doig	-6491
▁tap	-6492
▁cycl	-6493
▁réal	-6494
▁appuy	-6495
▁concerné	-6496
▁contribue	-6497
cipl	-6498
▁madrid	-6499
▁bén	-6500
▁animé	-6501
▁inclure	-6502
▁temporaire	-6503
mn	-6504
▁pul	-6505
resser	-6506
▁croix	-6507
▁attaque	-6508
dra	-6509
contre	-6510
▁restrictions	-6511
▁bout	-6512
▁assis	-6513
▁revanche	-6514
▁organiser	-6515
arde	-6516
▁reli	-6517
▁slov	-6518
▁christi	-6519
▁disposent	-6520
▁chrome	-6521
▁espèce	-6522
gos	-6523
▁wes	-6524
▁city	-6525
▁réta	-6526
▁visées	-6527
▁caoutchou	-6528
▁cc	-6529
change	-6530
tariat	-6531
▁étage	-6532
▁online	-6533
▁carbone	-6534
▁bancaire	-6535
▁historiques	-6536
èves	-6537
▁forêt	-6538
▁maroc	-6539
▁prière	-6540
▁numéros	-6541
▁approbation	-6542
▁88	-6543
▁formule	-6544
▁réflexion	-6545
▁domination	-6546
▁propriétés	-6547
▁recherches	-6548
▁architecture	-6549
▁160	-6550
▁scol	-6551
▁équipes	-6552
▁clitoris	-6553
▁initiale	-6554
▁naturelle	-6555
▁dar	-6556
▁vél	-6557
▁alinéa	-6558
▁accepté	-6559
▁finance	-6560
▁administrations	-6561
▁riches	-6562
▁présentée	-6563
▁refl	-6564
▁entendre	-6565
▁privilég	-6566
▁fréquence	-6567
▁conservation	-6568
▁tna	-6569
comp	-6570
▁fas	-6571
▁rense	-6572
▁combien	-6573
▁fournisseur	-6574
▁patient	-6575
▁préalable	-6576
▁télécommun	-6577
69	-6578
quée	-6579
▁modifié	-6580
▁approuve	-6581
▁australie	-6582
hen	-6583
▁jaune	-6584
▁chances	-6585
▁montrent	-6586
▁asp	-6587
▁radi	-6588
▁chimiques	-6589
hou	-6590
▁nul	-6591
▁tox	-6592
▁modifiant	-6593
▁présentent	-6594
ota	-6595
ypre	-6596
▁flacon	-6597
▁andre	-6598
▁honor	-6599
▁mainten	-6600
ст	-6601
omé	-6602
book	-6603
▁tac	-6604
▁william	-6605
▁remporte	-6606
31	-6607
▁allons	-6608
▁fondamental	-6609
▁89	-6610
ulée	-6611
▁octroi	-6612
▁expériment	-6613
▁fant	-6614
▁lancement	-6615
▁allu	-6616
onge	-6617
▁mille	-6618
▁conclure	-6619
▁entretien	-6620
▁constituer	-6621
▁règlements	-6622
▁wa	-6623
▁reb	-6624
▁réexam	-6625
oga	-6626
charge	-6627
▁célébr	-6628
▁manger	-6629
▁califor	-6630
▁honneur	-6631
▁sul	-6632
entin	-6633
▁chiffre	-6634
▁imposer	-6635
▁poser	-6636
▁motifs	-6637
▁séduire	-6638
ames	-6639
▁synth	-6640
,7	-6641
▁micha	-6642
▁apporte	-6643
▁×	-6644
sen	-6645
▁tnaflix	-6646
▁reconnaît	-6647
▁appliquent	-6648
▁electr	-6649
▁empire	-6650
bar	-6651
▁fou	-6652
▁world	-6653
▁douan	-6654
▁panier	-6655
▁stratégiques	-6656
▁bijou	-6657
▁tradition	-6658
ôts	-6659
▁hydr	-6660
▁habillées	-6661
▁dil	-6662
▁douze	-6663
▁particulières	-6664
ixe	-6665
anda	-6666
▁97	-6667
▁config	-6668
▁emballage	-6669
▁caoutchouc	-6670
naires	-6671
ériques	-6672
▁préserver	-6673
▁correctement	-6674
▁dépôt	-6675
▁exhib	-6676
▁latin	-6677
▁identité	-6678
-10	-6679
die	-6680
ots	-6681
▁employés	-6682
▁transpor	-6683
▁‘	-6684
enh	-6685
▁taxi	-6686
▁connue	-6687
▁pilote	-6688
▁positions	-6689
ova	-6690
▁noms	-6691
▁simul	-6692
ingue	-6693
▁plain	-6694
camping	-6695
▁élection	-6696
▁contraign	-6697
▁compatibles	-6698
▁pun	-6699
▁majeur	-6700
▁enseignant	-6701
▁exclusivement	-6702
▁labor	-6703
▁imprim	-6704
▁interpr	-6705
▁annivers	-6706
▁ky	-6707
▁aver	-6708
▁consens	-6709
▁étudiante	-6710
▁flexibilité	-6711
▁frap	-6712
▁chypre	-6713
▁intégr	-6714
▁introduire	-6715
▁vw	-6716
▁diplom	-6717
vador	-6718
▁peter	-6719
▁correspondant	-6720
und	-6721
▁94	-6722
▁mâ	-6723
▁cinéma	-6724
▁mouille	-6725
lare	-6726
▁140	-6727
▁nylon	-6728
malement	-6729
▁touristique	-6730
éric	-6731
▁atm	-6732
▁antiv	-6733
▁côtés	-6734
▁apprendre	-6735
▁identifier	-6736
▁62	-6737
▁ts	-6738
▁mir	-6739
▁usine	-6740
▁tarifs	-6741
▁simples	-6742
▁honduras	-6743
▁spa	-6744
▁prud	-6745
▁bains	-6746
▁méditerranée	-6747
tat	-6748
▁élo	-6749
▁beeg	-6750
▁présents	-6751
bu	-6752
alisés	-6753
▁solide	-6754
▁sûreté	-6755
▁cliniques	-6756
▁remplacer	-6757
▁pak	-6758
▁épouse	-6759
▁conserver	-6760
ctées	-6761
▁rémun	-6762
▁clinique	-6763
▁envisage	-6764
▁culturelle	-6765
▁expédi	-6766
titution	-6767
▁fréquent	-6768
érir	-6769
odoxe	-6770
cing	-6771
▁cade	-6772
▁litu	-6773
orn	-6774
▁sén	-6775
▁abus	-6776
▁envisager	-6777
▁ves	-6778
▁céléb	-6779
▁vieill	-6780
▁garantiss	-6781
bach	-6782
▁pav	-6783
▁tombe	-6784
▁parallèlement	-6785
▁inu	-6786
▁lié	-6787
▁med	-6788
▁prê	-6789
étiques	-6790
▁garder	-6791
lets	-6792
▁aupar	-6793
▁relève	-6794
▁pollution	-6795
▁sv	-6796
▁ajouté	-6797
▁carbur	-6798
▁permanent	-6799
▁kit	-6800
▁auparavant	-6801
icat	-6802
▁4.2	-6803
êtements	-6804
▁équitable	-6805
▁accessible	-6806
▁concernent	-6807
▁convergence	-6808
▁up	-6809
▁pisse	-6810
ére	-6811
èges	-6812
▁forma	-6813
▁maratre	-6814
▁paragraphes	-6815
ife	-6816
▁louer	-6817
▁genève	-6818
▁vivant	-6819
▁2007-20	-6820
▁intégré	-6821
▁généraux	-6822
▁fourni	-6823
▁plafond	-6824
elop	-6825
▁prenez	-6826
▁street	-6827
▁troupes	-6828
▁satisfais	-6829
▁78	-6830
ousse	-6831
▁carl	-6832
▁express	-6833
▁logique	-6834
▁artistes	-6835
▁permettrait	-6836
▁progressivement	-6837
ов	-6838
▁84	-6839
culp	-6840
▁effectué	-6841
▁existant	-6842
▁financer	-6843
▁naturels	-6844
▁orthodoxe	-6845
▁prisonn	-6846
▁confront	-6847
▁fédération	-6848
toires	-6849
▁défendre	-6850
▁fiscales	-6851
▁costa	-6852
▁réglementaires	-6853
▁visiter	-6854
-8	-6855
oute	-6856
▁faux	-6857
▁penser	-6858
▁philosoph	-6859
▁ges	-6860
▁land	-6861
▁relevant	-6862
▁multiples	-6863
▁libération	-6864
▁circu	-6865
utation	-6866
▁laisse	-6867
▁parfait	-6868
yne	-6869
▁viande	-6870
veille	-6871
empl	-6872
▁inég	-6873
▁ther	-6874
▁foyer	-6875
▁pharmac	-6876
▁ressort	-6877
▁mutuelle	-6878
érale	-6879
▁prison	-6880
▁injection	-6881
sic	-6882
ésie	-6883
▁réalisée	-6884
▁systématique	-6885
▁contributions	-6886
▁nich	-6887
▁tennis	-6888
▁interven	-6889
▁deviennent	-6890
▁difficulté	-6891
▁mouvements	-6892
dis	-6893
▁ww	-6894
▁revue	-6895
▁voilà	-6896
▁michel	-6897
▁régler	-6898
▁informa	-6899
▁centrales	-6900
har	-6901
▁riche	-6902
▁aérien	-6903
▁diamètre	-6904
▁substance	-6905
▁corruption	-6906
63	-6907
▁stable	-6908
▁visage	-6909
▁encontre	-6910
▁prenantes	-6911
▁déte	-6912
▁tournoi	-6913
▁propriétaire	-6914
▁revenir	-6915
▁accordée	-6916
▁établit	-6917
▁chercher	-6918
▁rê	-6919
▁dériv	-6920
▁entam	-6921
▁insul	-6922
▁étrangère	-6923
▁productivité	-6924
▁attitude	-6925
▁définies	-6926
▁industries	-6927
▁130	-6928
▁chan	-6929
▁écar	-6930
▁indienne	-6931
▁mp	-6932
▁brun	-6933
bs	-6934
guide	-6935
▁hans	-6936
▁norme	-6937
▁déclare	-6938
▁passion	-6939
avir	-6940
▁cuba	-6941
▁chasse	-6942
▁nettoy	-6943
▁religion	-6944
▁substanti	-6945
▁hoc	-6946
▁classés	-6947
▁feuilles	-6948
▁identification	-6949
zza	-6950
▁végé	-6951
▁joindre	-6952
icain	-6953
▁surv	-6954
▁rares	-6955
▁sarda	-6956
▁moscou	-6957
▁montres	-6958
criptions	-6959
▁profondeur	-6960
▁téléchargements	-6961
gets	-6962
▁1988	-6963
▁récente	-6964
▁flu	-6965
▁und	-6966
▁annex	-6967
▁ration	-6968
▁tw	-6969
▁3.2	-6970
onyme	-6971
▁turc	-6972
aisons	-6973
▁baise	-6974
▁volontaire	-6975
▁parlementaire	-6976
onner	-6977
▁élimination	-6978
▁géographique	-6979
▁enter	-6980
▁inaug	-6981
▁existent	-6982
▁contribué	-6983
▁chercheurs	-6984
tm	-6985
▁74	-6986
inaires	-6987
▁sports	-6988
▁calme	-6989
▁suffit	-6990
▁indépendants	-6991
iciles	-6992
▁frank	-6993
▁limité	-6994
▁renseigne	-6995
▁considérer	-6996
▁paramètres	-6997
▁considérant	-6998
bec	-6999
ound	-7000
▁cité	-7001
▁racc	-7002
issons	-7003
▁élaboré	-7004
▁étendre	-7005
▁prestations	-7006
▁gel	-7007
▁lady	-7008
▁libres	-7009
▁edition	-7010
▁sérieux	-7011
▁phénomène	-7012
urg	-7013
▁explic	-7014
▁pertes	-7015
▁collecte	-7016
▁exportations	-7017
rale	-7018
▁égypte	-7019
▁indépendante	-7020
entine	-7021
▁ultra	-7022
▁ventes	-7023
▁énergétiques	-7024
▁fisting	-7025
▁difficiles	-7026
37	-7027
▁jer	-7028
▁blanche	-7029
▁alphaporno	-7030
▁officiellement	-7031
rou	-7032
▁contacts	-7033
▁dispositifs	-7034
ij	-7035
tz	-7036
▁bass	-7037
itables	-7038
▁michael	-7039
ivre	-7040
▁bons	-7041
▁absor	-7042
▁visés	-7043
▁bottes	-7044
▁modernes	-7045
▁anniversaire	-7046
once	-7047
▁chant	-7048
▁reten	-7049
▁danois	-7050
▁mélange	-7051
▁signature	-7052
62	-7053
▁invité	-7054
▁christian	-7055
▁britanniques	-7056
▁certification	-7057
entiel	-7058
▁domes	-7059
▁énonc	-7060
▁évang	-7061
▁animal	-7062
▁cabine	-7063
▁estimé	-7064
▁forêts	-7065
▁million	-7066
▁consensus	-7067
▁sardaigne	-7068
ami	-7069
▁négl	-7070
▁revê	-7071
▁vallée	-7072
▁eh	-7073
▁4.4	-7074
▁	-7075
e	-7076
s	-7077
a	-7078
i	-7079
n	-7080
t	-7081
r	-7082
o	-7083
l	-7084
u	-7085
p	-7086
d	-7087
c	-7088
m	-7089
é	-7090
v	-7091
,	-7092
g	-7093
f	-7094
b	-7095
;	-7096
.	-7097
q	-7098
h	-7099
&	-7100
x	-7101
0	-7102
1	-7103
à	-7104
y	-7105
2	-7106
j	-7107
è	-7108
-	-7109
:	-7110
’	-7111
3	-7112
9	-7113
5	-7114
4	-7115
)	-7116
k	-7117
(	-7118
z	-7119
8	-7120
6	-7121
ê	-7122
7	-7123
w	-7124
/	-7125
ô	-7126
»	-7127
#	-7128
ç	-7129
â	-7130
«	-7131
î	-7132
%	-7133
û	-7134
?	-7135
œ	-7136
ã	-7137
ù	-7138
+	-7139
–	-7140
!	-7141
ï	-7142
°	-7143
©	-7144
€	-7145
ü	-7146
@	-7147
á	-7148
*	-7149
ë	-7150
ö	-7151
`	-7152
=	-7153
_	-7154
“	-7155
”	-7156
í	-7157
ó	-7158
ä	-7159
•	-7160
и	-7161
́	-7162
̈	-7163
$	-7164
о	-7165
®	-7166
—	-7167
с	-7168
н	-7169
а	-7170
\	-7171
в	-7172
е	-7173
т	-7174
‐	-7175
›	-7176
{	-7177
š	-7178
}	-7179
р	-7180
ø	-7181
¡	-7182
ñ	-7183
č	-7184
·	-7185
ß	-7186
↑	-7187
к	-7188
ō	-7189
×	-7190
‘	-7191
ă	-7192
ș	-7193
å	-7194
|	-7195
л	-7196
ú	-7197
м	-7198
†	-7199
~	-7200
M	-7201
T	-7202
ł	-7203
ć	-7204
⁄	-7205
¶	-7206
у	-7207
д	-7208
μ	-7209
б	-7210
з	-7211
≥	-7212
±	-7213
ž	-7214
α	-7215
ا	-7216
§	-7217
й	-7218
п	-7219
→	-7220
ο	-7221
æ	-7222
г	-7223
£	-7224
ř	-7225
ț	-7226
я	-7227
ā	-7228
ı	-7229
ū	-7230
ц	-7231
ι	-7232
¬	-7233
ν	-7234
ý	-7235
ε	-7236
х	-7237
ل	-7238
➫	-7239
λ	-7240
ч	-7241
▲	-7242
ر	-7243
„	-7244
κ	-7245
★	-7246
ь	-7247
ń	-7248
ş	-7249
ё	-7250
ě	-7251
і	-7252
ы	-7253
τ	-7254
ю	-7255
ي	-7256
ò	-7257
ш	-7258
′	-7259
ρ	-7260
э	-7261
ω	-7262
و	-7263
¦	-7264
ب	-7265
ś	-7266
ς	-7267
ن	-7268
ì	-7269
¢	-7270
õ	-7271
σ	-7272
م	-7273
≤	-7274
►	-7275
َ	-7276
η	-7277
ğ	-7278
↓	-7279
−	-7280
ф	-7281
ę	-7282
^	-7283
ő	-7284
δ	-7285
س	-7286
π	-7287
ð	-7288
ż	-7289
←	-7290
ά	-7291
ī	-7292
ъ	-7293
ѕ	-7294
¤	-7295
β	-7296
ع	-7297
ą	-7298
γ	-7299
ė	-7300
¥	-7301
●	-7302
ň	-7303
د	-7304
ی	-7305
ί	-7306
ف	-7307
N	-7308
υ	-7309
	-7310
ت	-7311
đ	-7312
‹	-7313
ж	-7314
ŕ	-7315
️	-7316
י	-7317
­	-7318
φ	-7319
本	-7320
♥	-7321
日	-7322
χ	-7323
̄	-7324
ة	-7325
щ	-7326
ー	-7327
ه	-7328
̇	-7329
ů	-7330
ح	-7331
ņ	-7332
ţ	-7333
έ	-7334
の	-7335
中	-7336
語	-7337
ό	-7338
↔	-7339
θ	-7340
ա	-7341
ē	-7342
ו	-7343
ン	-7344
ა	-7345
─	-7346
ा	-7347
ك	-7348
◄	-7349
þ	-7350
√	-7351
ِ	-7352
ი	-7353
א	-7354
ُ	-7355
ə	-7356
ї	-7357
ْ	-7358
ÿ	-7359
ج	-7360
✔	-7361
ź	-7362
ר	-7363
ि	-7364
ľ	-7365
न	-7366
✂	-7367
ξ	-7368
ה	-7369
्	-7370
ύ	-7371
ή	-7372
ב	-7373
ह	-7374
ी	-7375
‚	-7376
द	-7377
한	-7378
국	-7379
ى	-7380
ّ	-7381
أ	-7382
ش	-7383
₣	-7384
ル	-7385
	-7386
נ	-7387
	-7388
ל	-7389
र	-7390
ト	-7391
文	-7392
어	-7393
ク	-7394
ス	-7395
ť	-7396
ز	-7397
イ	-7398
क	-7399
	-7400
े	-7401
ッ	-7402
リ	-7403
國	-7404
ʼ	-7405
̧	-7406
	-7407
ת	-7408
ق	-7409
・	-7410
ラ	-7411
～	-7412
ώ	-7413
ն	-7414
‰	-7415
田	-7416
	-7417
	-7418
⇒	-7419
□	-7420
	-7421
ע	-7422
ア	-7423
子	-7424
ў	-7425
ד	-7426
ک	-7427
ल	-7428
し	-7429
人	-7430
大	-7431
♦	-7432
מ	-7433
خ	-7434
■	-7435
ː	-7436
ן	-7437
ש	-7438
ص	-7439
ज	-7440
ド	-7441
¿	-7442
ლ	-7443
ḥ	-7444
い	-7445
国	-7446
ď	-7447
ј	-7448
✓	-7449
	-7450
	-7451
ћ	-7452
ե	-7453
إ	-7454
ე	-7455
	-7456
ր	-7457
स	-7458
∞	-7459
、	-7460
	-7461
	-7462
ġ	-7463
ű	-7464
ʻ	-7465
ζ	-7466
व	-7467
ो	-7468
―	-7469
⇔	-7470
	-7471
ǎ	-7472
ʿ	-7473
म	-7474
ვ	-7475
ṣ	-7476
⁡	-7477
∈	-7478
≈	-7479
│	-7480
バ	-7481
	-7482
÷	-7483
ط	-7484
غ	-7485
რ	-7486
◀	-7487
☆	-7488
キ	-7489
コ	-7490
シ	-7491
テ	-7492
ロ	-7493
学	-7494
ħ	-7495
ψ	-7496
յ	-7497
ח	-7498
ं	-7499
ਿ	-7500
ร	-7501
᛬	-7502
り	-7503
マ	-7504
山	-7505
C	-7506
ּ	-7507
ם	-7508
آ	-7509
ـ	-7510
ु	-7511
ს	-7512
ế	-7513
ễ	-7514
ệ	-7515
う	-7516
タ	-7517
フ	-7518
和	-7519
州	-7520
海	-7521
	-7522
ơ	-7523
տ	-7524
ئ	-7525
گ	-7526
ਰ	-7527
་	-7528
▸	-7529
チ	-7530
ョ	-7531
女	-7532
川	-7533
生	-7534
神	-7535
ķ	-7536
ư	-7537
հ	-7538
ַ	-7539
ג	-7540
ז	-7541
ס	-7542
פ	-7543
़	-7544
ਾ	-7545
▪	-7546
な	-7547
み	-7548
ィ	-7549
プ	-7550
レ	-7551
三	-7552
公	-7553
族	-7554
道	-7555
	-7556
	-7557
ļ	-7558
ų	-7559
ǐ	-7560
ק	-7561
پ	-7562
ἀ	-7563
⋅	-7564
➤	-7565
が	-7566
こ	-7567
ち	-7568
て	-7569
と	-7570
ノ	-7571
ブ	-7572
一	-7573
原	-7574
法	-7575
ƒ	-7576
ǔ	-7577
כ	-7578
ਆ	-7579
ੁ	-7580
า	-7581
ნ	-7582
ხ	-7583
ồ	-7584
ῦ	-7585
‧	-7586
⟩	-7587
か	-7588
た	-7589
に	-7590
ん	-7591
エ	-7592
カ	-7593
ダ	-7594
ニ	-7595
ハ	-7596
モ	-7597
安	-7598
治	-7599
ŏ	-7600
ɔ	-7601
ɛ	-7602
ˈ	-7603
̀	-7604
ի	-7605
կ	-7606
ִ	-7607
צ	-7608
ض	-7609
प	-7610
ब	-7611
ბ	-7612
მ	-7613
ო	-7614
ᚢ	-7615
ṭ	-7616
‖	-7617
。	-7618
お	-7619
ら	-7620
る	-7621
ウ	-7622
ジ	-7623
信	-7624
内	-7625
天	-7626
木	-7627
白	-7628
社	-7629
者	-7630
衛	-7631
西	-7632
野	-7633
金	-7634
	-7635
̊	-7636
ђ	-7637
ո	-7638
ט	-7639
ً	-7640
ए	-7641
त	-7642
भ	-7643
ਹ	-7644
ก	-7645
เ	-7646
კ	-7647
შ	-7648
ạ	-7649
ọ	-7650
ἐ	-7651
‍	-7652
‡	-7653
∗	-7654
≡	-7655
あ	-7656
す	-7657
れ	-7658
サ	-7659
ボ	-7660
ミ	-7661
ム	-7662
ャ	-7663
上	-7664
主	-7665
司	-7666
宮	-7667
家	-7668
島	-7669
市	-7670
平	-7671
新	-7672
民	-7673
発	-7674
行	-7675
高	-7676
가	-7677
스	-7678
	-7679
ˆ	-7680
є	-7681
ս	-7682
ָ	-7683
ذ	-7684
ظ	-7685
چ	-7686
ग	-7687
া	-7688
ਦ	-7689
ด	-7690
น	-7691
ั	-7692
თ	-7693
ᠡ	-7694
ố	-7695
∼	-7696
◆	-7697
⟨	-7698
さ	-7699
ま	-7700
オ	-7701
ナ	-7702
代	-7703
北	-7704
地	-7705
太	-7706
客	-7707
寺	-7708
小	-7709
尔	-7710
式	-7711
愛	-7712
旅	-7713
時	-7714
東	-7715
火	-7716
自	-7717
鉄	-7718
이	-7719
	-7720
	-7721
	-7722
ĕ	-7723
ũ	-7724
ʾ	-7725
ү	-7726
մ	-7727
इ	-7728
च	-7729
॥	-7730
ਇ	-7731
ਕ	-7732
ਨ	-7733
จ	-7734
ว	-7735
ะ	-7736
ี	-7737
ས	-7738
ᚴ	-7739
ᠨ	-7740
ậ	-7741
ộ	-7742
ἰ	-7743
▼	-7744
☉	-7745
❤	-7746
く	-7747
だ	-7748
っ	-7749
は	-7750
よ	-7751
ろ	-7752
を	-7753
グ	-7754
ケ	-7755
下	-7756
九	-7757
仁	-7758
会	-7759
兼	-7760
十	-7761
口	-7762
古	-7763
団	-7764
少	-7765
書	-7766
月	-7767
有	-7768
林	-7769
江	-7770
王	-7771
華	-7772
藤	-7773
言	-7774
賞	-7775
郎	-7776
部	-7777
長	-7778
阿	-7779
集	-7780
雲	-7781
주	-7782
	-7783
ģ	-7784
ĸ	-7785
ŵ	-7786
˂	-7787
˃	-7788
љ	-7789
ө	-7790
ւ	-7791
ְ	-7792
आ	-7793
ਢ	-7794
ਪ	-7795
ม	-7796
฿	-7797
დ	-7798
უ	-7799
ᛅ	-7800
ᠠ	-7801
ᠢ	-7802
ᠰ	-7803
ả	-7804
ị	-7805
ứ	-7806
ὸ	-7807
◊	-7808
♠	-7809
♡	-7810
♣	-7811
き	-7812
つ	-7813
ゃ	-7814
ェ	-7815
ズ	-7816
ベ	-7817
ュ	-7818
ワ	-7819
不	-7820
二	-7821
京	-7822
光	-7823
六	-7824
初	-7825
前	-7826
力	-7827
南	-7828
县	-7829
史	-7830
四	-7831
城	-7832
堂	-7833
外	-7834
実	-7835
屋	-7836
店	-7837
急	-7838
所	-7839
政	-7840
明	-7841
祖	-7842
空	-7843
紀	-7844
美	-7845
表	-7846
軍	-7847
近	-7848
門	-7849
須	-7850
	-7851
	-7852
	-7853
R	-7854
ĺ	-7855
ŭ	-7856
ǒ	-7857
ǧ	-7858
̱	-7859
͡	-7860
њ	-7861
թ	-7862
լ	-7863
ث	-7864
ट	-7865
ू	-7866
ੀ	-7867
ാ	-7868
ช	-7869
ท	-7870
ส	-7871
ุ	-7872
ག	-7873
ོ	-7874
်	-7875
ძ	-7876
ᠦ	-7877
ḍ	-7878
ṯ	-7879
ớ	-7880
∂	-7881
∅	-7882
∑	-7883
∘	-7884
∙	-7885
「	-7886
け	-7887
そ	-7888
ど	-7889
ね	-7890
め	-7891
ァ	-7892
セ	-7893
ツ	-7894
パ	-7895
ビ	-7896
世	-7897
丸	-7898
他	-7899
入	-7900
兵	-7901
勝	-7902
博	-7903
合	-7904
吉	-7905
商	-7906
園	-7907
多	-7908
夫	-7909
布	-7910
帝	-7911
很	-7912
我	-7913
手	-7914
教	-7915
景	-7916
村	-7917
森	-7918
物	-7919
特	-7920
用	-7921
电	-7922
町	-7923
界	-7924
的	-7925
真	-7926
等	-7927
能	-7928
色	-7929
花	-7930
芸	-7931
菅	-7932
術	-7933
説	-7934
論	-7935
通	-7936
間	-7937
青	-7938
韓	-7939
風	-7940
馥	-7941
魔	-7942
김	-7943
라	-7944
로	-7945
미	-7946
시	-7947
요	-7948
조	-7949
	-7950
	-7951
	-7952
	-7953
	-7954
ɨ	-7955
ɾ	-7956
̓	-7957
џ	-7958
բ	-7959
գ	-7960
զ	-7961
պ	-7962
ք	-7963
ֶ	-7964
ֹ	-7965
ٰ	-7966
ख	-7967
ड	-7968
ध	-7969
फ	-7970
य	-7971
ਤ	-7972
ਮ	-7973
ਸ	-7974
ੈ	-7975
દ	-7976
ง	-7977
พ	-7978
ิ	-7979
่	-7980
้	-7981
ར	-7982
გ	-7983
ᚱ	-7984
ᚾ	-7985
ᛁ	-7986
ា	-7987
ᠣ	-7988
ᠪ	-7989
ᠭ	-7990
ᠲ	-7991
ᠶ	-7992
ḫ	-7993
ṇ	-7994
ấ	-7995
ề	-7996
ờ	-7997
ὶ	-7998
‒	-7999
∇	-8000
✎	-8001
⧍	-8002
」	-8003
〜	-8004
じ	-8005
で	-8006
へ	-8007
も	-8008
ゆ	-8009
ォ	-8010
ゲ	-8011
ゴ	-8012
ザ	-8013
ペ	-8014
ホ	-8015
ポ	-8016
メ	-8017
ヲ	-8018
个	-8019
之	-8020
事	-8021
五	-8022
井	-8023
伊	-8024
体	-8025
作	-8026
保	-8027
元	-8028
出	-8029
助	-8030
协	-8031
台	-8032
同	-8033
塚	-8034
士	-8035
宗	-8036
岡	-8037
帰	-8038
当	-8039
御	-8040
徳	-8041
心	-8042
成	-8043
房	-8044
拉	-8045
敬	-8046
昭	-8047
朗	-8048
格	-8049
正	-8050
水	-8051
波	-8052
焼	-8053
皇	-8054
相	-8055
竹	-8056
精	-8057
結	-8058
胡	-8059
舟	-8060
航	-8061
良	-8062
英	-8063
荒	-8064
薩	-8065
街	-8066
裕	-8067
谷	-8068
越	-8069
身	-8070
車	-8071
輔	-8072
院	-8073
陽	-8074
音	-8075
馬	-8076
鷹	-8077
龍	-8078
기	-8079
도	-8080
르	-8081
보	-8082
선	-8083
소	-8084
수	-8085
아	-8086
오	-8087
크	-8088
호	-8089
	-8090
	-8091
	-8092
	-8093
S	-8094
ċ	-8095
ĝ	-8096
ĭ	-8097
ŋ	-8098
ŝ	-8099
ʹ	-8100
̪	-8101
ϊ	-8102
ѐ	-8103
խ	-8104
ղ	-8105
վ	-8106
ֲ	-8107
،	-8108
ء	-8109
۳	-8110
ܡ	-8111
अ	-8112
श	-8113
দ	-8114
ব	-8115
ર	-8116
ા	-8117
்	-8118
ര	-8119
്	-8120
บ	-8121
ป	-8122
ล	-8123
ห	-8124
โ	-8125
์	-8126
ང	-8127
တ	-8128
မ	-8129
ာ	-8130
ေ	-8131
း	-8132
ზ	-8133
ტ	-8134
ფ	-8135
ᚦ	-8136
ᛏ	-8137
ᛦ	-8138
ᠤ	-8139
ᠥ	-8140
ᠬ	-8141
ᠵ	-8142
ầ	-8143
ẩ	-8144
ắ	-8145
ặ	-8146
ỳ	-8147
ỹ	-8148
ὀ	-8149
ὴ	-8150
ῆ	-8151
ῖ	-8152
‟	-8153
⁭	-8154
₩	-8155
↵	-8156
∃	-8157
∧	-8158
∨	-8159
∩	-8160
⊂	-8161
⊗	-8162
◎	-8163
◦	-8164
♭	-8165
✸	-8166
➟	-8167
➯	-8168
々	-8169
【	-8170
】	-8171
え	-8172
ご	-8173
ひ	-8174
び	-8175
ぼ	-8176
や	-8177
ゅ	-8178
ガ	-8179
ギ	-8180
ネ	-8181
ピ	-8182
ヤ	-8183
ユ	-8184
七	-8185
也	-8186
亀	-8187
交	-8188
今	-8189
以	-8190
伝	-8191
佐	-8192
修	-8193
健	-8194
傳	-8195
傻	-8196
刀	-8197
刊	-8198
別	-8199
化	-8200
号	-8201
名	-8202
回	-8203
圣	-8204
場	-8205
夕	-8206
夢	-8207
央	-8208
奥	-8209
好	-8210
守	-8211
室	-8212
尚	-8213
岩	-8214
左	-8215
師	-8216
帯	-8217
年	-8218
庆	-8219
庵	-8220
建	-8221
弘	-8222
形	-8223
影	-8224
後	-8225
思	-8226
恋	-8227
恩	-8228
悪	-8229
憲	-8230
戯	-8231
技	-8232
摩	-8233
救	-8234
斯	-8235
星	-8236
春	-8237
朝	-8238
条	-8239
果	-8240
業	-8241
榎	-8242
権	-8243
機	-8244
毛	-8245
気	-8246
汉	-8247
洋	-8248
洛	-8249
流	-8250
淳	-8251
清	-8252
瀬	-8253
為	-8254
父	-8255
玄	-8256
現	-8257
理	-8258
甲	-8259
男	-8260
番	-8261
痴	-8262
百	-8263
知	-8264
福	-8265
秀	-8266
筑	-8267
終	-8268
群	-8269
義	-8270
老	-8271
联	-8272
聯	-8273
茂	-8274
葉	-8275
蒙	-8276
虚	-8277
見	-8278
規	-8279
記	-8280
話	-8281
護	-8282
貢	-8283
赤	-8284
連	-8285
邦	-8286
酒	-8287
関	-8288
隆	-8289
順	-8290
頼	-8291
養	-8292
體	-8293
鸟	-8294
黄	-8295
니	-8296
다	-8297
링	-8298
말	-8299
민	-8300
바	-8301
사	-8302
성	-8303
실	-8304
약	-8305
여	-8306
우	-8307
위	-8308
을	-8309
의	-8310
인	-8311
일	-8312
투	-8313
티	-8314
하	-8315
화	-8316
	-8317
	-8318
	-8319
	-8320
	-8321
	-8322
ĉ	-8323
ĩ	-8324
ǀ	-8325
ǃ	-8326
ǫ	-8327
ɑ	-8328
ɓ	-8329
ɣ	-8330
ɪ	-8331
ʊ	-8332
ʒ	-8333
ʖ	-8334
ʺ	-8335
˗	-8336
̂	-8337
̆	-8338
̨	-8339
̲	-8340
͜	-8341
ΐ	-8342
Ξ	-8343
ΰ	-8344
ѓ	-8345
ќ	-8346
ѝ	-8347
ѿ	-8348
ң	-8349
ҫ	-8350
ӄ	-8351
է	-8352
ց	-8353
ֵ	-8354
ׁ	-8355
ף	-8356
ץ	-8357
ײ	-8358
ٌ	-8359
ٱ	-8360
ژ	-8361
ں	-8362
ھ	-8363
ہ	-8364
۱	-8365
۹	-8366
ܝ	-8367
ܪ	-8368
ओ	-8369
झ	-8370
ढ	-8371
ण	-8372
ै	-8373
ॉ	-8374
ौ	-8375
ॐ	-8376
ং	-8377
উ	-8378
ক	-8379
ন	-8380
প	-8381
ল	-8382
ে	-8383
ਅ	-8384
ਖ	-8385
ਧ	-8386
ਭ	-8387
ਲ	-8388
ੂ	-8389
੍	-8390
੧	-8391
ੰ	-8392
અ	-8393
ત	-8394
ન	-8395
લ	-8396
ી	-8397
ે	-8398
્	-8399
ல	-8400
ெ	-8401
ക	-8402
മ	-8403
യ	-8404
ശ	-8405
ി	-8406
ค	-8407
ธ	-8408
ย	-8409
ศ	-8410
อ	-8411
ใ	-8412
็	-8413
ມ	-8414
ཆ	-8415
ན	-8416
བ	-8417
མ	-8418
ཚ	-8419
ི	-8420
ུ	-8421
က	-8422
ရ	-8423
ღ	-8424
ყ	-8425
ც	-8426
ህ	-8427
ረ	-8428
ራ	-8429
ር	-8430
ᑦ	-8431
ᕗ	-8432
ᛋ	-8433
ᛒ	-8434
ᛘ	-8435
ក	-8436
្	-8437
᠋	-8438
ᠧ	-8439
ᠩ	-8440
ᠮ	-8441
ᠯ	-8442
ᠳ	-8443
ᠷ	-8444
ḇ	-8445
ḗ	-8446
ḡ	-8447
ḵ	-8448
ṅ	-8449
ṛ	-8450
ẻ	-8451
ợ	-8452
ủ	-8453
ữ	-8454
ἁ	-8455
ἄ	-8456
ἑ	-8457
ἕ	-8458
ἱ	-8459
ὑ	-8460
ὺ	-8461
ὼ	-8462
ῥ	-8463
ῶ	-8464
ῷ	-8465
℟	-8466
↗	-8467
⇐	-8468
∀	-8469
≠	-8470
≧	-8471
├	-8472
▄	-8473
▬	-8474
○	-8475
◙	-8476
♯	-8477
❀	-8478
⟶	-8479
⩽	-8480
ぃ	-8481
ぎ	-8482
げ	-8483
ず	-8484
ば	-8485
ふ	-8486
べ	-8487
ほ	-8488
む	-8489
ょ	-8490
わ	-8491
ソ	-8492
ヒ	-8493
与	-8494
乱	-8495
了	-8496
争	-8497
介	-8498
令	-8499
件	-8500
你	-8501
供	-8502
依	-8503
倉	-8504
優	-8505
兄	-8506
先	-8507
克	-8508
全	-8509
八	-8510
典	-8511
冒	-8512
净	-8513
切	-8514
列	-8515
刘	-8516
刻	-8517
劇	-8518
劉	-8519
労	-8520
区	-8521
千	-8522
卢	-8523
印	-8524
即	-8525
又	-8526
双	-8527
君	-8528
吹	-8529
命	-8530
咲	-8531
品	-8532
哈	-8533
員	-8534
唐	-8535
善	-8536
因	-8537
土	-8538
圭	-8539
坐	-8540
埃	-8541
基	-8542
堀	-8543
境	-8544
墓	-8545
増	-8546
夜	-8547
奈	-8548
如	-8549
妈	-8550
婦	-8551
字	-8552
季	-8553
宇	-8554
官	-8555
定	-8556
宣	-8557
富	-8558
寿	-8559
尊	-8560
尼	-8561
己	-8562
帆	-8563
干	-8564
庁	-8565
広	-8566
庭	-8567
康	-8568
弁	-8569
張	-8570
彦	-8571
徐	-8572
德	-8573
念	-8574
性	-8575
慶	-8576
懇	-8577
戦	-8578
戸	-8579
抱	-8580
提	-8581
援	-8582
攻	-8583
敏	-8584
数	-8585
斐	-8586
料	-8587
方	-8588
昌	-8589
是	-8590
普	-8591
晴	-8592
暮	-8593
曲	-8594
會	-8595
服	-8596
术	-8597
机	-8598
来	-8599
松	-8600
架	-8601
柄	-8602
柳	-8603
校	-8604
株	-8605
桐	-8606
梓	-8607
極	-8608
楼	-8609
概	-8610
横	-8611
樹	-8612
橋	-8613
次	-8614
歌	-8615
武	-8616
段	-8617
氏	-8618
气	-8619
永	-8620
汽	-8621
沢	-8622
河	-8623
泉	-8624
洗	-8625
浦	-8626
浮	-8627
満	-8628
漢	-8629
潮	-8630
灯	-8631
烧	-8632
焊	-8633
熙	-8634
爾	-8635
狐	-8636
狼	-8637
猫	-8638
獄	-8639
獣	-8640
産	-8641
登	-8642
益	-8643
直	-8644
省	-8645
看	-8646
督	-8647
瞬	-8648
短	-8649
石	-8650
研	-8651
祭	-8652
离	-8653
秋	-8654
科	-8655
称	-8656
稽	-8657
競	-8658
筆	-8659
筒	-8660
简	-8661
篇	-8662
籍	-8663
純	-8664
絵	-8665
編	-8666
繁	-8667
经	-8668
结	-8669
羅	-8670
聖	-8671
聡	-8672
肘	-8673
腹	-8674
臣	-8675
舍	-8676
舎	-8677
茶	-8678
莱	-8679
萨	-8680
落	-8681
葛	-8682
蔵	-8683
薬	-8684
蛮	-8685
裂	-8686
要	-8687
解	-8688
試	-8689
话	-8690
语	-8691
豊	-8692
貴	-8693
賜	-8694
走	-8695
路	-8696
軒	-8697
輪	-8698
辛	-8699
送	-8700
造	-8701
週	-8702
遊	-8703
運	-8704
達	-8705
遠	-8706
遺	-8707
避	-8708
郷	-8709
都	-8710
配	-8711
重	-8712
量	-8713
鈴	-8714
銀	-8715
鏡	-8716
鑒	-8717
银	-8718
阳	-8719
限	-8720
陵	-8721
陸	-8722
険	-8723
隊	-8724
隣	-8725
雄	-8726
難	-8727
雪	-8728
震	-8729
霍	-8730
霜	-8731
非	-8732
面	-8733
鞠	-8734
頂	-8735
頭	-8736
顕	-8737
飼	-8738
飾	-8739
香	-8740
馮	-8741
駸	-8742
駻	-8743
騁	-8744
魯	-8745
鮮	-8746
鵜	-8747
麗	-8748
黒	-8749
간	-8750
결	-8751
경	-8752
공	-8753
녀	-8754
대	-8755
두	-8756
때	-8757
래	-8758
레	-8759
리	-8760
린	-8761
마	-8762
명	-8763
뭔	-8764
박	-8765
반	-8766
배	-8767
베	-8768
부	-8769
브	-8770
비	-8771
삼	-8772
숨	-8773
안	-8774
엘	-8775
연	-8776
영	-8777
와	-8778
용	-8779
전	-8780
정	-8781
종	-8782
진	-8783
추	-8784
치	-8785
카	-8786
쿠	-8787
푸	-8788
혁	-8789
현	-8790
	-8791
	-8792
	-8793
	-8794
	-8795
￼	-8796
𐋏	-8797
Q	-8798
Z	-8799
	-8800
	-8801
ĥ	-8802
ƀ	-8803
ƍ	-8804
ƚ	-8805
ƶ	-8806
ǜ	-8807
ǝ	-8808
ǵ	-8809
ǻ	-8810
ǿ	-8811
ȃ	-8812
ȏ	-8813
ȗ	-8814
ȝ	-8815
ɐ	-8816
ɕ	-8817
ɗ	-8818
ɜ	-8819
ɫ	-8820
ɯ	-8821
ɰ	-8822
ɱ	-8823
ɵ	-8824
ɶ	-8825
ʀ	-8826
ʁ	-8827
ʃ	-8828
ʋ	-8829
ʔ	-8830
ʕ	-8831
ʧ	-8832
ˇ	-8833
̥	-8834
̯	-8835
ϝ	-8836
ѧ	-8837
ґ	-8838
ҕ	-8839
ҳ	-8840
ӈ	-8841
ӎ	-8842
ӫ	-8843
ӷ	-8844
ԛ	-8845
ժ	-8846
ծ	-8847
չ	-8848
ջ	-8849
ռ	-8850
ֆ	-8851
ׂ	-8852
ך	-8853
ؤ	-8854
ٍ	-8855
ٹ	-8856
ځ	-8857
ڃ	-8858
ڈ	-8859
ڑ	-8860
ڞ	-8861
ۋ	-8862
۰	-8863
۶	-8864
ܐ	-8865
ܘ	-8866
ܬ	-8867
ݣ	-8868
ँ	-8869
उ	-8870
ऋ	-8871
औ	-8872
घ	-8873
ष	-8874
চ	-8875
জ	-8876
ধ	-8877
ম	-8878
য	-8879
র	-8880
শ	-8881
স	-8882
হ	-8883
ি	-8884
ু	-8885
ূ	-8886
্	-8887
ਉ	-8888
ਛ	-8889
ਜ	-8890
ਟ	-8891
ਣ	-8892
ਥ	-8893
ਫ	-8894
ਵ	-8895
਼	-8896
ੇ	-8897
ੋ	-8898
੨	-8899
ઇ	-8900
ગ	-8901
બ	-8902
વ	-8903
સ	-8904
હ	-8905
ુ	-8906
କ	-8907
ଚ	-8908
ଡ	-8909
଼	-8910
ି	-8911
ୋ	-8912
க	-8913
ங	-8914
ச	-8915
ன	-8916
ப	-8917
ம	-8918
ஹ	-8919
ா	-8920
ം	-8921
ച	-8922
ണ	-8923
ത	-8924
ധ	-8925
വ	-8926
ഷ	-8927
ൂ	-8928
ญ	-8929
ฎ	-8930
ต	-8931
ฟ	-8932
ฬ	-8933
ฯ	-8934
ึ	-8935
ื	-8936
ู	-8937
แ	-8938
ไ	-8939
๊	-8940
๑	-8941
๒	-8942
๓	-8943
ງ	-8944
ຊ	-8945
ດ	-8946
ນ	-8947
ອ	-8948
າ	-8949
ື	-8950
ຸ	-8951
ົ	-8952
ໄ	-8953
້	-8954
ໍ	-8955
ཁ	-8956
ད	-8957
པ	-8958
ལ	-8959
ྐ	-8960
ྨ	-8961
ྱ	-8962
ྲ	-8963
င	-8964
ပ	-8965
လ	-8966
သ	-8967
အ	-8968
ိ	-8969
ု	-8970
ျ	-8971
ြ	-8972
ွ	-8973
პ	-8974
ქ	-8975
ჩ	-8976
წ	-8977
ჭ	-8978
ჯ	-8979
ᅮ	-8980
ᅲ	-8981
ላ	-8982
ማ	-8983
ሞ	-8984
ሲ	-8985
ስ	-8986
በ	-8987
ባ	-8988
ቲ	-8989
ቴ	-8990
ት	-8991
ና	-8992
ኢ	-8993
እ	-8994
ክ	-8995
ዊ	-8996
የ	-8997
ያ	-8998
ዮ	-8999
ደ	-9000
ዴ	-9001
ጵ	-9002
ፈ	-9003
ፌ	-9004
ፓ	-9005
ᑭ	-9006
ᓂ	-9007
ᓄ	-9008
ᓇ	-9009
ᓕ	-9010
ᓪ	-9011
ᓴ	-9012
ᕙ	-9013
ᖅ	-9014
ᙱ	-9015
ᚠ	-9016
ᛚ	-9017
ជ	-9018
ណ	-9019
ថ	-9020
ទ	-9021
ប	-9022
ព	-9023
ម	-9024
យ	-9025
រ	-9026
ល	-9027
ឹ	-9028
ុ	-9029
៍	-9030
᠌	-9031
ᵻ	-9032
ḏ	-9033
ḑ	-9034
ḟ	-9035
ḩ	-9036
ḯ	-9037
ḱ	-9038
ṁ	-9039
ṃ	-9040
ṙ	-9041
ṟ	-9042
ṱ	-9043
ẋ	-9044
ẓ	-9045
ẗ	-9046
ằ	-9047
ẹ	-9048
ẽ	-9049
ổ	-9050
ở	-9051
ụ	-9052
ỻ	-9053
ἔ	-9054
ἡ	-9055
ἢ	-9056
ἶ	-9057
ὁ	-9058
ὔ	-9059
ὰ	-9060
ὲ	-9061
ᾶ	-9062
ῃ	-9063
ῄ	-9064
ῇ	-9065
ῳ	-9066
₦	-9067
₪	-9068
℗	-9069
↦	-9070
⇌	-9071
⇑	-9072
∆	-9073
∉	-9074
∖	-9075
∝	-9076
∮	-9077
≃	-9078
≟	-9079
≦	-9080
≪	-9081
≫	-9082
⊆	-9083
⋀	-9084
⋁	-9085
⋆	-9086
⋯	-9087
⌊	-9088
⌋	-9089
⌘	-9090
└	-9091
┼	-9092
▢	-9093
▶	-9094
▷	-9095
▾	-9096
◡	-9097
◩	-9098
◪	-9099
☐	-9100
☫	-9101
☹	-9102
☼	-9103
♪	-9104
⚠	-9105
✘	-9106
✝	-9107
✻	-9108
❅	-9109
❒	-9110
➔	-9111
➝	-9112
➢	-9113
⠐	-9114
⠞	-9115
⠱	-9116
⭐	-9117
ⱅ	-9118
ⱳ	-9119
ⴕ	-9120
ⴱ	-9121
ⵉ	-9122
ⵍ	-9123
ⵎ	-9124
ⵔ	-9125
ⵖ	-9126
ぐ	-9127
せ	-9128
ぞ	-9129
ぬ	-9130
ぴ	-9131
ゼ	-9132
ヂ	-9133
デ	-9134
ヴ	-9135
丁	-9136
万	-9137
丑	-9138
且	-9139
丘	-9140
丙	-9141
东	-9142
並	-9143
丰	-9144
临	-9145
为	-9146
久	-9147
乌	-9148
乐	-9149
乗	-9150
互	-9151
亚	-9152
亡	-9153
享	-9154
亳	-9155
仄	-9156
仆	-9157
付	-9158
们	-9159
仰	-9160
仲	-9161
伍	-9162
休	-9163
伦	-9164
伯	-9165
位	-9166
佛	-9167
佤	-9168
佩	-9169
佬	-9170
佳	-9171
使	-9172
侃	-9173
例	-9174
侗	-9175
価	-9176
侬	-9177
便	-9178
俊	-9179
候	-9180
倫	-9181
傣	-9182
傭	-9183
傲	-9184
傾	-9185
働	-9186
僕	-9187
充	-9188
児	-9189
兒	-9190
共	-9191
具	-9192
再	-9193
冗	-9194
写	-9195
冠	-9196
冥	-9197
冬	-9198
冷	-9199
几	-9200
利	-9201
到	-9202
券	-9203
剛	-9204
剣	-9205
副	-9206
功	-9207
加	-9208
努	-9209
動	-9210
務	-9211
勢	-9212
勤	-9213
包	-9214
匇	-9215
匡	-9216
匹	-9217
医	-9218
午	-9219
半	-9220
华	-9221
卓	-9222
協	-9223
单	-9224
卡	-9225
危	-9226
厦	-9227
厳	-9228
去	-9229
參	-9230
取	-9231
变	-9232
只	-9233
右	-9234
吐	-9235
向	-9236
吠	-9237
否	-9238
吳	-9239
呂	-9240
呆	-9241
呉	-9242
周	-9243
味	-9244
咖	-9245
哀	-9246
哥	-9247
哩	-9248
哲	-9249
啤	-9250
喜	-9251
單	-9252
営	-9253
嗣	-9254
团	-9255
困	-9256
図	-9257
圧	-9258
场	-9259
址	-9260
坂	-9261
垂	-9262
型	-9263
垣	-9264
堤	-9265
塩	-9266
塵	-9267
增	-9268
墨	-9269
売	-9270
壺	-9271
変	-9272
夏	-9273
夷	-9274
奇	-9275
奉	-9276
奏	-9277
契	-9278
奧	-9279
妇	-9280
妊	-9281
妲	-9282
始	-9283
委	-9284
姫	-9285
姿	-9286
娘	-9287
嫩	-9288
孙	-9289
孫	-9290
學	-9291
宋	-9292
宏	-9293
宝	-9294
宪	-9295
宫	-9296
害	-9297
容	-9298
寄	-9299
密	-9300
寛	-9301
对	-9302
専	-9303
将	-9304
尕	-9305
局	-9306
居	-9307
属	-9308
岔	-9309
岳	-9310
岸	-9311
崇	-9312
崎	-9313
嵐	-9314
工	-9315
已	-9316
巴	-9317
巻	-9318
希	-9319
席	-9320
幕	-9321
幣	-9322
幸	-9323
幻	-9324
庄	-9325
库	-9326
底	-9327
度	-9328
庸	-9329
廖	-9330
廣	-9331
廬	-9332
延	-9333
廷	-9334
弄	-9335
弐	-9336
弓	-9337
弗	-9338
弟	-9339
张	-9340
弥	-9341
弱	-9342
強	-9343
弾	-9344
归	-9345
彩	-9346
彰	-9347
役	-9348
彼	-9349
征	-9350
律	-9351
復	-9352
徹	-9353
必	-9354
志	-9355
忠	-9356
怕	-9357
怖	-9358
怪	-9359
恐	-9360
恰	-9361
悟	-9362
情	-9363
惡	-9364
想	-9365
愉	-9366
意	-9367
感	-9368
慈	-9369
慎	-9370
慢	-9371
懒	-9372
戴	-9373
戶	-9374
才	-9375
打	-9376
扔	-9377
抄	-9378
折	-9379
拒	-9380
拙	-9381
招	-9382
指	-9383
捷	-9384
授	-9385
掉	-9386
掛	-9387
搜	-9388
搬	-9389
摄	-9390
撃	-9391
擁	-9392
操	-9393
支	-9394
改	-9395
故	-9396
敷	-9397
斉	-9398
斎	-9399
斬	-9400
早	-9401
昆	-9402
昇	-9403
易	-9404
晉	-9405
晋	-9406
智	-9407
曾	-9408
最	-9409
朕	-9410
望	-9411
朧	-9412
未	-9413
末	-9414
李	-9415
杜	-9416
杰	-9417
枕	-9418
枚	-9419
枪	-9420
枯	-9421
柴	-9422
栖	-9423
根	-9424
栽	-9425
桃	-9426
桌	-9427
桑	-9428
梁	-9429
梅	-9430
梦	-9431
械	-9432
梶	-9433
棍	-9434
椿	-9435
楊	-9436
楚	-9437
楠	-9438
楮	-9439
楽	-9440
榮	-9441
構	-9442
様	-9443
標	-9444
橘	-9445
櫻	-9446
欠	-9447
欢	-9448
歩	-9449
歳	-9450
歸	-9451
死	-9452
残	-9453
殤	-9454
殷	-9455
毅	-9456
母	-9457
毒	-9458
比	-9459
氵	-9460
氷	-9461
汪	-9462
沒	-9463
沓	-9464
沖	-9465
沙	-9466
没	-9467
泛	-9468
注	-9469
泰	-9470
洁	-9471
洒	-9472
津	-9473
洪	-9474
浄	-9475
浜	-9476
浩	-9477
涌	-9478
涙	-9479
淀	-9480
淞	-9481
淡	-9482
済	-9483
渚	-9484
温	-9485
港	-9486
湖	-9487
滅	-9488
滑	-9489
滨	-9490
滿	-9491
演	-9492
潁	-9493
潔	-9494
澗	-9495
澳	-9496
激	-9497
濁	-9498
濃	-9499
灌	-9500
灣	-9501
灰	-9502
灵	-9503
炎	-9504
熊	-9505
爆	-9506
爵	-9507
牡	-9508
牢	-9509
牲	-9510
犠	-9511
犬	-9512
狂	-9513
狗	-9514
独	-9515
猶	-9516
猿	-9517
玖	-9518
玩	-9519
珈	-9520
珠	-9521
球	-9522
琲	-9523
琴	-9524
瓜	-9525
甘	-9526
甜	-9527
由	-9528
留	-9529
畠	-9530
略	-9531
異	-9532
當	-9533
畿	-9534
疗	-9535
病	-9536
癖	-9537
皦	-9538
皮	-9539
盈	-9540
盗	-9541
盛	-9542
盤	-9543
目	-9544
眞	-9545
眠	-9546
眩	-9547
睿	-9548
矢	-9549
砖	-9550
硯	-9551
碉	-9552
磔	-9553
磨	-9554
示	-9555
礼	-9556
祜	-9557
秘	-9558
税	-9559
稚	-9560
積	-9561
究	-9562
窟	-9563
竈	-9564
立	-9565
站	-9566
竜	-9567
章	-9568
端	-9569
符	-9570
第	-9571
箋	-9572
節	-9573
範	-9574
籠	-9575
粥	-9576
粧	-9577
糸	-9578
系	-9579
紅	-9580
紋	-9581
納	-9582
紐	-9583
索	-9584
組	-9585
経	-9586
絞	-9587
絡	-9588
給	-9589
絲	-9590
絶	-9591
絹	-9592
經	-9593
続	-9594
緋	-9595
総	-9596
緒	-9597
線	-9598
縁	-9599
繊	-9600
織	-9601
红	-9602
级	-9603
纯	-9604
绍	-9605
综	-9606
罗	-9607
置	-9608
署	-9609
羈	-9610
羯	-9611
翩	-9612
聞	-9613
聪	-9614
職	-9615
肃	-9616
肇	-9617
肯	-9618
肺	-9619
胎	-9620
胞	-9621
脂	-9622
脑	-9623
腰	-9624
臍	-9625
臓	-9626
臨	-9627
興	-9628
舊	-9629
舞	-9630
艦	-9631
芙	-9632
芝	-9633
苓	-9634
苗	-9635
若	-9636
苦	-9637
茨	-9638
草	-9639
荊	-9640
荷	-9641
菊	-9642
菖	-9643
菟	-9644
葵	-9645
蒂	-9646
蒲	-9647
蒸	-9648
蓄	-9649
藁	-9650
藏	-9651
蘋	-9652
蘿	-9653
號	-9654
蛙	-9655
蜂	-9656
蝋	-9657
蝕	-9658
蝦	-9659
螢	-9660
蟲	-9661
蟹	-9662
蠍	-9663
衆	-9664
装	-9665
裏	-9666
裸	-9667
製	-9668
複	-9669
褐	-9670
襖	-9671
覇	-9672
覚	-9673
親	-9674
観	-9675
觀	-9676
见	-9677
视	-9678
角	-9679
触	-9680
訓	-9681
許	-9682
評	-9683
詠	-9684
詩	-9685
詳	-9686
誠	-9687
調	-9688
談	-9689
謝	-9690
譌	-9691
譚	-9692
譜	-9693
變	-9694
讐	-9695
讨	-9696
议	-9697
论	-9698
评	-9699
象	-9700
豪	-9701
豹	-9702
貝	-9703
財	-9704
賀	-9705
資	-9706
賈	-9707
賊	-9708
賑	-9709
赛	-9710
赡	-9711
起	-9712
超	-9713
趙	-9714
跡	-9715
践	-9716
踊	-9717
蹣	-9718
蹴	-9719
載	-9720
輩	-9721
輸	-9722
轄	-9723
软	-9724
辅	-9725
辉	-9726
辞	-9727
農	-9728
辺	-9729
込	-9730
达	-9731
迎	-9732
迷	-9733
迹	-9734
追	-9735
退	-9736
逆	-9737
途	-9738
進	-9739
遍	-9740
遥	-9741
選	-9742
遼	-9743
邊	-9744
那	-9745
邮	-9746
邱	-9747
郑	-9748
鄭	-9749
酔	-9750
醜	-9751
醸	-9752
釈	-9753
里	-9754
銃	-9755
銖	-9756
銘	-9757
鋼	-9758
錢	-9759
錦	-9760
録	-9761
鍛	-9762
鍵	-9763
鐘	-9764
鑫	-9765
鑽	-9766
钱	-9767
閉	-9768
開	-9769
闘	-9770
门	-9771
阴	-9772
降	-9773
陞	-9774
陥	-9775
险	-9776
陪	-9777
陰	-9778
陳	-9779
隻	-9780
隼	-9781
雅	-9782
雍	-9783
雛	-9784
離	-9785
雨	-9786
零	-9787
霊	-9788
靖	-9789
静	-9790
革	-9791
鞍	-9792
韶	-9793
頁	-9794
頃	-9795
頑	-9796
領	-9797
頡	-9798
頥	-9799
頱	-9800
頻	-9801
題	-9802
類	-9803
飯	-9804
飲	-9805
館	-9806
馗	-9807
馳	-9808
駅	-9809
駑	-9810
駘	-9811
駭	-9812
駯	-9813
駱	-9814
験	-9815
驴	-9816
骨	-9817
髄	-9818
髪	-9819
髭	-9820
髮	-9821
鬼	-9822
魏	-9823
鮫	-9824
鱵	-9825
鳥	-9826
鳳	-9827
鳴	-9828
鴩	-9829
鴻	-9830
鶉	-9831
鶻	-9832
鸦	-9833
鹤	-9834
鹰	-9835
鹿	-9836
麓	-9837
麻	-9838
麿	-9839
黃	-9840
黑	-9841
鼓	-9842
鼠	-9843
齋	-9844
齐	-9845
齢	-9846
꒰	-9847
ꜫ	-9848
감	-9849
강	-9850
개	-9851
거	-9852
곡	-9853
골	-9854
곽	-9855
관	-9856
광	-9857
괴	-9858
구	-9859
귀	-9860
귈	-9861
규	-9862
근	-9863
금	-9864
나	-9865
남	-9866
네	-9867
년	-9868
노	-9869
닐	-9870
동	-9871
드	-9872
디	-9873
락	-9874
란	-9875
랑	-9876
램	-9877
랴	-9878
렌	-9879
려	-9880
력	-9881
록	-9882
료	-9883
루	-9884
류	-9885
립	-9886
막	-9887
만	-9888
문	-9889
물	-9890
밀	-9891
발	-9892
밥	-9893
백	-9894
본	-9895
볼	-9896
북	-9897
분	-9898
블	-9899
빙	-9900
산	-9901
상	-9902
서	-9903
설	-9904
션	-9905
손	-9906
송	-9907
쇼	-9908
알	-9909
앵	-9910
양	-9911
억	-9912
에	-9913
역	-9914
온	-9915
완	-9916
왕	-9917
왼	-9918
욱	-9919
워	-9920
웍	-9921
웰	-9922
유	-9923
윤	-9924
자	-9925
재	-9926
점	-9927
제	-9928
즈	-9929
차	-9930
찬	-9931
천	-9932
철	-9933
체	-9934
커	-9935
컨	-9936
컴	-9937
케	-9938
켄	-9939
코	-9940
콜	-9941
쿤	-9942
타	-9943
탐	-9944
태	-9945
터	-9946
토	-9947
트	-9948
파	-9949
판	-9950
페	-9951
평	-9952
포	-9953
프	-9954
피	-9955
핃	-9956
학	-9957
합	-9958
해	-9959
허	-9960
혈	-9961
협	-9962
황	-9963
효	-9964
훅	-9965
흡	-9966
	-9967
	-9968
	-9969
	-9970
	-9971
	-9972
	-9973
	-9974
	-9975
	-9976
	-9977
	-9978
	-9979
	-9980
	-9981
	-9982
	-9983
𐊡	-9984
𐊤	-9985
𐊦	-9986
𐊶	-9987
𐊺	-9988
𐊼	-9989
𐊽	-9990
𐋀	-9991
𐋁	-9992
𐋂	-9993
𐋃	-9994
𐋇	-9995
𐋈	-9996
