<unk>	0
<s>	0
</s>	0
en	-0
er	-1
▁d	-2
ch	-3
in	-4
un	-5
ie	-6
▁s	-7
▁a	-8
▁,	-9
ei	-10
st	-11
▁v	-12
▁b	-13
▁w	-14
▁e	-15
on	-16
ge	-17
▁die	-18
▁m	-19
▁.	-20
sch	-21
an	-22
▁un	-23
ung	-24
▁der	-25
ich	-26
te	-27
▁f	-28
or	-29
▁z	-30
ti	-31
▁k	-32
▁und	-33
▁in	-34
es	-35
▁h	-36
▁ein	-37
ar	-38
ten	-39
ur	-40
▁n	-41
ll	-42
▁i	-43
▁au	-44
it	-45
▁p	-46
as	-47
hr	-48
al	-49
gen	-50
▁r	-51
▁ge	-52
▁zu	-53
▁g	-54
den	-55
em	-56
ter	-57
▁l	-58
der	-59
am	-60
▁be	-61
▁ver	-62
▁1	-63
de	-64
▁er	-65
▁an	-66
ra	-67
lich	-68
at	-69
is	-70
▁t	-71
ür	-72
eit	-73
ir	-74
▁von	-75
▁j	-76
se	-77
isch	-78
ein	-79
▁den	-80
▁:	-81
▁das	-82
▁2	-83
om	-84
ber	-85
au	-86
▁mit	-87
ro	-88
um	-89
▁auf	-90
▁vor	-91
ent	-92
el	-93
ol	-94
ier	-95
▁für	-96
▁)	-97
▁des	-98
tion	-99
ach	-100
▁(	-101
men	-102
icht	-103
▁sch	-104
▁st	-105
tz	-106
ben	-107
ig	-108
ck	-109
▁wir	-110
▁im	-111
sen	-112
▁o	-113
il	-114
re	-115
▁aus	-116
ft	-117
ahr	-118
ungen	-119
▁ist	-120
le	-121
us	-122
▁sie	-123
ste	-124
▁so	-125
ah	-126
and	-127
▁c	-128
▁re	-129
ne	-130
ot	-131
än	-132
über	-133
eich	-134
00	-135
ff	-136
▁wer	-137
▁&	-138
▁eine	-139
be	-140
sp	-141
si	-142
ischen	-143
ien	-144
▁dem	-145
op	-146
▁al	-147
kt	-148
▁über	-149
ser	-150
ri	-151
▁um	-152
▁sich	-153
▁-	-154
▁ar	-155
eu	-156
▁werden	-157
ation	-158
nen	-159
▁es	-160
▁3	-161
scha	-162
▁unter	-163
▁jahr	-164
qu	-165
▁bei	-166
ind	-167
▁;	-168
▁nicht	-169
▁ab	-170
▁ent	-171
▁eur	-172
ann	-173
lle	-174
▁da	-175
▁0	-176
▁sp	-177
rei	-178
▁nach	-179
ungs	-180
ag	-181
os	-182
▁pro	-183
▁kom	-184
lie	-185
▁ber	-186
▁ihr	-187
▁/	-188
sten	-189
▁dass	-190
och	-191
ver	-192
uch	-193
eil	-194
llen	-195
schaft	-196
▁am	-197
sam	-198
ehr	-199
▁als	-200
▁zur	-201
amp	-202
▁sein	-203
hen	-204
▁europ	-205
iel	-206
▁wird	-207
tig	-208
ing	-209
im	-210
▁sind	-211
▁wur	-212
▁gr	-213
gr	-214
wei	-215
hal	-216
aten	-217
urch	-218
zu	-219
et	-220
▁19	-221
tel	-222
▁auch	-223
▁4	-224
▁wie	-225
▁her	-226
ik	-227
ische	-228
▁ha	-229
ern	-230
und	-231
lichen	-232
ul	-233
▁durch	-234
end	-235
ort	-236
sion	-237
anz	-238
▁20	-239
ang	-240
ab	-241
aus	-242
rä	-243
▁le	-244
▁oder	-245
la	-246
▁hat	-247
▁komm	-248
quot	-249
he	-250
▁5	-251
är	-252
ön	-253
▁ma	-254
▁einer	-255
fü	-256
for	-257
ster	-258
▁dies	-259
▁kon	-260
sta	-261
▁ich	-262
▁europä	-263
ts	-264
wer	-265
ün	-266
ör	-267
ick	-268
ion	-269
liche	-270
hl	-271
ut	-272
uss	-273
▁war	-274
keit	-275
enn	-276
ger	-277
▁wurde	-278
▁je	-279
gt	-280
di	-281
▁200	-282
fen	-283
schl	-284
ati	-285
▁ste	-286
me	-287
ap	-288
▁mon	-289
▁kön	-290
heit	-291
▁wei	-292
▁gro	-293
hn	-294
▁gem	-295
nah	-296
ission	-297
schen	-298
tik	-299
▁de	-300
▁se	-301
mer	-302
tet	-303
zi	-304
beit	-305
rie	-306
▁ch	-307
▁groß	-308
rü	-309
tra	-310
stell	-311
▁201	-312
ru	-313
fe	-314
ad	-315
▁­	-316
▁diese	-317
oli	-318
▁par	-319
eiten	-320
▁bes	-321
chen	-322
▁zum	-323
▁einen	-324
lin	-325
▁dar	-326
og	-327
itä	-328
glie	-329
dern	-330
▁kommission	-331
ran	-332
setz	-333
▁all	-334
rit	-335
gel	-336
▁neu	-337
ate	-338
▁haben	-339
▁fe	-340
ahl	-341
▁bet	-342
▁ho	-343
hmen	-344
▁einem	-345
ähr	-346
▁verb	-347
▁zw	-348
▁en	-349
bar	-350
▁hin	-351
▁kl	-352
cht	-353
▁mitglie	-354
orn	-355
▁bl	-356
▁18	-357
alen	-358
▁bis	-359
iert	-360
igen	-361
ill	-362
▁jahren	-363
▁inter	-364
▁te	-365
ob	-366
nis	-367
ord	-368
▁gl	-369
ffen	-370
pp	-371
▁gen	-372
bl	-373
atz	-374
ak	-375
▁fra	-376
ve	-377
▁dieser	-378
▁ander	-379
elt	-380
ht	-381
▁6	-382
ierung	-383
▁soll	-384
all	-385
ück	-386
utz	-387
▁gew	-388
führ	-389
du	-390
geb	-391
reich	-392
▁wenn	-393
▁europäischen	-394
▁gemein	-395
che	-396
iz	-397
ommen	-398
imm	-399
▁mehr	-400
▁x	-401
ieren	-402
▁zusam	-403
ige	-404
del	-405
▁schw	-406
▁zusammen	-407
tschaft	-408
▁fin	-409
ken	-410
▁we	-411
age	-412
her	-413
▁–	-414
▁mitglied	-415
▁mö	-416
glich	-417
ner	-418
▁mar	-419
üs	-420
▁reg	-421
▁ko	-422
ass	-423
▁können	-424
▁&#	-425
eine	-426
pf	-427
▁ti	-428
ok	-429
▁kann	-430
▁wo	-431
auf	-432
zen	-433
ic	-434
fahr	-435
ale	-436
▁herr	-437
▁entw	-438
▁eu	-439
▁gegen	-440
mit	-441
teil	-442
ktion	-443
ität	-444
▁for	-445
ers	-446
änder	-447
▁ihre	-448
▁“	-449
▁7	-450
det	-451
sche	-452
▁ange	-453
▁nur	-454
lung	-455
ant	-456
▁weiter	-457
org	-458
▁aber	-459
kte	-460
▁ö	-461
▁ne	-462
form	-463
bt	-464
lei	-465
▁mitgliedsta	-466
▁zwei	-467
▁ger	-468
wie	-469
▁„	-470
▁10	-471
tung	-472
▁8	-473
▁was	-474
▁quot	-475
▁arbeit	-476
▁best	-477
▁geb	-478
oll	-479
ist	-480
lä	-481
▁entwick	-482
ov	-483
nehmen	-484
▁9	-485
ze	-486
tigen	-487
▁unser	-488
ften	-489
▁man	-490
ütz	-491
▁lie	-492
net	-493
tier	-494
ma	-495
chte	-496
ess	-497
ia	-498
agen	-499
fer	-500
äl	-501
nung	-502
schie	-503
assen	-504
wir	-505
andel	-506
sicht	-507
nahmen	-508
▁men	-509
▁noch	-510
ub	-511
onder	-512
▁monaten	-513
▁ap	-514
▁fl	-515
vor	-516
▁zwischen	-517
eigen	-518
▁alle	-519
sel	-520
▁zeit	-521
▁mitgliedstaaten	-522
gl	-523
ho	-524
▁%	-525
fol	-526
▁me	-527
dem	-528
▁eines	-529
▁vom	-530
yst	-531
amm	-532
▁daß	-533
ationen	-534
ha	-535
ild	-536
▁!	-537
▁fol	-538
▁ih	-539
▁wirtschaft	-540
wend	-541
ließ	-542
ven	-543
igkeit	-544
halten	-545
▁ins	-546
trag	-547
▁maß	-548
▁prä	-549
art	-550
uß	-551
▁gesch	-552
▁teil	-553
üssen	-554
▁grund	-555
▁poli	-556
id	-557
tige	-558
ffent	-559
▁land	-560
upp	-561
enz	-562
▁ro	-563
▁besch	-564
nahme	-565
ug	-566
pl	-567
ystem	-568
satz	-569
▁diesem	-570
▁sicher	-571
hör	-572
ischer	-573
ow	-574
kl	-575
tes	-576
rin	-577
bei	-578
▁wurden	-579
▁00	-580
stän	-581
▁sei	-582
mittel	-583
▁rech	-584
▁fest	-585
▁sozi	-586
▁fü	-587
▁12	-588
we	-589
ham	-590
tikel	-591
ga	-592
▁deu	-593
zeu	-594
kti	-595
▁gel	-596
▁uns	-597
▁müssen	-598
iele	-599
▁sowie	-600
kommen	-601
unden	-602
12	-603
▁?	-604
▁15	-605
str	-606
ament	-607
wo	-608
▁min	-609
▁deut	-610
▁bef	-611
▁porn	-612
ce	-613
▁rei	-614
▁artikel	-615
ichtig	-616
▁ex	-617
▁haus	-618
▁dam	-619
arbeit	-620
tw	-621
dig	-622
mp	-623
▁u	-624
forder	-625
▁mo	-626
▁&#9	-627
äch	-628
ats	-629
▁union	-630
siden	-631
▁finanz	-632
▁hotel	-633
▁gi	-634
▁seine	-635
stütz	-636
zie	-637
fl	-638
ure	-639
itz	-640
▁verw	-641
▁ausge	-642
▁pl	-643
▁leben	-644
acht	-645
▁stra	-646
▁qu	-647
▁dieses	-648
je	-649
land	-650
ud	-651
zeit	-652
ard	-653
▁199	-654
hamster	-655
▁xhamster	-656
▁jed	-657
▁sta	-658
▁fr	-659
ast	-660
ss	-661
▁di	-662
tten	-663
▁parl	-664
▁europäische	-665
▁bereit	-666
hem	-667
▁po	-668
▁sehr	-669
chn	-670
fra	-671
▁frau	-672
stellung	-673
ond	-674
ker	-675
..	-676
▁hier	-677
ue	-678
richt	-679
▁11	-680
▁unterstütz	-681
▁inform	-682
▁wieder	-683
gie	-684
alt	-685
▁möglich	-686
▁welt	-687
▁verein	-688
fahren	-689
▁son	-690
▁produ	-691
▁stell	-692
▁parlament	-693
mal	-694
pt	-695
▁vi	-696
▁letz	-697
kehr	-698
▁richt	-699
▁eben	-700
▁gleich	-701
ding	-702
ßer	-703
▁ob	-704
gem	-705
ßen	-706
▁spiel	-707
ös	-708
▁sel	-709
▁tra	-710
▁pers	-711
ke	-712
▁maßnahmen	-713
▁beste	-714
▁anderen	-715
geben	-716
▁arsch	-717
bes	-718
ffe	-719
cken	-720
äß	-721
iger	-722
tern	-723
▁unternehmen	-724
ierte	-725
spiel	-726
ätz	-727
▁ihrer	-728
▁mein	-729
io	-730
ett	-731
▁sol	-732
per	-733
▁+	-734
▁30	-735
▁große	-736
▁menschen	-737
ahmen	-738
▁to	-739
att	-740
▁nation	-741
ust	-742
▁viel	-743
issen	-744
▁dien	-745
▁aussch	-746
▁schl	-747
▁woch	-748
pro	-749
▁nie	-750
▁beg	-751
tre	-752
▁vorge	-753
▁entsch	-754
▁großer	-755
▁anal	-756
▁co	-757
zeich	-758
▁führ	-759
▁lei	-760
▁einge	-761
uer	-762
▁rat	-763
▁muss	-764
▁mil	-765
▁16	-766
sk	-767
▁währ	-768
hlen	-769
▁bereich	-770
ine	-771
legen	-772
▁jahre	-773
rauch	-774
ler	-775
such	-776
olog	-777
ktor	-778
organ	-779
weise	-780
▁präsiden	-781
▁folgen	-782
angen	-783
stellt	-784
halb	-785
▁eigen	-786
▁bek	-787
gramm	-788
▁rahmen	-789
▁17	-790
▁sollte	-791
▁damit	-792
▁entwicklung	-793
▁bestimm	-794
▁gemeinsam	-795
tischen	-796
▁drei	-797
▁öffent	-798
schlag	-799
dung	-800
▁jedoch	-801
▁region	-802
nisse	-803
lage	-804
▁br	-805
▁13	-806
gang	-807
hne	-808
▁neue	-809
gung	-810
▁14	-811
▁ihnen	-812
▁la	-813
hin	-814
tionen	-815
itu	-816
▁frei	-817
iss	-818
▁gemeinschaft	-819
keiten	-820
entr	-821
▁hau	-822
zei	-823
licher	-824
bst	-825
▁heu	-826
▁besuch	-827
▁wirk	-828
▁mittel	-829
▁keine	-830
▁rechts	-831
▁einz	-832
xx	-833
mar	-834
▁nat	-835
▁kont	-836
▁gibt	-837
linie	-838
äu	-839
uppe	-840
stellen	-841
▁wür	-842
ember	-843
nation	-844
are	-845
▁gef	-846
▁on	-847
hand	-848
▁...	-849
com	-850
▁europa	-851
▁us	-852
▁ges	-853
▁seiner	-854
▁bür	-855
ordnung	-856
porn	-857
blem	-858
▁hö	-859
lo	-860
stand	-861
mus	-862
ondere	-863
▁tran	-864
achen	-865
lagen	-866
sto	-867
▁seit	-868
sell	-869
ritt	-870
▁apos	-871
▁bede	-872
innen	-873
onen	-874
124	-875
schri	-876
▁y	-877
ält	-878
schieden	-879
▁techn	-880
to	-881
▁sti	-882
▁li	-883
124;	-884
▁&#124;	-885
▁internation	-886
▁ben	-887
ire	-888
▁handel	-889
ac	-890
▁waren	-891
▁pri	-892
unkt	-893
einen	-894
▁wen	-895
sa	-896
bs	-897
▁em	-898
ändern	-899
annt	-900
▁während	-901
fä	-902
▁05	-903
reis	-904
▁bo	-905
aler	-906
▁lu	-907
▁erw	-908
ome	-909
bau	-910
▁part	-911
ank	-912
gend	-913
▁ganz	-914
umen	-915
esser	-916
amen	-917
▁verl	-918
sehen	-919
▁neuen	-920
▁zahl	-921
▁diesen	-922
▁ihren	-923
▁tagen	-924
ult	-925
dien	-926
▁wel	-927
line	-928
setzung	-929
ina	-930
▁got	-931
alis	-932
▁zurück	-933
iti	-934
orden	-935
▁entschei	-936
essen	-937
äm	-938
stat	-939
▁dann	-940
▁it	-941
rank	-942
.1	-943
ktur	-944
rechen	-945
zahl	-946
▁ur	-947
iv	-948
fall	-949
▁ziel	-950
▁du	-951
hän	-952
▁titten	-953
halt	-954
unter	-955
20	-956
▁fre	-957
▁problem	-958
min	-959
▁etw	-960
▁erh	-961
▁verfü	-962
ierten	-963
▁grö	-964
tisch	-965
ichte	-966
örder	-967
rech	-968
▁ohne	-969
obil	-970
▁gu	-971
rist	-972
▁km	-973
▁stad	-974
▁abge	-975
▁hand	-976
organis	-977
▁denen	-978
▁seite	-979
▁bereits	-980
ip	-981
▁präsident	-982
hm	-983
▁entsp	-984
▁regel	-985
enden	-986
kun	-987
▁bericht	-988
▁mal	-989
▁star	-990
ünf	-991
▁recht	-992
ätig	-993
▁selbst	-994
alien	-995
immer	-996
bewer	-997
ere	-998
▁el	-999
ont	-1000
▁brü	-1001
▁ba	-1002
▁gra	-1003
▁andere	-1004
so	-1005
▁spe	-1006
▁25	-1007
zug	-1008
▁sollten	-1009
▁insbes	-1010
tzt	-1011
gleich	-1012
▁richtlinie	-1013
▁beit	-1014
▁änder	-1015
setzt	-1016
assung	-1017
▁heute	-1018
▁insbesondere	-1019
tem	-1020
▁scha	-1021
▁erreich	-1022
hil	-1023
ße	-1024
▁aller	-1025
▁gesam	-1026
▁kosten	-1027
olitik	-1028
▁str	-1029
inn	-1030
▁06	-1031
führt	-1032
▁amp	-1033
▁nutz	-1034
▁erfol	-1035
▁sa	-1036
▁komp	-1037
ät	-1038
▁außer	-1039
▁kin	-1040
▁system	-1041
▁einzel	-1042
sätz	-1043
sich	-1044
wendung	-1045
▁tag	-1046
▁per	-1047
öl	-1048
nte	-1049
bo	-1050
wirk	-1051
▁immer	-1052
yp	-1053
▁ew	-1054
▁voll	-1055
▁bau	-1056
▁wichtig	-1057
spro	-1058
tische	-1059
▁umf	-1060
▁*	-1061
▁ersten	-1062
▁or	-1063
▁verschieden	-1064
sellschaft	-1065
▁not	-1066
hol	-1067
oren	-1068
▁daten	-1069
ube	-1070
▁fort	-1071
▁fer	-1072
schriften	-1073
ange	-1074
welt	-1075
▁verbesser	-1076
ossen	-1077
▁dienst	-1078
▁online	-1079
▁kur	-1080
▁»	-1081
stimm	-1082
▁07	-1083
▁stand	-1084
▁denn	-1085
schaften	-1086
▁08	-1087
zeug	-1088
▁1.	-1089
▁sicherheit	-1090
kunft	-1091
▁wissen	-1092
▁ä	-1093
▁fa	-1094
co	-1095
genommen	-1096
mö	-1097
▁kar	-1098
▁ser	-1099
▁wett	-1100
▁letzten	-1101
leist	-1102
▁jo	-1103
führung	-1104
ruktur	-1105
▁jun	-1106
fin	-1107
▁ener	-1108
▁bed	-1109
▁möchte	-1110
kten	-1111
tt	-1112
▁the	-1113
▁mich	-1114
alität	-1115
ates	-1116
ander	-1117
esen	-1118
▁art	-1119
grund	-1120
az	-1121
▁sozial	-1122
▁21	-1123
▁vorschlag	-1124
▁wä	-1125
ite	-1126
▁he	-1127
ftig	-1128
▁hal	-1129
▁unsere	-1130
lichkeit	-1131
dr	-1132
hang	-1133
gar	-1134
▁01	-1135
▁hei	-1136
▁dazu	-1137
▁stadt	-1138
3;	-1139
▁&#93;	-1140
▁arbeits	-1141
▁lin	-1142
kon	-1143
ahn	-1144
▁bild	-1145
1;	-1146
▁&#91;	-1147
ian	-1148
▁hatte	-1149
eig	-1150
▁24	-1151
ruck	-1152
▁wettbewer	-1153
▁verk	-1154
urg	-1155
schließ	-1156
ater	-1157
anden	-1158
▁monat	-1159
ums	-1160
▁darauf	-1161
fach	-1162
ations	-1163
▁einige	-1164
legt	-1165
nit	-1166
▁grün	-1167
igung	-1168
ktiv	-1169
▁gest	-1170
▁ausschuss	-1171
beiten	-1172
▁dah	-1173
▁mär	-1174
wohl	-1175
▁erl	-1176
klär	-1177
▁erst	-1178
esse	-1179
000	-1180
▁sondern	-1181
▁kap	-1182
▁lebens	-1183
asen	-1184
▁camp	-1185
iet	-1186
stra	-1187
fte	-1188
▁bie	-1189
▁bürger	-1190
▁zusammenarbeit	-1191
▁eg	-1192
under	-1193
▁besonder	-1194
▁programm	-1195
▁is	-1196
▁umwelt	-1197
ph	-1198
▁ter	-1199
▁informationen	-1200
▁inner	-1201
▁amate	-1202
erk	-1203
für	-1204
▁stellung	-1205
▁hoch	-1206
licht	-1207
▁cl	-1208
▁allen	-1209
hält	-1210
▁22	-1211
▁dis	-1212
uf	-1213
fiz	-1214
apan	-1215
▁organis	-1216
ister	-1217
amil	-1218
▁bar	-1219
▁aut	-1220
od	-1221
▁beschä	-1222
spr	-1223
▁allgem	-1224
ment	-1225
teilung	-1226
▁form	-1227
▁begr	-1228
▁gewähr	-1229
enten	-1230
▁them	-1231
vi	-1232
unktion	-1233
ks	-1234
▁gar	-1235
auer	-1236
▁23	-1237
ogen	-1238
tiert	-1239
bild	-1240
▁buch	-1241
tze	-1242
schlossen	-1243
▁erforder	-1244
▁habe	-1245
wirtschaft	-1246
fern	-1247
▁nah	-1248
▁beispiel	-1249
▁ihm	-1250
aufen	-1251
▁milf	-1252
▁mus	-1253
raft	-1254
stitu	-1255
▁frü	-1256
▁würde	-1257
▁italien	-1258
▁com	-1259
▁japan	-1260
▁lang	-1261
gabe	-1262
ib	-1263
hub	-1264
äd	-1265
▁energie	-1266
rat	-1267
ges	-1268
ore	-1269
ffiz	-1270
punkt	-1271
▁fall	-1272
heiten	-1273
▁notwend	-1274
▁spra	-1275
▁rück	-1276
itäten	-1277
vest	-1278
▁pornhub	-1279
▁stär	-1280
▁aufge	-1281
▁weitere	-1282
▁jan	-1283
handel	-1284
gaben	-1285
tieren	-1286
vers	-1287
▁span	-1288
▁fä	-1289
▁vol	-1290
▁op	-1291
▁ra	-1292
▁seinen	-1293
ünst	-1294
dliche	-1295
▁dabei	-1296
uten	-1297
kre	-1298
schluss	-1299
pe	-1300
ris	-1301
.2	-1302
▁pa	-1303
▁wohn	-1304
▁wochen	-1305
reffen	-1306
▁ii	-1307
ringen	-1308
ron	-1309
ald	-1310
ober	-1311
▁198	-1312
arz	-1313
▁sy	-1314
▁verfahren	-1315
gri	-1316
▁daher	-1317
ichten	-1318
▁fil	-1319
▁res	-1320
opp	-1321
▁mill	-1322
▁bil	-1323
▁frage	-1324
▁fahr	-1325
▁rep	-1326
ou	-1327
▁schwer	-1328
rän	-1329
asse	-1330
▁pra	-1331
eitung	-1332
▁dez	-1333
aut	-1334
▁ju	-1335
▁dav	-1336
zieh	-1337
erik	-1338
▁vide	-1339
▁schutz	-1340
ration	-1341
▁natür	-1342
▁inte	-1343
▁markt	-1344
▁such	-1345
▁viele	-1346
▁kein	-1347
▁ele	-1348
chten	-1349
▁verordnung	-1350
digen	-1351
▁förder	-1352
▁heraus	-1353
▁mei	-1354
▁vier	-1355
trä	-1356
neh	-1357
▁ph	-1358
spe	-1359
▁ru	-1360
▁jul	-1361
glichen	-1362
▁50	-1363
▁personen	-1364
▁wirtschafts	-1365
▁politik	-1366
▁franz	-1367
▁doch	-1368
ichter	-1369
ium	-1370
lex	-1371
ative	-1372
markt	-1373
▁kommen	-1374
▁wahr	-1375
unde	-1376
▁bewer	-1377
▁26	-1378
▁herrn	-1379
▁san	-1380
schlä	-1381
▁beim	-1382
eln	-1383
▁allem	-1384
▁camping	-1385
eile	-1386
▁famil	-1387
ierungs	-1388
zw	-1389
mm	-1390
▁deren	-1391
ko	-1392
▁könig	-1393
▁nun	-1394
gehen	-1395
▁weil	-1396
▁get	-1397
ca	-1398
▁dan	-1399
▁ad	-1400
▁strate	-1401
dingungen	-1402
▁absatz	-1403
▁zentr	-1404
▁juni	-1405
▁hil	-1406
▁28	-1407
▁dire	-1408
▁besser	-1409
▁ergeb	-1410
▁woche	-1411
▁invest	-1412
▁wi	-1413
bung	-1414
▁preis	-1415
▁nor	-1416
▁rates	-1417
▁beschäftig	-1418
fäh	-1419
▁machen	-1420
mpfe	-1421
nehmer	-1422
▁sü	-1423
gram	-1424
▁bew	-1425
▁pr	-1426
undheit	-1427
▁euro	-1428
▁erste	-1429
▁wach	-1430
▁jetzt	-1431
▁nov	-1432
▁ort	-1433
50	-1434
lan	-1435
schnit	-1436
▁verbrauch	-1437
▁ihn	-1438
▁unterstützung	-1439
▁proje	-1440
system	-1441
▁forsch	-1442
▁schwanz	-1443
▁amateure	-1444
▁indu	-1445
▁will	-1446
br	-1447
ert	-1448
wort	-1449
▁ta	-1450
▁namen	-1451
▁ei	-1452
rieben	-1453
treten	-1454
des	-1455
endet	-1456
falls	-1457
▁les	-1458
▁sep	-1459
▁hotels	-1460
haus	-1461
na	-1462
▁ende	-1463
▁statt	-1464
▁04	-1465
▁of	-1466
▁erklär	-1467
utung	-1468
lungen	-1469
▁et	-1470
▁etwa	-1471
▁kinder	-1472
ismus	-1473
▁pol	-1474
ial	-1475
▁kir	-1476
▁bra	-1477
▁su	-1478
mäß	-1479
▁ihrem	-1480
▁dezember	-1481
▁mai	-1482
▁27	-1483
rüf	-1484
▁flug	-1485
hof	-1486
uar	-1487
▁dafür	-1488
atei	-1489
ys	-1490
▁€	-1491
▁02	-1492
ed	-1493
ähl	-1494
öffent	-1495
▁bas	-1496
bereich	-1497
eta	-1498
▁anwendung	-1499
▁verkehr	-1500
▁zun	-1501
häng	-1502
▁festge	-1503
schutz	-1504
▁vertrag	-1505
ali	-1506
▁2015	-1507
▁wich	-1508
▁offen	-1509
igten	-1510
▁erhalten	-1511
▁nieder	-1512
▁stud	-1513
rieb	-1514
eicht	-1515
▁at	-1516
atisch	-1517
ument	-1518
▁web	-1519
▁spä	-1520
gän	-1521
▁finden	-1522
ende	-1523
▁okt	-1524
▁tro	-1525
▁gruppe	-1526
cke	-1527
ßt	-1528
▁29	-1529
man	-1530
ckt	-1531
▁beteil	-1532
▁liegt	-1533
hörden	-1534
▁funktion	-1535
▁gesundheit	-1536
▁priv	-1537
av	-1538
▁mir	-1539
▁haupt	-1540
▁empf	-1541
ele	-1542
▁märz	-1543
▁worden	-1544
gangen	-1545
.3	-1546
gew	-1547
▁tage	-1548
▁blasen	-1549
ennt	-1550
dlich	-1551
▁stu	-1552
▁31	-1553
▁januar	-1554
▁darüber	-1555
▁uni	-1556
yl	-1557
▁kontro	-1558
wirkungen	-1559
setzen	-1560
leg	-1561
ichtet	-1562
raum	-1563
▁weg	-1564
tete	-1565
▁bezug	-1566
▁veröffent	-1567
ka	-1568
ubl	-1569
▁ewsa	-1570
▁frank	-1571
altung	-1572
halts	-1573
fel	-1574
iff	-1575
▁män	-1576
zü	-1577
▁jungen	-1578
▁zustän	-1579
lungs	-1580
tiv	-1581
gesch	-1582
▁imm	-1583
▁län	-1584
stehen	-1585
▁oktober	-1586
▁ak	-1587
▁bestehen	-1588
▁unterschie	-1589
▁geht	-1590
▁kü	-1591
▁verm	-1592
handlung	-1593
▁03	-1594
▁bem	-1595
▁ersch	-1596
▁posi	-1597
▁nationalen	-1598
▁meine	-1599
aum	-1600
burg	-1601
▁197	-1602
ziel	-1603
▁kult	-1604
▁russ	-1605
▁wasser	-1606
-1	-1607
▁pati	-1608
▁stellungnahme	-1609
▁kre	-1610
sichts	-1611
▁gehör	-1612
▁fern	-1613
arm	-1614
▁beitra	-1615
▁2007	-1616
tember	-1617
▁100	-1618
▁gemäß	-1619
▁indust	-1620
▁stellen	-1621
▁befin	-1622
ari	-1623
dt	-1624
▁bedeutung	-1625
kom	-1626
▁verst	-1627
tragen	-1628
▁juli	-1629
▁tätig	-1630
▁40	-1631
▁and	-1632
▁glau	-1633
eren	-1634
▁lage	-1635
ellen	-1636
▁innerhalb	-1637
▁fot	-1638
▁gut	-1639
▁könnte	-1640
verkehr	-1641
annten	-1642
fassung	-1643
ens	-1644
our	-1645
▁frauen	-1646
ritzen	-1647
antwort	-1648
▁französ	-1649
wohn	-1650
▁wes	-1651
▁kam	-1652
▁länder	-1653
▁tats	-1654
spra	-1655
▁staaten	-1656
tis	-1657
nten	-1658
schlagen	-1659
ionen	-1660
▁rolle	-1661
ölker	-1662
▁seinem	-1663
▁2014	-1664
▁home	-1665
ix	-1666
▁bit	-1667
▁met	-1668
▁gt	-1669
▁besteht	-1670
▁initi	-1671
▁fragen	-1672
▁ir	-1673
▁end	-1674
gruppe	-1675
▁tr	-1676
oten	-1677
▁ca	-1678
ign	-1679
▁november	-1680
▁dort	-1681
▁mut	-1682
▁reife	-1683
▁welche	-1684
uppen	-1685
▁alt	-1686
▁verpf	-1687
▁pf	-1688
ritte	-1689
ativen	-1690
▁großen	-1691
▁stehen	-1692
▁sk	-1693
▁schwarz	-1694
▁vo	-1695
ache	-1696
▁beiden	-1697
bru	-1698
blick	-1699
▁parlaments	-1700
▁industrie	-1701
one	-1702
▁sor	-1703
zogen	-1704
▁internationalen	-1705
▁verschiedenen	-1706
▁blei	-1707
▁09	-1708
▁zusammenhang	-1709
platz	-1710
▁nr	-1711
▁lassen	-1712
los	-1713
reg	-1714
maß	-1715
druck	-1716
▁bin	-1717
▁schne	-1718
int	-1719
▁sitz	-1720
▁bri	-1721
▁schließ	-1722
ager	-1723
da	-1724
ril	-1725
nei	-1726
hei	-1727
▁2013	-1728
ame	-1729
igt	-1730
▁september	-1731
▁transp	-1732
▁pe	-1733
zer	-1734
▁lös	-1735
▁2.	-1736
▁mu	-1737
atur	-1738
abil	-1739
ller	-1740
▁klein	-1741
▁näch	-1742
▁schon	-1743
▁patienten	-1744
▁arz	-1745
▁akt	-1746
▁tun	-1747
▁car	-1748
zimmer	-1749
▁@	-1750
werk	-1751
▁vert	-1752
▁gesellschaft	-1753
▁rom	-1754
sicher	-1755
▁wettbewerbs	-1756
▁port	-1757
▁ober	-1758
bruar	-1759
▁regierung	-1760
▁februar	-1761
politik	-1762
▁dienstleist	-1763
xt	-1764
▁2010	-1765
ice	-1766
▁kat	-1767
▁elekt	-1768
▁som	-1769
samt	-1770
▁ebene	-1771
▁unserer	-1772
▁deta	-1773
arbei	-1774
▁hinter	-1775
ichterstat	-1776
▁außerdem	-1777
▁einfach	-1778
▁2011	-1779
schland	-1780
itzen	-1781
▁sehen	-1782
▁spezi	-1783
▁ländern	-1784
▁ja	-1785
▁berück	-1786
yn	-1787
forderungen	-1788
asst	-1789
▁april	-1790
erst	-1791
fft	-1792
▁2012	-1793
▁wahl	-1794
▁inn	-1795
oppel	-1796
recht	-1797
cher	-1798
▁verantwort	-1799
▁con	-1800
▁196	-1801
zess	-1802
▁disk	-1803
▁kolle	-1804
▁mm	-1805
▁aug	-1806
▁geben	-1807
▁davon	-1808
▁instr	-1809
▁bietet	-1810
▁asi	-1811
▁aktiv	-1812
ade	-1813
ring	-1814
▁stim	-1815
▁geschä	-1816
▁angeb	-1817
▁nä	-1818
▁weise	-1819
▁gesetz	-1820
▁deutschland	-1821
ase	-1822
vorschriften	-1823
▁mann	-1824
agt	-1825
ans	-1826
▁neben	-1827
▁gemeinsamen	-1828
fa	-1829
mo	-1830
achten	-1831
gesamt	-1832
▁umsetzung	-1833
▁frie	-1834
▁gener	-1835
schnitt	-1836
▁194	-1837
sichtig	-1838
xxx	-1839
▁’	-1840
▁sh	-1841
▁später	-1842
▁öffentlichen	-1843
▁ris	-1844
▁förderung	-1845
reifen	-1846
▁schul	-1847
▁2009	-1848
▁insgesamt	-1849
▁investi	-1850
▁gegenüber	-1851
rieg	-1852
▁2008	-1853
▁entsprechen	-1854
▁bel	-1855
elle	-1856
▁sowohl	-1857
▁führen	-1858
▁tür	-1859
roffen	-1860
▁nachhal	-1861
▁demok	-1862
eist	-1863
▁prof	-1864
▁mag	-1865
▁videos	-1866
▁2006	-1867
cen	-1868
▁politischen	-1869
hunder	-1870
▁voraus	-1871
▁wäre	-1872
▁hinaus	-1873
▁sollen	-1874
liegen	-1875
▁txxx	-1876
▁as	-1877
wach	-1878
oss	-1879
linien	-1880
ierungen	-1881
enzen	-1882
kan	-1883
▁erwei	-1884
▁ü	-1885
.0	-1886
gien	-1887
▁2016	-1888
▁ziele	-1889
▁steuer	-1890
tag	-1891
eite	-1892
struktur	-1893
▁bekannt	-1894
reise	-1895
▁aufgrund	-1896
▁christ	-1897
▁jugend	-1898
verfahren	-1899
▁institu	-1900
vo	-1901
ehmen	-1902
▁person	-1903
zip	-1904
▁versuch	-1905
als	-1906
hä	-1907
▁zweiten	-1908
▁wor	-1909
hren	-1910
▁doppel	-1911
stimmung	-1912
▁fach	-1913
erikan	-1914
▁ka	-1915
urb	-1916
ublik	-1917
▁erhö	-1918
▁wesent	-1919
ech	-1920
durch	-1921
▁jeder	-1922
▁immobil	-1923
▁pen	-1924
▁frankreich	-1925
dings	-1926
▁erne	-1927
▁binnen	-1928
▁bi	-1929
▁klar	-1930
lätze	-1931
▁fünf	-1932
▁zwar	-1933
▁partner	-1934
führen	-1935
▁sozialen	-1936
▁also	-1937
iell	-1938
▁hd	-1939
ator	-1940
ativ	-1941
▁lo	-1942
auft	-1943
möglich	-1944
▁char	-1945
ds	-1946
▁2000	-1947
▁kommun	-1948
▁mor	-1949
nette	-1950
▁sagen	-1951
▁ziv	-1952
▁kor	-1953
bet	-1954
gte	-1955
▁th	-1956
frage	-1957
▁weniger	-1958
▁allerdings	-1959
▁zugang	-1960
dlichen	-1961
▁steht	-1962
▁dür	-1963
ies	-1964
ffizien	-1965
▁macht	-1966
alog	-1967
▁usa	-1968
▁ferien	-1969
ichterstatter	-1970
▁ern	-1971
▁august	-1972
▁zusätz	-1973
▁gil	-1974
▁deshalb	-1975
bel	-1976
onds	-1977
indung	-1978
spolitik	-1979
stoff	-1980
▁heil	-1981
ba	-1982
hö	-1983
▁thema	-1984
▁verbraucher	-1985
▁schwei	-1986
▁jahrhunder	-1987
stens	-1988
ct	-1989
▁32	-1990
▁möglichkeit	-1991
weis	-1992
▁kri	-1993
fre	-1994
▁dessen	-1995
▁gegeben	-1996
▁aktion	-1997
10	-1998
▁ep	-1999
▁besonders	-2000
▁4.	-2001
spritzen	-2002
▁blond	-2003
▁wirksam	-2004
▁gott	-2005
▁zei	-2006
▁staat	-2007
▁auswirkungen	-2008
fri	-2009
baren	-2010
▁siehe	-2011
ären	-2012
▁eng	-2013
▁versch	-2014
stum	-2015
▁arbeiten	-2016
▁zivil	-2017
▁entscheidung	-2018
stet	-2019
▁3.	-2020
stag	-2021
▁fortsch	-2022
▁far	-2023
▁sen	-2024
sichtlich	-2025
▁tour	-2026
terung	-2027
bildung	-2028
jahr	-2029
hau	-2030
weil	-2031
▁kurz	-2032
▁risik	-2033
▁vergleich	-2034
▁univers	-2035
▁rel	-2036
▁dr	-2037
ton	-2038
▁behörden	-2039
isches	-2040
▁185	-2041
ogra	-2042
▁bzw	-2043
▁2005	-2044
gestellt	-2045
▁hel	-2046
,5	-2047
▁grundlage	-2048
-2	-2049
▁forder	-2050
aussch	-2051
▁weit	-2052
▁=	-2053
eichen	-2054
▁ind	-2055
▁etwas	-2056
▁pal	-2057
reiben	-2058
▁hervor	-2059
richtung	-2060
ologie	-2061
inen	-2062
▁anzu	-2063
▁jahres	-2064
▁jungendliche	-2065
▁ev	-2066
▁kommt	-2067
▁wollen	-2068
▁2004	-2069
inge	-2070
▁go	-2071
racht	-2072
rüfung	-2073
fik	-2074
▁kleine	-2075
▁einmal	-2076
▁deutsch	-2077
ima	-2078
▁gewährlei	-2079
reiten	-2080
dio	-2081
▁glob	-2082
▁struktur	-2083
völker	-2084
▁erhe	-2085
ordin	-2086
zustellen	-2087
▁vereinbar	-2088
▁film	-2089
gesellschaft	-2090
pfung	-2091
▁engl	-2092
▁geld	-2093
▁anzahl	-2094
haltung	-2095
▁brünette	-2096
▁innov	-2097
▁untersuch	-2098
dll	-2099
ell	-2100
wert	-2101
▁sc	-2102
gramme	-2103
abhäng	-2104
▁minde	-2105
mel	-2106
▁2001	-2107
ity	-2108
▁zimmer	-2109
▁abspritzen	-2110
weg	-2111
ferenz	-2112
▁leist	-2113
ennen	-2114
isten	-2115
tzen	-2116
änd	-2117
zeichnet	-2118
▁gol	-2119
▁rechte	-2120
▁wert	-2121
▁ehe	-2122
▁erfü	-2123
▁vertre	-2124
▁vorgeschlagen	-2125
▁stellt	-2126
▁immobilien	-2127
▁porno	-2128
▁zukunft	-2129
verb	-2130
äuf	-2131
▁luft	-2132
sweise	-2133
▁veran	-2134
ote	-2135
▁situ	-2136
▁folgenden	-2137
kung	-2138
▁gelten	-2139
zent	-2140
▁empfe	-2141
▁schwier	-2142
▁do	-2143
anken	-2144
äs	-2145
zin	-2146
▁wider	-2147
rechte	-2148
▁beruf	-2149
▁sto	-2150
ichts	-2151
▁«	-2152
▁35	-2153
▁alter	-2154
ingen	-2155
ief	-2156
▁geschäft	-2157
▁millionen	-2158
alisierung	-2159
▁kan	-2160
ware	-2161
▁rund	-2162
▁vers	-2163
wär	-2164
▁vielen	-2165
▁erforderlich	-2166
▁wichtige	-2167
uren	-2168
uen	-2169
ieten	-2170
▁gilt	-2171
▁sektor	-2172
▁gab	-2173
ta	-2174
wahl	-2175
ritten	-2176
do	-2177
▁größer	-2178
▁kirche	-2179
▁vors	-2180
ffung	-2181
▁produkte	-2182
ül	-2183
tigt	-2184
rigen	-2185
cl	-2186
▁new	-2187
▁nehmen	-2188
▁fran	-2189
▁kons	-2190
tin	-2191
▁probleme	-2192
▁vorschlä	-2193
▁erreichen	-2194
staat	-2195
▁behandlung	-2196
fähigkeit	-2197
llt	-2198
iere	-2199
▁verfüg	-2200
umente	-2201
▁haushalts	-2202
▁wissenschaft	-2203
▁gene	-2204
port	-2205
▁landwirtschaft	-2206
▁alles	-2207
sein	-2208
▁bezieh	-2209
▁dok	-2210
prä	-2211
▁erk	-2212
▁sal	-2213
▁kraft	-2214
▁fehl	-2215
▁indem	-2216
rise	-2217
▁sport	-2218
own	-2219
zep	-2220
▁gesamt	-2221
▁weiterhin	-2222
▁umfassen	-2223
30	-2224
atte	-2225
▁einzu	-2226
örper	-2227
par	-2228
▁gleichzei	-2229
▁hinzu	-2230
▁gemeinsame	-2231
dige	-2232
▁unbe	-2233
maßnahmen	-2234
▁häuf	-2235
wiesen	-2236
issar	-2237
▁zuge	-2238
ay	-2239
▁medi	-2240
▁deb	-2241
▁änderungs	-2242
▁verab	-2243
▁sex	-2244
▁ebenfalls	-2245
▁mg	-2246
▁lok	-2247
▁partei	-2248
▁hilfe	-2249
▁grie	-2250
up	-2251
▁nutzen	-2252
ital	-2253
▁größ	-2254
▁vertra	-2255
fs	-2256
nete	-2257
▁bestimmungen	-2258
▁entfern	-2259
weisen	-2260
▁uhr	-2261
▁betreffen	-2262
tr	-2263
▁koordin	-2264
▁_	-2265
▁unterstützen	-2266
▁weiß	-2267
ule	-2268
arbeiten	-2269
page	-2270
anten	-2271
▁2002	-2272
▁erfahr	-2273
▁überein	-2274
▁2003	-2275
neten	-2276
▁verbesserung	-2277
frau	-2278
▁wohl	-2279
▁begrü	-2280
zentr	-2281
mitteln	-2282
isierung	-2283
▁mast	-2284
▁produkt	-2285
altungs	-2286
gegen	-2287
▁einzelnen	-2288
▁”	-2289
▁max	-2290
▁nord	-2291
bare	-2292
dition	-2293
▁unabhäng	-2294
eur	-2295
▁lehr	-2296
▁zurzeit	-2297
gor	-2298
▁einschließ	-2299
▁schön	-2300
bin	-2301
tert	-2302
▁forschung	-2303
pa	-2304
▁mobil	-2305
teilt	-2306
anzen	-2307
▁vorschriften	-2308
▁jung	-2309
aren	-2310
ette	-2311
▁36	-2312
▁meisten	-2313
▁liegen	-2314
unkte	-2315
▁besucht	-2316
▁platz	-2317
▁natur	-2318
▁bedingungen	-2319
▁sub	-2320
wor	-2321
▁überp	-2322
▁hol	-2323
▁muß	-2324
▁günst	-2325
ausch	-2326
grün	-2327
üsse	-2328
▁win	-2329
res	-2330
ute	-2331
▁anf	-2332
ive	-2333
son	-2334
▁benutz	-2335
mann	-2336
tlich	-2337
.000	-2338
▁strategie	-2339
etter	-2340
ipp	-2341
▁bevölker	-2342
▁eigenen	-2343
▁regionen	-2344
▁spanien	-2345
▁staats	-2346
po	-2347
▁mensch	-2348
▁finanzie	-2349
▁zwe	-2350
▁rot	-2351
erma	-2352
itäts	-2353
▁masturb	-2354
▁ster	-2355
▁zie	-2356
ana	-2357
urs	-2358
▁kn	-2359
▁grenz	-2360
ächlich	-2361
▁erziel	-2362
▁genau	-2363
zb	-2364
orf	-2365
weit	-2366
▁west	-2367
▁liefer	-2368
▁betra	-2369
▁enthält	-2370
igkeiten	-2371
sprä	-2372
▁hä	-2373
▁jeweil	-2374
▁33	-2375
▁anerk	-2376
frist	-2377
▁befindet	-2378
rael	-2379
▁durchge	-2380
arbeitung	-2381
▁lux	-2382
▁gelegen	-2383
▁ehem	-2384
▁euch	-2385
gern	-2386
▁seiten	-2387
▁bevor	-2388
▁mater	-2389
▁för	-2390
▁ze	-2391
mb	-2392
▁solche	-2393
▁einheit	-2394
ene	-2395
▁ac	-2396
▁unterstützt	-2397
▁plan	-2398
▁unver	-2399
teile	-2400
▁ide	-2401
▁schri	-2402
▁erreicht	-2403
▁homepage	-2404
▁sam	-2405
messen	-2406
▁israel	-2407
▁äuß	-2408
▁besuche	-2409
▁gehen	-2410
▁log	-2411
▁antw	-2412
▁konnte	-2413
▁mitglieder	-2414
▁darin	-2415
▁verwendet	-2416
immt	-2417
▁no	-2418
▁terr	-2419
▁raum	-2420
▁bitte	-2421
nissen	-2422
assi	-2423
▁mitteilung	-2424
ächst	-2425
▁sech	-2426
▁kommissar	-2427
▁politische	-2428
▁kun	-2429
▁45	-2430
chsel	-2431
bahn	-2432
▁gleichzeitig	-2433
▁urspr	-2434
apos	-2435
▁berücksichtig	-2436
▁ergebnisse	-2437
▁aspe	-2438
dungen	-2439
▁195	-2440
▁entscheiden	-2441
rifft	-2442
▁könnten	-2443
▁situation	-2444
▁verstär	-2445
▁karte	-2446
▁reihe	-2447
akt	-2448
hnt	-2449
▁einigen	-2450
▁tau	-2451
handlungen	-2452
▁öffentlichkeit	-2453
▁produktion	-2454
▁vorgesehen	-2455
▁sprach	-2456
richtungen	-2457
▁zahlreich	-2458
ände	-2459
▁einschließlich	-2460
▁ten	-2461
spruch	-2462
▁gemeinschafts	-2463
▁34	-2464
▁stabil	-2465
aul	-2466
▁datei	-2467
legung	-2468
arten	-2469
staaten	-2470
mu	-2471
▁republik	-2472
▁wob	-2473
▁kate	-2474
▁männ	-2475
merk	-2476
dienst	-2477
räge	-2478
voll	-2479
▁masturbation	-2480
liches	-2481
▁60	-2482
▁°	-2483
öff	-2484
▁wobei	-2485
▁fo	-2486
▁minister	-2487
▁pla	-2488
gra	-2489
isse	-2490
sh	-2491
▁mode	-2492
▁wort	-2493
▁verpflich	-2494
ci	-2495
drü	-2496
ex	-2497
▁außen	-2498
▁national	-2499
ländern	-2500
▁inser	-2501
▁hinblick	-2502
▁enthalten	-2503
yse	-2504
▁erwä	-2505
entw	-2506
▁dom	-2507
steller	-2508
laden	-2509
part	-2510
ssel	-2511
▁paris	-2512
-0	-2513
▁direkt	-2514
folge	-2515
stall	-2516
▁nu	-2517
onnen	-2518
▁türk	-2519
▁verwaltungs	-2520
▁vollstän	-2521
▁geist	-2522
▁klima	-2523
▁familien	-2524
▁japanisch	-2525
▁bringen	-2526
▁geschichte	-2527
▁fuß	-2528
▁verfügung	-2529
▁ol	-2530
yle	-2531
▁gemacht	-2532
▁üb	-2533
kel	-2534
▁auto	-2535
▁asiatisch	-2536
▁gebiet	-2537
ino	-2538
mitglie	-2539
▁wegen	-2540
greifen	-2541
annte	-2542
▁angenommen	-2543
▁flü	-2544
▁meer	-2545
icken	-2546
▁arbeitsp	-2547
▁allgemeinen	-2548
cker	-2549
buch	-2550
▁wa	-2551
▁höch	-2552
▁behandel	-2553
▁inserate	-2554
▁insel	-2555
hle	-2556
fr	-2557
▁lit	-2558
▁folgende	-2559
istor	-2560
able	-2561
▁obje	-2562
ählt	-2563
ausschuss	-2564
▁sohn	-2565
▁qualität	-2566
▁arznei	-2567
▁dra	-2568
berg	-2569
▁beitrag	-2570
▁wachstum	-2571
ja	-2572
agement	-2573
▁nähe	-2574
▁vater	-2575
▁schließlich	-2576
▁serv	-2577
▁würden	-2578
richten	-2579
zept	-2580
li	-2581
▁darf	-2582
▁prior	-2583
▁193	-2584
▁mehrere	-2585
▁defin	-2586
▁projekt	-2587
▁netz	-2588
▁interesse	-2589
▁sin	-2590
schein	-2591
▁spielen	-2592
tigkeit	-2593
▁typ	-2594
▁angemessen	-2595
▁vis	-2596
▁landes	-2597
ampf	-2598
pen	-2599
▁lösung	-2600
gliche	-2601
▁abkommen	-2602
▁internet	-2603
ziehen	-2604
▁reich	-2605
▁dialog	-2606
▁brüssel	-2607
wand	-2608
▁beschäftigung	-2609
unt	-2610
▁trans	-2611
▁einzi	-2612
chan	-2613
▁amar	-2614
▁verring	-2615
▁cm	-2616
ball	-2617
▁del	-2618
gi	-2619
ufen	-2620
aub	-2621
dete	-2622
sbe	-2623
dar	-2624
▁jes	-2625
utet	-2626
▁kunst	-2627
▁genehm	-2628
inger	-2629
▁handelt	-2630
▁ged	-2631
▁daran	-2632
▁früh	-2633
▁liste	-2634
▁ansicht	-2635
▁fischer	-2636
ämpfung	-2637
ürz	-2638
▁musik	-2639
eister	-2640
▁39	-2641
ance	-2642
rägt	-2643
sprache	-2644
▁weiteren	-2645
▁solo	-2646
▁lö	-2647
ons	-2648
▁hatten	-2649
▁wirklich	-2650
kret	-2651
▁bemü	-2652
▁sil	-2653
▁schnell	-2654
▁auszu	-2655
▁fördern	-2656
▁wetter	-2657
fahrt	-2658
wesen	-2659
▁sl	-2660
▁sag	-2661
eits	-2662
stadt	-2663
▁genannten	-2664
▁entwicklungs	-2665
▁kultur	-2666
▁schwe	-2667
hung	-2668
plan	-2669
schaffen	-2670
▁dick	-2671
▁technische	-2672
ielt	-2673
▁bereichen	-2674
▁gotporn	-2675
za	-2676
▁beginn	-2677
riter	-2678
illa	-2679
▁höhe	-2680
▁städ	-2681
▁investitionen	-2682
▁38	-2683
sektor	-2684
▁bu	-2685
▁37	-2686
illas	-2687
▁geeig	-2688
▁freund	-2689
▁bewertung	-2690
▁ass	-2691
▁durchführung	-2692
▁betroffen	-2693
stre	-2694
dit	-2695
▁schrift	-2696
▁effizien	-2697
hnen	-2698
▁erheb	-2699
▁gerade	-2700
▁vereinigten	-2701
unternehmen	-2702
▁schritt	-2703
▁änderung	-2704
▁besten	-2705
▁stärker	-2706
▁schaffen	-2707
lla	-2708
leben	-2709
▁jede	-2710
ktionen	-2711
änger	-2712
essour	-2713
züglich	-2714
▁werde	-2715
▁arbei	-2716
sterreich	-2717
▁ihres	-2718
hilfe	-2719
alten	-2720
▁ähn	-2721
▁sperma	-2722
▁schaffung	-2723
▁abs	-2724
geln	-2725
va	-2726
▁jeden	-2727
▁veränder	-2728
▁stati	-2729
▁nacht	-2730
site	-2731
fort	-2732
▁nutzung	-2733
▁verbunden	-2734
▁ag	-2735
ines	-2736
▁stre	-2737
staur	-2738
barkeit	-2739
▁stunden	-2740
▁tragen	-2741
sei	-2742
▁nächsten	-2743
▁leg	-2744
▁histor	-2745
▁pap	-2746
eint	-2747
heim	-2748
▁mot	-2749
läu	-2750
ona	-2751
met	-2752
▁dank	-2753
▁verkauf	-2754
nungs	-2755
▁gere	-2756
uz	-2757
▁einsatz	-2758
produ	-2759
komm	-2760
▁sogar	-2761
▁soziale	-2762
▁tre	-2763
▁ke	-2764
▁59	-2765
▁kop	-2766
11	-2767
undes	-2768
▁arch	-2769
▁prin	-2770
▁künf	-2771
▁china	-2772
▁hum	-2773
hinder	-2774
▁straßen	-2775
▁5.	-2776
▁org	-2777
▁nachdem	-2778
▁tä	-2779
sätze	-2780
▁familie	-2781
abel	-2782
programm	-2783
▁1999	-2784
40	-2785
eng	-2786
▁zer	-2787
▁standard	-2788
▁zunächst	-2789
formen	-2790
▁bestand	-2791
▁vorschläge	-2792
▁brauch	-2793
▁deutlich	-2794
▁bildung	-2795
tive	-2796
▁mitgliedstaat	-2797
ennung	-2798
▁detail	-2799
mals	-2800
▁neuer	-2801
▁natürlich	-2802
frei	-2803
▁studien	-2804
▁don	-2805
▁comp	-2806
▁vorber	-2807
▁demokra	-2808
▁dauer	-2809
▁treffen	-2810
▁statist	-2811
üssel	-2812
▁rev	-2813
rop	-2814
tions	-2815
▁meiner	-2816
eg	-2817
ieg	-2818
▁oper	-2819
▁interessen	-2820
▁oft	-2821
träge	-2822
▁titel	-2823
stelle	-2824
alter	-2825
jähr	-2826
länder	-2827
lauf	-2828
▁höher	-2829
▁führt	-2830
schei	-2831
▁bre	-2832
itär	-2833
▁dritt	-2834
▁tele	-2835
▁internationale	-2836
▁van	-2837
▁babe	-2838
▁herz	-2839
▁natürliche	-2840
▁app	-2841
▁dig	-2842
rechend	-2843
erweise	-2844
▁augen	-2845
gration	-2846
13	-2847
▁gute	-2848
▁interess	-2849
th	-2850
▁phil	-2851
▁verfol	-2852
no	-2853
▁bro	-2854
asser	-2855
▁krieg	-2856
ole	-2857
ktive	-2858
▁mutter	-2859
mäßig	-2860
greich	-2861
▁beziehungen	-2862
▁tur	-2863
▁1⁄	-2864
splan	-2865
sionen	-2866
▁55	-2867
▁reform	-2868
por	-2869
▁unseren	-2870
fonds	-2871
ement	-2872
▁see	-2873
▁häufig	-2874
▁empfehl	-2875
▁beob	-2876
essourcen	-2877
▁trotz	-2878
▁binnenmarkt	-2879
rüfen	-2880
ikation	-2881
▁derzeit	-2882
▁vir	-2883
▁volk	-2884
lieb	-2885
ison	-2886
▁notwendig	-2887
▁park	-2888
que	-2889
▁lesben	-2890
▁geschäfts	-2891
flä	-2892
▁jedes	-2893
▁verschiedene	-2894
▁gesamten	-2895
▁persön	-2896
▁leu	-2897
pfer	-2898
▁gottes	-2899
▁österreich	-2900
▁gek	-2901
▁restaur	-2902
fu	-2903
nehm	-2904
▁•	-2905
▁hinsichtlich	-2906
▁ausschusses	-2907
minister	-2908
wa	-2909
ini	-2910
tur	-2911
▁leit	-2912
▁afri	-2913
▁verwendung	-2914
▁bus	-2915
▁vergangen	-2916
▁stark	-2917
▁wettbewerb	-2918
▁gewährleisten	-2919
▁kennt	-2920
▁mel	-2921
emen	-2922
▁spezie	-2923
immen	-2924
▁192	-2925
▁wind	-2926
tigung	-2927
▁anfang	-2928
▁zug	-2929
zeichnung	-2930
rom	-2931
▁48	-2932
ide	-2933
▁autom	-2934
▁beein	-2935
ätte	-2936
ins	-2937
▁zudem	-2938
ckung	-2939
15	-2940
gy	-2941
▁entfernt	-2942
▁obwohl	-2943
▁letzte	-2944
▁nichts	-2945
▁werk	-2946
uelle	-2947
▁deutschen	-2948
ada	-2949
▁technolog	-2950
gef	-2951
▁46	-2952
▁veröffentlich	-2953
▁fel	-2954
stück	-2955
▁bisher	-2956
▁lange	-2957
▁kaufen	-2958
jen	-2959
scht	-2960
bedingungen	-2961
hilfen	-2962
▁44	-2963
frastruktur	-2964
üch	-2965
▁0,	-2966
▁sitzung	-2967
datei	-2968
18	-2969
hältnis	-2970
ii	-2971
▁liebe	-2972
▁beispielsweise	-2973
äum	-2974
▁nahm	-2975
▁hafen	-2976
▁dadurch	-2977
▁veröffentlicht	-2978
antrag	-2979
▁sicht	-2980
geber	-2981
▁bleiben	-2982
▁bevölkerung	-2983
▁meinung	-2984
▁gruppen	-2985
▁offiz	-2986
atten	-2987
▁wenig	-2988
▁website	-2989
▁mi	-2990
▁schla	-2991
cial	-2992
ry	-2993
▁fast	-2994
fil	-2995
▁rich	-2996
▁bedeutet	-2997
bum	-2998
▁integration	-2999
▁frieden	-3000
▁42	-3001
inner	-3002
spieler	-3003
▁körper	-3004
iete	-3005
ica	-3006
▁1⁄4	-3007
▁arbeitnehmer	-3008
▁integr	-3009
▁drin	-3010
▁jün	-3011
▁soft	-3012
▁bestimmte	-3013
▁schluss	-3014
▁punkt	-3015
▁na	-3016
▁dein	-3017
rechts	-3018
istischen	-3019
▁tex	-3020
▁öffentliche	-3021
▁jähr	-3022
▁auffassung	-3023
▁43	-3024
▁veranst	-3025
▁programme	-3026
▁angesichts	-3027
urf	-3028
han	-3029
tler	-3030
.5	-3031
▁betrieb	-3032
▁temp	-3033
14	-3034
sprochen	-3035
▁mul	-3036
▁erfolg	-3037
▁80	-3038
läss	-3039
▁handels	-3040
▁einger	-3041
▁kunden	-3042
olu	-3043
▁mio	-3044
arig	-3045
▁ergän	-3046
▁fällen	-3047
▁dürfen	-3048
▁folge	-3049
▁arzneimittel	-3050
▁aust	-3051
bert	-3052
▁sechs	-3053
strate	-3054
▁bestimmten	-3055
▁fehler	-3056
riff	-3057
▁europas	-3058
▁foto	-3059
▁gehört	-3060
-20	-3061
▁einführung	-3062
digung	-3063
▁amarillas	-3064
▁mün	-3065
hafen	-3066
möglichen	-3067
▁lebensmittel	-3068
16	-3069
▁49	-3070
▁verbessern	-3071
▁erster	-3072
▁ehefrau	-3073
▁verabschie	-3074
ingt	-3075
▁besitz	-3076
▁organisationen	-3077
▁reser	-3078
▁gleichen	-3079
▁halten	-3080
▁zeigt	-3081
▁90	-3082
▁anp	-3083
▁spezif	-3084
teten	-3085
ong	-3086
▁monats	-3087
riterien	-3088
▁poten	-3089
ara	-3090
▁gefunden	-3091
oper	-3092
▁down	-3093
bringen	-3094
ama	-3095
▁lau	-3096
▁mass	-3097
▁seines	-3098
ese	-3099
▁früher	-3100
▁ferner	-3101
▁fortschritte	-3102
▁ren	-3103
▁zweite	-3104
▁tor	-3105
teilen	-3106
tischer	-3107
zun	-3108
▁verf	-3109
gesetzt	-3110
▁betrifft	-3111
▁änderungen	-3112
▁bot	-3113
▁keinen	-3114
▁56	-3115
rahmen	-3116
▁vorher	-3117
stein	-3118
eratur	-3119
▁kontrolle	-3120
▁57	-3121
▁entwickelt	-3122
▁beschrän	-3123
ps	-3124
▁58	-3125
hörde	-3126
last	-3127
achsen	-3128
äude	-3129
▁bal	-3130
▁wählen	-3131
▁ergebnis	-3132
▁effe	-3133
▁näm	-3134
▁ebenso	-3135
▁druck	-3136
▁1,	-3137
▁anhang	-3138
vertrag	-3139
ano	-3140
iner	-3141
▁tier	-3142
ande	-3143
gruppen	-3144
▁bundes	-3145
▁wein	-3146
▁nämlich	-3147
▁anti	-3148
▁ehemal	-3149
vin	-3150
bene	-3151
▁handarbeit	-3152
▁kategor	-3153
▁audi	-3154
▁blick	-3155
▁brei	-3156
kraft	-3157
▁arten	-3158
▁spielzeug	-3159
folger	-3160
▁spiele	-3161
hungen	-3162
▁festgelegt	-3163
cam	-3164
gebiet	-3165
rang	-3166
▁richtung	-3167
▁soli	-3168
▁bieten	-3169
▁gemeinde	-3170
▁pass	-3171
▁vorh	-3172
▁fetisch	-3173
zeigt	-3174
▁berlin	-3175
▁#	-3176
▁ausschuß	-3177
wür	-3178
sende	-3179
bank	-3180
▁arm	-3181
▁fischerei	-3182
▁acht	-3183
▁allein	-3184
▁kleinen	-3185
▁möglichkeiten	-3186
bil	-3187
▁54	-3188
bür	-3189
abon	-3190
▁che	-3191
99	-3192
▁öff	-3193
▁entsprechend	-3194
fick	-3195
▁notwendigkeit	-3196
▁tags	-3197
▁öl	-3198
▁har	-3199
tiger	-3200
▁reiten	-3201
schw	-3202
▁tages	-3203
▁hohen	-3204
gebung	-3205
.4	-3206
▁gefähr	-3207
▁beitragen	-3208
▁liss	-3209
unker	-3210
▁findet	-3211
▁durchgeführt	-3212
▁glauben	-3213
ktes	-3214
mail	-3215
▁verz	-3216
▁sicherheits	-3217
32	-3218
▁cas	-3219
ädchen	-3220
▁somit	-3221
▁verkehrs	-3222
urt	-3223
▁russland	-3224
uter	-3225
ante	-3226
▁elektron	-3227
▁informations	-3228
▁dog	-3229
ussen	-3230
▁dos	-3231
▁portug	-3232
schrift	-3233
▁anfrage	-3234
▁zehn	-3235
▁wichtigsten	-3236
haben	-3237
▁stelle	-3238
nungen	-3239
▁überwach	-3240
▁bewe	-3241
▁transen	-3242
▁unterkunft	-3243
▁mat	-3244
▁äl	-3245
▁dicke	-3246
▁vporn	-3247
▁vorhanden	-3248
länd	-3249
▁sagte	-3250
▁lissabon	-3251
▁cor	-3252
▁agen	-3253
▁kollegen	-3254
armon	-3255
▁nationale	-3256
igte	-3257
▁mark	-3258
▁dll	-3259
▁zeitraum	-3260
▁47	-3261
▁vertrags	-3262
orgung	-3263
▁mund	-3264
▁volks	-3265
▁welch	-3266
ansicht	-3267
▁europäischer	-3268
▁bedeuten	-3269
▁zweck	-3270
▁redu	-3271
▁prozess	-3272
setzungen	-3273
▁amerikan	-3274
ozi	-3275
itel	-3276
usst	-3277
▁konkre	-3278
▁geh	-3279
▁ausreich	-3280
▁mindestens	-3281
▁wirtschaftliche	-3282
▁vertreter	-3283
les	-3284
▁militär	-3285
tok	-3286
ock	-3287
▁fir	-3288
erung	-3289
▁haup	-3290
▁gerichts	-3291
▁abzu	-3292
▁flex	-3293
▁endg	-3294
▁bekämpfung	-3295
▁pov	-3296
▁initiative	-3297
▁text	-3298
dan	-3299
▁70	-3300
▁allgemein	-3301
gende	-3302
▁jahrhundert	-3303
din	-3304
▁ec	-3305
tu	-3306
zeuge	-3307
▁52	-3308
▁minuten	-3309
▁dreier	-3310
kap	-3311
jenigen	-3312
▁gesundheits	-3313
stru	-3314
▁000	-3315
▁fäh	-3316
schul	-3317
▁aufgabe	-3318
▁jiz	-3319
üt	-3320
▁verbindung	-3321
▁reise	-3322
▁kostenlo	-3323
▁wohnung	-3324
▁ps	-3325
legten	-3326
▁herren	-3327
▁muse	-3328
▁berü	-3329
▁kmu	-3330
▁sw	-3331
▁hy	-3332
▁süd	-3333
fluss	-3334
ake	-3335
▁tsche	-3336
▁königreich	-3337
digt	-3338
ren	-3339
▁regul	-3340
▁kontroll	-3341
▁verwaltung	-3342
▁überw	-3343
zbunker	-3344
▁ml	-3345
▁blut	-3346
▁jizzbunker	-3347
▁beide	-3348
griffe	-3349
ucht	-3350
▁ursprün	-3351
▁schau	-3352
▁ewg	-3353
▁medizin	-3354
ratie	-3355
▁helfen	-3356
ktiven	-3357
steuer	-3358
▁hohe	-3359
▁preise	-3360
▁haushalt	-3361
▁information	-3362
ummer	-3363
▁gegenwär	-3364
▁anforderungen	-3365
▁mittler	-3366
▁ermöglichen	-3367
▁190	-3368
zunehmen	-3369
tifiz	-3370
schau	-3371
amerikan	-3372
▁tatsächlich	-3373
akter	-3374
▁aktu	-3375
▁verhandlungen	-3376
▁dir	-3377
ings	-3378
▁themen	-3379
▁darum	-3380
▁privat	-3381
▁schlaf	-3382
▁$	-3383
▁flughafen	-3384
▁geschle	-3385
let	-3386
hoben	-3387
umenten	-3388
▁benö	-3389
▁indi	-3390
80	-3391
ost	-3392
▁bank	-3393
ile	-3394
osa	-3395
aust	-3396
load	-3397
▁zeitpunkt	-3398
ox	-3399
▁name	-3400
asmus	-3401
aktion	-3402
▁band	-3403
▁ging	-3404
▁gegrün	-3405
▁tschech	-3406
▁tri	-3407
60	-3408
▁schweiz	-3409
▁vorzu	-3410
▁general	-3411
rug	-3412
ora	-3413
▁regeln	-3414
▁abstimmung	-3415
▁kombin	-3416
ildo	-3417
▁kol	-3418
▁eigent	-3419
▁service	-3420
▁2017	-3421
▁metho	-3422
▁‐	-3423
haft	-3424
fest	-3425
▁erleich	-3426
▁gestellt	-3427
▁leicht	-3428
▁wechsel	-3429
▁sant	-3430
▁ara	-3431
▁sieht	-3432
ranken	-3433
▁mädchen	-3434
▁beschluss	-3435
werte	-3436
▁heim	-3437
▁transpar	-3438
öst	-3439
▁warum	-3440
griffen	-3441
▁anwend	-3442
▁multi	-3443
stoffe	-3444
xis	-3445
▁20.	-3446
arbeitet	-3447
▁aufmerk	-3448
fragen	-3449
▁quali	-3450
uhe	-3451
▁ausdruck	-3452
▁41	-3453
▁detaill	-3454
▁antrag	-3455
▁gesagt	-3456
ierter	-3457
▁auftrag	-3458
▁sonst	-3459
▁stimmen	-3460
vel	-3461
uellen	-3462
▁aufmerksam	-3463
ontro	-3464
ützen	-3465
vis	-3466
▁tradition	-3467
▁verantwortung	-3468
▁vorliegen	-3469
▁abw	-3470
▁ga	-3471
▁studen	-3472
▁prakti	-3473
▁grundlegen	-3474
▁boden	-3475
▁suchen	-3476
▁strand	-3477
▁anteil	-3478
▁ermöglich	-3479
▁erzeug	-3480
▁anderem	-3481
▁dre	-3482
reibung	-3483
räfte	-3484
lassen	-3485
▁zuständigen	-3486
▁auswahl	-3487
▁harmon	-3488
▁om	-3489
dium	-3490
▁53	-3491
▁verwenden	-3492
▁sorgen	-3493
▁xxx	-3494
▁verste	-3495
▁software	-3496
schließend	-3497
▁can	-3498
▁ansatz	-3499
achtet	-3500
▁joh	-3501
▁human	-3502
▁einbe	-3503
meister	-3504
asil	-3505
plätze	-3506
▁erd	-3507
▁finanzierung	-3508
▁pc	-3509
stellungen	-3510
holz	-3511
▁abgeord	-3512
llig	-3513
▁abschnitt	-3514
▁innen	-3515
zy	-3516
ograf	-3517
ows	-3518
▁pre	-3519
▁vertei	-3520
netz	-3521
user	-3522
▁sinn	-3523
▁jedem	-3524
▁kampf	-3525
▁6.	-3526
▁ök	-3527
abkommen	-3528
▁gestern	-3529
▁samm	-3530
▁schiff	-3531
▁19.	-3532
▁agr	-3533
▁diskus	-3534
herap	-3535
▁schönheit	-3536
fon	-3537
25	-3538
entwick	-3539
▁sinne	-3540
▁alten	-3541
▁ganze	-3542
▁ganzen	-3543
▁ker	-3544
▁ziff	-3545
▁realität	-3546
lichtungen	-3547
▁aufgenommen	-3548
▁technischen	-3549
▁ost	-3550
▁ressourcen	-3551
▁nimmt	-3552
umm	-3553
▁fal	-3554
▁stän	-3555
▁küche	-3556
strategie	-3557
daten	-3558
▁anst	-3559
fordern	-3560
▁allgemeine	-3561
▁iii	-3562
ath	-3563
▁anw	-3564
arf	-3565
▁bleibt	-3566
▁linie	-3567
▁eröff	-3568
techn	-3569
▁aben	-3570
▁sprache	-3571
▁†	-3572
▁schö	-3573
▁masch	-3574
mitglied	-3575
▁berg	-3576
▁chines	-3577
▁institutionen	-3578
▁oben	-3579
▁style	-3580
▁grenzüber	-3581
▁campingplatz	-3582
▁mer	-3583
▁sach	-3584
▁©	-3585
öhn	-3586
▁genannt	-3587
rümpfe	-3588
eitet	-3589
▁rein	-3590
▁dritten	-3591
▁maxim	-3592
gebnisse	-3593
▁bru	-3594
▁tätigkeit	-3595
ales	-3596
samm	-3597
▁geänder	-3598
▁rad	-3599
▁sprechen	-3600
▁jen	-3601
urop	-3602
▁erfolgreich	-3603
▁befinden	-3604
▁aussprache	-3605
▁hätte	-3606
pr	-3607
achte	-3608
▁aufzu	-3609
▁einrichtungen	-3610
ola	-3611
lös	-3612
▁10.	-3613
▁dokument	-3614
▁nahe	-3615
▁vö	-3616
▁kontakt	-3617
äre	-3618
▁bade	-3619
▁chem	-3620
▁licht	-3621
schätz	-3622
▁moder	-3623
▁hör	-3624
▁entschließ	-3625
▁weib	-3626
olution	-3627
▁monate	-3628
▁paar	-3629
▁erwar	-3630
▁unternehmens	-3631
ritts	-3632
▁kind	-3633
▁gewalt	-3634
▁zeigen	-3635
griff	-3636
tensi	-3637
▁modell	-3638
▁sommer	-3639
▁letzter	-3640
▁mik	-3641
▁größten	-3642
▁tatsache	-3643
▁dildo	-3644
ico	-3645
uell	-3646
▁beschl	-3647
▁gründen	-3648
▁statistik	-3649
▁pfl	-3650
ständ	-3651
ala	-3652
zeugen	-3653
kra	-3654
denken	-3655
spiele	-3656
▁eisen	-3657
eiden	-3658
mär	-3659
▁künst	-3660
▁reduz	-3661
▁stück	-3662
▁hor	-3663
▁15.	-3664
▁infrastruktur	-3665
▁7.	-3666
▁altern	-3667
▁verd	-3668
kar	-3669
▁geschaffen	-3670
klang	-3671
▁anz	-3672
altet	-3673
▁risiko	-3674
▁nachhaltige	-3675
frie	-3676
▁viell	-3677
▁erweiterung	-3678
ise	-3679
▁terror	-3680
ban	-3681
deten	-3682
inal	-3683
tokoll	-3684
get	-3685
▁vielleicht	-3686
iges	-3687
mitt	-3688
schrän	-3689
rogen	-3690
▁kommunikation	-3691
sitz	-3692
▁q	-3693
▁bestätig	-3694
▁unserem	-3695
bie	-3696
kor	-3697
▁betreffenden	-3698
▁zeich	-3699
▁prüfung	-3700
▁derzei	-3701
▁griechen	-3702
▁angelegen	-3703
▁entde	-3704
▁läs	-3705
ession	-3706
vention	-3707
ime	-3708
▁buchsta	-3709
▁relig	-3710
fügen	-3711
schung	-3712
▁tod	-3713
▁schle	-3714
▁eingesetzt	-3715
els	-3716
▁ferienwohn	-3717
▁ras	-3718
▁krise	-3719
▁strümpfe	-3720
▁bedür	-3721
leitung	-3722
tim	-3723
▁motor	-3724
▁rechnung	-3725
cel	-3726
stimmt	-3727
▁bilder	-3728
▁verle	-3729
▁männer	-3730
▁debatte	-3731
▁mom	-3732
▁iden	-3733
serv	-3734
sicherheit	-3735
▁besondere	-3736
dex	-3737
▁projekte	-3738
▁download	-3739
▁berücksichtigt	-3740
▁erneut	-3741
▁lässt	-3742
akte	-3743
▁aspekte	-3744
▁danach	-3745
▁langfrist	-3746
hi	-3747
▁inf	-3748
iegel	-3749
▁zoll	-3750
▁kapitel	-3751
▁aktivitäten	-3752
▁neues	-3753
▁morgen	-3754
atum	-3755
▁wün	-3756
▁ereig	-3757
▁position	-3758
▁kg	-3759
▁brasil	-3760
▁stat	-3761
▁erhält	-3762
mon	-3763
halte	-3764
▁türkei	-3765
▁gebracht	-3766
altungen	-3767
go	-3768
▁organ	-3769
kur	-3770
▁akte	-3771
▁einklang	-3772
▁ungar	-3773
▁kriterien	-3774
▁rum	-3775
kennen	-3776
äte	-3777
▁entsprechenden	-3778
19	-3779
fordert	-3780
▁französisch	-3781
▁bill	-3782
▁beru	-3783
▁organisation	-3784
▁anderer	-3785
▁übern	-3786
gangs	-3787
▁gesamte	-3788
▁begrenz	-3789
--	-3790
▁europe	-3791
hy	-3792
▁zunehmen	-3793
iten	-3794
atische	-3795
▁initiativen	-3796
spart	-3797
▁bahn	-3798
▁erinner	-3799
▁mig	-3800
▁entwickeln	-3801
will	-3802
▁suche	-3803
▁johann	-3804
ux	-3805
▁fehlen	-3806
▁inhalt	-3807
▁ändern	-3808
▁mex	-3809
liefer	-3810
▁grad	-3811
tiven	-3812
▁erfahrungen	-3813
verkehrs	-3814
gere	-3815
angt	-3816
wind	-3817
70	-3818
grammen	-3819
einander	-3820
▁erneuer	-3821
len	-3822
ttchen	-3823
▁1998	-3824
eten	-3825
alender	-3826
▁lager	-3827
▁kulture	-3828
▁¤	-3829
▁feu	-3830
▁unmittel	-3831
▁geschlossen	-3832
▁air	-3833
finden	-3834
künf	-3835
▁voy	-3836
▁sign	-3837
▁mad	-3838
reiber	-3839
▁gewesen	-3840
▁möchten	-3841
▁vorsitzen	-3842
▁forschungs	-3843
▁instrument	-3844
88	-3845
wohner	-3846
▁col	-3847
▁betre	-3848
▁konnten	-3849
▁ausführ	-3850
▁genommen	-3851
▁erhielt	-3852
▁verfügbar	-3853
▁ehr	-3854
▁nachrichten	-3855
cc	-3856
▁aufbau	-3857
▁bessere	-3858
▁kindern	-3859
▁prozent	-3860
ziehung	-3861
wendet	-3862
▁innovation	-3863
▁jesus	-3864
▁krank	-3865
▁mehrheit	-3866
▁ermöglicht	-3867
▁reserv	-3868
▁super	-3869
▁kenntnis	-3870
▁75	-3871
▁pan	-3872
▁entscheidungen	-3873
chter	-3874
▁berech	-3875
ungsbe	-3876
regel	-3877
▁®	-3878
▁aufgaben	-3879
▁überwachung	-3880
feld	-3881
ata	-3882
wasser	-3883
▁glaube	-3884
▁dän	-3885
istische	-3886
▁my	-3887
▁richtlinien	-3888
▁erforderlichen	-3889
▁strom	-3890
▁rau	-3891
▁uner	-3892
▁verpflichtungen	-3893
konom	-3894
▁doggy	-3895
▁behandelt	-3896
othe	-3897
drück	-3898
▁geboren	-3899
▁kern	-3900
▁gebäude	-3901
▁ve	-3902
schreiten	-3903
▁bestehenden	-3904
▁21.	-3905
▁verbind	-3906
▁sieben	-3907
ammen	-3908
▁günstige	-3909
▁begann	-3910
▁teile	-3911
ologischen	-3912
▁sim	-3913
▁bud	-3914
▁mü	-3915
artige	-3916
▁cast	-3917
▁schlüssel	-3918
▁basis	-3919
dienste	-3920
▁wichtigen	-3921
▁schlä	-3922
of	-3923
▁größe	-3924
▁demokratie	-3925
▁colle	-3926
standen	-3927
▁erwer	-3928
▁betrie	-3929
▁ann	-3930
▁miss	-3931
▁verhältnis	-3932
leistung	-3933
▁anstr	-3934
gten	-3935
▁griechenland	-3936
▁falls	-3937
ek	-3938
tic	-3939
▁beihilfen	-3940
▁post	-3941
▁durchschnitt	-3942
▁modern	-3943
▁geführt	-3944
forderung	-3945
▁verwirk	-3946
90	-3947
gegeben	-3948
präsiden	-3949
gehend	-3950
▁tat	-3951
▁12.	-3952
▁saint	-3953
▁antwort	-3954
▁genutz	-3955
▁voyeur	-3956
▁anspruch	-3957
gu	-3958
grö	-3959
▁herunter	-3960
▁zerst	-3961
▁wirkung	-3962
▁übrigen	-3963
▁fraktion	-3964
hlt	-3965
krieg	-3966
ose	-3967
▁liber	-3968
▁villa	-3969
▁punkte	-3970
ppen	-3971
▁18.	-3972
ssystem	-3973
▁gesichts	-3974
▁wesentlichen	-3975
▁zahlreiche	-3976
▁cam	-3977
▁51	-3978
▁up	-3979
▁änderungsant	-3980
bi	-3981
▁team	-3982
▁mutti	-3983
▁erlau	-3984
▁präsidenten	-3985
cia	-3986
▁möglicherweise	-3987
eder	-3988
▁begriff	-3989
▁einzige	-3990
ämp	-3991
▁kranken	-3992
atin	-3993
▁prem	-3994
ktoren	-3995
issionen	-3996
hindern	-3997
fälle	-3998
▁paul	-3999
kosten	-4000
▁aufent	-4001
▁teilen	-4002
tliche	-4003
▁tittchen	-4004
▁paten	-4005
▁zentrum	-4006
otube	-4007
▁john	-4008
▁klin	-4009
▁ledig	-4010
▁ri	-4011
atoren	-4012
▁setzen	-4013
▁webcam	-4014
▁menschenrechte	-4015
▁qual	-4016
▁erf	-4017
▁betroffenen	-4018
fläche	-4019
▁ed	-4020
▁arzt	-4021
▁angaben	-4022
tseite	-4023
orten	-4024
räger	-4025
deu	-4026
▁alte	-4027
▁kommissions	-4028
ergebnisse	-4029
▁glas	-4030
▁radio	-4031
yr	-4032
▁count	-4033
▁mechan	-4034
▁strateg	-4035
▁gratis	-4036
sichtigen	-4037
▁jer	-4038
▁norm	-4039
▁rö	-4040
▁heißt	-4041
▁begrüßt	-4042
pla	-4043
erika	-4044
▁solchen	-4045
▁lediglich	-4046
ark	-4047
▁16.	-4048
▁just	-4049
▁vielf	-4050
▁ersuch	-4051
▁folgt	-4052
▁xxxdan	-4053
▁erklärung	-4054
▁präsidentin	-4055
yer	-4056
olf	-4057
▁500	-4058
17	-4059
▁fotos	-4060
▁video	-4061
wander	-4062
▁partnerschaft	-4063
▁zahlen	-4064
▁instrumente	-4065
iveau	-4066
▁vern	-4067
sprogramm	-4068
▁heiligen	-4069
iar	-4070
▁11.	-4071
▁nav	-4072
▁kalender	-4073
▁orgasmus	-4074
aket	-4075
▁13.	-4076
▁late	-4077
▁ausbildung	-4078
▁konferenz	-4079
rüft	-4080
▁beteiligung	-4081
▁befür	-4082
-3	-4083
▁holz	-4084
bericht	-4085
▁nationaler	-4086
▁8.	-4087
▁ziffer	-4088
ips	-4089
rimin	-4090
▁regelung	-4091
klus	-4092
▁14.	-4093
▁bul	-4094
▁woll	-4095
▁ausschließ	-4096
▁verurs	-4097
lang	-4098
▁leisten	-4099
▁lond	-4100
ski	-4101
bien	-4102
üter	-4103
▁einrichtung	-4104
ua	-4105
▁ernst	-4106
▁mitte	-4107
indust	-4108
▁laufen	-4109
▁polizei	-4110
▁wahrschein	-4111
▁institution	-4112
▁bezüglich	-4113
▁detaillierte	-4114
▁gep	-4115
▁hält	-4116
▁kro	-4117
▁9.	-4118
▁slow	-4119
gemein	-4120
stände	-4121
▁zugriffe	-4122
assungs	-4123
ymp	-4124
▁tätigkeiten	-4125
aufnahme	-4126
▁lag	-4127
▁verbr	-4128
▁französischen	-4129
äst	-4130
▁bon	-4131
▁ler	-4132
▁erklärt	-4133
▁bald	-4134
▁konver	-4135
▁handeln	-4136
▁weltweit	-4137
▁beschäftigungs	-4138
▁autor	-4139
▁stamm	-4140
▁brauchen	-4141
hel	-4142
use	-4143
enze	-4144
▁sicherzustellen	-4145
▁menge	-4146
instr	-4147
seln	-4148
▁sau	-4149
▁akzep	-4150
▁gehören	-4151
▁dele	-4152
▁endgül	-4153
▁redt	-4154
wirken	-4155
▁programms	-4156
ki	-4157
▁anerkennung	-4158
▁flie	-4159
▁gefahr	-4160
▁empfehlungen	-4161
▁pat	-4162
digkeit	-4163
▁absol	-4164
▁redtube	-4165
industrie	-4166
▁garan	-4167
ologische	-4168
▁sprachen	-4169
▁sterne	-4170
▁angewendet	-4171
▁griech	-4172
▁saison	-4173
▁orig	-4174
meer	-4175
▁standpunkt	-4176
▁umfang	-4177
ya	-4178
▁damen	-4179
▁konzentr	-4180
▁zusätzliche	-4181
rad	-4182
zuführen	-4183
▁konfl	-4184
▁parteien	-4185
▁install	-4186
▁bü	-4187
▁dich	-4188
gelassen	-4189
▁rie	-4190
▁gegründet	-4191
ane	-4192
▁big	-4193
rid	-4194
▁regierungen	-4195
▁17.	-4196
▁digit	-4197
▁vollständig	-4198
▁international	-4199
etten	-4200
▁fand	-4201
▁ausgaben	-4202
▁os	-4203
▁medien	-4204
führer	-4205
▁männlich	-4206
▁finanziellen	-4207
▁transport	-4208
omen	-4209
engungen	-4210
kretär	-4211
▁details	-4212
▁provin	-4213
by	-4214
▁intensi	-4215
▁bemühungen	-4216
▁ant	-4217
▁übereinkommen	-4218
▁haupts	-4219
▁eigene	-4220
▁kontin	-4221
▁stri	-4222
ograph	-4223
ierenden	-4224
cy	-4225
▁yor	-4226
▁schi	-4227
genden	-4228
anger	-4229
▁hell	-4230
stimmen	-4231
▁fordert	-4232
arch	-4233
▁jüng	-4234
▁führte	-4235
▁annahme	-4236
▁praxis	-4237
▁verhalten	-4238
▁gä	-4239
preis	-4240
▁meinen	-4241
▁schreiben	-4242
▁bezeichnet	-4243
▁kitz	-4244
▁studie	-4245
▁transparenz	-4246
▁val	-4247
▁bedarf	-4248
▁behinder	-4249
▁maria	-4250
alisiert	-4251
▁stimm	-4252
▁fachgruppe	-4253
seh	-4254
ollar	-4255
▁brav	-4256
▁cap	-4257
▁charakter	-4258
▁ham	-4259
▁london	-4260
▁kreuz	-4261
▁erör	-4262
portal	-4263
▁dennoch	-4264
▁rumän	-4265
▁zentral	-4266
stu	-4267
▁teen	-4268
▁herzen	-4269
unk	-4270
▁besei	-4271
▁dienste	-4272
tierte	-4273
▁bedürf	-4274
ames	-4275
▁jeweiligen	-4276
▁gold	-4277
▁freien	-4278
heben	-4279
▁blau	-4280
twoch	-4281
▁tube	-4282
itze	-4283
▁bab	-4284
▁leich	-4285
▁änderungsantrag	-4286
▁bein	-4287
ochter	-4288
▁deleg	-4289
▁gas	-4290
▁eindeu	-4291
▁gelegenheit	-4292
▁mehreren	-4293
olo	-4294
▁leitlinien	-4295
▁neg	-4296
amung	-4297
▁mittwoch	-4298
▁lat	-4299
▁vertreten	-4300
orben	-4301
stattet	-4302
atischen	-4303
▁grenzen	-4304
▁county	-4305
▁freiheit	-4306
▁wiederhol	-4307
racial	-4308
▁bravotube	-4309
dest	-4310
▁stimme	-4311
sous	-4312
derung	-4313
▁nationen	-4314
▁wil	-4315
▁windows	-4316
▁url	-4317
ling	-4318
▁unterb	-4319
besamung	-4320
▁genutzt	-4321
▁hän	-4322
freund	-4323
▁erläu	-4324
▁ausger	-4325
▁300	-4326
systeme	-4327
pers	-4328
▁ergänz	-4329
▁1997	-4330
▁schen	-4331
▁31.	-4332
ringe	-4333
▁koordinierung	-4334
▁pier	-4335
sellschaften	-4336
schule	-4337
▁bran	-4338
▁aufnahme	-4339
▁deutsche	-4340
▁bestimmt	-4341
verstän	-4342
schi	-4343
▁berühm	-4344
▁startseite	-4345
▁len	-4346
eiger	-4347
▁erschien	-4348
▁entspricht	-4349
▁prioritäten	-4350
▁beschlossen	-4351
▁niedr	-4352
institu	-4353
zehn	-4354
▁ziehen	-4355
▁vorbe	-4356
iden	-4357
▁massage	-4358
▁einfluss	-4359
▁iv	-4360
▁guten	-4361
arbeiter	-4362
▁kitzler	-4363
▁stärkung	-4364
mehr	-4365
zeugt	-4366
▁lesen	-4367
anzeigen	-4368
▁englisch	-4369
▁buchen	-4370
▁verfügt	-4371
istr	-4372
▁sonder	-4373
▁scheint	-4374
nern	-4375
▁version	-4376
▁geworden	-4377
ohlen	-4378
▁fertig	-4379
▁cro	-4380
▁gericht	-4381
▁mont	-4382
▁alex	-4383
tit	-4384
▁150	-4385
▁klei	-4386
▁bez	-4387
▁ton	-4388
▁opfer	-4389
chtet	-4390
▁abschluss	-4391
▁dosis	-4392
▁gesehen	-4393
▁dorf	-4394
ain	-4395
▁bege	-4396
ents	-4397
ördert	-4398
▁fußball	-4399
inter	-4400
lösung	-4401
stellten	-4402
▁zerstör	-4403
df	-4404
auftra	-4405
▁universität	-4406
poli	-4407
▁spricht	-4408
band	-4409
ition	-4410
▁darunter	-4411
▁fallen	-4412
▁flexib	-4413
▁landschaft	-4414
▁tief	-4415
▁luxem	-4416
▁garten	-4417
▁anstrengungen	-4418
ffer	-4419
▁fu	-4420
▁getroffen	-4421
▁dessous	-4422
▁jahrhunderts	-4423
läs	-4424
▁mexik	-4425
zur	-4426
▁älter	-4427
▁kostenlos	-4428
▁ip	-4429
▁jeweils	-4430
uern	-4431
▁seien	-4432
▁prinzip	-4433
▁protokoll	-4434
fast	-4435
▁breite	-4436
▁schweizer	-4437
til	-4438
orge	-4439
sition	-4440
reib	-4441
▁flä	-4442
▁pop	-4443
▁berat	-4444
führten	-4445
sprozess	-4446
▁erfüllen	-4447
▁hersteller	-4448
kul	-4449
▁kleiner	-4450
▁erwachsen	-4451
zus	-4452
iens	-4453
erseits	-4454
scher	-4455
▁normal	-4456
▁solidar	-4457
▁gegensei	-4458
▁grundsatz	-4459
anlage	-4460
▁größere	-4461
ms	-4462
▁fei	-4463
▁rest	-4464
▁belgien	-4465
▁regionalen	-4466
ktik	-4467
▁sand	-4468
▁ord	-4469
ielle	-4470
▁ebenholz	-4471
gefü	-4472
▁1996	-4473
▁bilden	-4474
▁tö	-4475
▁vorteile	-4476
▁interracial	-4477
▁bulgar	-4478
▁klicken	-4479
▁you	-4480
ynam	-4481
ych	-4482
▁äg	-4483
ots	-4484
▁suchergebnisse	-4485
stern	-4486
▁comm	-4487
▁mindest	-4488
oph	-4489
▁schwierigkeiten	-4490
dungs	-4491
▁klass	-4492
sent	-4493
▁vertrauen	-4494
▁pil	-4495
▁inst	-4496
▁wege	-4497
selben	-4498
▁prote	-4499
ume	-4500
partner	-4501
▁gering	-4502
▁david	-4503
pfel	-4504
rige	-4505
emente	-4506
▁japanische	-4507
▁bio	-4508
▁gast	-4509
▁meter	-4510
reisen	-4511
▁extr	-4512
funktion	-4513
▁ku	-4514
▁schloss	-4515
▁gö	-4516
wogen	-4517
▁tochter	-4518
usion	-4519
▁bereiche	-4520
▁1990	-4521
izi	-4522
ützt	-4523
▁kapital	-4524
▁gerichtshof	-4525
▁konsult	-4526
tungen	-4527
▁break	-4528
▁herstellung	-4529
▁bad	-4530
▁tru	-4531
▁junge	-4532
▁weder	-4533
▁dienen	-4534
76	-4535
tierung	-4536
sprechen	-4537
text	-4538
lecken	-4539
urn	-4540
▁lernen	-4541
▁konzept	-4542
▁64	-4543
▁ero	-4544
75	-4545
oliv	-4546
▁bewusst	-4547
▁top	-4548
▁halb	-4549
▁kapaz	-4550
▁club	-4551
▁festlegung	-4552
zeugung	-4553
▁nachbar	-4554
▁finanzielle	-4555
▁76	-4556
masch	-4557
▁goog	-4558
▁merk	-4559
haupt	-4560
▁agrar	-4561
lassung	-4562
▁erfahrung	-4563
▁gre	-4564
▁arab	-4565
leistungen	-4566
gesetz	-4567
asi	-4568
▁büro	-4569
folgerungen	-4570
▁meinem	-4571
▁prüfen	-4572
▁gelei	-4573
▁komment	-4574
▁ringe	-4575
▁college	-4576
▁28.	-4577
inden	-4578
▁empfohlen	-4579
▁abhäng	-4580
▁test	-4581
wegen	-4582
▁wien	-4583
atik	-4584
▁schm	-4585
▁suite	-4586
▁jean	-4587
▁vorgeschlagenen	-4588
▁nahr	-4589
uel	-4590
mension	-4591
nr	-4592
▁mr	-4593
▁banken	-4594
▁erfüllt	-4595
▁kal	-4596
▁sah	-4597
ösen	-4598
utter	-4599
▁leiden	-4600
▁sofort	-4601
▁leistungs	-4602
▁niedlich	-4603
▁säm	-4604
job	-4605
▁av	-4606
▁pi	-4607
▁2018	-4608
herapie	-4609
ize	-4610
▁erz	-4611
▁table	-4612
▁betont	-4613
▁wunder	-4614
▁hintergrund	-4615
lieben	-4616
stands	-4617
ight	-4618
rich	-4619
▁2020	-4620
▁formul	-4621
▁{	-4622
▁außerhalb	-4623
ühr	-4624
▁beur	-4625
▁draussen	-4626
ori	-4627
sichten	-4628
▁lokalen	-4629
▁trägt	-4630
bu	-4631
vide	-4632
▁ägyp	-4633
alerie	-4634
▁anzeigen	-4635
▁1995	-4636
▁\	-4637
▁}	-4638
▁plen	-4639
▁exper	-4640
▁umfasst	-4641
bte	-4642
▁unten	-4643
▁diskussion	-4644
▁syn	-4645
▁serie	-4646
▁begrün	-4647
▁schlägt	-4648
▁beschwer	-4649
seite	-4650
▁dusche	-4651
▁wichtiger	-4652
▁besonderen	-4653
▁mess	-4654
vorschlag	-4655
▁tie	-4656
▁glück	-4657
▁himm	-4658
richtet	-4659
▁gezeigt	-4660
▁analyse	-4661
▁drinnen	-4662
▁prie	-4663
▁silber	-4664
union	-4665
▁berücksichtigen	-4666
▁begl	-4667
▁google	-4668
▁moll	-4669
▁museum	-4670
ym	-4671
▁los	-4672
▁spieler	-4673
▁frem	-4674
▁werte	-4675
▁diejenigen	-4676
äng	-4677
▁lösungen	-4678
▁amt	-4679
▁gewicht	-4680
iken	-4681
▁eingeführt	-4682
mt	-4683
verein	-4684
ory	-4685
▁arme	-4686
▁polen	-4687
fter	-4688
▁ukra	-4689
▁grü	-4690
wandel	-4691
▁versuchen	-4692
ießen	-4693
sammlung	-4694
behörden	-4695
▁bekommen	-4696
▁besucher	-4697
▁zuständig	-4698
▁red	-4699
finanz	-4700
▁versicher	-4701
▁afrika	-4702
▁grundsätz	-4703
▁hü	-4704
▁kil	-4705
grenz	-4706
▁erhöhen	-4707
▁york	-4708
drücklich	-4709
dam	-4710
elev	-4711
▁austr	-4712
▁stahl	-4713
dorf	-4714
▁real	-4715
▁design	-4716
dom	-4717
▁komplex	-4718
gemacht	-4719
gewicht	-4720
▁kooper	-4721
▁indivi	-4722
▁russisch	-4723
ita	-4724
bruch	-4725
iew	-4726
▁individu	-4727
▁buchstabe	-4728
▁vermeiden	-4729
▁25.	-4730
▁jur	-4731
▁bisch	-4732
▁beteiligten	-4733
rufe	-4734
herr	-4735
▁haarig	-4736
cm	-4737
án	-4738
▁geändert	-4739
▁vorbereitung	-4740
andid	-4741
▁2,	-4742
▁vene	-4743
▁erfolgt	-4744
▁reit	-4745
▁samstag	-4746
ählen	-4747
▁gerecht	-4748
▁stärken	-4749
▁überprüfung	-4750
gro	-4751
▁vorgehen	-4752
mes	-4753
▁milch	-4754
▁erstes	-4755
▁gebrauch	-4756
35	-4757
ickt	-4758
▁völlig	-4759
▁flor	-4760
▁kommenden	-4761
▁teilnahme	-4762
▁kne	-4763
richtlinie	-4764
▁breakfast	-4765
▁archite	-4766
▁sozialausschuss	-4767
▁verhindern	-4768
▁adr	-4769
▁fonds	-4770
▁peter	-4771
frieden	-4772
▁entgegen	-4773
▁gebieten	-4774
-5	-4775
▁trag	-4776
▁regionale	-4777
▁restaurant	-4778
▁essen	-4779
▁verpflichtet	-4780
▁privaten	-4781
▁arbeitsplätze	-4782
95	-4783
see	-4784
▁beginnen	-4785
dsm	-4786
ämpfen	-4787
▁roman	-4788
▁straße	-4789
▁lt	-4790
▁mikro	-4791
▁option	-4792
▁gesicht	-4793
▁benutzer	-4794
▁erde	-4795
▁mas	-4796
▁städte	-4797
gewiesen	-4798
▁erzielt	-4799
▁selten	-4800
▁jose	-4801
▁vorgelegt	-4802
tuber	-4803
▁falle	-4804
▁kr	-4805
▁vorrang	-4806
onom	-4807
▁länge	-4808
▁är	-4809
old	-4810
▁hause	-4811
▁schei	-4812
▁drtuber	-4813
▁registr	-4814
iellen	-4815
▁größte	-4816
spräsiden	-4817
▁hoffe	-4818
bit	-4819
▁tv	-4820
▁straf	-4821
▁verbessert	-4822
▁entsprechende	-4823
▁lauf	-4824
▁verfügen	-4825
▁usw	-4826
leisch	-4827
▁freiwill	-4828
▁ref	-4829
mittelt	-4830
▁fett	-4831
▁hoff	-4832
▁portugal	-4833
▁laut	-4834
bra	-4835
▁fein	-4836
▁finn	-4837
▁kredit	-4838
▁zeu	-4839
▁jugendlich	-4840
▁fla	-4841
▁kolleg	-4842
▁30.	-4843
▁sem	-4844
ständen	-4845
▁95	-4846
läne	-4847
▁maßnahme	-4848
▁campingplätze	-4849
ards	-4850
ville	-4851
gebaut	-4852
▁termin	-4853
ces	-4854
gas	-4855
annen	-4856
wissen	-4857
▁berichte	-4858
▁sek	-4859
▁monatsansicht	-4860
▁kos	-4861
▁weist	-4862
▁aufmerksamkeit	-4863
spoli	-4864
▁amts	-4865
▁geschrieben	-4866
ars	-4867
nor	-4868
reibt	-4869
64	-4870
▁med	-4871
cks	-4872
bürger	-4873
▁off	-4874
▁kauf	-4875
▁trat	-4876
▁heutigen	-4877
▁eher	-4878
▁gewährleistet	-4879
alismus	-4880
▁telefon	-4881
▁getan	-4882
▁länger	-4883
▁schuhe	-4884
punkte	-4885
ärchen	-4886
▁wenige	-4887
▁mod	-4888
proje	-4889
astrop	-4890
▁setzt	-4891
app	-4892
losen	-4893
▁lot	-4894
▁fisch	-4895
bad	-4896
▁abend	-4897
losigkeit	-4898
gefähr	-4899
▁zuvor	-4900
aktionen	-4901
▁agentur	-4902
pon	-4903
▁mos	-4904
▁tel	-4905
▁dinge	-4906
▁65	-4907
▁computer	-4908
eien	-4909
lleg	-4910
▁vereinbarung	-4911
▁donner	-4912
▁milliar	-4913
▁latina	-4914
älfte	-4915
adem	-4916
▁brie	-4917
haber	-4918
▁leder	-4919
▁beteiligt	-4920
▁technologien	-4921
▁anpassung	-4922
.-	-4923
21	-4924
▁ce	-4925
▁teilweise	-4926
iser	-4927
▁brasilien	-4928
▁cre	-4929
▁irland	-4930
▁unternehmer	-4931
rak	-4932
▁23.	-4933
▁bauern	-4934
▁sofern	-4935
ikt	-4936
auern	-4937
-4	-4938
▁personal	-4939
iga	-4940
24	-4941
zeichen	-4942
▁mollig	-4943
oc	-4944
▁phase	-4945
▁gesprä	-4946
▁behörde	-4947
▁unmittelbar	-4948
▁zeichen	-4949
eitag	-4950
▁systeme	-4951
▁entstehen	-4952
▁22.	-4953
▁georg	-4954
gerufen	-4955
▁besuchen	-4956
▁austausch	-4957
▁bip	-4958
ness	-4959
fehl	-4960
isiert	-4961
▁kategorie	-4962
▁stein	-4963
▁cr	-4964
▁gepl	-4965
▁stabilität	-4966
▁rand	-4967
ierende	-4968
▁zeiger	-4969
mode	-4970
nü	-4971
▁eigentlich	-4972
▁iran	-4973
▁bdsm	-4974
kungen	-4975
▁schweden	-4976
▁rasieren	-4977
▁bringt	-4978
▁hard	-4979
▁chr	-4980
▁justiz	-4981
▁1994	-4982
▁lehrer	-4983
▁vergangenen	-4984
▁künstler	-4985
▁ank	-4986
▁chan	-4987
ott	-4988
häuser	-4989
▁gleiche	-4990
▁reformen	-4991
dingt	-4992
▁einhaltung	-4993
▁anders	-4994
lichung	-4995
igh	-4996
nahm	-4997
▁revolution	-4998
zo	-4999
▁verzeich	-5000
▁erfordern	-5001
▁verstehen	-5002
▁tabe	-5003
▁luxus	-5004
achtung	-5005
▁völker	-5006
ungsverfahren	-5007
▁abgeordneten	-5008
fiziert	-5009
▁badezimmer	-5010
▁umgesetzt	-5011
cs	-5012
stums	-5013
fallen	-5014
ika	-5015
▁angebot	-5016
▁bürgern	-5017
▁tausende	-5018
istan	-5019
▁anschließend	-5020
▁arbeitsmarkt	-5021
▁winter	-5022
▁gebiete	-5023
▁pärchen	-5024
vid	-5025
▁hätten	-5026
▁amateur	-5027
▁flüge	-5028
vd	-5029
▁kb	-5030
▁gewählt	-5031
weiten	-5032
▁berufs	-5033
▁schützen	-5034
▁beitritts	-5035
angel	-5036
oster	-5037
▁entweder	-5038
▁haut	-5039
marktes	-5040
▁dateien	-5041
▁derzeitigen	-5042
▁schlafzimmer	-5043
▁sonn	-5044
europ	-5045
▁hindern	-5046
ometer	-5047
era	-5048
etration	-5049
▁verantwortlich	-5050
ffee	-5051
▁eingehen	-5052
98	-5053
▁stock	-5054
▁kathol	-5055
▁koh	-5056
▁optim	-5057
▁speich	-5058
▁richtig	-5059
▁kostenlose	-5060
▁villen	-5061
▁29.	-5062
▁extrem	-5063
▁kennen	-5064
▁produz	-5065
bas	-5066
okra	-5067
▁willen	-5068
▁verkauft	-5069
▁hen	-5070
▁kopf	-5071
tor	-5072
▁viv	-5073
▁rats	-5074
▁donnerstag	-5075
▁zugän	-5076
▁wahrscheinlich	-5077
▁poln	-5078
▁dynam	-5079
▁nächste	-5080
▁schritte	-5081
▁diskrimin	-5082
lass	-5083
endung	-5084
▁material	-5085
atis	-5086
unsch	-5087
▁übertragen	-5088
far	-5089
▁verloren	-5090
▁einzelstaat	-5091
versorgung	-5092
▁hinzufügen	-5093
▁armut	-5094
,00	-5095
▁analdin	-5096
▁›	-5097
zial	-5098
22	-5099
zeiten	-5100
▁bedro	-5101
gessen	-5102
▁objekt	-5103
▁effizienz	-5104
icher	-5105
unkten	-5106
▁nö	-5107
▁presse	-5108
▁unterschei	-5109
▁systems	-5110
▁welches	-5111
▁höchst	-5112
▁entwickel	-5113
▁hu	-5114
▁spa	-5115
zahlen	-5116
▁freitag	-5117
▁leistung	-5118
▁nipp	-5119
▁globalen	-5120
▁fähigkeit	-5121
▁provinz	-5122
▁spanisch	-5123
▁apart	-5124
▁arschlecken	-5125
▁genehmigung	-5126
ichen	-5127
träch	-5128
▁keiner	-5129
▁denke	-5130
station	-5131
▁gefördert	-5132
▁erkennen	-5133
▁schwed	-5134
▁eisenbahn	-5135
▁golf	-5136
▁verur	-5137
rüst	-5138
ungsmittel	-5139
▁zeigerringe	-5140
▁unge	-5141
▁ausschließlich	-5142
▁schwanger	-5143
▁ergreifen	-5144
▁vorhaben	-5145
▁auftreten	-5146
▁links	-5147
▁jährlich	-5148
▁tiere	-5149
▁füße	-5150
▁domin	-5151
▁formen	-5152
▁ausü	-5153
▁begeg	-5154
▁verringerung	-5155
tien	-5156
▁bat	-5157
ftung	-5158
weite	-5159
tierten	-5160
▁penetration	-5161
▁oma	-5162
aktiv	-5163
▁prüf	-5164
▁entwurf	-5165
▁überra	-5166
▁risiken	-5167
▁einschlä	-5168
▁gefü	-5169
▁herunterladen	-5170
▁schlu	-5171
▁osten	-5172
lande	-5173
systems	-5174
sport	-5175
reitet	-5176
▁blumen	-5177
ätigkeit	-5178
▁barcel	-5179
▁wandel	-5180
▁stellte	-5181
▁mittelmeer	-5182
▁kurze	-5183
▁party	-5184
▁abgeschlossen	-5185
zig	-5186
hnung	-5187
65	-5188
atien	-5189
rinzip	-5190
▁dritte	-5191
▁sagt	-5192
▁reisen	-5193
▁beschreibung	-5194
▁nummer	-5195
▁paläst	-5196
▁kenn	-5197
▁rede	-5198
....	-5199
ones	-5200
▁zusätzlich	-5201
▁mac	-5202
▁farbe	-5203
▁erlaubt	-5204
▁täglich	-5205
▁vereinfach	-5206
▁dimension	-5207
▁lü	-5208
jährigen	-5209
▁geltenden	-5210
▁69	-5211
▁minder	-5212
▁kompeten	-5213
▁entwicklungen	-5214
▁betriebs	-5215
▁priester	-5216
▁entschließung	-5217
ago	-5218
▁luxemburg	-5219
▁notwendigen	-5220
▁einzig	-5221
ungsbereich	-5222
▁erlassen	-5223
.20	-5224
stattung	-5225
▁tourismus	-5226
ischt	-5227
▁ergeben	-5228
schließen	-5229
85	-5230
▁ang	-5231
▁olymp	-5232
▁verpflichtung	-5233
▁hälfte	-5234
▁wh	-5235
▁manch	-5236
▁erfolgen	-5237
▁24.	-5238
▁1992	-5239
▁benach	-5240
▁einschläg	-5241
▁hausgemacht	-5242
▁illeg	-5243
▁regional	-5244
▁26.	-5245
▁exist	-5246
▁bestätigt	-5247
ón	-5248
▁mobilität	-5249
▁jem	-5250
sprü	-5251
▁äußerst	-5252
▁sache	-5253
▁unabhängig	-5254
▁lad	-5255
▁leider	-5256
▁beträgt	-5257
don	-5258
▁tal	-5259
▁auss	-5260
windigkeit	-5261
▁erkennt	-5262
est	-5263
▁vielfalt	-5264
▁hauptsächlich	-5265
nach	-5266
▁sm	-5267
▁spielt	-5268
▁symb	-5269
▁veränderungen	-5270
anne	-5271
volle	-5272
▁stil	-5273
irm	-5274
sprach	-5275
hörigen	-5276
möglichkeiten	-5277
▁nachhaltigen	-5278
▁ul	-5279
▁meines	-5280
▁angelegenheiten	-5281
▁gewann	-5282
▁ländlichen	-5283
ille	-5284
ador	-5285
igur	-5286
rik	-5287
▁85	-5288
▁erle	-5289
▁konf	-5290
▁komprom	-5291
▁technologie	-5292
2-	-5293
▁kombination	-5294
▁bor	-5295
zieht	-5296
▁wirksamkeit	-5297
ses	-5298
▁instrumenten	-5299
▁400	-5300
▁mand	-5301
▁relev	-5302
▁aktionsplan	-5303
▁weihn	-5304
lligen	-5305
▁feuer	-5306
▁bik	-5307
▁vereinten	-5308
▁milliarden	-5309
isk	-5310
▁satz	-5311
lege	-5312
verw	-5313
uth	-5314
▁verabschiedet	-5315
▁sorg	-5316
▁nippel	-5317
▁¶	-5318
oto	-5319
fuhr	-5320
mögen	-5321
kk	-5322
▁angel	-5323
▁schätz	-5324
▁positiv	-5325
▁grundsätze	-5326
uba	-5327
ürzt	-5328
▁verfahrens	-5329
▁konstru	-5330
▁funktionieren	-5331
▁umgebung	-5332
uras	-5333
▁est	-5334
legte	-5335
▁prop	-5336
▁untersuchung	-5337
▁27.	-5338
▁voran	-5339
▁einkommen	-5340
xi	-5341
▁deine	-5342
igungen	-5343
▁christus	-5344
▁leistungen	-5345
▁180	-5346
▁präsen	-5347
wirkung	-5348
▁berichts	-5349
con	-5350
▁wand	-5351
▁überprüfen	-5352
▁mic	-5353
▁bern	-5354
handels	-5355
▁zuver	-5356
▁var	-5357
▁betrug	-5358
▁einwohner	-5359
how	-5360
▁wald	-5361
▁mem	-5362
▁sing	-5363
▁versucht	-5364
▁burg	-5365
▁vergessen	-5366
▁engagement	-5367
clips	-5368
ielten	-5369
▁eltern	-5370
▁galerie	-5371
,3	-5372
pliz	-5373
weist	-5374
▁album	-5375
▁pand	-5376
igsten	-5377
ld	-5378
▁gesp	-5379
▁gäste	-5380
▁unterschied	-5381
▁danken	-5382
▁ice	-5383
▁freundin	-5384
leun	-5385
rochen	-5386
▁symp	-5387
▁por	-5388
hafte	-5389
ash	-5390
▁pet	-5391
bauen	-5392
▁wollte	-5393
▁original	-5394
▁barcelona	-5395
▁teilnehmer	-5396
▁mitarbeiter	-5397
alet	-5398
▁elektr	-5399
▁verlassen	-5400
▁ven	-5401
▁spritzen	-5402
▁voraussetzungen	-5403
nehmern	-5404
▁diesel	-5405
▁dollar	-5406
hlenfick	-5407
▁pornos	-5408
▁folgender	-5409
▁cal	-5410
brü	-5411
▁nein	-5412
▁pflanzen	-5413
lu	-5414
▁fen	-5415
hebung	-5416
▁befürwor	-5417
läuf	-5418
heits	-5419
dia	-5420
gene	-5421
▁kamen	-5422
▁müs	-5423
▁1993	-5424
▁mite	-5425
▁genug	-5426
ampag	-5427
war	-5428
iers	-5429
▁reag	-5430
▁regelungen	-5431
▁geschlecht	-5432
lands	-5433
wagen	-5434
organisationen	-5435
sprech	-5436
45	-5437
▁98	-5438
gibt	-5439
▁arg	-5440
▁nuvid	-5441
▁ungefähr	-5442
▁youporn	-5443
▁disku	-5444
▁korre	-5445
▁santa	-5446
▁vorsitz	-5447
stoffen	-5448
▁schule	-5449
▁meister	-5450
kro	-5451
▁niederlande	-5452
▁bla	-5453
▁1.1	-5454
▁inje	-5455
▁martin	-5456
▁datum	-5457
▁gründung	-5458
▁gegebenen	-5459
▁versteckt	-5460
tzentr	-5461
tlichen	-5462
▁beeinträch	-5463
▁leute	-5464
▁mitein	-5465
mittlung	-5466
car	-5467
▁übersch	-5468
▁city	-5469
▁kürz	-5470
zusetzen	-5471
▁hinsicht	-5472
riere	-5473
ybo	-5474
entwicklung	-5475
kontro	-5476
23	-5477
werke	-5478
▁normen	-5479
▁meeres	-5480
▁rh	-5481
effizien	-5482
▁hond	-5483
▁gesetzt	-5484
tritt	-5485
▁gebe	-5486
ässer	-5487
▁zugelassen	-5488
▁zahlreichen	-5489
▁pu	-5490
▁ließ	-5491
▁praktik	-5492
▁regelmäßig	-5493
▁psych	-5494
▁höschen	-5495
ständnis	-5496
öse	-5497
▁unseres	-5498
▁erstellt	-5499
▁gekommen	-5500
▁lösen	-5501
▁definition	-5502
▁regierungs	-5503
▁pin	-5504
▁wahlen	-5505
▁lab	-5506
▁indien	-5507
ikations	-5508
▁gal	-5509
ismen	-5510
▁bewäl	-5511
ado	-5512
▁erfahren	-5513
▁einwander	-5514
▁verlänger	-5515
▁kehlenfick	-5516
▁cat	-5517
inform	-5518
▁perfe	-5519
▁funktionen	-5520
▁zurückge	-5521
▁präsidentschaft	-5522
▁erwarten	-5523
ema	-5524
rick	-5525
▁erm	-5526
▁anmel	-5527
▁geeignet	-5528
ants	-5529
itter	-5530
▁blieb	-5531
▁ausnahme	-5532
▁ferienwohnung	-5533
ump	-5534
▁exter	-5535
▁vergangenheit	-5536
▁starb	-5537
▁sob	-5538
▁tät	-5539
blatt	-5540
▁schlacht	-5541
ec	-5542
▁gerät	-5543
▁tha	-5544
▁drit	-5545
▁fliesen	-5546
lätzen	-5547
ish	-5548
bten	-5549
ader	-5550
▁maschinen	-5551
ova	-5552
organisation	-5553
▁fund	-5554
▁cont	-5555
▁schwerpunkt	-5556
grenzen	-5557
hü	-5558
ovo	-5559
▁sonnen	-5560
▁künftigen	-5561
▁neun	-5562
28	-5563
▁nik	-5564
▁karl	-5565
▁strategien	-5566
gest	-5567
behör	-5568
▁relativ	-5569
▁übertrag	-5570
▁angeboten	-5571
▁festgestellt	-5572
irk	-5573
ley	-5574
▁baby	-5575
▁vereinigte	-5576
▁entschieden	-5577
ehrte	-5578
▁las	-5579
indest	-5580
wenden	-5581
ied	-5582
win	-5583
amin	-5584
▁poly	-5585
ktions	-5586
▁ausgew	-5587
▁kaum	-5588
reichen	-5589
▁wesentlich	-5590
▁beschrieben	-5591
▁vorlage	-5592
llung	-5593
27	-5594
▁¡	-5595
llo	-5596
▁ans	-5597
▁dun	-5598
▁·	-5599
▁navig	-5600
▁anlage	-5601
▁wünschen	-5602
mand	-5603
▁profi	-5604
▁start	-5605
▁250	-5606
▁kant	-5607
▁flücht	-5608
▁dienstag	-5609
▁solidarität	-5610
bach	-5611
gebracht	-5612
▁manchmal	-5613
▁beschleun	-5614
▁zumindest	-5615
▁120	-5616
▁legt	-5617
▁maße	-5618
eitungen	-5619
▁konkrete	-5620
ilität	-5621
▁fotze	-5622
▁johannes	-5623
äh	-5624
gelt	-5625
▁holl	-5626
ischem	-5627
▁gewinnen	-5628
▁teilnehmen	-5629
ith	-5630
alem	-5631
▁zustand	-5632
▁eib	-5633
▁erleichtern	-5634
▁schä	-5635
reicht	-5636
ius	-5637
▁wären	-5638
▁solcher	-5639
▁herkunft	-5640
▁ausreichend	-5641
pap	-5642
▁hart	-5643
▁genießen	-5644
▁mission	-5645
stimmungen	-5646
▁zo	-5647
-200	-5648
▁baum	-5649
▁setz	-5650
ets	-5651
▁micha	-5652
▁darstellt	-5653
▁unterschiede	-5654
,6	-5655
ura	-5656
▁musste	-5657
risten	-5658
raums	-5659
▁erhöht	-5660
▁--	-5661
barer	-5662
ffend	-5663
▁kaffee	-5664
fi	-5665
flug	-5666
▁ban	-5667
▁tom	-5668
▁frist	-5669
fikation	-5670
▁fälle	-5671
▁diesbe	-5672
▁apost	-5673
,4	-5674
▁gründe	-5675
▁anton	-5676
▁rechten	-5677
▁lou	-5678
fällen	-5679
▁klimawandel	-5680
ritann	-5681
sph	-5682
▁bur	-5683
▁röm	-5684
sigen	-5685
üler	-5686
▁thr	-5687
schätzung	-5688
kop	-5689
soft	-5690
▁aktionen	-5691
stellte	-5692
▁fahrzeug	-5693
▁rock	-5694
▁bemerk	-5695
▁spezifischen	-5696
ret	-5697
▁jene	-5698
ival	-5699
onenten	-5700
▁denken	-5701
▁keram	-5702
▁steigen	-5703
▁verletz	-5704
▁betrachtet	-5705
▁repar	-5706
änge	-5707
▁fluss	-5708
▁erheblich	-5709
▁cd	-5710
▁weiblich	-5711
dy	-5712
iode	-5713
sko	-5714
schwe	-5715
▁gesche	-5716
▁investitions	-5717
eilen	-5718
dert	-5719
▁kohä	-5720
kurr	-5721
▁189	-5722
▁pdf	-5723
press	-5724
▁zufrieden	-5725
▁belieb	-5726
▁elemente	-5727
▁free	-5728
▁demokratischen	-5729
▁werke	-5730
▁langsam	-5731
▁märkte	-5732
▁einigung	-5733
▁thom	-5734
▁rasch	-5735
ichtete	-5736
anischen	-5737
▁urs	-5738
▁erweiter	-5739
▁tätow	-5740
▁ausgewogen	-5741
▁stadtzentr	-5742
ida	-5743
sige	-5744
▁strip	-5745
▁bewertungen	-5746
▁vorliegenden	-5747
▁armee	-5748
▁optionen	-5749
▁übernehmen	-5750
▁verbreitung	-5751
anal	-5752
ierend	-5753
▁daraus	-5754
▁sonntag	-5755
mechan	-5756
▁private	-5757
▁erfolgte	-5758
▁möglichst	-5759
▁stets	-5760
▁geschen	-5761
▁anschluss	-5762
bus	-5763
intage	-5764
▁führung	-5765
▁ungleich	-5766
▁verfassung	-5767
▁erzeugnisse	-5768
▁waffen	-5769
▁miteinander	-5770
▁peru	-5771
▁anhör	-5772
▁hoher	-5773
▁öffnen	-5774
▁politiker	-5775
▁staatliche	-5776
▁festgelegten	-5777
▁tonnen	-5778
▁akteure	-5779
▁weiterer	-5780
▁edel	-5781
utzung	-5782
▁zielen	-5783
▁spielte	-5784
▁terrasse	-5785
▁eindeutig	-5786
▁untersucht	-5787
▁texas	-5788
▁erwartet	-5789
▁zugleich	-5790
sex	-5791
haarig	-5792
unsten	-5793
ji	-5794
▁hom	-5795
ühren	-5796
▁kreis	-5797
▁ski	-5798
▁vorschlags	-5799
bli	-5800
wahr	-5801
▁ww	-5802
kreis	-5803
▁darstellen	-5804
▁internationaler	-5805
▁1991	-5806
▁worte	-5807
geleitet	-5808
▁kohäsion	-5809
▁antworten	-5810
▁machte	-5811
latz	-5812
▁konflikt	-5813
▁kroatien	-5814
▁ergriffen	-5815
▁aufenthalt	-5816
ani	-5817
▁weltkrieg	-5818
mbh	-5819
angs	-5820
angeb	-5821
ebene	-5822
▁befr	-5823
66	-5824
male	-5825
▁ruh	-5826
▁offenbar	-5827
▁italienischen	-5828
▁micro	-5829
▁aktuellen	-5830
itut	-5831
rate	-5832
▁kandid	-5833
▁reaktion	-5834
▁schwarzer	-5835
nes	-5836
una	-5837
▁mood	-5838
▁reprä	-5839
▁ägypten	-5840
▁188	-5841
ardin	-5842
▁fortschritt	-5843
lam	-5844
▁ersetzt	-5845
orien	-5846
▁güter	-5847
▁zuerst	-5848
▁durchführ	-5849
▁andererseits	-5850
77	-5851
dateien	-5852
▁bruder	-5853
▁commun	-5854
▁1000	-5855
▁gewinn	-5856
▁finanzierungs	-5857
arr	-5858
▁rob	-5859
schafts	-5860
▁schaden	-5861
33	-5862
testen	-5863
flü	-5864
anlagen	-5865
▁erwähnt	-5866
haup	-5867
fachen	-5868
▁zugänglich	-5869
▁beeinfl	-5870
▁krie	-5871
▁bemer	-5872
arität	-5873
▁klasse	-5874
austausch	-5875
▁wahrheit	-5876
out	-5877
▁empfehlen	-5878
▁farben	-5879
▁beitritt	-5880
▁programmen	-5881
▁penis	-5882
▁äußer	-5883
▁ukraine	-5884
▁größeren	-5885
initi	-5886
dauer	-5887
abilität	-5888
▁abänder	-5889
▁wall	-5890
▁sow	-5891
▁cent	-5892
wechsel	-5893
▁heimat	-5894
präsident	-5895
lichkeiten	-5896
▁großb	-5897
▁damals	-5898
▁studio	-5899
▁vollen	-5900
▁hahn	-5901
▁indik	-5902
▁dagegen	-5903
▁einbeziehung	-5904
▁kaiser	-5905
▁sobald	-5906
▁britischen	-5907
▁wid	-5908
▁chancen	-5909
▁vintage	-5910
linge	-5911
▁gmbh	-5912
▁erotik	-5913
▁himmel	-5914
▁verstärkt	-5915
dro	-5916
▁veranstaltungen	-5917
▁sö	-5918
▁vorgesehenen	-5919
▁nebenwirkungen	-5920
▁—	-5921
▁kontak	-5922
▁bildungs	-5923
hotel	-5924
örderung	-5925
▁bese	-5926
▁verg	-5927
▁stadtzentrum	-5928
▁freie	-5929
▁meist	-5930
▁96	-5931
▁kolum	-5932
▁legen	-5933
▁geräte	-5934
▁kirchen	-5935
▁vorgenommen	-5936
▁ursprünglich	-5937
ato	-5938
stahl	-5939
▁anrei	-5940
schrieben	-5941
▁dvd	-5942
▁fak	-5943
▁ros	-5944
▁drogen	-5945
▁entstanden	-5946
gs	-5947
iets	-5948
▁asyl	-5949
▁rauchen	-5950
▁zweifel	-5951
iren	-5952
▁feld	-5953
▁halte	-5954
▁konkurr	-5955
▁welcher	-5956
▁erscheint	-5957
olid	-5958
gemäß	-5959
ptube	-5960
▁einzigen	-5961
▁tagesordnung	-5962
geschä	-5963
▁näher	-5964
▁assozi	-5965
▁französische	-5966
▁gerech	-5967
▁status	-5968
▁umfassende	-5969
km	-5970
ku	-5971
▁politisch	-5972
▁sä	-5973
ckte	-5974
▁alp	-5975
▁flot	-5976
▁inseln	-5977
▁knecht	-5978
▁empfehlung	-5979
tte	-5980
▁mur	-5981
liste	-5982
▁infolge	-5983
▁katastrop	-5984
▁montag	-5985
▁gewährt	-5986
▁gehalten	-5987
▁zuständigkeit	-5988
ppe	-5989
▁erstmals	-5990
▁dienstleistungs	-5991
▁chor	-5992
▁latein	-5993
▁erhöhung	-5994
isa	-5995
sidi	-5996
▁laufe	-5997
▁evangel	-5998
▁zufolge	-5999
▁kolleginnen	-6000
alu	-6001
▁todes	-6002
▁wunsch	-6003
▁kore	-6004
üchtig	-6005
▁anlagen	-6006
▁sektoren	-6007
▁vize	-6008
pfen	-6009
▁mrd	-6010
▁out	-6011
uropä	-6012
▁konz	-6013
▁bekrä	-6014
▁france	-6015
▁mariti	-6016
26	-6017
letzt	-6018
▁armen	-6019
▁territ	-6020
ktivität	-6021
▁tätowiert	-6022
▁xozi	-6023
▁tabelle	-6024
▁xozilla	-6025
▁schlucken	-6026
spar	-6027
bezogen	-6028
▁erklärte	-6029
▁großbritann	-6030
zone	-6031
▁liz	-6032
▁verwende	-6033
▁verlei	-6034
straße	-6035
▁gewerk	-6036
▁schien	-6037
▁kategorien	-6038
▁schlag	-6039
handlungs	-6040
▁italienisch	-6041
xe	-6042
▁ach	-6043
▁bean	-6044
▁dringend	-6045
▁bestimmter	-6046
vern	-6047
▁wiederher	-6048
zif	-6049
▁popul	-6050
▁ernähr	-6051
▁beginnt	-6052
78	-6053
▁rab	-6054
▁moodle	-6055
.6	-6056
▁sur	-6057
▁zog	-6058
mater	-6059
utt	-6060
▁einver	-6061
▁element	-6062
▁gefangen	-6063
messer	-6064
▁horiz	-6065
▁stattfinden	-6066
44	-6067
cal	-6068
mung	-6069
bumsen	-6070
▁firma	-6071
▁fac	-6072
porno	-6073
▁präz	-6074
▁anbie	-6075
▁wenigen	-6076
delbumsen	-6077
ila	-6078
ude	-6079
,0	-6080
dos	-6081
zahlt	-6082
▁rati	-6083
▁ausgestattet	-6084
▁vit	-6085
▁wachstums	-6086
▁3.1	-6087
▁begonnen	-6088
▁befug	-6089
▁schwimm	-6090
▁angegeben	-6091
▁93	-6092
komp	-6093
▁lan	-6094
▁patent	-6095
▁million	-6096
▁bürgerinnen	-6097
orno	-6098
▁beige	-6099
▁unterst	-6100
▁gedanken	-6101
off	-6102
▁dé	-6103
▁gewer	-6104
zulegen	-6105
▁erzielen	-6106
▁qualifiz	-6107
▁anerkannt	-6108
▁hergestellt	-6109
▁unabhängigkeit	-6110
ochen	-6111
▁world	-6112
▁artikels	-6113
fäl	-6114
kat	-6115
▁zuletzt	-6116
▁bedenken	-6117
▁rechnungs	-6118
agr	-6119
▁mitgliedern	-6120
core	-6121
märkte	-6122
▁geheim	-6123
▁angemessene	-6124
mobil	-6125
▁block	-6126
hte	-6127
▁schiffe	-6128
▁ausbau	-6129
aner	-6130
▁mini	-6131
▁ordnung	-6132
▁schauspieler	-6133
qualität	-6134
▁starke	-6135
▁konzep	-6136
▁priorität	-6137
▁terrorismus	-6138
▁öffentlich	-6139
ichterstatterin	-6140
▁verwirklichung	-6141
▁ah	-6142
▁britisch	-6143
ländischen	-6144
▁aqu	-6145
▁besseren	-6146
abl	-6147
▁class	-6148
cafe	-6149
▁hof	-6150
▁irak	-6151
▁orden	-6152
terie	-6153
ktiver	-6154
▁moment	-6155
kir	-6156
▁spann	-6157
▁iceporn	-6158
.8	-6159
isieren	-6160
▁behaup	-6161
▁gestimmt	-6162
vol	-6163
▁verfolgt	-6164
▁staatlichen	-6165
▁pum	-6166
stechn	-6167
▁erhol	-6168
▁zubehör	-6169
▁speziell	-6170
▁af	-6171
▁ereignisse	-6172
kle	-6173
metho	-6174
▁richtige	-6175
▁by	-6176
antie	-6177
künfte	-6178
▁herausforderung	-6179
freiheit	-6180
▁befreit	-6181
▁landwir	-6182
bek	-6183
ökonom	-6184
▁ill	-6185
mäßige	-6186
mäßigen	-6187
▁kriegs	-6188
▁profil	-6189
79	-6190
nien	-6191
▁agend	-6192
▁erb	-6193
▁clip	-6194
law	-6195
ysi	-6196
ches	-6197
▁zyp	-6198
▁bahnhof	-6199
▁positive	-6200
▁rothaarig	-6201
lose	-6202
▁sogen	-6203
alia	-6204
▁nass	-6205
▁drittländern	-6206
▁dipl	-6207
▁shop	-6208
▁unbedingt	-6209
arta	-6210
▁kühl	-6211
▁papst	-6212
▁zentrale	-6213
▁profession	-6214
,8	-6215
essi	-6216
▁orien	-6217
▁mögliche	-6218
▁gewährleistung	-6219
▁bos	-6220
▁stie	-6221
sequ	-6222
▁konzent	-6223
▁gegenstand	-6224
▁trin	-6225
▁agenda	-6226
▁nutzer	-6227
▁schüler	-6228
▁schließen	-6229
▁steuern	-6230
test	-6231
video	-6232
▁vari	-6233
trägen	-6234
▁gelang	-6235
▁hunder	-6236
▁anderes	-6237
74	-6238
▁sar	-6239
behörde	-6240
▁intensiv	-6241
▁rudelbumsen	-6242
die	-6243
▁jos	-6244
wi	-6245
üd	-6246
▁dro	-6247
immern	-6248
▁dürfte	-6249
▁standards	-6250
iam	-6251
▁1980	-6252
anische	-6253
▁pensionen	-6254
ftigen	-6255
▁beträ	-6256
▁streit	-6257
▁produktions	-6258
▁é	-6259
vent	-6260
lehen	-6261
▁zwöl	-6262
▁sorge	-6263
▁zweitens	-6264
73	-6265
▁brief	-6266
▁sec	-6267
▁analys	-6268
▁vermie	-6269
▁produkten	-6270
schö	-6271
temp	-6272
vier	-6273
ula	-6274
orgt	-6275
nommen	-6276
vision	-6277
▁faktoren	-6278
karte	-6279
oe	-6280
▁beraten	-6281
▁entste	-6282
iums	-6283
▁metall	-6284
▁bereitstellung	-6285
▁stren	-6286
▁temperatur	-6287
▁schaft	-6288
▁amerika	-6289
▁arbeitete	-6290
mod	-6291
▁erfordert	-6292
▁russischen	-6293
ließen	-6294
▁freigegeben	-6295
▁hclips	-6296
zwischen	-6297
schiff	-6298
▁anhän	-6299
▁verord	-6300
▁arbeitgeber	-6301
▁amerikanischen	-6302
▁genü	-6303
▁hure	-6304
▁schmer	-6305
▁jüngsten	-6306
camp	-6307
▁dient	-6308
▁journ	-6309
▁bestimmung	-6310
▁entschlossen	-6311
lt	-6312
▁geschehen	-6313
ruf	-6314
stehenden	-6315
anen	-6316
▁1989	-6317
schläge	-6318
▁urlaub	-6319
▁theater	-6320
▁gegenwärtig	-6321
▁währung	-6322
▁ly	-6323
▁kris	-6324
▁abst	-6325
▁quelle	-6326
▁mitteln	-6327
▁möglichen	-6328
irt	-6329
▁schwierig	-6330
▁sämtliche	-6331
▁gegebenenfalls	-6332
▁sun	-6333
▁plus	-6334
▁religi	-6335
stellungs	-6336
mark	-6337
▁einst	-6338
konferenz	-6339
▁konsultation	-6340
bur	-6341
▁fix	-6342
▁jac	-6343
atell	-6344
▁währungs	-6345
▁überhaupt	-6346
ly	-6347
ylon	-6348
▁schwar	-6349
▁vorteil	-6350
▁ehemaligen	-6351
▁dist	-6352
▁antik	-6353
zung	-6354
▁xcafe	-6355
▁stoffe	-6356
▁wachsen	-6357
▁spezifische	-6358
▁gran	-6359
minist	-6360
▁erinnert	-6361
vir	-6362
wel	-6363
▁wto	-6364
▁vergleichen	-6365
▁tab	-6366
▁ähnliche	-6367
▁verkaufen	-6368
▁reservierungen	-6369
if	-6370
▁bedürfnisse	-6371
▁menschlichen	-6372
ary	-6373
▁dor	-6374
▁ungarn	-6375
▁migration	-6376
orte	-6377
▁verringern	-6378
▁jud	-6379
diger	-6380
▁operation	-6381
▁roh	-6382
alisieren	-6383
▁lim	-6384
gewöhn	-6385
▁hören	-6386
▁sozialer	-6387
▁beschwerde	-6388
▁intelligen	-6389
▁großbritannien	-6390
aben	-6391
kommun	-6392
▁brenn	-6393
▁respe	-6394
▁wiederum	-6395
wün	-6396
▁betrieben	-6397
▁bestandteil	-6398
ai	-6399
attform	-6400
▁fahren	-6401
▁erhebliche	-6402
▁university	-6403
▁breit	-6404
▁zugunsten	-6405
lern	-6406
brauch	-6407
▁gezogen	-6408
▁botschaft	-6409
▁zusätzlichen	-6410
▁kritik	-6411
▁niedriger	-6412
anw	-6413
ble	-6414
▁tagung	-6415
▁zustimmung	-6416
▁eingerichtet	-6417
▁imp	-6418
lingen	-6419
▁attra	-6420
ques	-6421
rats	-6422
▁bewähr	-6423
▁übergang	-6424
▁historischen	-6425
ria	-6426
▁danke	-6427
▁einiger	-6428
▁kloster	-6429
▁nachfrage	-6430
▁sozialpartner	-6431
▁schie	-6432
72	-6433
▁exp	-6434
innern	-6435
▁anhand	-6436
▁99	-6437
ision	-6438
▁kanada	-6439
71	-6440
▁ball	-6441
▁nütz	-6442
gefügt	-6443
▁küssen	-6444
▁benötigen	-6445
▁‘	-6446
▁gül	-6447
▁conc	-6448
▁tisch	-6449
▁reicht	-6450
▁arbeitsk	-6451
▁ausein	-6452
▁anstieg	-6453
iker	-6454
▁beklei	-6455
▁zukünf	-6456
▁bewegung	-6457
▁ordnungs	-6458
▁verhinder	-6459
▁farb	-6460
▁zeiten	-6461
▁ergänzen	-6462
▁früheren	-6463
▁potenzie	-6464
cing	-6465
häre	-6466
▁gri	-6467
▁einschlägigen	-6468
kam	-6469
rup	-6470
▁methoden	-6471
kün	-6472
sper	-6473
▁tatsäch	-6474
▁angewand	-6475
krise	-6476
▁grand	-6477
▁blow	-6478
▁ther	-6479
iertes	-6480
bliothe	-6481
sekretär	-6482
48	-6483
▁nied	-6484
▁welchen	-6485
▁auseinander	-6486
▁legis	-6487
▁aspekt	-6488
▁philipp	-6489
▁hoffnung	-6490
▁wol	-6491
ialien	-6492
fertigt	-6493
ersüchtig	-6494
,2	-6495
allen	-6496
wachstum	-6497
▁schwach	-6498
▁zeig	-6499
▁besitzt	-6500
bia	-6501
▁tu	-6502
▁regen	-6503
▁urteil	-6504
▁übernommen	-6505
haf	-6506
▁ersatz	-6507
▁plätze	-6508
▁absicht	-6509
▁adresse	-6510
▁beträcht	-6511
▁mehrwert	-6512
▁schriftlich	-6513
▁angriff	-6514
▁methode	-6515
▁eröffnet	-6516
▁umweltschutz	-6517
▁fab	-6518
asste	-6519
rator	-6520
▁aktuelle	-6521
▁arbeitet	-6522
▁szen	-6523
▁fleisch	-6524
▁angesehen	-6525
▁chinesische	-6526
▁harmonisierung	-6527
can	-6528
zentrum	-6529
grad	-6530
▁bib	-6531
▁syr	-6532
▁fassung	-6533
obs	-6534
▁vollständige	-6535
38	-6536
▁acc	-6537
▁sün	-6538
▁skla	-6539
▁gemeinden	-6540
ziele	-6541
▁bist	-6542
▁juden	-6543
▁england	-6544
wertung	-6545
haften	-6546
▁willkommen	-6547
alitäten	-6548
▁erinnern	-6549
frika	-6550
▁amer	-6551
sterdam	-6552
▁norden	-6553
kanischen	-6554
versicher	-6555
▁wichtigste	-6556
▁krä	-6557
▁nör	-6558
▁islam	-6559
▁orgie	-6560
▁idee	-6561
lastung	-6562
▁kompati	-6563
▁vereinbarungen	-6564
▁tar	-6565
▁anwesen	-6566
▁kommissarin	-6567
fla	-6568
▁ky	-6569
örter	-6570
▁tritt	-6571
▁objekte	-6572
▁verfolgen	-6573
box	-6574
▁verlie	-6575
▁vertrau	-6576
▁überzeugt	-6577
gei	-6578
▁langen	-6579
gut	-6580
▁dänem	-6581
▁getragen	-6582
besch	-6583
▁großes	-6584
▁betreffend	-6585
▁eigenschaften	-6586
▁roy	-6587
▁fiel	-6588
▁starken	-6589
kas	-6590
▁mangel	-6591
▁schwere	-6592
▁amsterdam	-6593
▁hingewiesen	-6594
▁sensi	-6595
▁fersen	-6596
▁slowak	-6597
kord	-6598
▁reichen	-6599
behandlung	-6600
usalem	-6601
▁fällt	-6602
fizierung	-6603
▁hervorge	-6604
laufen	-6605
▁treten	-6606
send	-6607
▁ashem	-6608
▁vivud	-6609
aletube	-6610
▁management	-6611
▁ashemaletube	-6612
öger	-6613
▁betrag	-6614
verbrauch	-6615
▁horizont	-6616
▁berichtet	-6617
ward	-6618
34	-6619
hu	-6620
umpf	-6621
▁hem	-6622
alisten	-6623
weisung	-6624
▁grenze	-6625
▁thomas	-6626
▁ähnlich	-6627
▁unterschiedlich	-6628
▁erstellen	-6629
▁klare	-6630
▁wesentliche	-6631
▁anb	-6632
▁zuständige	-6633
ney	-6634
▁ms	-6635
anst	-6636
iland	-6637
▁minim	-6638
▁gefahren	-6639
▁konzentrieren	-6640
exe	-6641
▁600	-6642
▁sod	-6643
▁tot	-6644
▁öst	-6645
gesellschaften	-6646
▁michael	-6647
▁fi	-6648
flix	-6649
▁selben	-6650
reichung	-6651
▁beizu	-6652
kohol	-6653
sphäre	-6654
hes	-6655
zellen	-6656
klärung	-6657
▁hein	-6658
▁bikini	-6659
▁erachten	-6660
äuß	-6661
▁kab	-6662
gress	-6663
su	-6664
▁vw	-6665
▁webs	-6666
▁via	-6667
▁rumänien	-6668
▁bezeichnung	-6669
▁wal	-6670
▁pack	-6671
zeichnen	-6672
▁geprüft	-6673
fikationen	-6674
▁4.1	-6675
essel	-6676
▁casting	-6677
tau	-6678
stoß	-6679
▁gerne	-6680
▁fernseh	-6681
räume	-6682
▁prom	-6683
▁süden	-6684
▁königs	-6685
▁quellen	-6686
▁fit	-6687
essor	-6688
▁linken	-6689
zeichnete	-6690
▁spezielle	-6691
▁nahaufnahme	-6692
▁68	-6693
▁niveau	-6694
▁pandora	-6695
book	-6696
▁niemand	-6697
▁tits	-6698
ington	-6699
▁uniform	-6700
▁begrüßen	-6701
▁künftige	-6702
▁rückkehr	-6703
verl	-6704
▁ruhe	-6705
▁kleid	-6706
züg	-6707
▁event	-6708
▁umfan	-6709
▁blowjob	-6710
▁komfort	-6711
▁konsequ	-6712
anda	-6713
stud	-6714
▁ökonom	-6715
▁vereinfachung	-6716
ky	-6717
bro	-6718
raten	-6719
swert	-6720
leiten	-6721
modell	-6722
▁diver	-6723
▁robert	-6724
▁alternative	-6725
▁getr	-6726
orgungs	-6727
▁stellungnahmen	-6728
▁verfügbarkeit	-6729
▁einschrän	-6730
▁natürlichen	-6731
ois	-6732
programms	-6733
▁hauptstadt	-6734
▁inzwischen	-6735
▁open	-6736
kräfte	-6737
vollen	-6738
▁genehmigt	-6739
▁ausw	-6740
tement	-6741
▁bildet	-6742
▁gipfel	-6743
▁benötigt	-6744
▁gewonnen	-6745
▁kas	-6746
▁männern	-6747
grundlage	-6748
geschichte	-6749
▁beam	-6750
lichten	-6751
▁nennen	-6752
▁symbol	-6753
ungsmaßnahmen	-6754
iano	-6755
park	-6756
▁turn	-6757
▁wissens	-6758
▁restaurants	-6759
▁publ	-6760
▁arbeitsplatz	-6761
68	-6762
fo	-6763
üss	-6764
uchs	-6765
▁ersuchen	-6766
▁politischer	-6767
▁myl	-6768
▁gros	-6769
▁brand	-6770
▁paket	-6771
bring	-6772
statten	-6773
▁frühstück	-6774
▁gegenwärtigen	-6775
bern	-6776
▁bilater	-6777
▁denk	-6778
lehnt	-6779
▁enor	-6780
▁papier	-6781
▁geeignete	-6782
bü	-6783
▁aufgefordert	-6784
▁live	-6785
▁intra	-6786
▁neuesten	-6787
▁erhältlich	-6788
col	-6789
bett	-6790
▁räum	-6791
▁automatisch	-6792
▁ausarbeitung	-6793
kauf	-6794
▁doktor	-6795
▁stunde	-6796
▁haltung	-6797
▁angebote	-6798
▁erscheinen	-6799
▁92	-6800
▁beab	-6801
dessen	-6802
▁joseph	-6803
▁ausgehen	-6804
▁â	-6805
▁viertel	-6806
▁referenz	-6807
▁hochwer	-6808
▁vorgeschlagene	-6809
dienstleistungen	-6810
hard	-6811
▁kul	-6812
▁mis	-6813
▁vic	-6814
gelegt	-6815
▁moderne	-6816
.30	-6817
▁pool	-6818
▁diplom	-6819
▁gebaut	-6820
schaffung	-6821
▁gelangen	-6822
sens	-6823
▁zusatz	-6824
▁qualitäts	-6825
verständlich	-6826
▁magersüchtig	-6827
▁gemeinschaften	-6828
ysex	-6829
bereiche	-6830
▁jugendlichen	-6831
ergie	-6832
▁lust	-6833
▁achtung	-6834
▁aufgeführt	-6835
▁grundrechte	-6836
▁kulturellen	-6837
zahlung	-6838
regelung	-6839
▁ausrüst	-6840
▁mylust	-6841
▁fenster	-6842
▁jerusalem	-6843
lett	-6844
artigen	-6845
▁anysex	-6846
▁derartige	-6847
▁voraussetzung	-6848
▁vgl	-6849
deut	-6850
▁pok	-6851
▁kohär	-6852
▁zwecke	-6853
▁apartment	-6854
üste	-6855
iehlt	-6856
grunde	-6857
▁zwölf	-6858
ählte	-6859
▁forum	-6860
bon	-6861
▁köl	-6862
▁erg	-6863
effizienz	-6864
set	-6865
tifizierung	-6866
▁andre	-6867
gebiete	-6868
▁aufrech	-6869
▁netzwerk	-6870
▁einheitlichen	-6871
▁strukturfonds	-6872
▁ehemann	-6873
▁hinweis	-6874
▁tos	-6875
▁extra	-6876
▁leiter	-6877
▁schulen	-6878
▁viptube	-6879
▁kontrollen	-6880
▁ausdrücklich	-6881
▁ot	-6882
▁errichtet	-6883
▁boliv	-6884
▁uhren	-6885
▁anzuwenden	-6886
entwurf	-6887
▁höhere	-6888
▁wodurch	-6889
indungen	-6890
▁erreichte	-6891
drich	-6892
▁high	-6893
▁erstens	-6894
▁binnenmarktes	-6895
▁übereinstimmung	-6896
▁brow	-6897
▁argen	-6898
▁change	-6899
gemeinschaft	-6900
▁gegensatz	-6901
▁ken	-6902
▁friedens	-6903
▁weiteres	-6904
mack	-6905
▁2.1	-6906
▁pak	-6907
igungs	-6908
▁brüder	-6909
▁philos	-6910
▁bischof	-6911
▁kün	-6912
ätigen	-6913
▁betracht	-6914
▁zugrunde	-6915
▁tna	-6916
▁verpa	-6917
▁chance	-6918
macht	-6919
seits	-6920
▁feder	-6921
▁unein	-6922
▁hierzu	-6923
▁beauftra	-6924
▁maschine	-6925
▁schwimmbad	-6926
▁gang	-6927
▁strukturen	-6928
▁knechtschaft	-6929
ählten	-6930
▁fordern	-6931
▁wirksame	-6932
▁ansichten	-6933
▁ret	-6934
arischen	-6935
▁erachtens	-6936
itt	-6937
▁zy	-6938
ildet	-6939
sträger	-6940
▁wiederauf	-6941
▁beteiligen	-6942
iegen	-6943
▁mexiko	-6944
▁namens	-6945
hodo	-6946
ungsver	-6947
▁edition	-6948
▁definiert	-6949
▁umfassenden	-6950
▁untersuchungen	-6951
▁mittels	-6952
▁datenschutz	-6953
▁verständnis	-6954
▁globalisierung	-6955
36	-6956
tere	-6957
▁dänemark	-6958
star	-6959
west	-6960
änden	-6961
▁angep	-6962
▁echte	-6963
▁ratspräsiden	-6964
▁ferienwohnungen	-6965
tigten	-6966
osition	-6967
▁ernannt	-6968
▁artikeln	-6969
▁hellporno	-6970
itsch	-6971
▁vermögen	-6972
eben	-6973
ativer	-6974
▁wenden	-6975
▁bulgarien	-6976
▁pä	-6977
▁bay	-6978
werten	-6979
▁religion	-6980
▁kolumbien	-6981
▁forderungen	-6982
▁kontaktieren	-6983
ors	-6984
▁parall	-6985
▁massen	-6986
pft	-6987
istenz	-6988
▁demon	-6989
▁umfel	-6990
wiegend	-6991
▁hervorra	-6992
wä	-6993
nam	-6994
▁62	-6995
schm	-6996
▁maler	-6997
▁vorder	-6998
▁fahrzeuge	-6999
▁positiven	-7000
▁bestehende	-7001
▁eis	-7002
amente	-7003
▁sanktionen	-7004
▁geburt	-7005
▁erklären	-7006
▁entdecken	-7007
▁abfall	-7008
▁kontinu	-7009
ns	-7010
liegt	-7011
▁mosk	-7012
▁gefordert	-7013
▁nachhaltigkeit	-7014
▁kä	-7015
▁zin	-7016
▁kilometer	-7017
▁gesprochen	-7018
▁vorschlägen	-7019
schte	-7020
niveau	-7021
▁elektronischen	-7022
vorsitz	-7023
▁technik	-7024
haltungen	-7025
▁vielmehr	-7026
▁mc	-7027
▁keramik	-7028
▁tnaflix	-7029
▁medizinische	-7030
▁dreh	-7031
vertre	-7032
▁bislang	-7033
,9	-7034
▁1970	-7035
▁kommer	-7036
▁soweit	-7037
▁kompromiss	-7038
▁regulierungs	-7039
▁	-7040
e	-7041
n	-7042
i	-7043
r	-7044
t	-7045
s	-7046
a	-7047
d	-7048
u	-7049
h	-7050
l	-7051
o	-7052
g	-7053
m	-7054
c	-7055
b	-7056
f	-7057
k	-7058
w	-7059
z	-7060
,	-7061
p	-7062
v	-7063
.	-7064
ü	-7065
ä	-7066
0	-7067
1	-7068
2	-7069
-	-7070
j	-7071
ö	-7072
:	-7073
ß	-7074
;	-7075
3	-7076
9	-7077
y	-7078
5	-7079
4	-7080
)	-7081
(	-7082
x	-7083
8	-7084
6	-7085
7	-7086
&	-7087
q	-7088
/	-7089
­	-7090
#	-7091
–	-7092
“	-7093
„	-7094
%	-7095
!	-7096
?	-7097
é	-7098
+	-7099
ã	-7100
*	-7101
»	-7102
€	-7103
@	-7104
á	-7105
’	-7106
=	-7107
«	-7108
_	-7109
”	-7110
°	-7111
í	-7112
ó	-7113
⁄	-7114
•	-7115
è	-7116
и	-7117
â	-7118
$	-7119
о	-7120
‐	-7121
†	-7122
©	-7123
¤	-7124
®	-7125
с	-7126
н	-7127
а	-7128
š	-7129
{	-7130
\	-7131
}	-7132
ç	-7133
в	-7134
е	-7135
т	-7136
›	-7137
ø	-7138
à	-7139
¶	-7140
р	-7141
ñ	-7142
č	-7143
¡	-7144
·	-7145
—	-7146
ō	-7147
ô	-7148
‘	-7149
к	-7150
×	-7151
å	-7152
ș	-7153
ă	-7154
|	-7155
л	-7156
ć	-7157
ú	-7158
‚	-7159
~	-7160
м	-7161
ł	-7162
→	-7163
M	-7164
T	-7165
ê	-7166
́	-7167
ā	-7168
ë	-7169
д	-7170
α	-7171
μ	-7172
≥	-7173
у	-7174
ا	-7175
±	-7176
ž	-7177
з	-7178
б	-7179
§	-7180
ο	-7181
ı	-7182
й	-7183
î	-7184
ū	-7185
ř	-7186
г	-7187
`	-7188
£	-7189
п	-7190
ï	-7191
ý	-7192
ν	-7193
ț	-7194
ε	-7195
æ	-7196
ι	-7197
я	-7198
̈	-7199
ц	-7200
κ	-7201
ş	-7202
τ	-7203
ل	-7204
ī	-7205
λ	-7206
х	-7207
−	-7208
➫	-7209
ě	-7210
¬	-7211
ч	-7212
▲	-7213
ь	-7214
ń	-7215
ر	-7216
і	-7217
ё	-7218
★	-7219
ю	-7220
′	-7221
ы	-7222
ρ	-7223
ي	-7224
β	-7225
ò	-7226
ш	-7227
ς	-7228
ğ	-7229
ś	-7230
э	-7231
م	-7232
õ	-7233
η	-7234
ن	-7235
σ	-7236
ω	-7237
¦	-7238
و	-7239
ì	-7240
ب	-7241
↓	-7242
►	-7243
^	-7244
ð	-7245
π	-7246
≤	-7247
س	-7248
δ	-7249
ф	-7250
ė	-7251
γ	-7252
ő	-7253
↑	-7254
ά	-7255
ż	-7256
ę	-7257
ʿ	-7258
ъ	-7259
đ	-7260
←	-7261
ѕ	-7262
ί	-7263
œ	-7264
َ	-7265
‹	-7266
ع	-7267
ù	-7268
ą	-7269
υ	-7270
د	-7271
¥	-7272
ی	-7273
ē	-7274
ف	-7275
●	-7276
N	-7277
̇	-7278
ж	-7279
ÿ	-7280
י	-7281
ت	-7282
️	-7283
ة	-7284
♥	-7285
	-7286
本	-7287
¢	-7288
日	-7289
ů	-7290
χ	-7291
ə	-7292
φ	-7293
ň	-7294
έ	-7295
ό	-7296
ー	-7297
û	-7298
ه	-7299
ح	-7300
中	-7301
ņ	-7302
θ	-7303
ḥ	-7304
語	-7305
щ	-7306
↔	-7307
の	-7308
ו	-7309
	-7310
ա	-7311
ა	-7312
ი	-7313
─	-7314
ľ	-7315
◄	-7316
ύ	-7317
ك	-7318
ר	-7319
√	-7320
ή	-7321
ج	-7322
ा	-7323
ї	-7324
ン	-7325
ţ	-7326
ź	-7327
ि	-7328
✔	-7329
א	-7330
्	-7331
न	-7332
✂	-7333
ξ	-7334
₣	-7335
ト	-7336
ה	-7337
ל	-7338
ى	-7339
ी	-7340
ṣ	-7341
ť	-7342
द	-7343
한	-7344
أ	-7345
ق	-7346
þ	-7347
ב	-7348
ह	-7349
ْ	-7350
文	-7351
ώ	-7352
ِ	-7353
र	-7354
ḫ	-7355
국	-7356
國	-7357
어	-7358
̄	-7359
נ	-7360
े	-7361
ʻ	-7362
ד	-7363
ُ	-7364
מ	-7365
ز	-7366
リ	-7367
̧	-7368
क	-7369
ル	-7370
	-7371
・	-7372
ת	-7373
ش	-7374
ラ	-7375
人	-7376
ǧ	-7377
ು	-7378
ŏ	-7379
ն	-7380
ܐ	-7381
田	-7382
ע	-7383
ש	-7384
ן	-7385
□	-7386
イ	-7387
ス	-7388
ッ	-7389
国	-7390
خ	-7391
ე	-7392
ア	-7393
大	-7394
	-7395
ď	-7396
ǎ	-7397
ʾ	-7398
ल	-7399
ṭ	-7400
∞	-7401
ク	-7402
子	-7403
～	-7404
ў	-7405
ک	-7406
	-7407
ζ	-7408
ط	-7409
ّ	-7410
า	-7411
ლ	-7412
⇒	-7413
	-7414
إ	-7415
ص	-7416
⋅	-7417
■	-7418
ं	-7419
‰	-7420
♦	-7421
✓	-7422
ű	-7423
ร	-7424
‟	-7425
⁡	-7426
∈	-7427
म	-7428
व	-7429
स	-7430
ಟ	-7431
学	-7432
ћ	-7433
◀	-7434
山	-7435
神	-7436
ե	-7437
ो	-7438
ಮ	-7439
‒	-7440
シ	-7441
¿	-7442
ŋ	-7443
ψ	-7444
ק	-7445
ܡ	-7446
ვ	-7447
≈	-7448
、	-7449
会	-7450
女	-7451
ħ	-7452
ǐ	-7453
ǔ	-7454
ˈ	-7455
ј	-7456
յ	-7457
ח	-7458
ם	-7459
گ	-7460
ज	-7461
เ	-7462
ს	-7463
‡	-7464
│	-7465
み	-7466
テ	-7467
マ	-7468
一	-7469
和	-7470
	-7471
	-7472
	-7473
ų	-7474
ր	-7475
⇔	-7476
い	-7477
し	-7478
ド	-7479
レ	-7480
ロ	-7481
原	-7482
民	-7483
	-7484
ơ	-7485
ג	-7486
כ	-7487
פ	-7488
་	-7489
რ	-7490
ồ	-7491
ἀ	-7492
タ	-7493
フ	-7494
南	-7495
生	-7496
C	-7497
÷	-7498
ķ	-7499
ː	-7500
ܝ	-7501
ಖ	-7502
ಪ	-7503
ก	-7504
ด	-7505
น	-7506
ี	-7507
ხ	-7508
ễ	-7509
▸	-7510
⟩	-7511
う	-7512
こ	-7513
三	-7514
治	-7515
ġ	-7516
ư	-7517
є	-7518
հ	-7519
ס	-7520
צ	-7521
غ	-7522
प	-7523
ბ	-7524
▪	-7525
➤	-7526
り	-7527
ナ	-7528
バ	-7529
プ	-7530
川	-7531
族	-7532
明	-7533
海	-7534
社	-7535
	-7536
̊	-7537
ט	-7538
آ	-7539
ئ	-7540
ذ	-7541
پ	-7542
ܘ	-7543
ु	-7544
್	-7545
ล	-7546
ว	-7547
ั	-7548
ნ	-7549
ო	-7550
ᚐ	-7551
ḍ	-7552
ạ	-7553
も	-7554
ィ	-7555
カ	-7556
ハ	-7557
寺	-7558
島	-7559
市	-7560
御	-7561
道	-7562
野	-7563
高	-7564
	-7565
ļ	-7566
ի	-7567
ս	-7568
ז	-7569
ܪ	-7570
ย	-7571
მ	-7572
უ	-7573
ṯ	-7574
ả	-7575
ế	-7576
ệ	-7577
‧	-7578
≡	-7579
な	-7580
エ	-7581
オ	-7582
グ	-7583
ジ	-7584
ニ	-7585
ノ	-7586
世	-7587
光	-7588
公	-7589
古	-7590
太	-7591
家	-7592
新	-7593
的	-7594
花	-7595
華	-7596
ŕ	-7597
ŭ	-7598
ƒ	-7599
ַ	-7600
ּ	-7601
ظ	-7602
ܒ	-7603
ए	-7604
ग	-7605
भ	-7606
∑	-7607
か	-7608
が	-7609
と	-7610
キ	-7611
ズ	-7612
ム	-7613
モ	-7614
代	-7615
信	-7616
北	-7617
州	-7618
式	-7619
政	-7620
有	-7621
木	-7622
江	-7623
美	-7624
自	-7625
藤	-7626
衛	-7627
西	-7628
賞	-7629
郎	-7630
ɗ	-7631
ء	-7632
ܫ	-7633
त	-7634
ต	-7635
ม	-7636
ྲ	-7637
დ	-7638
თ	-7639
კ	-7640
შ	-7641
ἐ	-7642
ἰ	-7643
―	-7644
∅	-7645
∗	-7646
お	-7647
て	-7648
は	-7649
ま	-7650
よ	-7651
ろ	-7652
コ	-7653
ブ	-7654
上	-7655
交	-7656
地	-7657
宮	-7658
小	-7659
平	-7660
水	-7661
法	-7662
物	-7663
祖	-7664
行	-7665
集	-7666
	-7667
ɪ	-7668
լ	-7669
կ	-7670
ָ	-7671
ض	-7672
ً	-7673
ܩ	-7674
ख	-7675
ರ	-7676
ാ	-7677
พ	-7678
ะ	-7679
ิ	-7680
ᠡ	-7681
ẓ	-7682
‖	-7683
▼	-7684
◆	-7685
☆	-7686
⟨	-7687
さ	-7688
サ	-7689
チ	-7690
ミ	-7691
ュ	-7692
下	-7693
内	-7694
口	-7695
司	-7696
安	-7697
時	-7698
書	-7699
林	-7700
火	-7701
王	-7702
界	-7703
白	-7704
部	-7705
雲	-7706
가	-7707
	-7708
	-7709
ĸ	-7710
ɔ	-7711
͡	-7712
ϊ	-7713
ђ	-7714
ү	-7715
ӓ	-7716
ո	-7717
ְ	-7718
ִ	-7719
ث	-7720
ܢ	-7721
ܣ	-7722
इ	-7723
च	-7724
ट	-7725
य	-7726
़	-7727
്	-7728
ช	-7729
ท	-7730
ᚔ	-7731
ᠨ	-7732
ῦ	-7733
‛	-7734
❤	-7735
。	-7736
た	-7737
つ	-7738
ど	-7739
ら	-7740
る	-7741
ん	-7742
セ	-7743
パ	-7744
ボ	-7745
メ	-7746
仁	-7747
伝	-7748
前	-7749
华	-7750
商	-7751
団	-7752
園	-7753
城	-7754
堂	-7755
天	-7756
夫	-7757
好	-7758
実	-7759
少	-7760
所	-7761
手	-7762
泉	-7763
現	-7764
発	-7765
紀	-7766
者	-7767
表	-7768
赤	-7769
軍	-7770
近	-7771
酒	-7772
長	-7773
马	-7774
마	-7775
선	-7776
스	-7777
아	-7778
의	-7779
이	-7780
조	-7781
주	-7782
	-7783
	-7784
ŵ	-7785
ǒ	-7786
˂	-7787
˃	-7788
գ	-7789
տ	-7790
ـ	-7791
ٰ	-7792
چ	-7793
ध	-7794
श	-7795
ಗ	-7796
ಸ	-7797
ಾ	-7798
บ	-7799
โ	-7800
้	-7801
ར	-7802
გ	-7803
ზ	-7804
ᠠ	-7805
ᠢ	-7806
ᠰ	-7807
ḏ	-7808
ấ	-7809
ọ	-7810
≠	-7811
◊	-7812
☉	-7813
♡	-7814
ⴰ	-7815
え	-7816
す	-7817
そ	-7818
に	-7819
ね	-7820
れ	-7821
ウ	-7822
ゲ	-7823
ポ	-7824
ャ	-7825
九	-7826
京	-7827
保	-7828
兼	-7829
協	-7830
县	-7831
合	-7832
吉	-7833
四	-7834
宗	-7835
影	-7836
很	-7837
愛	-7838
成	-7839
易	-7840
景	-7841
月	-7842
李	-7843
株	-7844
森	-7845
業	-7846
町	-7847
空	-7848
結	-7849
術	-7850
言	-7851
金	-7852
阿	-7853
院	-7854
香	-7855
구	-7856
리	-7857
명	-7858
비	-7859
ģ	-7860
ũ	-7861
ɛ	-7862
ˆ	-7863
բ	-7864
վ	-7865
ड	-7866
ू	-7867
ै	-7868
்	-7869
ದ	-7870
ನ	-7871
ಿ	-7872
ೋ	-7873
ര	-7874
ศ	-7875
ุ	-7876
฿	-7877
ไ	-7878
์	-7879
ག	-7880
ས	-7881
ོ	-7882
ტ	-7883
ძ	-7884
ᚉ	-7885
ᠦ	-7886
ị	-7887
ộ	-7888
ῖ	-7889
ῶ	-7890
∘	-7891
∼	-7892
々	-7893
ァ	-7894
ガ	-7895
ダ	-7896
ビ	-7897
ホ	-7898
七	-7899
不	-7900
丸	-7901
之	-7902
也	-7903
事	-7904
二	-7905
五	-7906
井	-7907
伊	-7908
体	-7909
元	-7910
兵	-7911
十	-7912
印	-7913
史	-7914
士	-7915
帯	-7916
後	-7917
德	-7918
我	-7919
拉	-7920
教	-7921
春	-7922
朝	-7923
村	-7924
東	-7925
流	-7926
由	-7927
福	-7928
竹	-7929
第	-7930
等	-7931
联	-7932
胡	-7933
舟	-7934
色	-7935
芸	-7936
茂	-7937
茶	-7938
菅	-7939
葉	-7940
論	-7941
谷	-7942
車	-7943
通	-7944
邦	-7945
門	-7946
青	-7947
韓	-7948
須	-7949
體	-7950
龙	-7951
라	-7952
보	-7953
정	-7954
	-7955
	-7956
	-7957
	-7958
	-7959
ɑ	-7960
ʒ	-7961
ϋ	-7962
њ	-7963
ө	-7964
թ	-7965
մ	-7966
պ	-7967
փ	-7968
ף	-7969
ײ	-7970
،	-7971
ܚ	-7972
ܠ	-7973
ܥ	-7974
ܦ	-7975
ब	-7976
દ	-7977
ம	-7978
ಯ	-7979
ೂ	-7980
ೆ	-7981
യ	-7982
ง	-7983
จ	-7984
ส	-7985
བ	-7986
ყ	-7987
ᚅ	-7988
ᚊ	-7989
ᚋ	-7990
ᚑ	-7991
ᠣ	-7992
ᠪ	-7993
ᠭ	-7994
ᠲ	-7995
ᠶ	-7996
ṛ	-7997
ậ	-7998
ắ	-7999
ố	-8000
ὐ	-8001
ὴ	-8002
ὸ	-8003
⁠	-8004
∙	-8005
⊂	-8006
⊆	-8007
◎	-8008
✎	-8009
⟶	-8010
⧍	-8011
〜	-8012
あ	-8013
き	-8014
く	-8015
ち	-8016
め	-8017
を	-8018
ェ	-8019
ォ	-8020
ゴ	-8021
ザ	-8022
ツ	-8023
デ	-8024
ネ	-8025
ヒ	-8026
ベ	-8027
ヤ	-8028
ョ	-8029
ヲ	-8030
今	-8031
他	-8032
佐	-8033
作	-8034
修	-8035
六	-8036
共	-8037
利	-8038
刻	-8039
力	-8040
勝	-8041
又	-8042
台	-8043
名	-8044
土	-8045
塚	-8046
夏	-8047
外	-8048
奈	-8049
尾	-8050
岩	-8051
崎	-8052
左	-8053
店	-8054
庭	-8055
徳	-8056
戦	-8057
星	-8058
果	-8059
権	-8060
次	-8061
歌	-8062
正	-8063
永	-8064
河	-8065
波	-8066
淳	-8067
港	-8068
瀬	-8069
特	-8070
甲	-8071
男	-8072
石	-8073
秀	-8074
科	-8075
經	-8076
育	-8077
良	-8078
蓮	-8079
裕	-8080
説	-8081
調	-8082
越	-8083
身	-8084
陽	-8085
隆	-8086
雄	-8087
音	-8088
風	-8089
館	-8090
鷹	-8091
麻	-8092
龍	-8093
로	-8094
미	-8095
시	-8096
을	-8097
장	-8098
카	-8099
탐	-8100
	-8101
	-8102
	-8103
	-8104
S	-8105
ċ	-8106
ĕ	-8107
ŝ	-8108
ŷ	-8109
ɣ	-8110
ʼ	-8111
љ	-8112
џ	-8113
қ	-8114
ӧ	-8115
դ	-8116
ւ	-8117
ք	-8118
ֵ	-8119
ֹ	-8120
ہ	-8121
ێ	-8122
۳	-8123
ܛ	-8124
ܟ	-8125
ܬ	-8126
अ	-8127
आ	-8128
া	-8129
ਦ	-8130
ર	-8131
ા	-8132
ல	-8133
ா	-8134
ಂ	-8135
ಕ	-8136
ಬ	-8137
ೇ	-8138
മ	-8139
ശ	-8140
ค	-8141
ณ	-8142
ธ	-8143
ป	-8144
ห	-8145
็	-8146
่	-8147
ํ	-8148
ད	-8149
ུ	-8150
ფ	-8151
ც	-8152
ា	-8153
ᠤ	-8154
ᠥ	-8155
ᠬ	-8156
ᠵ	-8157
ề	-8158
ủ	-8159
ἄ	-8160
ἡ	-8161
ὶ	-8162
ᾶ	-8163
ῥ	-8164
‍	-8165
⁭	-8166
₩	-8167
↵	-8168
∩	-8169
∪	-8170
⊢	-8171
♂	-8172
⚭	-8173
✍	-8174
➟	-8175
➯	-8176
ⵍ	-8177
ⵓ	-8178
「	-8179
」	-8180
ぎ	-8181
け	-8182
じ	-8183
だ	-8184
び	-8185
べ	-8186
ぼ	-8187
ゆ	-8188
ギ	-8189
ケ	-8190
ソ	-8191
ペ	-8192
ワ	-8193
与	-8194
主	-8195
依	-8196
健	-8197
傳	-8198
児	-8199
党	-8200
入	-8201
八	-8202
列	-8203
初	-8204
別	-8205
副	-8206
劇	-8207
助	-8208
协	-8209
博	-8210
卡	-8211
号	-8212
同	-8213
向	-8214
君	-8215
命	-8216
善	-8217
喜	-8218
回	-8219
圭	-8220
埃	-8221
場	-8222
夢	-8223
婦	-8224
字	-8225
季	-8226
官	-8227
尔	-8228
展	-8229
工	-8230
帝	-8231
庁	-8232
庆	-8233
形	-8234
彦	-8235
彼	-8236
徐	-8237
心	-8238
急	-8239
憲	-8240
戯	-8241
房	-8242
折	-8243
改	-8244
敏	-8245
数	-8246
數	-8247
料	-8248
旧	-8249
普	-8250
晴	-8251
智	-8252
會	-8253
朗	-8254
条	-8255
校	-8256
桃	-8257
楼	-8258
榎	-8259
横	-8260
樹	-8261
橘	-8262
洛	-8263
漢	-8264
為	-8265
熙	-8266
父	-8267
独	-8268
猫	-8269
獄	-8270
玄	-8271
理	-8272
産	-8273
番	-8274
百	-8275
知	-8276
碧	-8277
秋	-8278
称	-8279
章	-8280
筑	-8281
签	-8282
精	-8283
純	-8284
終	-8285
经	-8286
结	-8287
群	-8288
義	-8289
職	-8290
航	-8291
英	-8292
荒	-8293
葛	-8294
蒙	-8295
薩	-8296
薬	-8297
虚	-8298
衣	-8299
規	-8300
视	-8301
記	-8302
話	-8303
譜	-8304
豪	-8305
貴	-8306
路	-8307
輔	-8308
造	-8309
遊	-8310
遠	-8311
都	-8312
鈴	-8313
銀	-8314
間	-8315
関	-8316
限	-8317
陸	-8318
雪	-8319
非	-8320
頭	-8321
頼	-8322
颍	-8323
飯	-8324
飼	-8325
馬	-8326
鬼	-8327
黄	-8328
黒	-8329
는	-8330
민	-8331
밥	-8332
사	-8333
성	-8334
예	-8335
오	-8336
요	-8337
원	-8338
위	-8339
지	-8340
타	-8341
투	-8342
하	-8343
호	-8344
	-8345
	-8346
	-8347
	-8348
	-8349
ĩ	-8350
ĺ	-8351
ǀ	-8352
ǃ	-8353
ǝ	-8354
ɨ	-8355
ɫ	-8356
ɬ	-8357
ɾ	-8358
ʔ	-8359
ʖ	-8360
ˌ	-8361
˗	-8362
̀	-8363
̨	-8364
̲	-8365
͜	-8366
Ξ	-8367
ҍ	-8368
ґ	-8369
զ	-8370
խ	-8371
ջ	-8372
ց	-8373
ֲ	-8374
ֶ	-8375
ؤ	-8376
ژ	-8377
ں	-8378
ھ	-8379
۱	-8380
۹	-8381
ܓ	-8382
ܕ	-8383
ު	-8384
ँ	-8385
ई	-8386
थ	-8387
फ	-8388
ष	-8389
ॉ	-8390
দ	-8391
ন	-8392
ম	-8393
হ	-8394
ਨ	-8395
ਰ	-8396
ਹ	-8397
਼	-8398
ਾ	-8399
ੇ	-8400
ੋ	-8401
અ	-8402
ત	-8403
ન	-8404
લ	-8405
ી	-8406
ે	-8407
્	-8408
ଲ	-8409
୍	-8410
க	-8411
ச	-8412
ன	-8413
ஹ	-8414
ெ	-8415
ಡ	-8416
ತ	-8417
ಫ	-8418
ಲ	-8419
ಶ	-8420
ಹ	-8421
ೀ	-8422
ക	-8423
ച	-8424
ി	-8425
อ	-8426
แ	-8427
ຊ	-8428
ມ	-8429
ອ	-8430
ໄ	-8431
ཁ	-8432
ང	-8433
ན	-8434
པ	-8435
མ	-8436
ི	-8437
ღ	-8438
ჭ	-8439
ჯ	-8440
ራ	-8441
ᚁ	-8442
ᚃ	-8443
ᚈ	-8444
ᚒ	-8445
ᠧ	-8446
ᠩ	-8447
ᠮ	-8448
ᠯ	-8449
ᠳ	-8450
ᠷ	-8451
ḗ	-8452
ṇ	-8453
ṉ	-8454
ṓ	-8455
ṟ	-8456
ầ	-8457
ằ	-8458
ặ	-8459
ổ	-8460
ớ	-8461
ờ	-8462
ứ	-8463
ỹ	-8464
ἁ	-8465
ἑ	-8466
ἱ	-8467
ὺ	-8468
ῆ	-8469
ῇ	-8470
↗	-8471
⇐	-8472
∂	-8473
∃	-8474
≧	-8475
⌘	-8476
├	-8477
▄	-8478
△	-8479
○	-8480
◙	-8481
♀	-8482
❀	-8483
ⴄ	-8484
ⴊ	-8485
ⴗ	-8486
ⴛ	-8487
ⴝ	-8488
ⴱ	-8489
ⵉ	-8490
ⵎ	-8491
ⵏ	-8492
ⵔ	-8493
ⵕ	-8494
〈	-8495
〉	-8496
《	-8497
》	-8498
【	-8499
】	-8500
ぃ	-8501
げ	-8502
ご	-8503
ぞ	-8504
で	-8505
ぬ	-8506
ふ	-8507
へ	-8508
ゅ	-8509
ユ	-8510
丁	-8511
丘	-8512
临	-8513
久	-8514
乌	-8515
乙	-8516
乱	-8517
争	-8518
令	-8519
以	-8520
休	-8521
位	-8522
住	-8523
何	-8524
你	-8525
使	-8526
供	-8527
価	-8528
倫	-8529
傻	-8530
充	-8531
先	-8532
典	-8533
冬	-8534
出	-8535
刀	-8536
刊	-8537
刘	-8538
剛	-8539
労	-8540
務	-8541
勢	-8542
化	-8543
千	-8544
卫	-8545
卿	-8546
右	-8547
否	-8548
告	-8549
咲	-8550
品	-8551
哈	-8552
哲	-8553
唐	-8554
啤	-8555
單	-8556
因	-8557
园	-8558
図	-8559
圣	-8560
坂	-8561
基	-8562
堀	-8563
増	-8564
変	-8565
夜	-8566
央	-8567
奇	-8568
契	-8569
奥	-8570
始	-8571
孙	-8572
宇	-8573
守	-8574
定	-8575
客	-8576
富	-8577
寒	-8578
寛	-8579
対	-8580
尊	-8581
尚	-8582
局	-8583
居	-8584
屋	-8585
岡	-8586
崔	-8587
巴	-8588
布	-8589
師	-8590
年	-8591
广	-8592
底	-8593
庵	-8594
康	-8595
廷	-8596
引	-8597
弘	-8598
当	-8599
彩	-8600
志	-8601
忠	-8602
念	-8603
性	-8604
恩	-8605
恵	-8606
意	-8607
慈	-8608
慶	-8609
戸	-8610
才	-8611
打	-8612
技	-8613
抄	-8614
投	-8615
援	-8616
摩	-8617
攻	-8618
救	-8619
敬	-8620
敷	-8621
斎	-8622
斐	-8623
旅	-8624
昌	-8625
昭	-8626
曲	-8627
最	-8628
望	-8629
术	-8630
来	-8631
架	-8632
柑	-8633
柱	-8634
柳	-8635
査	-8636
标	-8637
格	-8638
桐	-8639
桑	-8640
梅	-8641
梨	-8642
榮	-8643
様	-8644
橋	-8645
欠	-8646
武	-8647
比	-8648
毛	-8649
氏	-8650
气	-8651
気	-8652
汉	-8653
沢	-8654
浦	-8655
清	-8656
温	-8657
湖	-8658
演	-8659
烧	-8660
焼	-8661
熊	-8662
熟	-8663
爾	-8664
片	-8665
犬	-8666
狂	-8667
狼	-8668
獣	-8669
球	-8670
用	-8671
电	-8672
略	-8673
皇	-8674
益	-8675
相	-8676
省	-8677
短	-8678
离	-8679
私	-8680
稽	-8681
立	-8682
競	-8683
符	-8684
简	-8685
組	-8686
給	-8687
緋	-8688
繁	-8689
織	-8690
聖	-8691
聯	-8692
能	-8693
臨	-8694
舍	-8695
舎	-8696
若	-8697
苦	-8698
荊	-8699
蔵	-8700
蛮	-8701
蜜	-8702
街	-8703
览	-8704
角	-8705
詠	-8706
詩	-8707
談	-8708
議	-8709
评	-8710
谱	-8711
貢	-8712
賀	-8713
賜	-8714
走	-8715
趣	-8716
軒	-8717
輪	-8718
辛	-8719
辞	-8720
辺	-8721
进	-8722
週	-8723
進	-8724
選	-8725
遺	-8726
避	-8727
邸	-8728
郷	-8729
配	-8730
里	-8731
鏡	-8732
银	-8733
门	-8734
阳	-8735
陰	-8736
陳	-8737
雨	-8738
零	-8739
震	-8740
頂	-8741
順	-8742
频	-8743
飛	-8744
餐	-8745
駅	-8746
魏	-8747
魔	-8748
鳳	-8749
鴻	-8750
鵜	-8751
鸦	-8752
黃	-8753
ꝏ	-8754
기	-8755
김	-8756
꽃	-8757
노	-8758
다	-8759
도	-8760
동	-8761
레	-8762
린	-8763
말	-8764
뭔	-8765
밀	-8766
바	-8767
배	-8768
부	-8769
산	-8770
삼	-8771
소	-8772
수	-8773
술	-8774
안	-8775
야	-8776
엘	-8777
연	-8778
영	-8779
온	-8780
용	-8781
우	-8782
은	-8783
인	-8784
일	-8785
전	-8786
중	-8787
천	-8788
추	-8789
쿠	-8790
태	-8791
트	-8792
포	-8793
힘	-8794
	-8795
	-8796
	-8797
Z	-8798
ĝ	-8799
į	-8800
ƀ	-8801
ƍ	-8802
ƚ	-8803
ƶ	-8804
ǚ	-8805
ǣ	-8806
ǫ	-8807
ǵ	-8808
ǻ	-8809
ǽ	-8810
ȝ	-8811
ȳ	-8812
ɂ	-8813
ɓ	-8814
ɕ	-8815
ɜ	-8816
ɡ	-8817
ɯ	-8818
ɵ	-8819
ʁ	-8820
ʃ	-8821
ʊ	-8822
ʋ	-8823
ʌ	-8824
ʑ	-8825
ˇ	-8826
̂	-8827
̆	-8828
̑	-8829
̓	-8830
̜	-8831
̣	-8832
̥	-8833
̪	-8834
̱	-8835
̶	-8836
ΐ	-8837
ϥ	-8838
ѓ	-8839
ќ	-8840
ҕ	-8841
ҳ	-8842
ӎ	-8843
ә	-8844
ӫ	-8845
ӷ	-8846
ԛ	-8847
ժ	-8848
ղ	-8849
ռ	-8850
ֆ	-8851
֔	-8852
֣	-8853
ׁ	-8854
ׂ	-8855
ץ	-8856
׳	-8857
ؘ	-8858
ٌ	-8859
٤	-8860
ٱ	-8861
ٹ	-8862
ټ	-8863
ډ	-8864
ڑ	-8865
ە	-8866
۝	-8867
۰	-8868
۶	-8869
ܗ	-8870
ހ	-8871
ޅ	-8872
ލ	-8873
ެ	-8874
ः	-8875
उ	-8876
ऋ	-8877
ऑ	-8878
ओ	-8879
झ	-8880
ढ	-8881
ळ	-8882
ौ	-8883
উ	-8884
প	-8885
র	-8886
শ	-8887
স	-8888
ি	-8889
ী	-8890
ূ	-8891
ਅ	-8892
ਕ	-8893
ਘ	-8894
ਟ	-8895
ਫ	-8896
ਸ	-8897
ਿ	-8898
ੀ	-8899
੍	-8900
ੜ	-8901
ੰ	-8902
ઇ	-8903
ગ	-8904
બ	-8905
વ	-8906
સ	-8907
હ	-8908
ુ	-8909
କ	-8910
ଜ	-8911
ଝ	-8912
ଦ	-8913
ନ	-8914
ର	-8915
ା	-8916
ି	-8917
ୁ	-8918
େ	-8919
அ	-8920
ங	-8921
ப	-8922
ಜ	-8923
ವ	-8924
ೊ	-8925
ೌ	-8926
ം	-8927
ട	-8928
ണ	-8929
ത	-8930
ദ	-8931
ധ	-8932
ന	-8933
പ	-8934
വ	-8935
ഷ	-8936
ീ	-8937
ൂ	-8938
ฉ	-8939
ญ	-8940
ฎ	-8941
ฑ	-8942
ฒ	-8943
ผ	-8944
ฟ	-8945
ฬ	-8946
ฮ	-8947
ื	-8948
ใ	-8949
๊	-8950
ງ	-8951
ດ	-8952
ື	-8953
ຸ	-8954
ົ	-8955
ເ	-8956
ཀ	-8957
ཆ	-8958
ཏ	-8959
ཐ	-8960
ཕ	-8961
ཙ	-8962
ཚ	-8963
ལ	-8964
ེ	-8965
ྐ	-8966
ྗ	-8967
ྙ	-8968
ྨ	-8969
ྱ	-8970
პ	-8971
წ	-8972
ህ	-8973
ላ	-8974
ማ	-8975
ሞ	-8976
ረ	-8977
ር	-8978
ሲ	-8979
በ	-8980
ቲ	-8981
ት	-8982
ኢ	-8983
ክ	-8984
ዊ	-8985
ያ	-8986
ዮ	-8987
ደ	-8988
ዴ	-8989
ጵ	-8990
ፌ	-8991
ፓ	-8992
ᑭ	-8993
ᓕ	-8994
ᓪ	-8995
ᕙ	-8996
ᖅ	-8997
ᚂ	-8998
ᚄ	-8999
ᚇ	-9000
ᚏ	-9001
ᚓ	-9002
ᚕ	-9003
ᜌ	-9004
ᜏ	-9005
ᜐ	-9006
᜔	-9007
ក	-9008
ណ	-9009
ថ	-9010
ទ	-9011
ប	-9012
យ	-9013
រ	-9014
ល	-9015
ឹ	-9016
៍	-9017
្	-9018
ḑ	-9019
ḕ	-9020
ḟ	-9021
ḡ	-9022
ḩ	-9023
ḯ	-9024
ḵ	-9025
ṁ	-9026
ṃ	-9027
ṅ	-9028
ṗ	-9029
ṙ	-9030
ṱ	-9031
ṿ	-9032
ẋ	-9033
ẩ	-9034
ẹ	-9035
ỉ	-9036
ụ	-9037
ữ	-9038
ỳ	-9039
ỷ	-9040
ỻ	-9041
ἅ	-9042
ἔ	-9043
ἕ	-9044
ἢ	-9045
ὀ	-9046
ὁ	-9047
ὄ	-9048
ὑ	-9049
ὕ	-9050
ὖ	-9051
ὲ	-9052
※	-9053
₤	-9054
₦	-9055
₪	-9056
℗	-9057
↦	-9058
∇	-9059
∏	-9060
∨	-9061
∮	-9062
≅	-9063
≟	-9064
≦	-9065
⊗	-9066
⊙	-9067
⋆	-9068
⌊	-9069
⌋	-9070
└	-9071
┼	-9072
▢	-9073
▶	-9074
▷	-9075
▾	-9076
◡	-9077
◦	-9078
☐	-9079
☹	-9080
☼	-9081
♣	-9082
♪	-9083
♫	-9084
♮	-9085
⚠	-9086
✘	-9087
❅	-9088
➝	-9089
➢	-9090
⭐	-9091
ⱳ	-9092
ⴳ	-9093
ⴷ	-9094
ⴽ	-9095
ⵄ	-9096
ⵖ	-9097
ⵙ	-9098
ⵛ	-9099
ⵜ	-9100
ⵢ	-9101
ぐ	-9102
ず	-9103
せ	-9104
ぜ	-9105
っ	-9106
ば	-9107
ひ	-9108
ぴ	-9109
ぶ	-9110
ほ	-9111
む	-9112
や	-9113
わ	-9114
ゼ	-9115
ピ	-9116
ヨ	-9117
ㄠ	-9118
万	-9119
且	-9120
丙	-9121
並	-9122
个	-9123
丰	-9124
为	-9125
乃	-9126
乗	-9127
乳	-9128
亀	-9129
予	-9130
于	-9131
云	-9132
互	-9133
亚	-9134
亦	-9135
产	-9136
享	-9137
亮	-9138
亳	-9139
介	-9140
付	-9141
们	-9142
仰	-9143
仲	-9144
伍	-9145
伤	-9146
伯	-9147
伸	-9148
似	-9149
余	-9150
佛	-9151
佤	-9152
佩	-9153
佬	-9154
佳	-9155
侃	-9156
來	-9157
例	-9158
侗	-9159
倉	-9160
倍	-9161
候	-9162
傅	-9163
傣	-9164
傾	-9165
僕	-9166
僚	-9167
僧	-9168
優	-9169
儲	-9170
儿	-9171
兄	-9172
克	-9173
兒	-9174
全	-9175
兰	-9176
关	-9177
其	-9178
再	-9179
冗	-9180
军	-9181
冠	-9182
冥	-9183
冷	-9184
几	-9185
函	-9186
分	-9187
切	-9188
創	-9189
劉	-9190
功	-9191
加	-9192
勾	-9193
匇	-9194
匡	-9195
区	-9196
医	-9197
區	-9198
升	-9199
午	-9200
半	-9201
卓	-9202
単	-9203
卨	-9204
危	-9205
即	-9206
却	-9207
厦	-9208
厳	-9209
去	-9210
参	-9211
參	-9212
及	-9213
友	-9214
双	-9215
叢	-9216
只	-9217
吒	-9218
吠	-9219
吳	-9220
吸	-9221
吹	-9222
呂	-9223
呉	-9224
员	-9225
味	-9226
哀	-9227
哉	-9228
員	-9229
哥	-9230
問	-9231
喀	-9232
嗣	-9233
嗽	-9234
嘏	-9235
囁	-9236
圏	-9237
圧	-9238
在	-9239
址	-9240
坊	-9241
坐	-9242
坚	-9243
坟	-9244
垂	-9245
型	-9246
垣	-9247
埭	-9248
執	-9249
堤	-9250
報	-9251
塔	-9252
塩	-9253
境	-9254
墓	-9255
增	-9256
墨	-9257
壁	-9258
壘	-9259
声	-9260
夕	-9261
多	-9262
夷	-9263
夺	-9264
奪	-9265
如	-9266
妃	-9267
妊	-9268
妖	-9269
妲	-9270
姫	-9271
姿	-9272
媒	-9273
嫩	-9274
嬌	-9275
孟	-9276
孤	-9277
孫	-9278
學	-9279
宁	-9280
宅	-9281
完	-9282
宏	-9283
宝	-9284
室	-9285
宪	-9286
宫	-9287
宬	-9288
宵	-9289
宿	-9290
寄	-9291
密	-9292
寧	-9293
对	-9294
寿	-9295
専	-9296
将	-9297
尼	-9298
屈	-9299
岔	-9300
岛	-9301
岳	-9302
崇	-9303
嵐	-9304
嶷	-9305
巨	-9306
己	-9307
帆	-9308
希	-9309
带	-9310
席	-9311
帰	-9312
常	-9313
幕	-9314
幡	-9315
幣	-9316
幸	-9317
幻	-9318
幼	-9319
幽	-9320
広	-9321
庄	-9322
庐	-9323
库	-9324
府	-9325
度	-9326
庸	-9327
廖	-9328
廣	-9329
延	-9330
建	-9331
弄	-9332
弟	-9333
张	-9334
弥	-9335
弱	-9336
張	-9337
強	-9338
弾	-9339
彌	-9340
归	-9341
彤	-9342
役	-9343
征	-9344
律	-9345
必	-9346
怖	-9347
思	-9348
总	-9349
恋	-9350
恐	-9351
恒	-9352
悟	-9353
悪	-9354
情	-9355
惡	-9356
想	-9357
愉	-9358
慎	-9359
應	-9360
懐	-9361
戈	-9362
或	-9363
戲	-9364
戶	-9365
扉	-9366
扔	-9367
承	-9368
拒	-9369
持	-9370
指	-9371
挙	-9372
掉	-9373
提	-9374
搬	-9375
摂	-9376
摄	-9377
摺	-9378
撃	-9379
支	-9380
故	-9381
敖	-9382
敗	-9383
斉	-9384
斑	-9385
斬	-9386
断	-9387
斯	-9388
方	-9389
於	-9390
旋	-9391
既	-9392
昆	-9393
昔	-9394
是	-9395
昴	-9396
晉	-9397
晋	-9398
晶	-9399
曇	-9400
服	-9401
朕	-9402
未	-9403
末	-9404
札	-9405
杀	-9406
杉	-9407
材	-9408
杓	-9409
杜	-9410
松	-9411
枕	-9412
枢	-9413
枯	-9414
柁	-9415
柊	-9416
柴	-9417
栖	-9418
根	-9419
栽	-9420
桥	-9421
梁	-9422
梓	-9423
梶	-9424
梻	-9425
棟	-9426
椿	-9427
楊	-9428
楠	-9429
楮	-9430
極	-9431
構	-9432
樋	-9433
樒	-9434
樓	-9435
標	-9436
模	-9437
機	-9438
檎	-9439
檻	-9440
櫁	-9441
櫻	-9442
歩	-9443
歪	-9444
歴	-9445
死	-9446
殇	-9447
残	-9448
段	-9449
毅	-9450
母	-9451
氵	-9452
求	-9453
汪	-9454
決	-9455
汽	-9456
沒	-9457
沓	-9458
沛	-9459
沟	-9460
没	-9461
沱	-9462
泛	-9463
注	-9464
泰	-9465
泳	-9466
洁	-9467
洒	-9468
洗	-9469
洙	-9470
津	-9471
洪	-9472
浄	-9473
浜	-9474
浩	-9475
涂	-9476
涌	-9477
涧	-9478
涯	-9479
淞	-9480
淡	-9481
淩	-9482
渋	-9483
渚	-9484
湾	-9485
満	-9486
源	-9487
滑	-9488
满	-9489
滨	-9490
滿	-9491
潜	-9492
潮	-9493
澗	-9494
澳	-9495
濁	-9496
瀛	-9497
灌	-9498
灣	-9499
灯	-9500
灰	-9501
灵	-9502
灸	-9503
灼	-9504
炬	-9505
点	-9506
然	-9507
照	-9508
燕	-9509
爵	-9510
牌	-9511
牡	-9512
牧	-9513
牲	-9514
犠	-9515
狗	-9516
猛	-9517
猜	-9518
猶	-9519
猿	-9520
玉	-9521
玖	-9522
珈	-9523
珠	-9524
琲	-9525
琳	-9526
琴	-9527
瑞	-9528
瓜	-9529
瓦	-9530
甘	-9531
甜	-9532
画	-9533
留	-9534
畠	-9535
異	-9536
癒	-9537
登	-9538
皮	-9539
盤	-9540
目	-9541
盲	-9542
直	-9543
看	-9544
真	-9545
眠	-9546
眼	-9547
睡	-9548
督	-9549
睿	-9550
瞬	-9551
研	-9552
砖	-9553
碁	-9554
碑	-9555
磔	-9556
磨	-9557
磯	-9558
示	-9559
祜	-9560
祭	-9561
禕	-9562
禽	-9563
秘	-9564
程	-9565
税	-9566
積	-9567
穢	-9568
穷	-9569
窟	-9570
竈	-9571
站	-9572
童	-9573
筆	-9574
筋	-9575
箋	-9576
範	-9577
篇	-9578
篤	-9579
籍	-9580
籠	-9581
粋	-9582
粥	-9583
系	-9584
約	-9585
紅	-9586
紋	-9587
納	-9588
紐	-9589
紙	-9590
経	-9591
絞	-9592
絡	-9593
統	-9594
絲	-9595
絵	-9596
絶	-9597
絹	-9598
続	-9599
綱	-9600
綺	-9601
総	-9602
緑	-9603
練	-9604
縁	-9605
红	-9606
约	-9607
纳	-9608
缝	-9609
缶	-9610
署	-9611
翊	-9612
老	-9613
耗	-9614
耶	-9615
聞	-9616
聡	-9617
聪	-9618
聲	-9619
肃	-9620
肘	-9621
股	-9622
肯	-9623
胜	-9624
脂	-9625
脇	-9626
脑	-9627
腋	-9628
腐	-9629
膠	-9630
臣	-9631
臧	-9632
臺	-9633
興	-9634
舊	-9635
艇	-9636
艦	-9637
芙	-9638
芝	-9639
苓	-9640
苗	-9641
茜	-9642
茨	-9643
茸	-9644
草	-9645
荣	-9646
荷	-9647
菊	-9648
菟	-9649
萌	-9650
萤	-9651
萨	-9652
萩	-9653
落	-9654
蒂	-9655
蒸	-9656
蓄	-9657
蓬	-9658
薫	-9659
藍	-9660
藏	-9661
藝	-9662
蘋	-9663
蘿	-9664
虞	-9665
號	-9666
虫	-9667
虹	-9668
蛇	-9669
蜂	-9670
蜘	-9671
蝦	-9672
蟲	-9673
血	-9674
衆	-9675
衡	-9676
裁	-9677
裂	-9678
装	-9679
裏	-9680
裴	-9681
製	-9682
複	-9683
要	-9684
見	-9685
覚	-9686
親	-9687
観	-9688
觀	-9689
解	-9690
触	-9691
訓	-9692
詐	-9693
評	-9694
詰	-9695
誠	-9696
読	-9697
請	-9698
謙	-9699
謝	-9700
謡	-9701
證	-9702
譌	-9703
譚	-9704
變	-9705
讣	-9706
议	-9707
论	-9708
证	-9709
话	-9710
语	-9711
谢	-9712
豆	-9713
豊	-9714
豐	-9715
象	-9716
豬	-9717
豹	-9718
財	-9719
資	-9720
賈	-9721
賦	-9722
质	-9723
贸	-9724
贾	-9725
赛	-9726
赞	-9727
赡	-9728
赵	-9729
起	-9730
趙	-9731
足	-9732
跡	-9733
蹴	-9734
軻	-9735
軽	-9736
載	-9737
輝	-9738
輩	-9739
農	-9740
込	-9741
达	-9742
迄	-9743
过	-9744
迦	-9745
迹	-9746
退	-9747
途	-9748
連	-9749
逸	-9750
運	-9751
達	-9752
遼	-9753
還	-9754
那	-9755
邱	-9756
郑	-9757
酔	-9758
醸	-9759
重	-9760
量	-9761
鉄	-9762
鉱	-9763
銃	-9764
銅	-9765
銓	-9766
銘	-9767
鋭	-9768
錢	-9769
錦	-9770
鎌	-9771
鐘	-9772
鑒	-9773
鑫	-9774
钱	-9775
锋	-9776
锦	-9777
閉	-9778
開	-9779
閔	-9780
閣	-9781
闇	-9782
阴	-9783
际	-9784
陆	-9785
陈	-9786
降	-9787
陞	-9788
陨	-9789
险	-9790
陪	-9791
陵	-9792
隊	-9793
隠	-9794
隣	-9795
隻	-9796
雅	-9797
雍	-9798
離	-9799
難	-9800
電	-9801
霊	-9802
霍	-9803
靈	-9804
靖	-9805
面	-9806
革	-9807
靴	-9808
鞘	-9809
鞠	-9810
鞭	-9811
頁	-9812
項	-9813
頓	-9814
題	-9815
顎	-9816
顕	-9817
願	-9818
類	-9819
顥	-9820
颢	-9821
飞	-9822
食	-9823
飲	-9824
飾	-9825
馆	-9826
首	-9827
験	-9828
驻	-9829
骨	-9830
魯	-9831
鮫	-9832
鮮	-9833
鯉	-9834
鯨	-9835
鱼	-9836
鳔	-9837
鳥	-9838
鳶	-9839
鵬	-9840
鶻	-9841
鸟	-9842
鸿	-9843
鹤	-9844
鹿	-9845
麒	-9846
麗	-9847
麦	-9848
鼠	-9849
꒰	-9850
각	-9851
간	-9852
감	-9853
갔	-9854
개	-9855
게	-9856
고	-9857
곡	-9858
골	-9859
곽	-9860
광	-9861
괴	-9862
권	-9863
귈	-9864
규	-9865
글	-9866
꾼	-9867
꿈	-9868
나	-9869
날	-9870
남	-9871
내	-9872
네	-9873
넷	-9874
녀	-9875
년	-9876
놉	-9877
농	-9878
뉴	-9879
닌	-9880
당	-9881
대	-9882
데	-9883
독	-9884
두	-9885
드	-9886
들	-9887
디	-9888
딸	-9889
락	-9890
란	-9891
람	-9892
론	-9893
르	-9894
른	-9895
를	-9896
름	-9897
막	-9898
맛	-9899
면	-9900
묘	-9901
박	-9902
발	-9903
백	-9904
베	-9905
본	-9906
북	-9907
분	-9908
빨	-9909
빵	-9910
빼	-9911
상	-9912
서	-9913
설	-9914
손	-9915
송	-9916
쇼	-9917
신	-9918
실	-9919
심	-9920
알	-9921
앵	-9922
양	-9923
에	-9924
역	-9925
올	-9926
완	-9927
왼	-9928
워	-9929
웰	-9930
응	-9931
임	-9932
점	-9933
종	-9934
죽	-9935
줘	-9936
즈	-9937
진	-9938
집	-9939
차	-9940
찾	-9941
체	-9942
춘	-9943
치	-9944
칠	-9945
커	-9946
컨	-9947
컴	-9948
케	-9949
켄	-9950
코	-9951
콜	-9952
쿤	-9953
크	-9954
탑	-9955
터	-9956
티	-9957
판	-9958
페	-9959
푸	-9960
품	-9961
프	-9962
피	-9963
핃	-9964
해	-9965
혁	-9966
현	-9967
혈	-9968
협	-9969
화	-9970
환	-9971
획	-9972
후	-9973
훅	-9974
흡	-9975
힌	-9976
	-9977
	-9978
	-9979
	-9980
	-9981
	-9982
	-9983
	-9984
	-9985
	-9986
	-9987
	-9988
	-9989
	-9990
	-9991
	-9992
	-9993
	-9994
	-9995
	-9996
