<unk>	0
<s>	0
</s>	0
▁t	-0
▁th	-1
▁a	-2
▁i	-3
▁w	-4
▁the	-5
▁,	-6
▁s	-7
re	-8
▁o	-9
▁.	-10
in	-11
at	-12
nd	-13
er	-14
ou	-15
▁c	-16
▁b	-17
▁&	-18
os	-19
▁h	-20
▁m	-21
▁and	-22
ing	-23
ap	-24
▁p	-25
en	-26
on	-27
▁to	-28
▁f	-29
▁d	-30
an	-31
es	-32
apos	-33
▁of	-34
ll	-35
or	-36
▁in	-37
▁l	-38
is	-39
ed	-40
▁y	-41
it	-42
ar	-43
▁that	-44
▁g	-45
ot	-46
▁we	-47
▁n	-48
▁you	-49
om	-50
as	-51
▁wh	-52
ic	-53
▁it	-54
le	-55
ve	-56
al	-57
▁e	-58
ow	-59
▁is	-60
▁be	-61
us	-62
ut	-63
ion	-64
et	-65
▁on	-66
▁re	-67
ent	-68
ct	-69
▁this	-70
qu	-71
ld	-72
ver	-73
ay	-74
▁so	-75
▁ha	-76
all	-77
▁st	-78
id	-79
ig	-80
ur	-81
▁he	-82
ch	-83
ly	-84
quot	-85
ro	-86
ke	-87
▁for	-88
ce	-89
se	-90
▁they	-91
▁an	-92
▁was	-93
am	-94
▁do	-95
im	-96
ir	-97
▁u	-98
op	-99
▁-	-100
▁--	-101
ith	-102
▁are	-103
▁go	-104
▁li	-105
st	-106
▁k	-107
ally	-108
th	-109
▁with	-110
▁what	-111
▁se	-112
▁ab	-113
▁have	-114
▁but	-115
▁can	-116
ra	-117
▁as	-118
▁sh	-119
▁j	-120
out	-121
ation	-122
ol	-123
ht	-124
▁com	-125
▁ne	-126
▁wor	-127
ere	-128
▁at	-129
ad	-130
▁?	-131
very	-132
▁ch	-133
▁r	-134
▁there	-135
▁about	-136
ould	-137
▁me	-138
▁all	-139
ill	-140
▁not	-141
ter	-142
▁fr	-143
od	-144
il	-145
ant	-146
ge	-147
ul	-148
ust	-149
▁ex	-150
▁som	-151
▁de	-152
ore	-153
ers	-154
▁pro	-155
▁my	-156
use	-157
▁or	-158
▁pe	-159
ight	-160
▁one	-161
▁con	-162
▁peop	-163
art	-164
um	-165
▁people	-166
ear	-167
ure	-168
▁bec	-169
ck	-170
ess	-171
▁lo	-172
▁like	-173
ok	-174
▁if	-175
▁from	-176
est	-177
ate	-178
ive	-179
▁ma	-180
ity	-181
ect	-182
▁v	-183
ist	-184
ies	-185
▁kn	-186
ble	-187
▁al	-188
▁te	-189
▁now	-190
ind	-191
if	-192
nt	-193
▁our	-194
▁just	-195
▁int	-196
▁out	-197
▁these	-198
ink	-199
▁us	-200
▁sp	-201
▁know	-202
rou	-203
ause	-204
▁thing	-205
un	-206
▁:	-207
▁when	-208
▁tr	-209
▁because	-210
▁see	-211
▁them	-212
and	-213
ie	-214
▁very	-215
▁how	-216
▁think	-217
▁up	-218
ich	-219
▁pl	-220
▁who	-221
▁get	-222
her	-223
ort	-224
▁by	-225
▁some	-226
▁1	-227
▁act	-228
ci	-229
iv	-230
ain	-231
▁going	-232
▁sa	-233
one	-234
og	-235
el	-236
▁your	-237
▁which	-238
▁im	-239
▁year	-240
▁had	-241
▁here	-242
▁more	-243
▁en	-244
▁tim	-245
▁look	-246
00	-247
ine	-248
▁su	-249
ost	-250
▁would	-251
em	-252
ame	-253
our	-254
ast	-255
▁comp	-256
▁ta	-257
▁really	-258
▁were	-259
ose	-260
▁their	-261
ually	-262
ment	-263
▁want	-264
▁then	-265
ard	-266
ous	-267
▁work	-268
▁le	-269
▁world	-270
iz	-271
gh	-272
reat	-273
act	-274
▁way	-275
▁every	-276
ack	-277
are	-278
hing	-279
▁no	-280
▁co	-281
▁than	-282
▁un	-283
▁has	-284
▁per	-285
ans	-286
ther	-287
ab	-288
▁don	-289
▁exp	-290
▁time	-291
▁ev	-292
▁man	-293
▁actually	-294
▁say	-295
pp	-296
app	-297
▁into	-298
▁will	-299
▁where	-300
ide	-301
▁fe	-302
ild	-303
ag	-304
▁ag	-305
▁could	-306
ong	-307
▁qu	-308
▁pre	-309
ace	-310
alk	-311
▁things	-312
ions	-313
itt	-314
ud	-315
▁years	-316
▁other	-317
▁did	-318
age	-319
▁am	-320
ence	-321
▁well	-322
▁somet	-323
▁pr	-324
▁af	-325
▁ar	-326
▁tw	-327
▁any	-328
▁cl	-329
▁new	-330
nder	-331
▁she	-332
ical	-333
ach	-334
▁happ	-335
▁right	-336
▁make	-337
iff	-338
▁been	-339
▁said	-340
▁bu	-341
ip	-342
fe	-343
▁2	-344
▁diff	-345
ia	-346
▁start	-347
▁need	-348
▁part	-349
▁dis	-350
own	-351
▁over	-352
▁fir	-353
▁something	-354
so	-355
▁two	-356
▁mo	-357
ree	-358
▁ro	-359
ry	-360
ory	-361
olog	-362
▁imp	-363
▁first	-364
pt	-365
▁po	-366
▁back	-367
ire	-368
ass	-369
▁kind	-370
▁those	-371
▁got	-372
round	-373
▁his	-374
ens	-375
ign	-376
ice	-377
orm	-378
▁call	-379
▁talk	-380
▁ph	-381
de	-382
ite	-383
▁mu	-384
ount	-385
ittle	-386
ff	-387
▁little	-388
ib	-389
sel	-390
ang	-391
ound	-392
ater	-393
▁differe	-394
▁also	-395
cent	-396
▁most	-397
▁much	-398
lo	-399
▁spe	-400
▁cont	-401
ue	-402
ac	-403
▁des	-404
▁ac	-405
▁lot	-406
ght	-407
▁life	-408
ves	-409
▁;	-410
ult	-411
▁fo	-412
▁sy	-413
ple	-414
ber	-415
oss	-416
way	-417
▁ad	-418
ody	-419
▁under	-420
▁bet	-421
▁even	-422
vel	-423
ving	-424
▁br	-425
rain	-426
▁ind	-427
▁bo	-428
ome	-429
▁only	-430
able	-431
king	-432
▁res	-433
▁take	-434
ated	-435
▁good	-436
▁day	-437
▁hum	-438
ep	-439
co	-440
▁her	-441
▁many	-442
ations	-443
▁em	-444
ial	-445
▁let	-446
ick	-447
res	-448
uct	-449
ish	-450
▁does	-451
other	-452
rough	-453
▁gr	-454
▁down	-455
▁ide	-456
▁show	-457
int	-458
ell	-459
▁different	-460
▁around	-461
▁through	-462
▁put	-463
▁why	-464
red	-465
ict	-466
▁comm	-467
▁may	-468
ms	-469
▁real	-470
ase	-471
ents	-472
▁inter	-473
▁sc	-474
ance	-475
ark	-476
urn	-477
▁tell	-478
▁off	-479
day	-480
▁use	-481
▁being	-482
ath	-483
cess	-484
chn	-485
ade	-486
ible	-487
▁sm	-488
les	-489
▁come	-490
▁gen	-491
ange	-492
ak	-493
▁thou	-494
form	-495
▁big	-496
ary	-497
ject	-498
▁great	-499
▁inc	-500
▁techn	-501
wn	-502
▁car	-503
▁wr	-504
ors	-505
▁three	-506
▁proble	-507
▁try	-508
ric	-509
▁happen	-510
▁same	-511
▁str	-512
▁dr	-513
stem	-514
ting	-515
uc	-516
ether	-517
iver	-518
ful	-519
▁fact	-520
▁sur	-521
▁doing	-522
ys	-523
ning	-524
ual	-525
▁count	-526
▁human	-527
ically	-528
▁pers	-529
▁bl	-530
per	-531
xt	-532
▁cr	-533
ile	-534
ology	-535
▁child	-536
ren	-537
▁gu	-538
▁build	-539
▁after	-540
ower	-541
▁find	-542
▁ear	-543
▁system	-544
ved	-545
▁sim	-546
▁percent	-547
illion	-548
ons	-549
▁again	-550
▁tra	-551
▁app	-552
▁ra	-553
fore	-554
body	-555
be	-556
ied	-557
▁dec	-558
ces	-559
▁stud	-560
ord	-561
thing	-562
▁called	-563
▁long	-564
▁fl	-565
self	-566
ics	-567
▁inv	-568
▁rem	-569
nds	-570
ious	-571
▁made	-572
ian	-573
igh	-574
ition	-575
▁own	-576
▁inst	-577
▁today	-578
▁exper	-579
ating	-580
ress	-581
▁ob	-582
av	-583
▁should	-584
ars	-585
▁quest	-586
▁bel	-587
▁lear	-588
▁design	-589
▁sch	-590
we	-591
▁bas	-592
cial	-593
ft	-594
erest	-595
ize	-596
▁underst	-597
▁turn	-598
▁import	-599
▁sci	-600
con	-601
▁last	-602
▁jo	-603
▁play	-604
▁hel	-605
te	-606
ates	-607
▁thought	-608
▁another	-609
pl	-610
000	-611
▁rel	-612
ph	-613
▁interest	-614
▁person	-615
▁brain	-616
▁him	-617
▁creat	-618
▁end	-619
▁ke	-620
▁its	-621
▁ask	-622
▁feel	-623
▁wom	-624
▁idea	-625
ty	-626
▁cour	-627
▁mean	-628
▁ins	-629
ub	-630
▁thank	-631
ities	-632
▁before	-633
als	-634
▁didn	-635
▁trans	-636
▁3	-637
▁change	-638
▁important	-639
ution	-640
amp	-641
▁ele	-642
▁give	-643
▁went	-644
,000	-645
ool	-646
pe	-647
▁started	-648
▁story	-649
▁cons	-650
ull	-651
▁art	-652
▁prod	-653
▁understand	-654
ise	-655
ough	-656
gan	-657
▁never	-658
▁mon	-659
ail	-660
▁power	-661
▁help	-662
ope	-663
▁point	-664
▁imag	-665
▁coll	-666
ility	-667
▁school	-668
ular	-669
▁kid	-670
▁plan	-671
▁better	-672
▁sl	-673
▁found	-674
▁pat	-675
▁pres	-676
erg	-677
kes	-678
ily	-679
▁course	-680
▁problem	-681
ert	-682
ists	-683
▁sort	-684
▁bit	-685
▁pol	-686
▁belie	-687
▁might	-688
▁fam	-689
ix	-690
▁next	-691
▁sol	-692
▁ok	-693
▁ent	-694
▁19	-695
▁eng	-696
▁each	-697
▁num	-698
▁still	-699
▁nat	-700
▁few	-701
▁tog	-702
▁ago	-703
▁technology	-704
▁together	-705
lic	-706
▁came	-707
ward	-708
▁mod	-709
▁high	-710
▁hu	-711
▁cent	-712
▁la	-713
▁able	-714
ense	-715
ather	-716
▁med	-717
oth	-718
velop	-719
▁min	-720
▁four	-721
▁ser	-722
eric	-723
▁water	-724
▁place	-725
▁comple	-726
▁commun	-727
▁ext	-728
ween	-729
▁develop	-730
▁ed	-731
▁10	-732
alth	-733
read	-734
▁mus	-735
▁between	-736
ness	-737
ited	-738
▁gra	-739
▁learn	-740
old	-741
ience	-742
▁20	-743
ave	-744
▁exam	-745
▁rec	-746
atch	-747
ines	-748
aph	-749
▁op	-750
▁used	-751
▁seco	-752
arch	-753
▁dat	-754
▁fin	-755
▁light	-756
▁old	-757
▁too	-758
▁love	-759
iss	-760
ized	-761
▁ter	-762
ven	-763
▁small	-764
▁question	-765
▁looking	-766
ger	-767
▁cre	-768
▁grow	-769
▁mom	-770
▁maybe	-771
ork	-772
ific	-773
ures	-774
▁met	-775
▁comput	-776
iness	-777
▁done	-778
▁bi	-779
▁el	-780
cept	-781
▁att	-782
▁read	-783
▁children	-784
ets	-785
▁whole	-786
▁partic	-787
▁americ	-788
▁cell	-789
▁eff	-790
▁stu	-791
ably	-792
▁lar	-793
ute	-794
oney	-795
▁doesn	-796
▁far	-797
ered	-798
ways	-799
▁data	-800
oc	-801
▁sk	-802
▁wo	-803
▁expl	-804
az	-805
▁example	-806
▁afric	-807
▁care	-808
▁move	-809
conom	-810
ds	-811
▁wanted	-812
▁project	-813
▁5	-814
selves	-815
cy	-816
▁bus	-817
ract	-818
▁beh	-819
▁less	-820
▁econom	-821
ings	-822
▁million	-823
▁cap	-824
▁rep	-825
▁war	-826
▁univer	-827
ative	-828
formation	-829
▁giv	-830
▁book	-831
▁five	-832
▁trying	-833
▁health	-834
▁live	-835
▁poss	-836
▁gener	-837
▁working	-838
▁hard	-839
▁women	-840
▁money	-841
ural	-842
▁sub	-843
▁reas	-844
▁supp	-845
▁away	-846
▁always	-847
▁second	-848
▁everything	-849
▁vis	-850
▁kids	-851
ug	-852
▁space	-853
ational	-854
gr	-855
▁ever	-856
▁believe	-857
▁pict	-858
nect	-859
▁chang	-860
cer	-861
▁form	-862
▁cor	-863
ands	-864
▁country	-865
ah	-866
▁4	-867
▁elect	-868
gin	-869
#9	-870
▁&#9	-871
tern	-872
▁food	-873
▁prob	-874
▁inf	-875
▁open	-876
▁anim	-877
ments	-878
▁using	-879
▁teach	-880
vers	-881
▁energ	-882
▁doll	-883
▁number	-884
▁prot	-885
wh	-886
▁run	-887
▁thinking	-888
▁mark	-889
▁sing	-890
▁information	-891
▁cou	-892
▁dem	-893
▁times	-894
▁fut	-895
ism	-896
▁took	-897
▁organ	-898
▁create	-899
aces	-900
▁fun	-901
its	-902
▁resp	-903
atter	-904
aut	-905
▁glo	-906
air	-907
▁mind	-908
▁home	-909
▁energy	-910
▁earth	-911
▁means	-912
led	-913
▁char	-914
pr	-915
ries	-916
▁walk	-917
▁future	-918
▁head	-919
▁frie	-920
▁hand	-921
ead	-922
hip	-923
▁best	-924
alf	-925
▁!	-926
ogr	-927
▁gre	-928
ues	-929
▁interesting	-930
ne	-931
▁left	-932
▁acc	-933
▁become	-934
▁quite	-935
▁spec	-936
▁lead	-937
rib	-938
▁intern	-939
▁getting	-940
▁cle	-941
▁enough	-942
ten	-943
ital	-944
▁reg	-945
▁compan	-946
ale	-947
roup	-948
vern	-949
▁probably	-950
ks	-951
▁fu	-952
▁process	-953
▁comes	-954
▁sense	-955
bal	-956
▁connect	-957
ention	-958
▁conf	-959
▁says	-960
▁z	-961
iew	-962
▁group	-963
▁set	-964
gest	-965
▁without	-966
▁cur	-967
▁red	-968
▁stuff	-969
▁air	-970
▁building	-971
▁pub	-972
▁beaut	-973
▁govern	-974
ouse	-975
ories	-976
▁month	-977
▁social	-978
▁sw	-979
iting	-980
▁begin	-981
vir	-982
▁hist	-983
▁making	-984
ertain	-985
ction	-986
▁talking	-987
sw	-988
▁product	-989
nce	-990
ont	-991
ier	-992
lf	-993
ient	-994
ood	-995
ner	-996
▁africa	-997
▁contro	-998
▁happened	-999
cus	-1000
▁half	-1001
▁body	-1002
▁youn	-1003
▁share	-1004
▁science	-1005
▁pop	-1006
▁room	-1007
▁dollars	-1008
▁pass	-1009
ts	-1010
ever	-1011
▁pie	-1012
▁keep	-1013
▁200	-1014
ird	-1015
▁phot	-1016
viron	-1017
▁business	-1018
ced	-1019
▁coming	-1020
bs	-1021
▁par	-1022
▁answ	-1023
▁else	-1024
▁bring	-1025
▁environ	-1026
▁eas	-1027
▁val	-1028
▁anything	-1029
ying	-1030
▁add	-1031
▁wee	-1032
aps	-1033
▁pret	-1034
▁rese	-1035
▁sound	-1036
▁acr	-1037
▁bad	-1038
▁phys	-1039
▁side	-1040
olution	-1041
▁educ	-1042
▁soci	-1043
ices	-1044
▁col	-1045
▁cult	-1046
▁dist	-1047
▁makes	-1048
ety	-1049
▁six	-1050
me	-1051
▁sign	-1052
▁simple	-1053
▁moment	-1054
▁scient	-1055
▁pretty	-1056
man	-1057
▁gl	-1058
idd	-1059
▁top	-1060
▁hope	-1061
▁goes	-1062
▁lives	-1063
▁across	-1064
▁ted	-1065
▁global	-1066
str	-1067
▁once	-1068
ins	-1069
▁ty	-1070
fect	-1071
imate	-1072
uring	-1073
▁bre	-1074
▁such	-1075
▁told	-1076
▁allow	-1077
▁prof	-1078
▁mor	-1079
▁reason	-1080
▁basically	-1081
ior	-1082
▁stand	-1083
▁ey	-1084
▁research	-1085
llow	-1086
▁model	-1087
▁wonder	-1088
▁aut	-1089
▁city	-1090
▁living	-1091
ash	-1092
der	-1093
▁che	-1094
▁yet	-1095
▁picture	-1096
▁opp	-1097
▁seen	-1098
ograph	-1099
▁saw	-1100
▁music	-1101
▁amaz	-1102
▁imagine	-1103
ided	-1104
▁fig	-1105
ince	-1106
▁det	-1107
▁matter	-1108
▁stop	-1109
▁particular	-1110
io	-1111
ote	-1112
▁mar	-1113
▁countries	-1114
▁happens	-1115
bo	-1116
no	-1117
ember	-1118
▁ways	-1119
▁mil	-1120
▁while	-1121
▁face	-1122
ina	-1123
▁wa	-1124
▁family	-1125
▁list	-1126
▁hour	-1127
irl	-1128
▁okay	-1129
▁young	-1130
▁case	-1131
▁sit	-1132
▁planet	-1133
▁later	-1134
▁experience	-1135
▁environment	-1136
▁having	-1137
▁effect	-1138
▁days	-1139
▁problems	-1140
▁asked	-1141
ization	-1142
▁mach	-1143
▁pain	-1144
where	-1145
▁stre	-1146
▁vide	-1147
▁ideas	-1148
ew	-1149
▁yes	-1150
▁rob	-1151
▁computer	-1152
▁disco	-1153
work	-1154
▁watch	-1155
iter	-1156
▁lang	-1157
ape	-1158
ots	-1159
most	-1160
▁inside	-1161
▁both	-1162
ilt	-1163
▁self	-1164
▁single	-1165
ott	-1166
ught	-1167
ortun	-1168
▁blo	-1169
▁lab	-1170
▁everybody	-1171
▁complete	-1172
br	-1173
▁certain	-1174
▁sure	-1175
▁mag	-1176
ality	-1177
▁level	-1178
▁polit	-1179
▁contin	-1180
▁nothing	-1181
▁cho	-1182
▁states	-1183
▁incred	-1184
▁saying	-1185
▁age	-1186
ulation	-1187
▁history	-1188
▁langu	-1189
▁def	-1190
▁billion	-1191
▁dev	-1192
itive	-1193
▁girl	-1194
▁ref	-1195
ank	-1196
imes	-1197
▁loc	-1198
▁wrong	-1199
▁ca	-1200
▁vir	-1201
▁almost	-1202
▁remember	-1203
▁whether	-1204
▁thous	-1205
▁within	-1206
▁unt	-1207
ready	-1208
▁test	-1209
▁nature	-1210
med	-1211
▁heart	-1212
▁looks	-1213
ime	-1214
▁exc	-1215
▁fore	-1216
▁cost	-1217
▁dire	-1218
▁hear	-1219
▁news	-1220
▁beautif	-1221
▁dise	-1222
▁oh	-1223
▁treat	-1224
▁equ	-1225
orn	-1226
gram	-1227
▁already	-1228
▁ge	-1229
ury	-1230
▁sec	-1231
▁30	-1232
▁rest	-1233
arent	-1234
uce	-1235
▁pos	-1236
▁6	-1237
▁9	-1238
▁cancer	-1239
▁guy	-1240
▁sou	-1241
ants	-1242
▁cells	-1243
▁god	-1244
▁men	-1245
▁large	-1246
aterial	-1247
ken	-1248
▁leg	-1249
▁suc	-1250
▁cond	-1251
▁amazing	-1252
▁possible	-1253
na	-1254
▁net	-1255
ivity	-1256
▁true	-1257
allen	-1258
▁50	-1259
utes	-1260
▁tre	-1261
▁state	-1262
less	-1263
ling	-1264
▁kill	-1265
ield	-1266
ering	-1267
▁exact	-1268
▁15	-1269
▁class	-1270
▁beautiful	-1271
▁di	-1272
▁fil	-1273
ivid	-1274
unch	-1275
▁often	-1276
▁control	-1277
▁heard	-1278
pect	-1279
▁looked	-1280
ters	-1281
▁figure	-1282
▁mem	-1283
▁public	-1284
▁cal	-1285
lish	-1286
▁video	-1287
▁community	-1288
up	-1289
▁100	-1290
▁oce	-1291
▁works	-1292
▁full	-1293
▁program	-1294
▁material	-1295
▁ass	-1296
osed	-1297
side	-1298
iddle	-1299
▁months	-1300
▁india	-1301
▁market	-1302
▁aud	-1303
nding	-1304
▁answer	-1305
land	-1306
▁since	-1307
ware	-1308
▁adv	-1309
▁someone	-1310
ages	-1311
▁universe	-1312
▁arch	-1313
ndred	-1314
▁myself	-1315
▁challen	-1316
▁7	-1317
ases	-1318
uck	-1319
▁hundred	-1320
▁law	-1321
▁pay	-1322
vious	-1323
▁built	-1324
▁piece	-1325
▁middle	-1326
▁instead	-1327
▁united	-1328
▁education	-1329
▁dra	-1330
ately	-1331
▁must	-1332
▁follow	-1333
▁until	-1334
rop	-1335
▁engine	-1336
▁stories	-1337
li	-1338
▁iss	-1339
to	-1340
▁house	-1341
▁government	-1342
ene	-1343
▁ye	-1344
aper	-1345
▁isn	-1346
▁line	-1347
atic	-1348
▁words	-1349
▁deep	-1350
▁sometimes	-1351
cle	-1352
ians	-1353
..	-1354
ired	-1355
▁...	-1356
▁past	-1357
▁night	-1358
▁abs	-1359
▁ret	-1360
▁species	-1361
get	-1362
▁nor	-1363
▁taking	-1364
▁decided	-1365
row	-1366
▁entire	-1367
▁order	-1368
▁places	-1369
▁experim	-1370
▁green	-1371
▁somebody	-1372
ane	-1373
bers	-1374
▁object	-1375
▁individ	-1376
ames	-1377
▁result	-1378
line	-1379
▁8	-1380
▁internet	-1381
▁land	-1382
▁wind	-1383
▁front	-1384
ustr	-1385
▁couple	-1386
▁dep	-1387
▁ste	-1388
▁incre	-1389
▁language	-1390
▁free	-1391
▁rather	-1392
etic	-1393
▁mic	-1394
▁math	-1395
▁mother	-1396
▁tool	-1397
ives	-1398
omes	-1399
▁exactly	-1400
▁av	-1401
▁sun	-1402
▁quick	-1403
▁cra	-1404
▁rev	-1405
▁train	-1406
ined	-1407
▁wasn	-1408
▁individual	-1409
▁kinds	-1410
▁name	-1411
▁though	-1412
▁everyone	-1413
▁ourselves	-1414
▁inno	-1415
▁appro	-1416
ional	-1417
▁struct	-1418
▁oil	-1419
▁view	-1420
▁complex	-1421
urs	-1422
▁har	-1423
▁yeah	-1424
▁itself	-1425
acter	-1426
▁friends	-1427
ental	-1428
▁completely	-1429
▁fly	-1430
▁themselves	-1431
▁bab	-1432
▁turns	-1433
▁huge	-1434
▁animals	-1435
▁minutes	-1436
ats	-1437
▁close	-1438
▁game	-1439
▁students	-1440
ond	-1441
▁society	-1442
▁bro	-1443
▁hy	-1444
▁focus	-1445
▁became	-1446
ream	-1447
▁job	-1448
▁woman	-1449
▁third	-1450
ron	-1451
▁mass	-1452
▁cam	-1453
▁ris	-1454
ability	-1455
▁success	-1456
▁deal	-1457
▁behav	-1458
▁gets	-1459
▁happening	-1460
▁step	-1461
▁company	-1462
ogn	-1463
▁rad	-1464
▁along	-1465
▁happy	-1466
▁learned	-1467
cc	-1468
sy	-1469
ients	-1470
▁team	-1471
▁study	-1472
▁ant	-1473
▁mot	-1474
aster	-1475
▁invest	-1476
▁america	-1477
▁created	-1478
1;	-1479
3;	-1480
ien	-1481
▁&#91;	-1482
▁&#93;	-1483
▁meet	-1484
▁emp	-1485
ision	-1486
ock	-1487
ator	-1488
▁word	-1489
▁clear	-1490
vation	-1491
▁shows	-1492
▁disease	-1493
wards	-1494
itting	-1495
▁hours	-1496
▁univers	-1497
ared	-1498
▁ple	-1499
▁won	-1500
▁meas	-1501
▁ones	-1502
▁ve	-1503
▁listen	-1504
▁explain	-1505
▁ho	-1506
face	-1507
ming	-1508
▁norm	-1509
▁guys	-1510
▁ocean	-1511
lud	-1512
▁ill	-1513
▁natural	-1514
▁mill	-1515
ush	-1516
ident	-1517
istic	-1518
▁cir	-1519
▁bott	-1520
▁present	-1521
iqu	-1522
▁hold	-1523
ibly	-1524
dd	-1525
▁relations	-1526
ump	-1527
ium	-1528
▁china	-1529
haps	-1530
▁non	-1531
▁death	-1532
▁field	-1533
▁opportun	-1534
▁es	-1535
▁collect	-1536
▁perhaps	-1537
▁dig	-1538
▁var	-1539
▁early	-1540
▁amount	-1541
▁questions	-1542
▁liter	-1543
▁knew	-1544
▁oth	-1545
▁fre	-1546
▁mess	-1547
▁prov	-1548
ern	-1549
▁parent	-1550
▁against	-1551
ctor	-1552
▁terr	-1553
▁couldn	-1554
▁others	-1555
▁area	-1556
▁neur	-1557
▁pred	-1558
▁seven	-1559
▁miss	-1560
▁worked	-1561
▁lots	-1562
▁fund	-1563
▁oper	-1564
▁expect	-1565
▁recent	-1566
vered	-1567
▁gave	-1568
▁learning	-1569
olved	-1570
▁id	-1571
icult	-1572
▁cut	-1573
ake	-1574
ones	-1575
▁speak	-1576
▁del	-1577
▁pot	-1578
▁black	-1579
▁eight	-1580
▁takes	-1581
cul	-1582
▁colle	-1583
▁least	-1584
▁moving	-1585
▁technolog	-1586
▁squ	-1587
▁super	-1588
▁machine	-1589
▁arg	-1590
ider	-1591
▁sug	-1592
▁american	-1593
▁sym	-1594
▁extra	-1595
▁during	-1596
▁outside	-1597
not	-1598
aking	-1599
▁network	-1600
▁bar	-1601
ither	-1602
▁short	-1603
▁da	-1604
▁finally	-1605
▁york	-1606
▁obvious	-1607
ged	-1608
ature	-1609
▁jour	-1610
▁rich	-1611
▁systems	-1612
▁vo	-1613
▁wonderful	-1614
▁century	-1615
▁wall	-1616
▁protect	-1617
▁er	-1618
astic	-1619
▁sens	-1620
▁culture	-1621
▁difficult	-1622
gen	-1623
▁needs	-1624
▁difference	-1625
▁intell	-1626
ted	-1627
▁tem	-1628
▁eur	-1629
▁pattern	-1630
▁beginning	-1631
inary	-1632
aring	-1633
▁chem	-1634
ential	-1635
▁record	-1636
itect	-1637
▁taken	-1638
▁architect	-1639
▁chr	-1640
ially	-1641
ising	-1642
▁grand	-1643
▁interact	-1644
▁bra	-1645
▁hands	-1646
ination	-1647
▁opt	-1648
▁thousands	-1649
▁18	-1650
▁blue	-1651
▁common	-1652
▁typ	-1653
▁eyes	-1654
▁fail	-1655
▁exist	-1656
▁surpr	-1657
▁relationship	-1658
ero	-1659
ides	-1660
▁maj	-1661
sych	-1662
▁behavior	-1663
▁whatever	-1664
▁fall	-1665
▁trad	-1666
▁drug	-1667
▁12	-1668
▁vi	-1669
cious	-1670
▁democ	-1671
▁image	-1672
▁powerful	-1673
▁low	-1674
▁buy	-1675
gress	-1676
att	-1677
▁emot	-1678
▁behind	-1679
ully	-1680
▁break	-1681
▁turned	-1682
itions	-1683
▁seeing	-1684
▁population	-1685
▁given	-1686
▁leave	-1687
▁yourself	-1688
▁pract	-1689
▁psych	-1690
▁40	-1691
▁occ	-1692
▁lim	-1693
▁impro	-1694
▁spend	-1695
▁support	-1696
▁communic	-1697
▁emb	-1698
▁personal	-1699
▁bir	-1700
olute	-1701
utions	-1702
▁cy	-1703
▁reach	-1704
▁instit	-1705
ton	-1706
▁major	-1707
▁center	-1708
▁perfect	-1709
▁audience	-1710
▁extre	-1711
▁local	-1712
▁parts	-1713
▁photograph	-1714
ret	-1715
▁easy	-1716
▁terms	-1717
▁absolute	-1718
▁changed	-1719
▁cop	-1720
rod	-1721
▁consum	-1722
▁cannot	-1723
▁pen	-1724
▁pick	-1725
ented	-1726
▁relig	-1727
▁perform	-1728
▁interested	-1729
ges	-1730
ased	-1731
▁ess	-1732
verage	-1733
▁famil	-1734
▁flo	-1735
cks	-1736
▁week	-1737
▁paper	-1738
mer	-1739
itch	-1740
▁ap	-1741
ging	-1742
▁tot	-1743
▁south	-1744
gs	-1745
els	-1746
▁began	-1747
▁media	-1748
▁access	-1749
▁eat	-1750
▁insp	-1751
▁simp	-1752
▁size	-1753
▁event	-1754
▁evolution	-1755
ipp	-1756
year	-1757
▁ground	-1758
▁longer	-1759
▁conv	-1760
▁serv	-1761
▁stay	-1762
▁economic	-1763
cl	-1764
▁dark	-1765
▁europe	-1766
▁friend	-1767
ource	-1768
idence	-1769
▁father	-1770
ule	-1771
▁includ	-1772
ony	-1773
xy	-1774
osp	-1775
▁gone	-1776
▁vers	-1777
▁direct	-1778
▁national	-1779
ruct	-1780
▁sum	-1781
▁simply	-1782
ison	-1783
fully	-1784
▁needed	-1785
▁ir	-1786
▁surv	-1787
▁dream	-1788
▁spent	-1789
▁realized	-1790
cing	-1791
▁civ	-1792
▁orig	-1793
▁either	-1794
▁incredible	-1795
dden	-1796
▁feed	-1797
▁profess	-1798
ledge	-1799
▁film	-1800
▁value	-1801
▁sudden	-1802
▁prop	-1803
▁tried	-1804
▁humans	-1805
ological	-1806
▁sea	-1807
iving	-1808
▁desc	-1809
▁press	-1810
ney	-1811
ouch	-1812
▁bill	-1813
▁parents	-1814
ows	-1815
ivers	-1816
▁sent	-1817
▁ident	-1818
ru	-1819
rought	-1820
ler	-1821
▁ice	-1822
▁special	-1823
▁mult	-1824
▁foot	-1825
▁mole	-1826
▁situ	-1827
▁cities	-1828
▁quickly	-1829
elt	-1830
▁camp	-1831
▁poor	-1832
▁fish	-1833
ources	-1834
ode	-1835
▁enc	-1836
▁electric	-1837
ilar	-1838
▁sil	-1839
izing	-1840
ibility	-1841
▁cool	-1842
▁known	-1843
▁structure	-1844
▁25	-1845
▁win	-1846
▁feet	-1847
▁repres	-1848
▁ability	-1849
▁sitting	-1850
▁companies	-1851
▁key	-1852
▁fast	-1853
▁fight	-1854
▁scale	-1855
of	-1856
▁arm	-1857
▁dna	-1858
▁lost	-1859
▁growth	-1860
▁strong	-1861
▁wouldn	-1862
▁compass	-1863
▁surface	-1864
end	-1865
avor	-1866
room	-1867
ators	-1868
▁robot	-1869
▁recogn	-1870
▁obs	-1871
▁near	-1872
▁pa	-1873
▁hor	-1874
▁slow	-1875
▁force	-1876
▁white	-1877
▁measure	-1878
▁draw	-1879
▁produc	-1880
▁extreme	-1881
▁caus	-1882
▁dest	-1883
▁prin	-1884
▁pull	-1885
lt	-1886
ri	-1887
ids	-1888
ife	-1889
▁books	-1890
ex	-1891
▁nice	-1892
▁animal	-1893
▁street	-1894
ised	-1895
ument	-1896
▁fear	-1897
▁indust	-1898
▁travel	-1899
iny	-1900
▁die	-1901
▁sho	-1902
▁sex	-1903
▁phil	-1904
▁weeks	-1905
▁economy	-1906
▁compassion	-1907
▁vill	-1908
ustain	-1909
▁political	-1910
▁pur	-1911
▁morning	-1912
▁predict	-1913
rent	-1914
▁stage	-1915
▁technologies	-1916
▁ur	-1917
▁vol	-1918
▁reality	-1919
▁bene	-1920
▁growing	-1921
▁hot	-1922
▁web	-1923
▁fire	-1924
▁stat	-1925
▁brought	-1926
▁opportunity	-1927
▁tele	-1928
▁north	-1929
▁serious	-1930
inal	-1931
▁born	-1932
▁hosp	-1933
▁sat	-1934
▁felt	-1935
▁medic	-1936
▁modern	-1937
▁experiment	-1938
▁requ	-1939
▁civil	-1940
▁anyone	-1941
▁respons	-1942
ala	-1943
▁ce	-1944
▁based	-1945
▁wrote	-1946
▁approach	-1947
▁knowledge	-1948
▁/	-1949
ards	-1950
▁mathem	-1951
▁theory	-1952
▁starting	-1953
▁circ	-1954
▁miles	-1955
▁patients	-1956
ains	-1957
ford	-1958
▁bottom	-1959
▁visual	-1960
▁suggest	-1961
▁developed	-1962
ral	-1963
ills	-1964
lect	-1965
ively	-1966
▁dead	-1967
▁areas	-1968
▁images	-1969
▁changes	-1970
he	-1971
▁feeling	-1972
ny	-1973
▁viol	-1974
▁impact	-1975
com	-1976
▁blood	-1977
▁camer	-1978
▁gives	-1979
cially	-1980
▁touch	-1981
▁climate	-1982
▁revolution	-1983
by	-1984
acy	-1985
ived	-1986
▁mov	-1987
▁repl	-1988
▁soft	-1989
▁giving	-1990
▁forward	-1991
▁similar	-1992
ances	-1993
▁write	-1994
▁scientists	-1995
go	-1996
hood	-1997
▁color	-1998
▁spread	-1999
▁deg	-2000
zy	-2001
▁cars	-2002
▁priv	-2003
▁attention	-2004
aly	-2005
uth	-2006
erence	-2007
▁60	-2008
ored	-2009
ption	-2010
▁const	-2011
▁literally	-2012
▁box	-2013
▁path	-2014
entially	-2015
▁leaders	-2016
▁fac	-2017
▁auth	-2018
▁depe	-2019
▁seems	-2020
▁tradition	-2021
▁discovered	-2022
▁development	-2023
bon	-2024
▁comb	-2025
▁road	-2026
▁tools	-2027
▁understanding	-2028
amed	-2029
▁unf	-2030
▁crit	-2031
▁sell	-2032
▁numbers	-2033
▁prom	-2034
▁shape	-2035
▁patient	-2036
▁realize	-2037
▁ach	-2038
▁mal	-2039
▁main	-2040
▁sustain	-2041
imens	-2042
▁except	-2043
▁challenge	-2044
▁average	-2045
▁concept	-2046
▁stra	-2047
▁guess	-2048
▁dou	-2049
▁ball	-2050
▁rul	-2051
▁absolutely	-2052
▁lay	-2053
▁english	-2054
▁ult	-2055
anger	-2056
▁ah	-2057
▁physical	-2058
▁poll	-2059
▁polic	-2060
▁hundreds	-2061
ery	-2062
▁dan	-2063
▁rock	-2064
amples	-2065
▁affect	-2066
▁running	-2067
▁intellig	-2068
▁wish	-2069
ensive	-2070
▁current	-2071
▁millions	-2072
▁movement	-2073
▁developing	-2074
lu	-2075
▁ec	-2076
aged	-2077
▁fur	-2078
▁compet	-2079
▁nobody	-2080
▁meaning	-2081
ique	-2082
vent	-2083
▁phone	-2084
▁playing	-2085
▁telling	-2086
bor	-2087
ucle	-2088
▁avail	-2089
▁girls	-2090
▁describ	-2091
par	-2092
▁risk	-2093
yn	-2094
ung	-2095
eter	-2096
▁recently	-2097
apt	-2098
ove	-2099
iant	-2100
▁post	-2101
ression	-2102
ik	-2103
▁hon	-2104
▁benef	-2105
▁micro	-2106
asc	-2107
inese	-2108
urity	-2109
▁scre	-2110
▁favor	-2111
▁mount	-2112
▁worth	-2113
loy	-2114
ned	-2115
▁map	-2116
ified	-2117
sh	-2118
port	-2119
▁sal	-2120
▁soon	-2121
▁showed	-2122
▁din	-2123
▁eye	-2124
▁flow	-2125
▁normal	-2126
▁proper	-2127
▁nucle	-2128
▁industry	-2129
▁solution	-2130
ateg	-2131
ival	-2132
▁est	-2133
▁baby	-2134
▁alone	-2135
▁knows	-2136
▁creating	-2137
por	-2138
▁anybody	-2139
▁general	-2140
▁neg	-2141
▁chinese	-2142
▁medical	-2143
iod	-2144
▁seem	-2145
▁obviously	-2146
arr	-2147
ift	-2148
ency	-2149
▁smart	-2150
▁period	-2151
▁innovation	-2152
cr	-2153
like	-2154
▁truth	-2155
▁transform	-2156
▁type	-2157
struct	-2158
▁emerg	-2159
▁talked	-2160
▁among	-2161
▁neigh	-2162
asing	-2163
▁fundam	-2164
▁produce	-2165
▁incredibly	-2166
ister	-2167
▁espe	-2168
▁save	-2169
▁especially	-2170
erm	-2171
▁rele	-2172
▁tiny	-2173
▁issue	-2174
▁solar	-2175
osph	-2176
bit	-2177
oph	-2178
▁arr	-2179
▁aren	-2180
▁haven	-2181
▁subject	-2182
▁available	-2183
▁fair	-2184
▁suff	-2185
▁online	-2186
▁drive	-2187
▁becomes	-2188
▁university	-2189
ites	-2190
yond	-2191
▁hig	-2192
▁trust	-2193
▁beyond	-2194
▁11	-2195
ried	-2196
▁199	-2197
▁boy	-2198
▁joh	-2199
▁link	-2200
▁rate	-2201
▁peace	-2202
▁table	-2203
▁virus	-2204
▁eg	-2205
▁syn	-2206
▁conscious	-2207
▁—	-2208
eed	-2209
▁led	-2210
▁achie	-2211
▁bigger	-2212
▁please	-2213
▁fa	-2214
▁dom	-2215
▁eth	-2216
▁games	-2217
▁lea	-2218
▁west	-2219
jo	-2220
ban	-2221
▁sle	-2222
ishing	-2223
▁carbon	-2224
▁reasons	-2225
▁designed	-2226
▁extraord	-2227
▁happiness	-2228
▁aw	-2229
racy	-2230
▁grad	-2231
▁resources	-2232
▁situation	-2233
▁bur	-2234
▁died	-2235
▁bacter	-2236
▁vision	-2237
▁security	-2238
istan	-2239
▁putting	-2240
▁computers	-2241
▁sn	-2242
ades	-2243
▁sever	-2244
▁device	-2245
▁digital	-2246
▁writing	-2247
mers	-2248
▁tas	-2249
ences	-2250
▁text	-2251
▁solve	-2252
▁groups	-2253
▁office	-2254
▁changing	-2255
po	-2256
▁gt	-2257
▁nine	-2258
▁port	-2259
▁tells	-2260
ilities	-2261
▁necess	-2262
▁sounds	-2263
▁progress	-2264
▁pu	-2265
▁react	-2266
▁rules	-2267
▁lt	-2268
ished	-2269
▁east	-2270
▁speed	-2271
▁schools	-2272
ma	-2273
▁bed	-2274
▁materials	-2275
▁adm	-2276
oring	-2277
▁clos	-2278
▁defin	-2279
▁lived	-2280
▁several	-2281
aw	-2282
erv	-2283
ese	-2284
ude	-2285
chan	-2286
▁bal	-2287
▁div	-2288
arily	-2289
▁generation	-2290
ief	-2291
▁lif	-2292
▁voice	-2293
▁chance	-2294
▁pictures	-2295
lict	-2296
vert	-2297
▁gas	-2298
▁hit	-2299
▁star	-2300
▁princi	-2301
▁towards	-2302
▁scientific	-2303
▁convers	-2304
▁further	-2305
▁80	-2306
▁prim	-2307
▁involved	-2308
light	-2309
▁goog	-2310
▁skin	-2311
▁issues	-2312
▁evidence	-2313
▁john	-2314
▁passion	-2315
▁particularly	-2316
ips	-2317
▁rid	-2318
▁danger	-2319
▁indeed	-2320
▁function	-2321
▁suddenly	-2322
▁teachers	-2323
xic	-2324
▁ep	-2325
▁lad	-2326
▁clean	-2327
▁action	-2328
unt	-2329
▁track	-2330
▁projects	-2331
abor	-2332
▁dam	-2333
ify	-2334
usion	-2335
▁basic	-2336
▁asking	-2337
ze	-2338
▁ast	-2339
ously	-2340
▁cross	-2341
▁certainly	-2342
une	-2343
▁park	-2344
▁sold	-2345
▁song	-2346
▁college	-2347
▁chemical	-2348
▁character	-2349
▁search	-2350
▁experien	-2351
▁hiv	-2352
▁scr	-2353
▁fant	-2354
▁choice	-2355
▁message	-2356
▁village	-2357
gn	-2358
oms	-2359
▁rain	-2360
▁trial	-2361
▁anyway	-2362
▁hospital	-2363
ein	-2364
▁son	-2365
▁wants	-2366
▁capital	-2367
iar	-2368
omen	-2369
▁bud	-2370
▁brit	-2371
▁safe	-2372
▁sand	-2373
▁report	-2374
▁encou	-2375
book	-2376
▁spir	-2377
▁vari	-2378
▁breat	-2379
how	-2380
▁dav	-2381
▁plant	-2382
▁attack	-2383
▁journey	-2384
▁examples	-2385
uly	-2386
view	-2387
▁starts	-2388
▁quality	-2389
▁discover	-2390
▁positive	-2391
▁hom	-2392
▁virt	-2393
▁mechan	-2394
umb	-2395
▁aware	-2396
▁google	-2397
▁showing	-2398
▁software	-2399
▁send	-2400
▁tend	-2401
▁ready	-2402
▁notice	-2403
▁exciting	-2404
▁potential	-2405
▁everywhere	-2406
ey	-2407
▁isl	-2408
▁tom	-2409
▁birth	-2410
▁moral	-2411
▁mathemat	-2412
ros	-2413
▁effic	-2414
▁graph	-2415
▁detail	-2416
medi	-2417
▁nuclear	-2418
fort	-2419
▁sky	-2420
▁remark	-2421
▁student	-2422
▁totally	-2423
icle	-2424
▁walking	-2425
▁connected	-2426
▁democracy	-2427
itten	-2428
▁carry	-2429
▁stick	-2430
▁likely	-2431
▁biggest	-2432
▁extraordinary	-2433
▁flu	-2434
▁capt	-2435
▁onto	-2436
▁moved	-2437
cuss	-2438
rast	-2439
▁tar	-2440
eth	-2441
ring	-2442
▁sequ	-2443
▁complic	-2444
ai	-2445
ners	-2446
verty	-2447
▁introd	-2448
▁activity	-2449
▁consider	-2450
gth	-2451
uit	-2452
▁vac	-2453
antly	-2454
▁wait	-2455
▁store	-2456
apan	-2457
▁poverty	-2458
▁teacher	-2459
▁eventually	-2460
▁mob	-2461
itary	-2462
▁door	-2463
▁grew	-2464
▁phen	-2465
osphere	-2466
▁16	-2467
▁fill	-2468
▁mine	-2469
▁named	-2470
▁perspect	-2471
▁buildings	-2472
imp	-2473
▁square	-2474
▁extremely	-2475
▁international	-2476
ext	-2477
ugg	-2478
iger	-2479
▁fix	-2480
▁imm	-2481
▁cris	-2482
▁jobs	-2483
ressed	-2484
▁activ	-2485
▁apart	-2486
▁cause	-2487
▁japan	-2488
▁screen	-2489
▁transl	-2490
▁medicine	-2491
here	-2492
▁cook	-2493
▁magn	-2494
ground	-2495
▁sleep	-2496
▁return	-2497
▁thousand	-2498
▁essentially	-2499
▁fem	-2500
▁gala	-2501
▁doctor	-2502
▁x	-2503
▁pan	-2504
▁camera	-2505
▁objects	-2506
▁usually	-2507
▁collabor	-2508
▁continue	-2509
▁conc	-2510
▁diag	-2511
▁labor	-2512
▁separ	-2513
▁appear	-2514
▁plants	-2515
▁results	-2516
▁watching	-2517
▁code	-2518
isions	-2519
▁trees	-2520
▁imposs	-2521
▁african	-2522
▁conflict	-2523
▁check	-2524
▁david	-2525
▁supposed	-2526
ee	-2527
ops	-2528
come	-2529
▁bank	-2530
▁lose	-2531
▁mars	-2532
▁zero	-2533
▁adult	-2534
▁older	-2535
▁disapp	-2536
▁electricity	-2537
▁cat	-2538
▁san	-2539
▁gold	-2540
▁push	-2541
▁movie	-2542
▁brains	-2543
▁account	-2544
▁improve	-2545
▁largest	-2546
▁somewhere	-2547
mend	-2548
▁burn	-2549
▁author	-2550
▁higher	-2551
▁threat	-2552
▁phenomen	-2553
▁products	-2554
ipt	-2555
erve	-2556
more	-2557
▁mis	-2558
▁coun	-2559
▁heav	-2560
▁wild	-2561
▁above	-2562
▁talks	-2563
▁immedi	-2564
▁context	-2565
▁strange	-2566
son	-2567
▁90	-2568
iction	-2569
▁freed	-2570
▁spect	-2571
▁series	-2572
50	-2573
▁clin	-2574
▁enjo	-2575
▁magic	-2576
▁larger	-2577
▁explore	-2578
▁somehow	-2579
▁particip	-2580
▁ann	-2581
▁cit	-2582
▁luck	-2583
▁meth	-2584
others	-2585
▁blind	-2586
▁influ	-2587
▁represent	-2588
ann	-2589
▁ang	-2590
▁deb	-2591
▁mir	-2592
▁fing	-2593
▁points	-2594
▁temper	-2595
▁creative	-2596
akes	-2597
▁los	-2598
oming	-2599
▁role	-2600
▁studies	-2601
▁impossible	-2602
▁organization	-2603
aur	-2604
idge	-2605
▁dad	-2606
▁king	-2607
▁mist	-2608
▁crazy	-2609
▁glass	-2610
▁lands	-2611
▁meant	-2612
▁calcul	-2613
▁source	-2614
▁continu	-2615
▁70	-2616
▁page	-2617
▁shown	-2618
▁surger	-2619
etry	-2620
▁webs	-2621
▁forms	-2622
▁sorts	-2623
▁christ	-2624
▁detect	-2625
▁forest	-2626
▁policy	-2627
▁allowed	-2628
dom	-2629
ims	-2630
▁sus	-2631
▁whe	-2632
odies	-2633
estern	-2634
▁print	-2635
oud	-2636
▁den	-2637
▁hop	-2638
▁goal	-2639
▁muse	-2640
▁wife	-2641
▁ended	-2642
▁molec	-2643
▁signific	-2644
▁including	-2645
fer	-2646
▁bou	-2647
ctors	-2648
▁fine	-2649
▁pack	-2650
▁corre	-2651
▁accept	-2652
▁beauty	-2653
▁killed	-2654
▁minute	-2655
▁models	-2656
▁president	-2657
▁therefore	-2658
nal	-2659
▁14	-2660
inct	-2661
▁ben	-2662
▁swe	-2663
cient	-2664
▁site	-2665
▁central	-2666
▁excited	-2667
▁finding	-2668
▁ultimate	-2669
▁bom	-2670
▁jud	-2671
▁clim	-2672
▁minds	-2673
▁waste	-2674
bb	-2675
do	-2676
put	-2677
ram	-2678
cape	-2679
▁fasc	-2680
▁town	-2681
▁tree	-2682
▁assum	-2683
▁infect	-2684
▁training	-2685
▁conditions	-2686
▁individuals	-2687
▁traditional	-2688
▁architecture	-2689
ires	-2690
rage	-2691
▁198	-2692
▁bacteria	-2693
lier	-2694
nces	-2695
▁rece	-2696
▁enorm	-2697
▁stars	-2698
▁truly	-2699
▁museum	-2700
▁neighbor	-2701
▁complicated	-2702
▁perspective	-2703
▁17	-2704
ster	-2705
▁ger	-2706
atory	-2707
▁jump	-2708
▁citiz	-2709
▁drugs	-2710
▁concer	-2711
▁crisis	-2712
▁prison	-2713
▁discuss	-2714
ama	-2715
rep	-2716
emic	-2717
▁genes	-2718
▁secret	-2719
▁taught	-2720
▁distrib	-2721
▁reading	-2722
▁families	-2723
▁fundamental	-2724
isms	-2725
▁trick	-2726
▁position	-2727
ror	-2728
▁ban	-2729
▁fle	-2730
▁pal	-2731
▁upon	-2732
inating	-2733
▁faster	-2734
▁content	-2735
▁respect	-2736
▁written	-2737
▁favorite	-2738
▁painting	-2739
▁standing	-2740
▁fantastic	-2741
iet	-2742
ped	-2743
rad	-2744
oles	-2745
▁hero	-2746
▁inse	-2747
▁purp	-2748
▁bunch	-2749
▁region	-2750
▁thanks	-2751
▁version	-2752
▁treatment	-2753
onse	-2754
tend	-2755
phone	-2756
▁cart	-2757
▁launch	-2758
▁mental	-2759
▁pieces	-2760
▁biology	-2761
▁communities	-2762
ube	-2763
▁dro	-2764
▁late	-2765
▁rand	-2766
▁trou	-2767
▁alive	-2768
▁afford	-2769
▁himself	-2770
▁plastic	-2771
▁western	-2772
▁straight	-2773
▁increasing	-2774
▁surprising	-2775
men	-2776
▁cele	-2777
▁innov	-2778
izations	-2779
▁neurons	-2780
zz	-2781
▁oxy	-2782
ining	-2783
▁ther	-2784
▁price	-2785
▁worse	-2786
▁skills	-2787
▁mention	-2788
ches	-2789
▁alth	-2790
▁fort	-2791
vision	-2792
▁celebr	-2793
▁freedom	-2794
▁response	-2795
▁construct	-2796
▁expensive	-2797
▁throughout	-2798
iti	-2799
oke	-2800
▁tal	-2801
inated	-2802
ologist	-2803
▁strateg	-2804
▁although	-2805
▁unfortun	-2806
▁rise	-2807
▁liber	-2808
▁daught	-2809
▁remind	-2810
▁humanity	-2811
▁successful	-2812
rum	-2813
soci	-2814
ulate	-2815
▁hall	-2816
▁roll	-2817
amm	-2818
▁sad	-2819
▁kept	-2820
▁trade	-2821
▁service	-2822
▁military	-2823
egr	-2824
▁kil	-2825
▁card	-2826
▁finan	-2827
▁famous	-2828
▁earlier	-2829
▁smaller	-2830
▁log	-2831
▁afgh	-2832
▁beings	-2833
▁spirit	-2834
▁clearly	-2835
▁colleag	-2836
▁genetic	-2837
▁familiar	-2838
urt	-2839
amic	-2840
cise	-2841
fact	-2842
▁hey	-2843
▁thr	-2844
▁optim	-2845
▁physics	-2846
▁recognize	-2847
ured	-2848
▁dar	-2849
▁rap	-2850
▁cold	-2851
▁uses	-2852
▁cases	-2853
▁cover	-2854
▁unique	-2855
▁publish	-2856
▁patterns	-2857
ana	-2858
▁throw	-2859
▁worry	-2860
▁choose	-2861
▁electr	-2862
▁achieve	-2863
▁healthy	-2864
lly	-2865
ables	-2866
▁fuel	-2867
▁actual	-2868
▁decision	-2869
▁machines	-2870
sequ	-2871
▁doc	-2872
ission	-2873
▁costs	-2874
ustrial	-2875
▁effort	-2876
▁values	-2877
▁solutions	-2878
ulf	-2879
ffic	-2880
▁desp	-2881
▁shot	-2882
▁lower	-2883
▁allows	-2884
▁invent	-2885
▁rights	-2886
▁address	-2887
▁americans	-2888
▁environmental	-2889
mb	-2890
▁tv	-2891
onom	-2892
rene	-2893
▁dog	-2894
▁drop	-2895
▁rule	-2896
istics	-2897
▁occur	-2898
▁employ	-2899
▁philos	-2900
▁contrib	-2901
▁anywhere	-2902
▁listening	-2903
anda	-2904
▁sor	-2905
eties	-2906
▁prep	-2907
▁afghan	-2908
▁determ	-2909
▁greater	-2910
▁invented	-2911
▁violence	-2912
ike	-2913
itude	-2914
▁anal	-2915
▁blog	-2916
▁tiss	-2917
▁board	-2918
▁dyn	-2919
▁lines	-2920
▁associ	-2921
▁provide	-2922
▁dangerous	-2923
apes	-2924
back	-2925
▁lat	-2926
▁ten	-2927
ounds	-2928
▁broad	-2929
▁demon	-2930
▁forget	-2931
▁waiting	-2932
oon	-2933
▁13	-2934
thern	-2935
▁drink	-2936
itation	-2937
▁artist	-2938
▁weight	-2939
▁critical	-2940
▁religion	-2941
▁decisions	-2942
▁production	-2943
sc	-2944
iced	-2945
▁iran	-2946
▁none	-2947
▁autom	-2948
▁simpl	-2949
▁urban	-2950
▁manage	-2951
▁slight	-2952
▁however	-2953
cies	-2954
iles	-2955
ricult	-2956
▁whose	-2957
▁income	-2958
▁walked	-2959
▁comfort	-2960
▁driving	-2961
▁seconds	-2962
▁agricult	-2963
▁conference	-2964
▁remarkable	-2965
▁conversation	-2966
▁intelligence	-2967
▁aid	-2968
▁robots	-2969
iversity	-2970
▁anymore	-2971
unk	-2972
▁mid	-2973
▁tit	-2974
▁hell	-2975
▁legs	-2976
▁term	-2977
▁enjoy	-2978
atically	-2979
▁surgery	-2980
▁teaching	-2981
bol	-2982
resh	-2983
▁atm	-2984
▁cry	-2985
▁tun	-2986
▁gene	-2987
▁dance	-2988
▁becoming	-2989
▁electron	-2990
▁politics	-2991
ob	-2992
for	-2993
ently	-2994
iling	-2995
▁shark	-2996
▁engage	-2997
▁multip	-2998
ologists	-2999
▁express	-3000
▁connection	-3001
▁et	-3002
▁bang	-3003
▁hair	-3004
uted	-3005
▁alg	-3006
▁ver	-3007
▁demonstr	-3008
▁immediately	-3009
ps	-3010
ays	-3011
let	-3012
iven	-3013
ndon	-3014
▁ara	-3015
▁pig	-3016
▁veh	-3017
acity	-3018
▁floor	-3019
▁bodies	-3020
▁depend	-3021
▁greatest	-3022
▁increase	-3023
▁direction	-3024
gu	-3025
oid	-3026
▁21	-3027
rees	-3028
time	-3029
▁yell	-3030
▁decade	-3031
▁integr	-3032
▁journal	-3033
▁private	-3034
▁website	-3035
▁enormous	-3036
▁interview	-3037
▁exh	-3038
▁ine	-3039
▁ord	-3040
eless	-3041
eters	-3042
▁match	-3043
▁slide	-3044
reprene	-3045
▁flying	-3046
▁massive	-3047
ffe	-3048
▁201	-3049
antic	-3050
▁swim	-3051
▁nation	-3052
▁physic	-3053
▁useful	-3054
▁cultural	-3055
▁practice	-3056
uss	-3057
ales	-3058
▁nut	-3059
▁ran	-3060
▁tor	-3061
ained	-3062
epend	-3063
▁chair	-3064
▁final	-3065
▁indian	-3066
▁willing	-3067
▁creativity	-3068
uced	-3069
▁mut	-3070
▁copy	-3071
▁fold	-3072
▁laws	-3073
▁vict	-3074
▁wood	-3075
▁motiv	-3076
▁raise	-3077
▁range	-3078
▁saving	-3079
▁entreprene	-3080
▁industrial	-3081
bel	-3082
ball	-3083
▁lau	-3084
▁forth	-3085
▁weren	-3086
▁various	-3087
▁specific	-3088
▁following	-3089
▁television	-3090
pro	-3091
the	-3092
rael	-3093
▁196	-3094
▁hole	-3095
▁block	-3096
▁commer	-3097
▁survive	-3098
▁independ	-3099
▁transport	-3100
▁engineering	-3101
▁tum	-3102
▁moon	-3103
▁quot	-3104
▁insect	-3105
▁shared	-3106
▁networks	-3107
▁services	-3108
▁temperature	-3109
▁unfortunately	-3110
▁je	-3111
iation	-3112
▁funny	-3113
▁radio	-3114
▁relative	-3115
▁ut	-3116
▁fit	-3117
▁ken	-3118
attle	-3119
▁task	-3120
▁dimens	-3121
▁histor	-3122
▁consequ	-3123
▁doctors	-3124
▁meeting	-3125
yle	-3126
▁crow	-3127
▁scan	-3128
▁ahead	-3129
▁types	-3130
▁police	-3131
▁summer	-3132
▁terror	-3133
▁fra	-3134
▁mos	-3135
orrow	-3136
▁base	-3137
▁heat	-3138
▁helped	-3139
▁random	-3140
rastruct	-3141
▁tremend	-3142
▁speaking	-3143
▁condition	-3144
▁infrastruct	-3145
win	-3146
▁weap	-3147
▁loved	-3148
▁babies	-3149
▁societies	-3150
▁understood	-3151
▁mr	-3152
ancy	-3153
ceed	-3154
wood	-3155
▁fat	-3156
aries	-3157
board	-3158
▁boys	-3159
▁hous	-3160
▁london	-3161
▁method	-3162
▁micros	-3163
▁mostly	-3164
▁evolved	-3165
▁popular	-3166
▁directly	-3167
▁possibly	-3168
▁produced	-3169
▁profound	-3170
▁performance	-3171
▁institutions	-3172
oty	-3173
▁24	-3174
bert	-3175
iate	-3176
aging	-3177
▁desert	-3178
▁forces	-3179
▁genome	-3180
▁israel	-3181
▁levels	-3182
▁consciousness	-3183
▁cust	-3184
▁harv	-3185
atives	-3186
▁below	-3187
▁island	-3188
▁purpose	-3189
▁inspired	-3190
▁experiments	-3191
▁500	-3192
▁hyd	-3193
▁tur	-3194
▁appl	-3195
▁birds	-3196
▁coast	-3197
▁frank	-3198
▁career	-3199
▁democr	-3200
▁flight	-3201
▁inspir	-3202
▁effects	-3203
▁citizens	-3204
▁financial	-3205
ening	-3206
▁airpl	-3207
▁apply	-3208
▁displ	-3209
▁sorry	-3210
▁destro	-3211
▁wealth	-3212
ils	-3213
vere	-3214
ration	-3215
▁quant	-3216
▁attract	-3217
▁effective	-3218
▁sustainable	-3219
rew	-3220
aign	-3221
▁sam	-3222
▁wire	-3223
▁parad	-3224
▁german	-3225
▁standard	-3226
▁surround	-3227
▁catch	-3228
▁belief	-3229
▁markets	-3230
▁bringing	-3231
▁campaign	-3232
▁terrible	-3233
▁challenges	-3234
▁governments	-3235
▁197	-3236
▁ira	-3237
▁vul	-3238
right	-3239
▁trib	-3240
ashion	-3241
▁brill	-3242
▁active	-3243
▁metaph	-3244
▁strugg	-3245
▁supply	-3246
▁ancient	-3247
▁prevent	-3248
▁controll	-3249
▁emotional	-3250
▁afghanistan	-3251
cules	-3252
iding	-3253
▁mich	-3254
▁coffe	-3255
▁compon	-3256
▁decide	-3257
▁artists	-3258
▁original	-3259
▁scientist	-3260
empt	-3261
izes	-3262
▁wis	-3263
aling	-3264
ufact	-3265
water	-3266
▁dinos	-3267
▁offic	-3268
▁twice	-3269
▁bought	-3270
▁switch	-3271
▁washing	-3272
osy	-3273
ray	-3274
thes	-3275
▁beat	-3276
▁pros	-3277
▁causes	-3278
▁expand	-3279
▁honest	-3280
▁played	-3281
▁instance	-3282
▁gh	-3283
cell	-3284
wise	-3285
▁300	-3286
▁hus	-3287
▁aids	-3288
ception	-3289
▁mobile	-3290
ervation	-3291
▁focused	-3292
▁trouble	-3293
▁mountain	-3294
▁atmosphere	-3295
▁complexity	-3296
anc	-3297
ley	-3298
iber	-3299
itor	-3300
▁austr	-3301
▁gradu	-3302
▁pleas	-3303
▁closer	-3304
▁coffee	-3305
▁vulner	-3306
▁capacity	-3307
▁manufact	-3308
▁biological	-3309
▁communication	-3310
▁infrastructure	-3311
▁fro	-3312
▁ign	-3313
▁mix	-3314
inate	-3315
itted	-3316
▁wide	-3317
uction	-3318
▁chris	-3319
▁symbol	-3320
▁decades	-3321
▁reflect	-3322
▁slightly	-3323
▁spending	-3324
▁mad	-3325
▁tax	-3326
▁oppos	-3327
▁rough	-3328
▁smell	-3329
▁oxygen	-3330
▁diseases	-3331
▁molecules	-3332
ky	-3333
ams	-3334
ises	-3335
arian	-3336
▁frame	-3337
▁devices	-3338
▁sharing	-3339
▁pressure	-3340
ened	-3341
outh	-3342
▁rom	-3343
iforn	-3344
▁iraq	-3345
▁plat	-3346
▁diagn	-3347
▁breast	-3348
▁californ	-3349
▁$	-3350
▁rh	-3351
cope	-3352
▁ske	-3353
▁gard	-3354
▁memory	-3355
▁workers	-3356
ios	-3357
olve	-3358
oper	-3359
▁reco	-3360
▁climb	-3361
▁email	-3362
▁shock	-3363
arm	-3364
key	-3365
iest	-3366
thetic	-3367
▁calls	-3368
▁worst	-3369
▁broken	-3370
▁eating	-3371
▁degrees	-3372
▁daughter	-3373
▁designers	-3374
▁philosoph	-3375
▁tremendous	-3376
aff	-3377
ping	-3378
▁etc	-3379
▁arab	-3380
▁dram	-3381
▁gent	-3382
▁loss	-3383
▁bread	-3384
▁total	-3385
▁10,000	-3386
▁gotten	-3387
▁photos	-3388
▁answers	-3389
▁princip	-3390
▁california	-3391
orge	-3392
used	-3393
▁gar	-3394
rench	-3395
▁lack	-3396
▁paid	-3397
▁rare	-3398
▁trip	-3399
▁cheap	-3400
▁river	-3401
▁custom	-3402
▁deliver	-3403
▁classroom	-3404
val	-3405
▁doub	-3406
▁mamm	-3407
▁surve	-3408
▁foreign	-3409
ami	-3410
▁mort	-3411
▁race	-3412
▁chick	-3413
▁magaz	-3414
▁mexic	-3415
▁notion	-3416
▁window	-3417
▁yellow	-3418
▁creates	-3419
▁hearing	-3420
▁communicate	-3421
▁differences	-3422
ec	-3423
cked	-3424
iers	-3425
apped	-3426
ement	-3427
▁scul	-3428
▁dying	-3429
▁niger	-3430
▁shoot	-3431
osystem	-3432
▁tissue	-3433
▁published	-3434
fr	-3435
anced	-3436
▁hang	-3437
▁teen	-3438
▁vast	-3439
▁agree	-3440
▁corru	-3441
▁visit	-3442
▁applic	-3443
▁lights	-3444
▁noticed	-3445
▁richard	-3446
▁brilliant	-3447
▁ecosystem	-3448
fl	-3449
load	-3450
▁pet	-3451
▁unc	-3452
▁seas	-3453
▁vacc	-3454
▁corner	-3455
▁seemed	-3456
▁mission	-3457
▁commercial	-3458
▁foundation	-3459
▁phenomenon	-3460
▁neighborhood	-3461
ada	-3462
rel	-3463
ores	-3464
othes	-3465
▁band	-3466
▁shop	-3467
▁sick	-3468
▁spee	-3469
▁fellow	-3470
▁farmers	-3471
▁helping	-3472
▁colleagues	-3473
▁responsibility	-3474
kn	-3475
ius	-3476
band	-3477
istry	-3478
▁feels	-3479
▁easily	-3480
▁members	-3481
▁nations	-3482
▁studying	-3483
▁significant	-3484
ef	-3485
und	-3486
▁rot	-3487
icles	-3488
order	-3489
▁cogn	-3490
▁paul	-3491
▁basis	-3492
▁enter	-3493
▁party	-3494
▁photo	-3495
▁double	-3496
▁highly	-3497
▁microb	-3498
▁nearly	-3499
▁unlike	-3500
▁fashion	-3501
▁planets	-3502
▁partners	-3503
▁programs	-3504
ha	-3505
wor	-3506
edia	-3507
▁mit	-3508
orith	-3509
▁giant	-3510
▁gentle	-3511
▁sculpt	-3512
▁turning	-3513
▁algorith	-3514
▁particles	-3515
▁religious	-3516
▁organizations	-3517
ya	-3518
cest	-3519
pped	-3520
term	-3521
▁acad	-3522
▁reve	-3523
▁laugh	-3524
▁novel	-3525
▁conduct	-3526
▁diversity	-3527
▁landscape	-3528
▁imagination	-3529
based	-3530
▁tens	-3531
▁mouth	-3532
▁altern	-3533
▁cooper	-3534
▁reduce	-3535
▁knowing	-3536
▁streets	-3537
▁argument	-3538
aced	-3539
▁amb	-3540
▁cla	-3541
aining	-3542
▁ancest	-3543
▁charge	-3544
▁respond	-3545
▁restaur	-3546
▁efficient	-3547
▁necessarily	-3548
met	-3549
mit	-3550
otic	-3551
▁fab	-3552
▁gun	-3553
arter	-3554
▁russ	-3555
▁prize	-3556
▁surge	-3557
connect	-3558
▁aspect	-3559
▁attempt	-3560
▁choices	-3561
▁stopped	-3562
▁possibility	-3563
▁inj	-3564
▁lin	-3565
stein	-3566
▁forg	-3567
▁narr	-3568
▁stem	-3569
▁paint	-3570
▁bridge	-3571
▁passed	-3572
▁volunt	-3573
▁metaphor	-3574
▁opportunities	-3575
▁relationships	-3576
lim	-3577
ued	-3578
vit	-3579
vity	-3580
▁400	-3581
▁joy	-3582
▁1,000	-3583
▁accom	-3584
▁faces	-3585
▁fully	-3586
▁leads	-3587
▁despite	-3588
▁element	-3589
▁figured	-3590
▁missing	-3591
▁addition	-3592
▁structures	-3593
▁differently	-3594
▁1.	-3595
▁nan	-3596
▁harm	-3597
▁libr	-3598
▁note	-3599
▁tast	-3600
▁analy	-3601
▁motor	-3602
▁brings	-3603
▁resist	-3604
▁austral	-3605
▁traffic	-3606
▁intellect	-3607
▁professor	-3608
▁ultimately	-3609
ees	-3610
off	-3611
▁ug	-3612
hand	-3613
▁ble	-3614
▁reb	-3615
house	-3616
rogen	-3617
▁join	-3618
▁tour	-3619
dimens	-3620
▁lucky	-3621
▁noise	-3622
▁stren	-3623
▁accord	-3624
▁female	-3625
▁spaces	-3626
▁balance	-3627
▁correct	-3628
▁moments	-3629
ification	-3630
▁mathematics	-3631
uing	-3632
▁alt	-3633
▁cru	-3634
▁dol	-3635
idden	-3636
ulous	-3637
▁brand	-3638
▁shift	-3639
▁batter	-3640
▁forever	-3641
▁designer	-3642
ax	-3643
▁que	-3644
print	-3645
▁puzz	-3646
▁shel	-3647
apping	-3648
▁newsp	-3649
▁wheel	-3650
▁lesson	-3651
▁brother	-3652
▁contact	-3653
▁emotion	-3654
▁insight	-3655
▁benefits	-3656
▁emotions	-3657
▁negative	-3658
▁agriculture	-3659
▁ax	-3660
▁ju	-3661
▁fed	-3662
▁pow	-3663
▁tow	-3664
▁cand	-3665
▁foss	-3666
▁helps	-3667
▁invis	-3668
▁fairly	-3669
▁french	-3670
▁virtual	-3671
▁strength	-3672
zen	-3673
aped	-3674
reci	-3675
▁asia	-3676
▁chur	-3677
▁frequ	-3678
▁facebook	-3679
▁background	-3680
ett	-3681
aria	-3682
mark	-3683
raid	-3684
ties	-3685
itely	-3686
▁host	-3687
icking	-3688
▁adapt	-3689
▁bound	-3690
▁pengu	-3691
▁tough	-3692
▁afraid	-3693
▁dollar	-3694
▁slowly	-3695
▁speech	-3696
▁wisdom	-3697
▁related	-3698
▁previous	-3699
▁organisms	-3700
▁suffering	-3701
dimensional	-3702
cop	-3703
▁150	-3704
▁mas	-3705
▁row	-3706
▁adop	-3707
▁astr	-3708
▁edge	-3709
▁lapt	-3710
antage	-3711
▁cloud	-3712
▁diver	-3713
▁fresh	-3714
▁adults	-3715
▁shares	-3716
▁benefit	-3717
▁counter	-3718
▁matters	-3719
▁billions	-3720
▁creatures	-3721
▁engineers	-3722
▁definition	-3723
▁fascinating	-3724
ibr	-3725
head	-3726
▁jew	-3727
▁org	-3728
▁farm	-3729
▁iron	-3730
▁accur	-3731
▁grass	-3732
▁legal	-3733
▁consid	-3734
▁concent	-3735
▁elements	-3736
athy	-3737
eared	-3738
verse	-3739
▁purs	-3740
▁habit	-3741
▁begins	-3742
▁interp	-3743
▁discovery	-3744
▁competition	-3745
osh	-3746
▁fol	-3747
▁spl	-3748
inist	-3749
ipped	-3750
▁boat	-3751
▁bomb	-3752
▁gall	-3753
▁crash	-3754
▁mouse	-3755
▁rapid	-3756
lection	-3757
▁easier	-3758
▁finger	-3759
▁sector	-3760
▁therap	-3761
▁british	-3762
▁hopefully	-3763
▁influence	-3764
▁experiences	-3765
▁civilization	-3766
cles	-3767
ears	-3768
ysis	-3769
▁mur	-3770
icity	-3771
▁cred	-3772
▁meat	-3773
▁offer	-3774
▁walls	-3775
▁weird	-3776
ography	-3777
▁corpor	-3778
▁justice	-3779
▁leading	-3780
▁leaving	-3781
▁typical	-3782
▁fighting	-3783
▁identity	-3784
▁necessary	-3785
▁statistics	-3786
▁institution	-3787
▁bon	-3788
▁hyp	-3789
▁mer	-3790
iable	-3791
oking	-3792
▁core	-3793
▁epid	-3794
▁male	-3795
ifying	-3796
ulated	-3797
▁chann	-3798
▁bright	-3799
▁caught	-3800
▁grandm	-3801
▁target	-3802
ifically	-3803
▁destroy	-3804
▁cognitive	-3805
▁professional	-3806
ica	-3807
tle	-3808
uary	-3809
wide	-3810
▁und	-3811
▁bird	-3812
▁defe	-3813
▁pock	-3814
idents	-3815
▁embra	-3816
▁maint	-3817
▁moves	-3818
▁prior	-3819
▁darwin	-3820
▁fields	-3821
▁meters	-3822
▁install	-3823
ibilities	-3824
▁platform	-3825
▁investment	-3826
▁responsible	-3827
ara	-3828
▁zo	-3829
apse	-3830
▁shr	-3831
orders	-3832
▁brown	-3833
▁quote	-3834
▁subst	-3835
▁demand	-3836
▁expert	-3837
▁appreci	-3838
▁shouldn	-3839
▁magazine	-3840
▁otherwise	-3841
▁importantly	-3842
reg	-3843
roud	-3844
▁hun	-3845
▁mel	-3846
ander	-3847
apers	-3848
▁intu	-3849
▁seat	-3850
▁spot	-3851
▁colors	-3852
▁depart	-3853
▁dreams	-3854
▁raised	-3855
▁sister	-3856
▁insects	-3857
▁describe	-3858
af	-3859
edd	-3860
set	-3861
isco	-3862
▁hate	-3863
▁repe	-3864
▁seed	-3865
atures	-3866
▁lunch	-3867
▁truck	-3868
▁uncle	-3869
▁galaxy	-3870
▁transp	-3871
▁holding	-3872
▁politic	-3873
▁regular	-3874
▁replace	-3875
▁studied	-3876
▁finished	-3877
▁normally	-3878
▁according	-3879
▁principles	-3880
fo	-3881
uls	-3882
ypt	-3883
olds	-3884
▁bul	-3885
▁wow	-3886
throp	-3887
▁avoid	-3888
▁chimp	-3889
▁franc	-3890
▁church	-3891
▁damage	-3892
▁remote	-3893
ographic	-3894
▁artific	-3895
▁husband	-3896
▁organic	-3897
▁engineer	-3898
▁everyday	-3899
▁molecule	-3900
▁childhood	-3901
▁economics	-3902
▁invisible	-3903
▁seriously	-3904
raft	-3905
▁bag	-3906
▁wik	-3907
▁drag	-3908
▁roof	-3909
▁rout	-3910
▁vall	-3911
urally	-3912
▁brief	-3913
▁dolph	-3914
▁degree	-3915
▁yester	-3916
▁capable	-3917
▁require	-3918
▁entirely	-3919
▁opposite	-3920
▁languages	-3921
aker	-3922
roll	-3923
celer	-3924
▁ship	-3925
▁indic	-3926
▁kilom	-3927
▁commit	-3928
▁events	-3929
▁master	-3930
▁compare	-3931
▁protein	-3932
▁airplane	-3933
▁sequence	-3934
▁depression	-3935
la	-3936
lex	-3937
anes	-3938
▁cos	-3939
▁vot	-3940
itter	-3941
▁exch	-3942
uments	-3943
▁apple	-3944
▁argue	-3945
▁egypt	-3946
▁proud	-3947
▁convin	-3948
▁deeply	-3949
▁desire	-3950
ulations	-3951
▁article	-3952
▁creation	-3953
▁concerned	-3954
▁principle	-3955
eg	-3956
ager	-3957
▁dry	-3958
essed	-3959
▁chap	-3960
▁opin	-3961
▁vent	-3962
▁crime	-3963
▁stuck	-3964
▁fortun	-3965
▁fourth	-3966
▁toward	-3967
▁equival	-3968
▁believed	-3969
▁yesterday	-3970
asa	-3971
irt	-3972
atell	-3973
▁bone	-3974
▁disp	-3975
▁flat	-3976
▁soph	-3977
▁beach	-3978
▁exhib	-3979
▁breath	-3980
▁circle	-3981
▁failed	-3982
▁incent	-3983
▁oceans	-3984
▁reward	-3985
▁managed	-3986
▁prototy	-3987
▁station	-3988
▁warming	-3989
▁accident	-3990
▁distance	-3991
▁followed	-3992
▁whenever	-3993
▁institute	-3994
▁increasingly	-3995
cil	-3996
iat	-3997
▁mc	-3998
▁ton	-3999
▁arms	-4000
▁diet	-4001
▁evil	-4002
▁horr	-4003
▁wear	-4004
▁crowd	-4005
▁grown	-4006
▁pages	-4007
▁plane	-4008
▁prote	-4009
▁round	-4010
▁letter	-4011
▁versus	-4012
▁surprise	-4013
▁tomorrow	-4014
▁washington	-4015
▁1,	-4016
airs	-4017
▁era	-4018
▁gal	-4019
illed	-4020
▁nutr	-4021
▁whom	-4022
▁infin	-4023
oration	-4024
▁opened	-4025
▁satell	-4026
▁thinks	-4027
▁charles	-4028
▁failure	-4029
▁theater	-4030
▁separate	-4031
▁perfectly	-4032
▁constantly	-4033
▁electrical	-4034
▁consumption	-4035
lin	-4036
enty	-4037
vant	-4038
xies	-4039
erson	-4040
ortex	-4041
▁coal	-4042
ctions	-4043
▁cycle	-4044
▁attach	-4045
▁harder	-4046
▁pounds	-4047
▁signal	-4048
▁factory	-4049
▁wearing	-4050
col	-4051
▁bush	-4052
▁empt	-4053
▁held	-4054
ensity	-4055
▁hyper	-4056
▁quiet	-4057
▁sport	-4058
ruction	-4059
▁mexico	-4060
▁unless	-4061
▁acceler	-4062
▁highest	-4063
▁mothers	-4064
▁survival	-4065
▁dimensions	-4066
ael	-4067
hab	-4068
mon	-4069
ume	-4070
oses	-4071
▁len	-4072
▁tag	-4073
gment	-4074
▁peak	-4075
▁stim	-4076
▁grain	-4077
▁illness	-4078
▁volunte	-4079
▁weapons	-4080
▁ordinary	-4081
▁advantage	-4082
▁currently	-4083
▁operating	-4084
▁universal	-4085
▁independent	-4086
emy	-4087
fish	-4088
ogen	-4089
roph	-4090
▁bow	-4091
▁fis	-4092
▁saf	-4093
▁van	-4094
craft	-4095
erves	-4096
known	-4097
▁soil	-4098
▁rural	-4099
▁origin	-4100
▁voices	-4101
▁experts	-4102
▁illustr	-4103
▁contract	-4104
▁document	-4105
▁galaxies	-4106
▁resource	-4107
▁intelligent	-4108
▁intellectual	-4109
▁transformation	-4110
oh	-4111
zil	-4112
▁35	-4113
eral	-4114
▁ein	-4115
▁mig	-4116
cking	-4117
point	-4118
▁arts	-4119
▁bear	-4120
▁load	-4121
▁tail	-4122
▁tick	-4123
▁mosqu	-4124
▁steps	-4125
▁teles	-4126
▁tumor	-4127
▁explan	-4128
▁gather	-4129
▁hidden	-4130
▁leaves	-4131
▁drawing	-4132
▁succeed	-4133
▁trained	-4134
▁weather	-4135
▁worried	-4136
▁investig	-4137
▁majority	-4138
▁leadership	-4139
pid	-4140
care	-4141
iors	-4142
▁fif	-4143
▁sen	-4144
uries	-4145
▁abst	-4146
▁agre	-4147
▁click	-4148
▁equal	-4149
▁veget	-4150
issions	-4151
▁battle	-4152
▁brazil	-4153
▁caused	-4154
▁closed	-4155
▁debate	-4156
▁dinner	-4157
▁exists	-4158
▁fossil	-4159
▁garden	-4160
▁implic	-4161
▁inform	-4162
▁motion	-4163
▁shapes	-4164
▁signals	-4165
▁suppose	-4166
▁vehicle	-4167
▁compared	-4168
▁einstein	-4169
▁artificial	-4170
▁corruption	-4171
▁equivalent	-4172
aurs	-4173
▁pac	-4174
▁cosm	-4175
▁hasn	-4176
▁intr	-4177
▁wond	-4178
▁2,000	-4179
▁faith	-4180
▁horse	-4181
▁islam	-4182
entally	-4183
▁sexual	-4184
▁extract	-4185
▁designing	-4186
▁entertain	-4187
▁businesses	-4188
car	-4189
ked	-4190
pan	-4191
agers	-4192
▁ants	-4193
▁bees	-4194
▁exer	-4195
▁lady	-4196
▁rein	-4197
▁shut	-4198
encies	-4199
▁heads	-4200
▁heavy	-4201
▁layer	-4202
▁recon	-4203
▁shoes	-4204
▁circum	-4205
▁muscle	-4206
▁valley	-4207
▁100,000	-4208
▁invited	-4209
▁limited	-4210
▁precise	-4211
▁planning	-4212
▁continent	-4213
▁od	-4214
semb	-4215
▁pip	-4216
riage	-4217
▁anti	-4218
▁puts	-4219
▁warm	-4220
▁wave	-4221
▁holes	-4222
▁negot	-4223
▁stock	-4224
▁paying	-4225
▁malaria	-4226
▁viruses	-4227
▁japanese	-4228
▁strategy	-4229
▁described	-4230
▁mentioned	-4231
▁convention	-4232
▁entrepreneurs	-4233
ino	-4234
▁dip	-4235
▁mat	-4236
▁ange	-4237
▁thom	-4238
▁shall	-4239
▁filled	-4240
▁setting	-4241
▁abstract	-4242
▁feelings	-4243
▁multiple	-4244
▁dinosaurs	-4245
▁worldwide	-4246
▁collective	-4247
▁transition	-4248
▁generations	-4249
20	-4250
ns	-4251
ta	-4252
ham	-4253
cipl	-4254
rupt	-4255
osing	-4256
▁bits	-4257
▁liqu	-4258
▁valu	-4259
▁names	-4260
▁stone	-4261
▁advert	-4262
▁profit	-4263
▁spring	-4264
▁britain	-4265
▁curious	-4266
▁dynamic	-4267
▁michael	-4268
▁interaction	-4269
dy	-4270
new	-4271
ocol	-4272
anted	-4273
essel	-4274
▁fell	-4275
▁grid	-4276
▁jack	-4277
▁kore	-4278
▁lift	-4279
elling	-4280
▁honor	-4281
▁inner	-4282
▁phones	-4283
▁stress	-4284
▁england	-4285
▁radical	-4286
▁treated	-4287
▁emerging	-4288
▁feedback	-4289
▁launched	-4290
▁essential	-4291
▁distribution	-4292
hi	-4293
iot	-4294
mar	-4295
pet	-4296
bble	-4297
▁cow	-4298
asion	-4299
iency	-4300
▁myth	-4301
▁pian	-4302
▁pray	-4303
▁coral	-4304
▁grade	-4305
▁homes	-4306
▁lifet	-4307
▁perce	-4308
▁sites	-4309
▁canada	-4310
▁extend	-4311
▁finish	-4312
▁losing	-4313
▁review	-4314
▁stream	-4315
▁stupid	-4316
▁display	-4317
▁keeping	-4318
▁opening	-4319
▁european	-4320
▁interface	-4321
▁technical	-4322
acle	-4323
▁cha	-4324
▁due	-4325
▁gap	-4326
▁tex	-4327
▁lawy	-4328
▁nerv	-4329
▁concl	-4330
▁belong	-4331
▁select	-4332
▁details	-4333
▁killing	-4334
▁library	-4335
▁disaster	-4336
▁minister	-4337
▁northern	-4338
▁grandmother	-4339
▁consequences	-4340
yl	-4341
▁45	-4342
aked	-4343
▁pil	-4344
▁rat	-4345
▁army	-4346
▁dial	-4347
▁init	-4348
▁poem	-4349
▁pump	-4350
ession	-4351
icated	-4352
ipment	-4353
▁annou	-4354
▁awful	-4355
▁chain	-4356
▁eleph	-4357
▁limit	-4358
▁prime	-4359
▁sugar	-4360
▁teeth	-4361
▁movies	-4362
▁neuros	-4363
▁trials	-4364
▁vessel	-4365
▁appropr	-4366
▁chicken	-4367
▁covered	-4368
▁letters	-4369
▁roughly	-4370
▁pleasure	-4371
▁chemicals	-4372
▁equipment	-4373
▁producing	-4374
▁surprised	-4375
▁associated	-4376
▁democratic	-4377
▁department	-4378
▁lie	-4379
▁mak	-4380
▁wit	-4381
eline	-4382
iques	-4383
▁blow	-4384
▁orch	-4385
▁shif	-4386
▁suit	-4387
pected	-4388
▁aging	-4389
▁sweet	-4390
▁frustr	-4391
▁reform	-4392
▁studio	-4393
▁practical	-4394
ae	-4395
igm	-4396
▁kick	-4397
▁recy	-4398
▁spin	-4399
▁steel	-4400
akistan	-4401
▁player	-4402
▁lessons	-4403
▁nigeria	-4404
▁partner	-4405
▁consumer	-4406
▁spectrum	-4407
▁chemistry	-4408
enn	-4409
lom	-4410
min	-4411
oes	-4412
▁99	-4413
mber	-4414
rest	-4415
ograp	-4416
ublic	-4417
▁hadn	-4418
▁lect	-4419
▁myst	-4420
ipping	-4421
▁fract	-4422
▁james	-4423
▁users	-4424
▁budget	-4425
▁george	-4426
▁leader	-4427
▁dealing	-4428
▁cultures	-4429
▁property	-4430
▁mortality	-4431
▁importance	-4432
▁protection	-4433
ca	-4434
▁atl	-4435
▁haw	-4436
▁hur	-4437
▁nav	-4438
neath	-4439
organ	-4440
▁biom	-4441
▁date	-4442
▁gang	-4443
▁glam	-4444
▁hunt	-4445
▁weak	-4446
▁kenya	-4447
▁stood	-4448
▁liquid	-4449
▁status	-4450
▁whereas	-4451
▁soldiers	-4452
▁thoughts	-4453
▁australia	-4454
▁molecular	-4455
▁kilometers	-4456
▁underneath	-4457
▁effectively	-4458
▁researchers	-4459
▁possibilities	-4460
▁ru	-4461
cend	-4462
lock	-4463
▁disc	-4464
▁lies	-4465
▁silk	-4466
forest	-4467
ushing	-4468
▁daily	-4469
▁empty	-4470
▁estab	-4471
▁flies	-4472
▁kitch	-4473
mission	-4474
▁arrived	-4475
▁battery	-4476
▁married	-4477
▁nervous	-4478
▁congress	-4479
▁pakistan	-4480
▁reaction	-4481
▁mountains	-4482
▁specifically	-4483
▁fal	-4484
place	-4485
▁qual	-4486
▁tall	-4487
▁unex	-4488
▁wars	-4489
▁saved	-4490
▁smile	-4491
▁sharks	-4492
▁sphere	-4493
▁affected	-4494
▁encourage	-4495
▁expression	-4496
▁management	-4497
▁construction	-4498
fit	-4499
mas	-4500
abet	-4501
odes	-4502
▁club	-4503
▁reef	-4504
▁vote	-4505
ension	-4506
▁categ	-4507
▁fewer	-4508
▁folks	-4509
▁initi	-4510
▁height	-4511
▁organs	-4512
▁patent	-4513
▁picked	-4514
▁thomas	-4515
▁twitter	-4516
▁variety	-4517
▁advanced	-4518
▁suggests	-4519
▁valuable	-4520
▁organized	-4521
▁sophistic	-4522
▁considered	-4523
▁mathematical	-4524
ux	-4525
bur	-4526
▁ox	-4527
imin	-4528
life	-4529
▁ing	-4530
▁jan	-4531
▁rub	-4532
▁tan	-4533
▁decl	-4534
▁gift	-4535
▁hung	-4536
acters	-4537
▁goals	-4538
▁ideal	-4539
▁manip	-4540
▁pregn	-4541
▁prove	-4542
▁rates	-4543
▁scene	-4544
▁spoke	-4545
▁factor	-4546
▁winter	-4547
▁calling	-4548
▁gravity	-4549
▁clinical	-4550
▁newspaper	-4551
▁characters	-4552
▁relatively	-4553
▁techniques	-4554
▁alternative	-4555
▁evolutionary	-4556
ago	-4557
zed	-4558
▁cup	-4559
etics	-4560
▁acqu	-4561
▁bull	-4562
▁desk	-4563
▁dots	-4564
▁ends	-4565
▁surf	-4566
rument	-4567
▁buying	-4568
▁cutting	-4569
▁sources	-4570
▁convince	-4571
▁employees	-4572
▁invention	-4573
▁typically	-4574
▁instrument	-4575
▁mathematic	-4576
▁photographs	-4577
mp	-4578
zing	-4579
▁amp	-4580
▁lic	-4581
▁dish	-4582
▁prev	-4583
▁reci	-4584
▁soul	-4585
▁metal	-4586
▁toile	-4587
▁define	-4588
▁former	-4589
▁players	-4590
▁analysis	-4591
▁concentr	-4592
▁epidemic	-4593
▁explains	-4594
▁existence	-4595
▁experienced	-4596
ka	-4597
aled	-4598
▁nar	-4599
▁pun	-4600
▁unp	-4601
▁wat	-4602
ament	-4603
olves	-4604
▁diam	-4605
▁nasa	-4606
▁plus	-4607
▁march	-4608
▁sight	-4609
▁solid	-4610
▁waves	-4611
▁wikip	-4612
▁diplom	-4613
▁houses	-4614
▁medium	-4615
▁replic	-4616
▁kitchen	-4617
▁primary	-4618
▁privile	-4619
▁circumst	-4620
▁generate	-4621
▁identify	-4622
▁lifetime	-4623
▁radiation	-4624
▁perception	-4625
▁restaurant	-4626
▁comfortable	-4627
rs	-4628
cast	-4629
▁gay	-4630
▁pin	-4631
icing	-4632
▁impl	-4633
▁snow	-4634
▁user	-4635
▁conver	-4636
▁ladies	-4637
▁safety	-4638
▁videos	-4639
▁eastern	-4640
▁brothers	-4641
▁republic	-4642
▁sentence	-4643
▁efficiency	-4644
▁represents	-4645
▁vulnerable	-4646
ij	-4647
icy	-4648
▁asp	-4649
▁eld	-4650
▁2008	-4651
▁bran	-4652
▁pure	-4653
▁root	-4654
▁shad	-4655
lation	-4656
▁risks	-4657
▁union	-4658
▁assign	-4659
▁deeper	-4660
▁harvard	-4661
▁pacific	-4662
▁promise	-4663
▁selling	-4664
▁testing	-4665
▁witness	-4666
▁astronom	-4667
▁exchange	-4668
▁marriage	-4669
▁marketing	-4670
▁definitely	-4671
▁introduced	-4672
▁personally	-4673
▁properties	-4674
▁environments	-4675
30	-4676
bre	-4677
eng	-4678
ole	-4679
que	-4680
uel	-4681
▁ens	-4682
▁oct	-4683
▁flex	-4684
▁gain	-4685
▁mand	-4686
▁scen	-4687
▁unus	-4688
▁wine	-4689
▁3,000	-4690
▁occup	-4691
▁serve	-4692
▁compar	-4693
▁driver	-4694
▁laptop	-4695
▁contain	-4696
▁administ	-4697
▁graduate	-4698
▁prepared	-4699
▁proteins	-4700
▁struggle	-4701
▁trillion	-4702
▁behaviors	-4703
▁convinced	-4704
▁emissions	-4705
▁processes	-4706
▁wikipedia	-4707
▁connections	-4708
au	-4709
iel	-4710
▁75	-4711
▁py	-4712
berg	-4713
▁ded	-4714
▁sla	-4715
▁vag	-4716
itals	-4717
orous	-4718
▁alex	-4719
▁bare	-4720
▁cere	-4721
▁maps	-4722
▁mush	-4723
▁pole	-4724
▁remo	-4725
▁swed	-4726
▁chart	-4727
▁input	-4728
▁liked	-4729
▁minim	-4730
▁renew	-4731
▁theme	-4732
ulating	-4733
▁contem	-4734
▁credit	-4735
▁facing	-4736
▁propos	-4737
▁senses	-4738
▁survey	-4739
▁cartoon	-4740
▁cooking	-4741
▁germany	-4742
▁mistake	-4743
▁sending	-4744
▁windows	-4745
▁director	-4746
▁official	-4747
▁requires	-4748
▁generally	-4749
▁naturally	-4750
▁wondering	-4751
▁politicians	-4752
bi	-4753
ov	-4754
za	-4755
anze	-4756
bors	-4757
gets	-4758
irty	-4759
▁ber	-4760
▁sir	-4761
lying	-4762
▁2000	-4763
▁cast	-4764
▁dogs	-4765
▁thin	-4766
▁unit	-4767
▁broke	-4768
▁colon	-4769
▁goods	-4770
▁sympt	-4771
▁analog	-4772
▁bottle	-4773
▁forced	-4774
▁forgot	-4775
▁prefer	-4776
▁solved	-4777
▁applied	-4778
▁command	-4779
▁unusual	-4780
▁visible	-4781
▁watched	-4782
▁expected	-4783
▁location	-4784
▁penguins	-4785
▁received	-4786
▁chimpanze	-4787
▁components	-4788
▁psychology	-4789
nes	-4790
▁ip	-4791
foot	-4792
▁rit	-4793
▁uns	-4794
▁hill	-4795
▁hits	-4796
stream	-4797
▁court	-4798
▁domin	-4799
itarian	-4800
▁critic	-4801
▁inevit	-4802
▁pulled	-4803
▁robert	-4804
▁centers	-4805
▁instrum	-4806
▁opinion	-4807
▁ancestors	-4808
▁carefully	-4809
▁establish	-4810
▁framework	-4811
amb	-4812
rete	-4813
tube	-4814
uits	-4815
▁194	-4816
▁aug	-4817
▁bee	-4818
scale	-4819
▁gulf	-4820
▁hurt	-4821
▁isol	-4822
▁mart	-4823
▁nest	-4824
▁runs	-4825
lement	-4826
olving	-4827
▁aston	-4828
▁reven	-4829
▁advent	-4830
▁blocks	-4831
▁cortex	-4832
▁ingred	-4833
▁member	-4834
▁poetry	-4835
▁circuit	-4836
▁consist	-4837
▁mosquit	-4838
▁musical	-4839
▁carrying	-4840
▁disappear	-4841
▁francisco	-4842
▁pollution	-4843
▁discussion	-4844
▁laboratory	-4845
▁passionate	-4846
▁percentage	-4847
▁collaboration	-4848
da	-4849
han	-4850
rom	-4851
▁bat	-4852
▁bio	-4853
▁cub	-4854
estic	-4855
iring	-4856
porary	-4857
▁horiz	-4858
▁hotel	-4859
▁notes	-4860
▁poore	-4861
▁shame	-4862
▁steve	-4863
▁mirror	-4864
▁rocket	-4865
▁burning	-4866
▁empathy	-4867
▁collapse	-4868
▁mistakes	-4869
▁southern	-4870
▁awareness	-4871
▁computing	-4872
▁hospitals	-4873
▁healthcare	-4874
▁profession	-4875
aren	-4876
cond	-4877
▁les	-4878
▁lou	-4879
lines	-4880
▁wake	-4881
owered	-4882
▁tests	-4883
▁bubble	-4884
▁driven	-4885
▁hoping	-4886
▁depends	-4887
▁encoura	-4888
▁transpl	-4889
▁exercise	-4890
▁hydrogen	-4891
▁internal	-4892
▁interpret	-4893
▁introduce	-4894
▁neighbors	-4895
▁satellite	-4896
▁situations	-4897
▁explanation	-4898
▁inspiration	-4899
urb	-4900
cers	-4901
ingu	-4902
▁hol	-4903
▁budd	-4904
▁ride	-4905
▁stan	-4906
arrass	-4907
▁cards	-4908
▁facts	-4909
▁ought	-4910
▁piano	-4911
▁sides	-4912
▁clever	-4913
▁compos	-4914
▁string	-4915
▁virgin	-4916
▁autonom	-4917
▁capture	-4918
▁closely	-4919
▁dropped	-4920
▁youtube	-4921
▁birthday	-4922
▁microbes	-4923
▁embarrass	-4924
▁interests	-4925
▁destruction	-4926
▁exploration	-4927
▁sophisticated	-4928
down	-4929
onym	-4930
whel	-4931
▁fib	-4932
▁las	-4933
▁pad	-4934
▁wel	-4935
erved	-4936
ucing	-4937
▁1960	-4938
▁cath	-4939
▁eggs	-4940
▁lens	-4941
▁mall	-4942
▁ring	-4943
▁5,000	-4944
▁added	-4945
▁error	-4946
▁resil	-4947
▁ridic	-4948
▁taste	-4949
▁upper	-4950
▁marine	-4951
▁reprod	-4952
▁spider	-4953
▁orchest	-4954
▁quarter	-4955
▁therapy	-4956
▁overwhel	-4957
ih	-4958
vi	-4959
▁adj	-4960
▁jul	-4961
▁mim	-4962
alled	-4963
▁bell	-4964
▁gras	-4965
▁mont	-4966
▁sees	-4967
▁tons	-4968
▁atoms	-4969
▁clinic	-4970
▁severe	-4971
▁comment	-4972
▁courage	-4973
▁include	-4974
▁reached	-4975
▁singing	-4976
▁mushroom	-4977
▁sunlight	-4978
▁wireless	-4979
▁traveling	-4980
▁activities	-4981
▁innovative	-4982
▁meaningful	-4983
▁presentation	-4984
▁transportation	-4985
ox	-4986
cal	-4987
ita	-4988
pes	-4989
cons	-4990
hold	-4991
tech	-4992
uses	-4993
▁dut	-4994
▁rhy	-4995
abled	-4996
iture	-4997
▁1990	-4998
▁asks	-4999
▁cure	-5000
▁exec	-5001
▁nurs	-5002
cience	-5003
▁antib	-5004
▁claim	-5005
▁coord	-5006
▁dynam	-5007
▁satis	-5008
▁split	-5009
▁stret	-5010
▁thick	-5011
▁length	-5012
▁regard	-5013
ographer	-5014
▁afterno	-5015
▁channel	-5016
▁extinct	-5017
▁factors	-5018
▁quantum	-5019
▁reverse	-5020
▁recorded	-5021
▁movements	-5022
▁electronic	-5023
▁productive	-5024
▁combination	-5025
▁educational	-5026
dp	-5027
ula	-5028
keys	-5029
▁aff	-5030
▁cro	-5031
icted	-5032
pping	-5033
▁bath	-5034
▁dece	-5035
▁dere	-5036
▁fert	-5037
▁shar	-5038
anging	-5039
illing	-5040
▁plans	-5041
▁topic	-5042
inction	-5043
▁genius	-5044
▁linked	-5045
▁amounts	-5046
▁cameras	-5047
▁discipl	-5048
▁falling	-5049
▁dramatic	-5050
▁instruct	-5051
▁occasion	-5052
▁wherever	-5053
▁religions	-5054
▁conclusion	-5055
▁technological	-5056
▁q	-5057
cont	-5058
▁jer	-5059
▁mac	-5060
▁max	-5061
▁odd	-5062
sters	-5063
▁2007	-5064
▁corn	-5065
▁crop	-5066
▁diss	-5067
▁fake	-5068
▁mile	-5069
▁resc	-5070
athers	-5071
▁refer	-5072
▁teams	-5073
▁sample	-5074
▁release	-5075
▁surgeon	-5076
▁tonight	-5077
▁vaccine	-5078
▁occurred	-5079
▁paradigm	-5080
▁stronger	-5081
▁algorithms	-5082
▁economists	-5083
▁circumstances	-5084
▁fundamentally	-5085
▁manufacturing	-5086
nced	-5087
ouds	-5088
over	-5089
▁fou	-5090
▁gut	-5091
▁tap	-5092
lands	-5093
oston	-5094
vable	-5095
▁ages	-5096
▁bicy	-5097
▁clip	-5098
▁ears	-5099
▁gree	-5100
▁joke	-5101
▁sets	-5102
▁tape	-5103
iption	-5104
▁clock	-5105
▁cyber	-5106
▁globe	-5107
▁roads	-5108
llywood	-5109
▁clouds	-5110
▁divide	-5111
▁drives	-5112
▁explos	-5113
▁golden	-5114
▁pocket	-5115
▁pollen	-5116
▁strang	-5117
▁combine	-5118
▁conserv	-5119
▁outcome	-5120
▁afternoon	-5121
▁increased	-5122
▁operation	-5123
▁technique	-5124
▁architects	-5125
▁confidence	-5126
500	-5127
oft	-5128
ris	-5129
iend	-5130
onal	-5131
talk	-5132
▁600	-5133
▁gdp	-5134
▁ham	-5135
being	-5136
eness	-5137
metry	-5138
▁span	-5139
▁wash	-5140
ternal	-5141
▁absor	-5142
▁compl	-5143
▁falls	-5144
▁honey	-5145
▁polar	-5146
▁polio	-5147
▁skill	-5148
▁staff	-5149
▁acting	-5150
▁astero	-5151
▁boston	-5152
▁formed	-5153
▁decline	-5154
▁fishing	-5155
▁harvest	-5156
▁rapidly	-5157
abilities	-5158
▁accurate	-5159
▁infected	-5160
▁swimming	-5161
▁gentlemen	-5162
▁behavioral	-5163
▁controlled	-5164
▁unexpected	-5165
war	-5166
▁dh	-5167
▁rw	-5168
abol	-5169
amin	-5170
bage	-5171
grad	-5172
oint	-5173
ront	-5174
uild	-5175
▁beg	-5176
▁phr	-5177
▁sar	-5178
akers	-5179
child	-5180
enced	-5181
▁mere	-5182
▁pill	-5183
▁tube	-5184
▁vert	-5185
▁vibr	-5186
▁bones	-5187
▁curve	-5188
▁memor	-5189
▁advice	-5190
▁corres	-5191
▁fisher	-5192
▁option	-5193
inations	-5194
▁flowers	-5195
▁apparent	-5196
▁combined	-5197
▁confront	-5198
▁creature	-5199
▁measured	-5200
▁tracking	-5201
▁continued	-5202
▁literature	-5203
ek	-5204
▁2.	-5205
▁ze	-5206
osis	-5207
what	-5208
▁ped	-5209
▁sem	-5210
▁chic	-5211
▁furn	-5212
▁gray	-5213
▁milk	-5214
▁pair	-5215
▁poly	-5216
▁till	-5217
▁zone	-5218
ortion	-5219
▁depth	-5220
▁label	-5221
▁plate	-5222
▁prost	-5223
▁shell	-5224
▁signs	-5225
▁storm	-5226
▁whist	-5227
▁encoun	-5228
▁excell	-5229
▁remain	-5230
▁clothes	-5231
▁empower	-5232
▁engaged	-5233
▁evening	-5234
▁feature	-5235
▁regions	-5236
▁scratch	-5237
▁unknown	-5238
▁younger	-5239
connected	-5240
▁existing	-5241
▁features	-5242
▁rational	-5243
▁relevant	-5244
▁romantic	-5245
▁wondered	-5246
▁authority	-5247
▁determine	-5248
▁philosophy	-5249
▁underwater	-5250
▁appropriate	-5251
▁participate	-5252
▁conservation	-5253
▁sustainability	-5254
my	-5255
ras	-5256
van	-5257
vis	-5258
▁22	-5259
▁23	-5260
▁gy	-5261
▁ii	-5262
elly	-5263
▁250	-5264
▁bes	-5265
▁dot	-5266
athan	-5267
▁busy	-5268
▁cens	-5269
▁frag	-5270
▁hide	-5271
▁prem	-5272
isters	-5273
▁keeps	-5274
▁lying	-5275
▁paris	-5276
▁interf	-5277
▁muslim	-5278
▁perman	-5279
▁worlds	-5280
▁defined	-5281
▁funding	-5282
▁intense	-5283
▁islands	-5284
▁monkeys	-5285
▁options	-5286
▁records	-5287
▁horrible	-5288
▁treating	-5289
▁centuries	-5290
▁footprint	-5291
▁spiritual	-5292
▁collection	-5293
▁physically	-5294
▁challenging	-5295
▁instruments	-5296
▁applications	-5297
▁conventional	-5298
hr	-5299
can	-5300
gra	-5301
rus	-5302
sum	-5303
▁du	-5304
▁na	-5305
ctic	-5306
oken	-5307
▁pra	-5308
▁raw	-5309
▁wal	-5310
▁alph	-5311
▁atom	-5312
▁flew	-5313
▁icon	-5314
▁rush	-5315
▁sept	-5316
phones	-5317
profit	-5318
▁haiti	-5319
▁pitch	-5320
▁roots	-5321
▁songs	-5322
▁trend	-5323
▁chocol	-5324
▁deaths	-5325
▁inject	-5326
▁lifest	-5327
▁script	-5328
▁slides	-5329
▁storyt	-5330
▁accompl	-5331
▁chicago	-5332
▁classic	-5333
▁conclud	-5334
▁dancing	-5335
▁defense	-5336
▁embrace	-5337
▁fingers	-5338
▁largely	-5339
▁unclear	-5340
▁violent	-5341
▁presence	-5342
▁component	-5343
▁protected	-5344
▁reference	-5345
▁selection	-5346
▁transformed	-5347
hen	-5348
nda	-5349
spe	-5350
icip	-5351
iled	-5352
▁ven	-5353
itors	-5354
▁1980	-5355
▁2010	-5356
▁elim	-5357
▁golf	-5358
▁lake	-5359
▁loop	-5360
▁scar	-5361
▁stro	-5362
▁tent	-5363
▁admit	-5364
▁dress	-5365
▁expon	-5366
▁recom	-5367
▁handle	-5368
▁latest	-5369
▁ritual	-5370
▁traged	-5371
▁writer	-5372
▁designs	-5373
▁mystery	-5374
▁operate	-5375
▁remains	-5376
▁solving	-5377
▁concrete	-5378
▁election	-5379
▁messages	-5380
▁printing	-5381
▁subjects	-5382
▁transfer	-5383
▁villages	-5384
▁september	-5385
▁mechanical	-5386
▁simplicity	-5387
▁entertainment	-5388
asm	-5389
bra	-5390
oll	-5391
vin	-5392
▁ts	-5393
lymp	-5394
▁bay	-5395
▁tea	-5396
▁bike	-5397
▁gest	-5398
▁hook	-5399
▁ment	-5400
▁pink	-5401
▁tort	-5402
making	-5403
▁cents	-5404
▁doubt	-5405
▁estim	-5406
▁films	-5407
▁obama	-5408
▁pharm	-5409
▁assist	-5410
▁parall	-5411
▁relate	-5412
▁stands	-5413
▁airport	-5414
▁causing	-5415
▁concert	-5416
▁constit	-5417
▁diagram	-5418
▁figures	-5419
▁stretch	-5420
▁victims	-5421
▁concepts	-5422
▁somewhat	-5423
▁narrative	-5424
▁directions	-5425
▁0	-5426
azz	-5427
cut	-5428
nel	-5429
ota	-5430
ums	-5431
▁27	-5432
hour	-5433
▁irr	-5434
orter	-5435
▁axis	-5436
▁boom	-5437
▁geom	-5438
▁jeff	-5439
▁nose	-5440
▁trig	-5441
▁zoom	-5442
father	-5443
▁breed	-5444
▁navig	-5445
▁olymp	-5446
▁rooms	-5447
▁titan	-5448
▁deploy	-5449
▁desper	-5450
▁fright	-5451
▁iphone	-5452
▁portra	-5453
▁prices	-5454
▁earthqu	-5455
▁frankly	-5456
▁neither	-5457
▁parking	-5458
▁celebrate	-5459
▁collected	-5460
▁explained	-5461
▁sculpture	-5462
▁sensitive	-5463
▁potentially	-5464
def	-5465
gers	-5466
ille	-5467
▁hem	-5468
▁tri	-5469
▁tro	-5470
force	-5471
▁2005	-5472
▁bron	-5473
▁dust	-5474
▁plug	-5475
▁pool	-5476
iosity	-5477
▁boxes	-5478
▁delic	-5479
▁illeg	-5480
▁insur	-5481
▁multi	-5482
▁phase	-5483
▁style	-5484
▁walks	-5485
▁boring	-5486
▁heroes	-5487
▁myster	-5488
▁volume	-5489
▁actions	-5490
▁housing	-5491
▁tedtalk	-5492
▁africans	-5493
▁constant	-5494
▁dolphins	-5495
▁magnetic	-5496
▁released	-5497
ologically	-5498
▁functions	-5499
▁identical	-5500
▁recording	-5501
▁telescope	-5502
▁greenhouse	-5503
▁entrepreneur	-5504
▁conversations	-5505
dr	-5506
oo	-5507
den	-5508
sem	-5509
uge	-5510
vas	-5511
anta	-5512
tail	-5513
▁gps	-5514
▁rig	-5515
ended	-5516
esity	-5517
icide	-5518
▁adam	-5519
▁flor	-5520
▁lung	-5521
▁false	-5522
▁flash	-5523
▁knock	-5524
▁peter	-5525
▁recyc	-5526
▁embedd	-5527
▁enable	-5528
▁lovely	-5529
▁papers	-5530
▁careful	-5531
▁chapter	-5532
▁charity	-5533
▁feeding	-5534
▁disorder	-5535
▁hypothes	-5536
▁symmetry	-5537
▁vehicles	-5538
▁paintings	-5539
▁connecting	-5540
▁resistance	-5541
▁implications	-5542
city	-5543
greg	-5544
kind	-5545
llar	-5546
thal	-5547
▁der	-5548
esome	-5549
▁acts	-5550
▁clay	-5551
▁coin	-5552
▁lets	-5553
▁outc	-5554
imeter	-5555
▁bombs	-5556
▁decre	-5557
▁logic	-5558
▁persu	-5559
▁rhyth	-5560
▁smoke	-5561
▁stack	-5562
▁title	-5563
▁weigh	-5564
▁candid	-5565
▁flower	-5566
▁puzzle	-5567
▁russia	-5568
▁stayed	-5569
▁whales	-5570
▁awesome	-5571
▁classes	-5572
▁equation	-5573
▁infinite	-5574
▁instinct	-5575
▁obsessed	-5576
▁required	-5577
▁consumers	-5578
▁exploring	-5579
▁furniture	-5580
▁commitment	-5581
bby	-5582
box	-5583
hol	-5584
iop	-5585
itz	-5586
ests	-5587
irds	-5588
oded	-5589
oned	-5590
well	-5591
▁fan	-5592
oding	-5593
▁limb	-5594
▁tack	-5595
▁champ	-5596
▁chose	-5597
▁liver	-5598
▁shake	-5599
▁toxic	-5600
▁vital	-5601
▁france	-5602
▁hunger	-5603
▁proced	-5604
▁scared	-5605
▁surely	-5606
▁authent	-5607
▁kingdom	-5608
▁obesity	-5609
▁allowing	-5610
▁embedded	-5611
▁chocolate	-5612
▁disorders	-5613
▁implement	-5614
▁inspiring	-5615
▁measuring	-5616
▁distributed	-5617
▁manufacture	-5618
▁automatically	-5619
wr	-5620
ener	-5621
ooth	-5622
▁mes	-5623
owing	-5624
▁cock	-5625
▁cord	-5626
▁dict	-5627
▁flag	-5628
▁jail	-5629
▁adopt	-5630
▁grows	-5631
▁imper	-5632
▁sheep	-5633
▁silic	-5634
▁toler	-5635
▁wings	-5636
▁wired	-5637
▁facial	-5638
▁joined	-5639
▁monkey	-5640
▁owners	-5641
▁uganda	-5642
aneously	-5643
▁balloon	-5644
▁existed	-5645
▁finance	-5646
▁lecture	-5647
▁opposed	-5648
▁contrast	-5649
▁pregnant	-5650
▁symptoms	-5651
▁christmas	-5652
▁economist	-5653
▁mechanism	-5654
▁optimistic	-5655
▁astonishing	-5656
▁dramatically	-5657
va	-5658
agn	-5659
edy	-5660
iox	-5661
heim	-5662
ogue	-5663
rets	-5664
rors	-5665
rous	-5666
tery	-5667
▁ash	-5668
▁jim	-5669
▁tat	-5670
aming	-5671
iform	-5672
iters	-5673
oster	-5674
▁pace	-5675
▁stri	-5676
▁tank	-5677
▁accum	-5678
▁chrom	-5679
▁congo	-5680
▁dense	-5681
▁descr	-5682
▁explo	-5683
▁jelly	-5684
▁judge	-5685
▁orbit	-5686
▁pyram	-5687
▁queen	-5688
▁yield	-5689
anthrop	-5690
▁autism	-5691
▁button	-5692
▁devast	-5693
▁ethiop	-5694
▁fabric	-5695
▁gender	-5696
▁remove	-5697
▁rising	-5698
▁tricks	-5699
etically	-5700
▁carried	-5701
▁divided	-5702
▁happier	-5703
▁herself	-5704
▁islamic	-5705
▁nowhere	-5706
▁vessels	-5707
▁lighting	-5708
▁recovery	-5709
▁arguments	-5710
▁physicist	-5711
▁providing	-5712
▁reduction	-5713
▁statement	-5714
▁interactive	-5715
▁partnership	-5716
▁productivity	-5717
ls	-5718
yal	-5719
▁ub	-5720
aret	-5721
cred	-5722
etch	-5723
▁ate	-5724
▁ray	-5725
▁voc	-5726
acles	-5727
itory	-5728
uting	-5729
▁item	-5730
▁neut	-5731
▁obst	-5732
called	-5733
▁alien	-5734
▁chief	-5735
▁dirty	-5736
▁faced	-5737
▁reput	-5738
▁score	-5739
▁spell	-5740
▁texas	-5741
▁heaven	-5742
▁immune	-5743
▁repair	-5744
▁suffer	-5745
▁advance	-5746
▁breathe	-5747
▁delight	-5748
▁impress	-5749
▁poorest	-5750
▁synthes	-5751
▁illusion	-5752
▁copyright	-5753
▁curiosity	-5754
▁depending	-5755
▁economies	-5756
▁increases	-5757
▁standards	-5758
▁uncertain	-5759
▁microscope	-5760
▁performing	-5761
▁processing	-5762
▁surrounded	-5763
▁transplant	-5764
ua	-5765
gic	-5766
org	-5767
▁36	-5768
lims	-5769
nday	-5770
oons	-5771
▁anx	-5772
belie	-5773
▁1970	-5774
▁chip	-5775
▁dign	-5776
▁elev	-5777
▁glad	-5778
▁loud	-5779
▁ours	-5780
▁pour	-5781
▁subs	-5782
▁aside	-5783
▁colum	-5784
▁enemy	-5785
▁fifth	-5786
▁ghana	-5787
▁hello	-5788
▁latin	-5789
▁plays	-5790
▁tight	-5791
▁uncom	-5792
▁secure	-5793
▁struck	-5794
▁sweden	-5795
▁tested	-5796
▁toilet	-5797
▁collaps	-5798
▁letting	-5799
▁origami	-5800
▁painful	-5801
▁rebuild	-5802
▁samples	-5803
▁silence	-5804
▁touched	-5805
▁meetings	-5806
▁outcomes	-5807
▁shoulder	-5808
▁lifestyle	-5809
▁synthetic	-5810
▁translate	-5811
▁appreciate	-5812
▁controvers	-5813
▁incentives	-5814
▁psychological	-5815
bed	-5816
▁hi	-5817
ardo	-5818
pass	-5819
▁gro	-5820
▁jon	-5821
▁meg	-5822
▁nit	-5823
iders	-5824
▁2009	-5825
▁bold	-5826
▁hack	-5827
▁knee	-5828
▁manh	-5829
▁pand	-5830
dollar	-5831
herent	-5832
▁bible	-5833
▁derek	-5834
▁gates	-5835
▁remem	-5836
▁agreed	-5837
▁assemb	-5838
▁commod	-5839
▁frozen	-5840
▁mainly	-5841
▁paraly	-5842
▁spoken	-5843
▁density	-5844
▁entered	-5845
▁habitat	-5846
▁inspire	-5847
▁savings	-5848
▁silicon	-5849
▁wanting	-5850
▁breaking	-5851
▁distinct	-5852
▁floating	-5853
▁particle	-5854
▁properly	-5855
▁algorithm	-5856
▁destroyed	-5857
▁telephone	-5858
▁virtually	-5859
▁afterwards	-5860
▁journalist	-5861
▁disappeared	-5862
▁interestingly	-5863
lyn	-5864
▁26	-5865
gust	-5866
quar	-5867
uate	-5868
uous	-5869
▁cab	-5870
▁dow	-5871
▁nic	-5872
▁spr	-5873
angle	-5874
▁beer	-5875
▁cash	-5876
▁diox	-5877
▁erad	-5878
▁flip	-5879
▁grab	-5880
▁pupp	-5881
abetes	-5882
▁datab	-5883
▁dozen	-5884
▁korea	-5885
▁rocks	-5886
▁tasks	-5887
▁usual	-5888
▁whale	-5889
▁assume	-5890
▁border	-5891
▁extent	-5892
▁offers	-5893
▁orange	-5894
▁placed	-5895
▁poison	-5896
▁smooth	-5897
▁symmet	-5898
▁chromos	-5899
▁disgust	-5900
▁equally	-5901
▁granted	-5902
▁illegal	-5903
▁muscles	-5904
▁offered	-5905
▁pushing	-5906
▁wheelch	-5907
▁academic	-5908
▁attached	-5909
▁drinking	-5910
▁parallel	-5911
▁precisely	-5912
▁exhibition	-5913
▁advertising	-5914
▁application	-5915
▁vulnerability	-5916
bar	-5917
▁32	-5918
▁ol	-5919
rect	-5920
udes	-5921
wich	-5922
▁bos	-5923
▁toy	-5924
arant	-5925
inder	-5926
stand	-5927
usive	-5928
▁2004	-5929
▁emph	-5930
▁nets	-5931
▁tech	-5932
▁angry	-5933
▁blank	-5934
▁chaos	-5935
▁elder	-5936
▁fixed	-5937
▁manif	-5938
▁pilot	-5939
astroph	-5940
quality	-5941
through	-5942
▁adjust	-5943
▁agenda	-5944
▁filter	-5945
▁hardly	-5946
▁output	-5947
▁palest	-5948
▁phrase	-5949
▁plenty	-5950
▁poster	-5951
▁promot	-5952
▁reject	-5953
▁rwanda	-5954
▁season	-5955
▁appears	-5956
▁attacks	-5957
▁council	-5958
▁diction	-5959
▁footage	-5960
▁metabol	-5961
▁overall	-5962
▁suspect	-5963
▁download	-5964
▁psychiat	-5965
▁shooting	-5966
▁backwards	-5967
▁practices	-5968
▁presented	-5969
▁earthquake	-5970
▁motivation	-5971
▁photography	-5972
aks	-5973
ari	-5974
▁bf	-5975
case	-5976
iday	-5977
rate	-5978
viet	-5979
▁aim	-5980
▁ain	-5981
▁hal	-5982
▁inh	-5983
stage	-5984
▁1950	-5985
▁dear	-5986
▁horm	-5987
▁pile	-5988
▁plot	-5989
▁wing	-5990
▁chest	-5991
▁distr	-5992
▁nobel	-5993
▁sales	-5994
▁schol	-5995
▁tower	-5996
▁agency	-5997
▁amazon	-5998
▁thrown	-5999
▁bicycle	-6000
▁dioxide	-6001
▁federal	-6002
▁muslims	-6003
▁robotic	-6004
▁section	-6005
▁tragedy	-6006
▁appeared	-6007
▁diabetes	-6008
▁elephant	-6009
▁maintain	-6010
▁organism	-6011
▁provided	-6012
▁stanford	-6013
▁breathing	-6014
▁corporate	-6015
▁intuitive	-6016
▁prototype	-6017
▁governance	-6018
▁controlling	-6019
▁populations	-6020
▁probability	-6021
ida	-6022
ifer	-6023
rary	-6024
zero	-6025
▁hat	-6026
▁jes	-6027
attan	-6028
cence	-6029
leton	-6030
▁eleg	-6031
▁sacr	-6032
▁salt	-6033
acular	-6034
arency	-6035
esthes	-6036
usions	-6037
▁disag	-6038
▁guide	-6039
▁humor	-6040
▁links	-6041
▁meter	-6042
▁minor	-6043
▁purch	-6044
▁scary	-6045
▁tries	-6046
▁arrest	-6047
▁behave	-6048
▁legacy	-6049
▁martin	-6050
▁oldest	-6051
▁oxford	-6052
▁refuge	-6053
▁talent	-6054
▁anticip	-6055
▁distant	-6056
▁liberal	-6057
▁license	-6058
▁unbelie	-6059
▁welcome	-6060
▁contains	-6061
▁estimate	-6062
▁provides	-6063
▁reaching	-6064
▁manhattan	-6065
▁privilege	-6066
▁spreading	-6067
▁fascinated	-6068
▁rainforest	-6069
▁consequence	-6070
▁represented	-6071
▁transparency	-6072
▁globalization	-6073
bl	-6074
ev	-6075
ndr	-6076
ola	-6077
▁65	-6078
▁ly	-6079
aint	-6080
kins	-6081
▁ack	-6082
▁ath	-6083
▁gig	-6084
▁gon	-6085
▁ink	-6086
▁obl	-6087
▁ros	-6088
▁unh	-6089
▁wip	-6090
aving	-6091
class	-6092
maker	-6093
ontal	-6094
think	-6095
under	-6096
while	-6097
▁appe	-6098
▁brib	-6099
▁clus	-6100
▁firm	-6101
▁fulf	-6102
▁peer	-6103
▁rent	-6104
▁wise	-6105
▁abund	-6106
▁actor	-6107
▁angle	-6108
▁cambr	-6109
▁fiber	-6110
▁fuels	-6111
▁guard	-6112
▁higgs	-6113
▁opens	-6114
▁spots	-6115
▁units	-6116
▁youth	-6117
▁20,000	-6118
▁adding	-6119
▁intent	-6120
▁limits	-6121
▁neuron	-6122
▁shadow	-6123
▁stable	-6124
▁forests	-6125
▁fortune	-6126
▁january	-6127
▁millenn	-6128
▁imagined	-6129
▁overcome	-6130
▁apartment	-6131
▁calculate	-6132
▁customers	-6133
▁emergency	-6134
▁encounter	-6135
▁microsoft	-6136
▁capitalism	-6137
▁catastroph	-6138
▁grandfather	-6139
▁innovations	-6140
▁personality	-6141
▁spectacular	-6142
omy	-6143
rol	-6144
sey	-6145
▁95	-6146
ding	-6147
ione	-6148
nded	-6149
▁195	-6150
▁nin	-6151
▁sin	-6152
▁twe	-6153
enger	-6154
opher	-6155
power	-6156
tical	-6157
▁beet	-6158
▁rice	-6159
▁ugly	-6160
rained	-6161
▁seats	-6162
▁skull	-6163
▁willi	-6164
▁yours	-6165
iveness	-6166
▁adoles	-6167
▁conven	-6168
▁farmer	-6169
▁hearts	-6170
▁regret	-6171
▁saturn	-6172
▁signed	-6173
▁soviet	-6174
▁theore	-6175
▁weapon	-6176
▁aspects	-6177
▁automob	-6178
▁beliefs	-6179
▁leather	-6180
▁suicide	-6181
▁darkness	-6182
▁district	-6183
▁includes	-6184
▁manifest	-6185
▁memories	-6186
▁secondly	-6187
▁conflicts	-6188
▁describes	-6189
▁accessible	-6190
▁apparently	-6191
▁historical	-6192
▁industries	-6193
▁recognized	-6194
▁reputation	-6195
▁ridiculous	-6196
▁demonstrate	-6197
▁philanthrop	-6198
▁photographer	-6199
mm	-6200
era	-6201
nic	-6202
now	-6203
onic	-6204
▁hen	-6205
▁lun	-6206
acing	-6207
going	-6208
▁2003	-6209
▁athe	-6210
▁buck	-6211
▁caps	-6212
▁cave	-6213
▁clar	-6214
▁hans	-6215
▁poet	-6216
▁aband	-6217
▁carol	-6218
▁drove	-6219
▁foods	-6220
▁reson	-6221
▁smith	-6222
▁upset	-6223
uration	-6224
▁anonym	-6225
▁attrib	-6226
▁crying	-6227
▁curren	-6228
▁landed	-6229
▁narrow	-6230
▁powers	-6231
▁sticks	-6232
▁trends	-6233
▁tribes	-6234
▁cheaper	-6235
▁dignity	-6236
▁guarant	-6237
▁passing	-6238
▁pyramid	-6239
▁raising	-6240
▁achieved	-6241
▁football	-6242
▁involves	-6243
▁morality	-6244
▁sandwich	-6245
▁recommend	-6246
▁searching	-6247
▁boundaries	-6248
▁volunteers	-6249
▁chimpanzees	-6250
▁fortunately	-6251
gl	-6252
pa	-6253
nam	-6254
och	-6255
top	-6256
▁mi	-6257
keep	-6258
lies	-6259
ubes	-6260
archy	-6261
state	-6262
using	-6263
▁cott	-6264
▁dump	-6265
▁emer	-6266
▁fool	-6267
▁gand	-6268
source	-6269
▁cable	-6270
▁conce	-6271
▁crack	-6272
▁craft	-6273
▁finds	-6274
▁flour	-6275
▁laser	-6276
▁naked	-6277
▁pione	-6278
▁sheet	-6279
forward	-6280
▁excuse	-6281
▁negoti	-6282
▁retire	-6283
▁sports	-6284
▁borders	-6285
▁mammals	-6286
▁monitor	-6287
▁removed	-6288
▁speaker	-6289
▁atlantic	-6290
▁facility	-6291
▁speakers	-6292
▁surfaces	-6293
▁textbook	-6294
▁traveled	-6295
▁accidents	-6296
▁christian	-6297
▁continues	-6298
▁elections	-6299
▁elsewhere	-6300
▁intention	-6301
▁musicians	-6302
▁orchestra	-6303
▁permanent	-6304
▁collecting	-6305
▁contribute	-6306
▁explaining	-6307
▁integrated	-6308
▁wheelchair	-6309
▁recognition	-6310
ato	-6311
opy	-6312
▁28	-6313
appy	-6314
fall	-6315
pher	-6316
rich	-6317
uity	-6318
▁ooh	-6319
bally	-6320
worth	-6321
▁2006	-6322
▁cham	-6323
▁cute	-6324
▁publ	-6325
▁refr	-6326
▁viet	-6327
heimer	-6328
itudes	-6329
▁antar	-6330
▁award	-6331
▁cryst	-6332
▁drawn	-6333
▁fears	-6334
▁legis	-6335
▁maxim	-6336
▁relax	-6337
▁stere	-6338
▁ultra	-6339
erences	-6340
iminals	-6341
▁50,000	-6342
▁attend	-6343
▁borrow	-6344
▁colony	-6345
▁escape	-6346
▁evolve	-6347
▁expans	-6348
▁ignore	-6349
▁intrig	-6350
▁layers	-6351
▁neural	-6352
▁sacred	-6353
▁shaped	-6354
▁vagina	-6355
▁volcan	-6356
▁amongst	-6357
▁angeles	-6358
▁consume	-6359
▁initial	-6360
▁reduced	-6361
▁session	-6362
▁aircraft	-6363
▁baseball	-6364
▁dynamics	-6365
▁engaging	-6366
▁ethiopia	-6367
▁vertical	-6368
▁colleague	-6369
▁dedicated	-6370
▁depressed	-6371
▁ecosystems	-6372
▁discoveries	-6373
▁electronics	-6374
▁ingredients	-6375
▁architectural	-6376
wa	-6377
pox	-6378
rog	-6379
tes	-6380
uum	-6381
osen	-6382
oust	-6383
wing	-6384
▁aer	-6385
▁bin	-6386
▁bug	-6387
▁hip	-6388
▁hub	-6389
▁lux	-6390
▁tes	-6391
itous	-6392
▁2001	-6393
▁hire	-6394
▁rely	-6395
▁seek	-6396
▁advoc	-6397
▁digit	-6398
▁exped	-6399
▁fruit	-6400
▁likes	-6401
▁realm	-6402
▁sharp	-6403
▁trash	-6404
▁utter	-6405
▁barrel	-6406
▁chosen	-6407
▁emphas	-6408
▁nurses	-6409
▁phosph	-6410
▁satisf	-6411
▁silent	-6412
▁stores	-6413
▁vacuum	-6414
▁emerged	-6415
▁hanging	-6416
▁pulling	-6417
▁receive	-6418
▁traject	-6419
▁dinosaur	-6420
▁extended	-6421
▁produces	-6422
▁returned	-6423
▁smallpox	-6424
▁stations	-6425
▁committed	-6426
▁separated	-6427
▁affordable	-6428
▁researcher	-6429
▁cooperation	-6430
▁improvement	-6431
ela	-6432
ket	-6433
mal	-6434
illy	-6435
lete	-6436
oran	-6437
road	-6438
▁10-	-6439
▁aes	-6440
▁alz	-6441
▁enh	-6442
▁gir	-6443
▁sel	-6444
▁wol	-6445
esign	-6446
night	-6447
▁acid	-6448
▁bias	-6449
▁debt	-6450
▁ford	-6451
▁frog	-6452
▁leap	-6453
▁mate	-6454
iminal	-6455
▁conve	-6456
▁drill	-6457
▁fluid	-6458
▁proof	-6459
▁scott	-6460
▁sixth	-6461
▁skept	-6462
▁stunt	-6463
▁arctic	-6464
▁capita	-6465
▁cheese	-6466
▁extrem	-6467
▁howard	-6468
▁invite	-6469
▁jewish	-6470
▁locked	-6471
▁repeat	-6472
▁anthrop	-6473
▁briefly	-6474
▁concern	-6475
▁consult	-6476
▁artistic	-6477
▁conclude	-6478
▁controls	-6479
▁focusing	-6480
▁globally	-6481
▁openness	-6482
▁policies	-6483
▁unlikely	-6484
▁alzheimer	-6485
▁cambridge	-6486
▁excellent	-6487
▁generated	-6488
▁terrorism	-6489
▁determined	-6490
▁functional	-6491
▁resilience	-6492
▁underlying	-6493
▁predictions	-6494
▁agricultural	-6495
-1	-6496
aws	-6497
ura	-6498
usi	-6499
zan	-6500
bles	-6501
fast	-6502
list	-6503
rier	-6504
ulse	-6505
▁cas	-6506
▁wet	-6507
izoph	-6508
ville	-6509
▁adap	-6510
▁bars	-6511
▁bubb	-6512
▁june	-6513
▁rose	-6514
semble	-6515
utical	-6516
▁crick	-6517
▁obser	-6518
▁opera	-6519
▁outer	-6520
▁punch	-6521
▁tired	-6522
▁acknow	-6523
▁emerge	-6524
▁margin	-6525
▁observ	-6526
▁rarely	-6527
▁rescue	-6528
▁senior	-6529
▁subtle	-6530
children	-6531
▁aggress	-6532
▁clients	-6533
▁diverse	-6534
▁efforts	-6535
▁florida	-6536
▁instant	-6537
▁lawyers	-6538
▁paradox	-6539
▁sensory	-6540
▁distract	-6541
▁domestic	-6542
▁fabulous	-6543
▁repeated	-6544
▁schizoph	-6545
▁announced	-6546
▁dimension	-6547
▁strangers	-6548
▁engagement	-6549
▁geographic	-6550
▁strategies	-6551
▁treatments	-6552
▁observation	-6553
▁underground	-6554
▁breakthrough	-6555
▁neuroscience	-6556
▁universities	-6557
▁communications	-6558
ups	-6559
▁ba	-6560
▁ng	-6561
emen	-6562
izar	-6563
▁700	-6564
▁gam	-6565
▁gla	-6566
▁sed	-6567
agger	-6568
rical	-6569
▁nurt	-6570
▁pale	-6571
▁palm	-6572
▁tied	-6573
market	-6574
▁bucks	-6575
▁holds	-6576
▁males	-6577
▁route	-6578
▁seeds	-6579
century	-6580
▁degrad	-6581
▁inches	-6582
▁linear	-6583
▁native	-6584
▁scream	-6585
▁settle	-6586
▁sevent	-6587
▁steven	-6588
▁trucks	-6589
▁worker	-6590
esthesia	-6591
▁comprom	-6592
▁ethical	-6593
▁exposed	-6594
▁regener	-6595
▁reports	-6596
aceutical	-6597
▁asteroid	-6598
▁external	-6599
▁hardware	-6600
▁incident	-6601
▁organize	-6602
▁classical	-6603
▁daughters	-6604
▁frequency	-6605
▁hollywood	-6606
▁nutrition	-6607
▁disappoint	-6608
▁originally	-6609
▁protecting	-6610
▁interacting	-6611
▁transparent	-6612
▁instructions	-6613
▁interactions	-6614
▁photographed	-6615
▁surprisingly	-6616
ba	-6617
eda	-6618
▁kb	-6619
aran	-6620
ault	-6621
eday	-6622
iban	-6623
orus	-6624
urse	-6625
viol	-6626
▁120	-6627
▁jam	-6628
▁sav	-6629
▁tip	-6630
▁wil	-6631
amine	-6632
capes	-6633
copes	-6634
iogen	-6635
osure	-6636
ribly	-6637
▁bats	-6638
▁cous	-6639
▁dawn	-6640
▁eric	-6641
▁gore	-6642
▁kiss	-6643
▁neat	-6644
▁orph	-6645
▁tuna	-6646
▁anger	-6647
▁arrow	-6648
▁aspir	-6649
▁audio	-6650
▁bronx	-6651
▁burst	-6652
▁gonna	-6653
▁lifes	-6654
▁nerve	-6655
▁nurse	-6656
▁parli	-6657
▁phant	-6658
▁spark	-6659
ishment	-6660
vention	-6661
▁actors	-6662
▁barely	-6663
▁breaks	-6664
▁fertil	-6665
▁hungry	-6666
▁injury	-6667
▁richer	-6668
▁twenty	-6669
▁circles	-6670
▁methods	-6671
▁parties	-6672
▁persist	-6673
▁prepare	-6674
▁recover	-6675
▁someday	-6676
▁climbing	-6677
▁optimism	-6678
▁reminded	-6679
▁sleeping	-6680
▁gathering	-6681
▁highlight	-6682
▁insurance	-6683
▁teenagers	-6684
▁variation	-6685
▁commission	-6686
▁operations	-6687
▁resolution	-6688
cel	-6689
dle	-6690
ods	-6691
agen	-6692
fold	-6693
iens	-6694
oked	-6695
uces	-6696
▁191	-6697
▁doz	-6698
▁tut	-6699
alian	-6700
flies	-6701
level	-6702
▁bure	-6703
▁jose	-6704
▁laid	-6705
▁lock	-6706
▁mice	-6707
▁rail	-6708
▁susp	-6709
ivered	-6710
▁4,000	-6711
▁crops	-6712
▁flows	-6713
▁genoc	-6714
▁proto	-6715
▁strip	-6716
▁syndr	-6717
▁ubiqu	-6718
▁views	-6719
▁buried	-6720
▁lawyer	-6721
▁mining	-6722
▁spinal	-6723
▁stages	-6724
▁subway	-6725
▁tumors	-6726
▁dolphin	-6727
▁essence	-6728
▁failing	-6729
▁garbage	-6730
▁miracle	-6731
▁painted	-6732
▁picking	-6733
▁promote	-6734
▁reminds	-6735
▁articles	-6736
▁captured	-6737
▁criminal	-6738
▁crossing	-6739
▁figuring	-6740
▁dependent	-6741
▁predicted	-6742
▁parliament	-6743
▁suggesting	-6744
▁reconstruct	-6745
▁schizophren	-6746
▁collaborative	-6747
▁pharmaceutical	-6748
▁characteristics	-6749
aze	-6750
har	-6751
ini	-6752
pre	-6753
ses	-6754
agon	-6755
aust	-6756
ulum	-6757
walk	-6758
west	-6759
▁dop	-6760
▁luc	-6761
▁spa	-6762
gener	-6763
iment	-6764
▁biod	-6765
▁dile	-6766
▁earn	-6767
▁grat	-6768
▁leaf	-6769
▁mail	-6770
▁stun	-6771
▁tony	-6772
▁trop	-6773
▁tsun	-6774
izarre	-6775
soever	-6776
▁abuse	-6777
▁begun	-6778
▁charl	-6779
▁chron	-6780
▁downt	-6781
▁edges	-6782
▁grace	-6783
▁henry	-6784
▁intim	-6785
▁italy	-6786
▁mayor	-6787
▁memes	-6788
▁arrive	-6789
▁curric	-6790
▁decent	-6791
▁domain	-6792
▁funded	-6793
▁missed	-6794
▁pursue	-6795
▁pushed	-6796
▁shrimp	-6797
▁adopted	-6798
▁analyze	-6799
▁bizarre	-6800
▁disturb	-6801
▁fiction	-6802
▁imaging	-6803
▁revenue	-6804
▁sensors	-6805
▁symbols	-6806
▁visited	-6807
▁winning	-6808
▁writers	-6809
▁educated	-6810
▁reducing	-6811
▁reported	-6812
▁forgotten	-6813
▁fortunate	-6814
▁jellyfish	-6815
▁transcend	-6816
▁biologists	-6817
▁initiative	-6818
▁traditions	-6819
▁whatsoever	-6820
▁uncertainty	-6821
▁contemporary	-6822
▁expectations	-6823
▁occasionally	-6824
▁administration	-6825
wl	-6826
ria	-6827
sah	-6828
▁0.	-6829
▁85	-6830
ache	-6831
agos	-6832
bits	-6833
esis	-6834
husi	-6835
ober	-6836
yard	-6837
▁800	-6838
▁sty	-6839
bered	-6840
inson	-6841
▁arth	-6842
▁bump	-6843
▁pigs	-6844
ashing	-6845
ptions	-6846
▁coach	-6847
▁dilem	-6848
▁kills	-6849
▁silly	-6850
▁stops	-6851
▁tears	-6852
▁wider	-6853
igation	-6854
unction	-6855
▁branch	-6856
▁caring	-6857
▁dozens	-6858
▁formal	-6859
▁killer	-6860
▁newton	-6861
▁recess	-6862
▁regime	-6863
▁robust	-6864
▁scales	-6865
▁scenar	-6866
▁scores	-6867
▁simult	-6868
▁skelet	-6869
▁forming	-6870
▁founded	-6871
▁glamour	-6872
▁graphic	-6873
▁october	-6874
▁phantom	-6875
▁portion	-6876
▁shelter	-6877
▁sisters	-6878
▁slavery	-6879
▁taliban	-6880
▁dominant	-6881
▁flexible	-6882
▁perceive	-6883
▁skeleton	-6884
▁syndrome	-6885
▁theories	-6886
▁expanding	-6887
▁explosion	-6888
▁paralyzed	-6889
▁qualities	-6890
▁substance	-6891
▁expectancy	-6892
▁proportion	-6893
▁simulation	-6894
▁struggling	-6895
▁successfully	-6896
hy	-6897
aid	-6898
hop	-6899
ora	-6900
uff	-6901
▁mt	-6902
crib	-6903
icks	-6904
iety	-6905
itan	-6906
▁dun	-6907
▁egg	-6908
▁jet	-6909
▁mri	-6910
▁rio	-6911
▁cats	-6912
▁chop	-6913
▁crew	-6914
▁gate	-6915
▁hier	-6916
▁hind	-6917
▁homo	-6918
▁hors	-6919
▁josh	-6920
▁rats	-6921
▁sits	-6922
▁soup	-6923
ateful	-6924
erable	-6925
mingly	-6926
▁blogs	-6927
▁gorge	-6928
▁helic	-6929
▁loves	-6930
▁owner	-6931
▁tatto	-6932
▁threw	-6933
▁tooth	-6934
▁veter	-6935
▁ending	-6936
▁export	-6937
▁garage	-6938
▁halluc	-6939
▁partly	-6940
▁served	-6941
▁stroke	-6942
▁thresh	-6943
▁tracks	-6944
▁turkey	-6945
chnology	-6946
▁affects	-6947
▁electro	-6948
▁imagery	-6949
▁involve	-6950
▁pointed	-6951
▁pretend	-6952
▁prosper	-6953
▁protest	-6954
▁statist	-6955
▁accepted	-6956
▁agencies	-6957
▁homeless	-6958
▁insights	-6959
▁leverage	-6960
▁shopping	-6961
▁surgeons	-6962
▁delivered	-6963
▁diagnosed	-6964
▁glamorous	-6965
▁intuition	-6966
▁realizing	-6967
▁capability	-6968
▁hypothesis	-6969
▁inevitable	-6970
▁trajectory	-6971
▁computation	-6972
▁restaurants	-6973
▁experimental	-6974
asy	-6975
ecd	-6976
ocr	-6977
,500	-6978
ares	-6979
play	-6980
vest	-6981
▁cig	-6982
▁eve	-6983
▁fer	-6984
▁piz	-6985
▁upd	-6986
chron	-6987
iance	-6988
▁abra	-6989
▁butt	-6990
▁guns	-6991
▁mode	-6992
▁neck	-6993
▁quad	-6994
▁stom	-6995
▁tear	-6996
▁tong	-6997
icious	-6998
iences	-6999
othing	-7000
▁brook	-7001
▁cliff	-7002
▁devil	-7003
▁jesus	-7004
▁moore	-7005
▁plain	-7006
▁redef	-7007
▁restr	-7008
▁spray	-7009
▁tempt	-7010
▁tribe	-7011
▁weeke	-7012
imately	-7013
▁headed	-7014
▁panels	-7015
▁recept	-7016
▁rhythm	-7017
▁citizen	-7018
▁enthusi	-7019
▁helicop	-7020
▁hitting	-7021
▁methane	-7022
▁neander	-7023
▁smarter	-7024
▁warning	-7025
▁attitude	-7026
▁currency	-7027
▁dopamine	-7028
▁graphics	-7029
▁homework	-7030
▁measures	-7031
▁proposed	-7032
▁robotics	-7033
▁shocking	-7034
▁adventure	-7035
▁airplanes	-7036
▁confident	-7037
▁detection	-7038
▁expertise	-7039
▁initially	-7040
▁replicate	-7041
▁elementary	-7042
▁identified	-7043
▁impression	-7044
▁mechanisms	-7045
▁permission	-7046
▁phosphorus	-7047
▁description	-7048
▁unbelievable	-7049
dam	-7050
isa	-7051
toc	-7052
▁dy	-7053
▁pm	-7054
half	-7055
umin	-7056
▁bob	-7057
▁joe	-7058
▁mah	-7059
▁tam	-7060
▁tie	-7061
▁wid	-7062
cohol	-7063
gence	-7064
ostic	-7065
tocin	-7066
▁anat	-7067
▁cake	-7068
▁deaf	-7069
▁dive	-7070
▁febr	-7071
▁glor	-7072
▁indo	-7073
▁lamp	-7074
▁meal	-7075
▁odds	-7076
▁prec	-7077
▁radi	-7078
▁rope	-7079
▁sink	-7080
▁whis	-7081
astics	-7082
engine	-7083
makers	-7084
mented	-7085
parent	-7086
verest	-7087
▁agent	-7088
▁amate	-7089
▁arist	-7090
▁banks	-7091
▁bears	-7092
▁joint	-7093
▁mixed	-7094
▁paras	-7095
▁wheat	-7096
athered	-7097
powered	-7098
saharan	-7099
▁cotton	-7100
▁county	-7101
▁defend	-7102
▁empire	-7103
▁endang	-7104
▁ensure	-7105
▁entrop	-7106
▁eradic	-7107
▁merely	-7108
▁ticket	-7109
▁trains	-7110
▁waters	-7111
fficient	-7112
▁alcohol	-7113
▁disrupt	-7114
▁fastest	-7115
▁pockets	-7116
▁russian	-7117
▁spreads	-7118
▁staying	-7119
▁dialogue	-7120
▁entering	-7121
▁february	-7122
▁fraction	-7123
▁genetics	-7124
▁innocent	-7125
▁magnific	-7126
▁oxytocin	-7127
▁pandemic	-7128
▁breakfast	-7129
▁exception	-7130
▁expansion	-7131
▁immediate	-7132
▁suggested	-7133
▁continuing	-7134
▁mysterious	-7135
▁exponential	-7136
▁genetically	-7137
▁programming	-7138
▁translation	-7139
▁biodiversity	-7140
▁civilizations	-7141
▁grandchildren	-7142
▁institutional	-7143
mo	-7144
ati	-7145
che	-7146
see	-7147
atar	-7148
coln	-7149
free	-7150
izer	-7151
olic	-7152
ship	-7153
▁jar	-7154
▁mud	-7155
▁nom	-7156
adays	-7157
lades	-7158
omics	-7159
▁bend	-7160
▁buff	-7161
▁damn	-7162
▁deli	-7163
▁drew	-7164
▁duck	-7165
▁fung	-7166
▁leon	-7167
▁lone	-7168
▁shan	-7169
▁suck	-7170
▁tone	-7171
encing	-7172
iotics	-7173
minute	-7174
ughter	-7175
urable	-7176
▁array	-7177
▁blame	-7178
▁bored	-7179
▁gotta	-7180
▁insul	-7181
▁physi	-7182
▁shore	-7183
▁treas	-7184
angible	-7185
inarily	-7186
looking	-7187
related	-7188
working	-7189
▁builds	-7190
▁makers	-7191
▁marvel	-7192
▁preval	-7193
▁reveal	-7194
▁tanzan	-7195
▁tragic	-7196
▁besides	-7197
▁bottles	-7198
▁elderly	-7199
▁elected	-7200
▁fragile	-7201
▁highway	-7202
▁hunting	-7203
▁lincoln	-7204
▁tissues	-7205
▁tsunami	-7206
▁channels	-7207
▁connects	-7208
▁interior	-7209
▁keyboard	-7210
▁nowadays	-7211
▁preserve	-7212
▁prostate	-7213
▁synchron	-7214
▁banglades	-7215
▁gradually	-7216
▁improving	-7217
▁passenger	-7218
▁primarily	-7219
▁primitive	-7220
▁sentences	-7221
▁uncomfort	-7222
▁curriculum	-7223
▁facilities	-7224
▁terrorists	-7225
▁ubiquitous	-7226
▁vegetables	-7227
▁discovering	-7228
▁compassionate	-7229
▁professionals	-7230
▁significantly	-7231
▁interpretation	-7232
auc	-7233
iac	-7234
▁3.	-7235
▁rb	-7236
ague	-7237
ails	-7238
apor	-7239
gend	-7240
ghai	-7241
ihad	-7242
onge	-7243
rant	-7244
▁alb	-7245
▁fet	-7246
▁lit	-7247
▁mcd	-7248
burgh	-7249
liest	-7250
▁cert	-7251
▁cows	-7252
▁dies	-7253
▁dung	-7254
▁nick	-7255
▁shit	-7256
▁subt	-7257
▁summ	-7258
▁wedd	-7259
friend	-7260
lessly	-7261
mitted	-7262
umines	-7263
▁armed	-7264
▁brian	-7265
▁buddh	-7266
▁choir	-7267
▁dough	-7268
▁jihad	-7269
▁legit	-7270
▁pizza	-7271
▁recru	-7272
▁spont	-7273
▁winds	-7274
▁comedy	-7275
▁editor	-7276
▁fusion	-7277
▁improv	-7278
▁jumped	-7279
▁needle	-7280
▁perpet	-7281
▁bubbles	-7282
▁charges	-7283
▁convert	-7284
▁crucial	-7285
▁deserve	-7286
▁enlight	-7287
▁enterpr	-7288
▁immense	-7289
▁impacts	-7290
▁johnson	-7291
▁mapping	-7292
▁redwood	-7293
▁restore	-7294
▁serving	-7295
▁covering	-7296
▁december	-7297
▁delivery	-7298
▁distingu	-7299
▁geometry	-7300
▁inventor	-7301
▁plastics	-7302
▁instantly	-7303
▁investing	-7304
▁phenomena	-7305
▁protocell	-7306
▁threshold	-7307
▁dictionary	-7308
▁ecological	-7309
▁endangered	-7310
▁remembered	-7311
▁translated	-7312
ata	-7313
bod	-7314
bow	-7315
enh	-7316
fin	-7317
pos	-7318
chem	-7319
conf	-7320
okes	-7321
▁bol	-7322
▁dys	-7323
▁lee	-7324
▁ner	-7325
▁vit	-7326
opath	-7327
rence	-7328
▁boss	-7329
▁carr	-7330
▁coke	-7331
▁dism	-7332
▁drum	-7333
▁fest	-7334
▁gaps	-7335
▁holy	-7336
▁jane	-7337
▁jazz	-7338
▁junk	-7339
▁toys	-7340
▁comic	-7341
▁delhi	-7342
▁dutch	-7343
▁eaten	-7344
▁greek	-7345
▁koran	-7346
▁marsh	-7347
▁monit	-7348
▁owned	-7349
▁reefs	-7350
▁spill	-7351
▁squee	-7352
▁subur	-7353
▁swiss	-7354
▁twist	-7355
▁30,000	-7356
▁approx	-7357
▁canopy	-7358
▁carpet	-7359
▁chairs	-7360
▁cosmic	-7361
▁fibers	-7362
▁orient	-7363
▁rivers	-7364
▁subsid	-7365
quarters	-7366
▁arguing	-7367
▁ceiling	-7368
▁closing	-7369
▁contrad	-7370
▁entropy	-7371
▁farming	-7372
▁fathers	-7373
▁flowing	-7374
▁horizon	-7375
▁insulin	-7376
▁magical	-7377
▁onstage	-7378
▁penguin	-7379
▁puzzles	-7380
▁rolling	-7381
▁accompan	-7382
▁category	-7383
▁clothing	-7384
▁correspo	-7385
▁downtown	-7386
▁friendly	-7387
▁genocide	-7388
▁gorgeous	-7389
▁historic	-7390
▁isolated	-7391
▁judgment	-7392
▁mosquito	-7393
▁precious	-7394
▁reinvent	-7395
▁sciences	-7396
▁shanghai	-7397
▁tendency	-7398
▁audiences	-7399
▁biosphere	-7400
▁completed	-7401
▁conducted	-7402
▁documents	-7403
▁expecting	-7404
▁extension	-7405
▁gentleman	-7406
▁nutrients	-7407
▁prisoners	-7408
▁procedure	-7409
▁signature	-7410
▁stability	-7411
▁supported	-7412
▁discipline	-7413
▁extinction	-7414
▁profoundly	-7415
▁demographic	-7416
▁conservative	-7417
oe	-7418
vy	-7419
apy	-7420
bul	-7421
mod	-7422
rix	-7423
▁ib	-7424
▁lg	-7425
cycl	-7426
long	-7427
onia	-7428
part	-7429
▁apr	-7430
▁aqu	-7431
▁cyl	-7432
▁fox	-7433
▁jac	-7434
▁kar	-7435
▁sud	-7436
▁voy	-7437
ctica	-7438
eller	-7439
heart	-7440
ifice	-7441
mates	-7442
ogram	-7443
onald	-7444
world	-7445
▁forb	-7446
▁jugg	-7447
▁matt	-7448
▁meme	-7449
▁ngos	-7450
▁rabb	-7451
▁toss	-7452
aneous	-7453
asters	-7454
▁glaci	-7455
▁grasp	-7456
▁ingen	-7457
▁revol	-7458
▁sauce	-7459
▁shots	-7460
▁spons	-7461
▁steam	-7462
▁traum	-7463
tending	-7464
▁acoust	-7465
▁aggreg	-7466
▁andrew	-7467
▁annual	-7468
▁august	-7469
▁crowds	-7470
▁motors	-7471
▁occurs	-7472
▁planes	-7473
▁silver	-7474
▁tackle	-7475
▁academy	-7476
▁analogy	-7477
▁arrange	-7478
▁cancers	-7479
▁drivers	-7480
▁glasses	-7481
▁located	-7482
▁percept	-7483
▁request	-7484
▁routine	-7485
▁spanish	-7486
▁stephen	-7487
▁uniform	-7488
▁database	-7489
▁grateful	-7490
▁informed	-7491
▁musician	-7492
▁pointing	-7493
▁remained	-7494
▁terribly	-7495
▁transmit	-7496
▁wildlife	-7497
▁infection	-7498
▁objective	-7499
▁positions	-7500
▁remaining	-7501
▁antarctica	-7502
▁appearance	-7503
▁assumption	-7504
▁attractive	-7505
▁comparison	-7506
▁compelling	-7507
▁frustrated	-7508
▁inequality	-7509
▁prevention	-7510
▁assumptions	-7511
▁philosopher	-7512
▁intervention	-7513
▁participants	-7514
▁mathematicians	-7515
▁simultaneously	-7516
hh	-7517
cip	-7518
pie	-7519
reh	-7520
cher	-7521
cost	-7522
lson	-7523
ploy	-7524
sell	-7525
wind	-7526
▁bot	-7527
▁ceo	-7528
▁dil	-7529
▁pir	-7530
cript	-7531
itate	-7532
orage	-7533
ynman	-7534
▁batt	-7535
▁bind	-7536
▁bond	-7537
▁brid	-7538
▁chef	-7539
▁dent	-7540
▁dumb	-7541
▁excl	-7542
▁fits	-7543
▁gear	-7544
▁gods	-7545
▁hipp	-7546
▁hong	-7547
▁labs	-7548
▁outs	-7549
▁quit	-7550
active	-7551
americ	-7552
▁ambig	-7553
▁april	-7554
▁cabin	-7555
▁elite	-7556
▁funds	-7557
▁hawai	-7558
▁ratio	-7559
▁shelf	-7560
▁tubes	-7561
▁wound	-7562
section	-7563
▁absorb	-7564
▁burden	-7565
▁comics	-7566
▁correl	-7567
▁freely	-7568
▁insane	-7569
▁manual	-7570
▁nelson	-7571
▁nerves	-7572
▁orphan	-7573
▁propag	-7574
▁shrink	-7575
▁sketch	-7576
▁stones	-7577
▁strike	-7578
▁tunnel	-7579
▁wheels	-7580
interest	-7581
▁abraham	-7582
▁chances	-7583
▁despair	-7584
▁feynman	-7585
▁harness	-7586
▁helpful	-7587
▁luckily	-7588
▁privacy	-7589
▁selfish	-7590
▁stepped	-7591
▁storage	-7592
▁contrary	-7593
▁detailed	-7594
▁gathered	-7595
▁inherent	-7596
▁laughing	-7597
▁presents	-7598
▁scholars	-7599
▁strongly	-7600
▁biologist	-7601
▁elephants	-7602
▁physician	-7603
▁similarly	-7604
▁continents	-7605
▁supporting	-7606
▁approaching	-7607
▁association	-7608
▁established	-7609
▁uncomfortable	-7610
▁interconnected	-7611
▁representation	-7612
hum	-7613
▁55	-7614
▁ak	-7615
▁os	-7616
east	-7617
mill	-7618
quis	-7619
seen	-7620
▁20-	-7621
▁ell	-7622
▁ski	-7623
▁zip	-7624
emics	-7625
oning	-7626
uther	-7627
▁2050	-7628
▁eval	-7629
▁glue	-7630
▁guid	-7631
▁irre	-7632
▁leop	-7633
▁pref	-7634
▁surg	-7635
▁tale	-7636
▁tedx	-7637
▁woke	-7638
▁wolf	-7639
assemb	-7640
cyclop	-7641
▁bless	-7642
▁chips	-7643
▁clint	-7644
▁fires	-7645
▁kevin	-7646
▁panel	-7647
▁pause	-7648
▁shirt	-7649
▁spain	-7650
▁stake	-7651
▁assess	-7652
▁basket	-7653
▁client	-7654
▁convey	-7655
▁cycles	-7656
▁fought	-7657
▁horses	-7658
▁lowest	-7659
▁sheets	-7660
▁traits	-7661
▁closest	-7662
▁demands	-7663
▁engines	-7664
▁gallery	-7665
▁intrins	-7666
▁laptops	-7667
▁offices	-7668
▁powered	-7669
▁profile	-7670
▁pursuit	-7671
▁targets	-7672
▁teenage	-7673
▁wealthy	-7674
▁activist	-7675
▁answered	-7676
▁believes	-7677
▁confused	-7678
▁encyclop	-7679
▁generous	-7680
▁improved	-7681
▁included	-7682
▁offering	-7683
▁refriger	-7684
▁shifting	-7685
▁socially	-7686
▁versions	-7687
▁constrain	-7688
▁headlines	-7689
▁healthier	-7690
otechnology	-7691
▁assignment	-7692
▁bangladesh	-7693
▁infections	-7694
▁constructed	-7695
▁grandparent	-7696
▁experiencing	-7697
▁independence	-7698
▁demonstration	-7699
ki	-7700
bie	-7701
irm	-7702
isy	-7703
oma	-7704
yan	-7705
away	-7706
born	-7707
erer	-7708
onds	-7709
oted	-7710
▁30-	-7711
▁lap	-7712
▁ram	-7713
▁benj	-7714
▁biol	-7715
▁brut	-7716
▁chat	-7717
▁lord	-7718
▁mary	-7719
▁seal	-7720
▁sulf	-7721
▁thus	-7722
▁toes	-7723
▁urge	-7724
▁fluct	-7725
▁glimp	-7726
▁hemis	-7727
▁hired	-7728
▁incor	-7729
▁mimic	-7730
▁peers	-7731
▁pride	-7732
▁royal	-7733
▁shine	-7734
▁steal	-7735
▁valid	-7736
▁yemen	-7737
▁arabic	-7738
▁atomic	-7739
▁ethnic	-7740
▁excess	-7741
▁friday	-7742
▁harbor	-7743
▁joshua	-7744
▁matrix	-7745
▁murder	-7746
▁namely	-7747
▁relief	-7748
▁tempor	-7749
▁tongue	-7750
▁ultras	-7751
▁unable	-7752
▁uncons	-7753
▁widely	-7754
▁wooden	-7755
changing	-7756
▁barrier	-7757
▁beating	-7758
▁beneath	-7759
▁cigaret	-7760
▁colored	-7761
▁ecology	-7762
▁formula	-7763
▁harmony	-7764
▁mandela	-7765
▁patents	-7766
▁printed	-7767
▁terrain	-7768
▁torture	-7769
▁unhappy	-7770
▁william	-7771
▁counting	-7772
▁invested	-7773
▁palestin	-7774
▁reliable	-7775
▁smallest	-7776
▁supplies	-7777
▁worrying	-7778
▁anonymous	-7779
▁delicious	-7780
▁ownership	-7781
▁perceived	-7782
▁performed	-7783
▁recycling	-7784
▁autonomous	-7785
▁expedition	-7786
▁generating	-7787
▁physicists	-7788
▁prosthetic	-7789
▁telescopes	-7790
▁terrifying	-7791
▁authorities	-7792
▁expressions	-7793
▁foundations	-7794
▁limitations	-7795
▁magnificent	-7796
▁technically	-7797
▁transforming	-7798
▁participation	-7799
sp	-7800
uk	-7801
ads	-7802
dig	-7803
leg	-7804
nut	-7805
ona	-7806
▁nu	-7807
abil	-7808
aded	-7809
aine	-7810
neys	-7811
▁amy	-7812
▁dub	-7813
▁gee	-7814
▁gif	-7815
▁inn	-7816
▁kir	-7817
▁tib	-7818
▁tin	-7819
ading	-7820
aland	-7821
allow	-7822
arest	-7823
icial	-7824
otted	-7825
reced	-7826
▁2002	-7827
▁beij	-7828
▁hybr	-7829
▁inch	-7830
▁inex	-7831
▁nuts	-7832
▁tune	-7833
▁wrap	-7834
thirds	-7835
▁balls	-7836
▁brush	-7837
▁fancy	-7838
▁grave	-7839
▁immun	-7840
▁jones	-7841
▁proph	-7842
▁stair	-7843
▁stamp	-7844
▁symph	-7845
▁tends	-7846
▁viral	-7847
▁zones	-7848
▁40,000	-7849
▁column	-7850
▁daniel	-7851
▁fallen	-7852
▁gained	-7853
▁immers	-7854
▁nearby	-7855
▁proven	-7856
▁stimul	-7857
▁sunday	-7858
▁troops	-7859
otherapy	-7860
▁clinton	-7861
▁compete	-7862
▁destiny	-7863
▁dressed	-7864
▁enables	-7865
▁iceland	-7866
▁ongoing	-7867
▁package	-7868
▁reveals	-7869
▁soldier	-7870
▁threats	-7871
▁vietnam	-7872
▁branches	-7873
▁choosing	-7874
▁circuits	-7875
▁interven	-7876
▁purposes	-7877
▁reserves	-7878
▁unpreced	-7879
▁animation	-7880
▁broadcast	-7881
▁empowered	-7882
▁guarantee	-7883
▁incentive	-7884
▁investors	-7885
▁medicines	-7886
▁nonprofit	-7887
▁planetary	-7888
▁predators	-7889
▁radically	-7890
▁volunteer	-7891
▁biolumines	-7892
▁challenged	-7893
▁impressive	-7894
▁influenced	-7895
▁landscapes	-7896
▁newspapers	-7897
▁previously	-7898
▁publishing	-7899
▁threatened	-7900
▁achievement	-7901
▁antibiotics	-7902
▁encouraging	-7903
▁proposition	-7904
▁surrounding	-7905
▁unconscious	-7906
▁capabilities	-7907
▁personalized	-7908
▁mathematician	-7909
▁unprecedented	-7910
▁extraordinarily	-7911
200	-7912
nis	-7913
▁kh	-7914
▁ss	-7915
▁uh	-7916
itar	-7917
made	-7918
mart	-7919
▁350	-7920
▁ech	-7921
▁hut	-7922
▁nam	-7923
▁nap	-7924
▁spo	-7925
▁via	-7926
ashed	-7927
aters	-7928
etric	-7929
grade	-7930
oline	-7931
press	-7932
riers	-7933
umber	-7934
umble	-7935
▁bosn	-7936
▁cass	-7937
▁cher	-7938
▁cree	-7939
▁fate	-7940
▁file	-7941
▁lean	-7942
▁mike	-7943
▁nano	-7944
▁pear	-7945
▁seti	-7946
▁unem	-7947
▁welf	-7948
▁alpha	-7949
▁badly	-7950
▁camps	-7951
▁civic	-7952
▁coinc	-7953
▁defic	-7954
▁embry	-7955
▁excit	-7956
▁herit	-7957
▁incom	-7958
▁inhab	-7959
▁knife	-7960
▁larry	-7961
▁loose	-7962
▁lungs	-7963
▁maker	-7964
▁marry	-7965
▁overl	-7966
▁remix	-7967
▁santa	-7968
▁sched	-7969
▁shout	-7970
▁tiles	-7971
▁wires	-7972
▁worms	-7973
▁amazed	-7974
▁burned	-7975
▁curves	-7976
▁dragon	-7977
▁errors	-7978
▁insist	-7979
▁parach	-7980
▁shakes	-7981
▁speaks	-7982
▁victim	-7983
▁200,000	-7984
▁anxiety	-7985
▁aristot	-7986
▁bureauc	-7987
▁deliber	-7988
▁dilemma	-7989
▁hardest	-7990
▁implant	-7991
▁indones	-7992
▁minimum	-7993
▁observe	-7994
▁passive	-7995
▁peoples	-7996
▁printer	-7997
▁proceed	-7998
▁profits	-7999
▁propose	-8000
▁reactor	-8001
▁readers	-8002
▁shepher	-8003
▁simpler	-8004
▁smiling	-8005
▁strands	-8006
▁tension	-8007
▁texting	-8008
▁trigger	-8009
▁bathroom	-8010
▁colonies	-8011
▁decrease	-8012
▁disabled	-8013
▁earliest	-8014
▁listened	-8015
▁redesign	-8016
▁suffered	-8017
▁tanzania	-8018
▁virginia	-8019
▁affecting	-8020
▁collapsed	-8021
▁factories	-8022
▁miserable	-8023
▁obstacles	-8024
▁responses	-8025
▁sensation	-8026
▁disability	-8027
▁illustrate	-8028
▁remarkably	-8029
▁spacecraft	-8030
▁yourselves	-8031
▁neuroscient	-8032
▁theoretical	-8033
▁connectivity	-8034
▁grandparents	-8035
▁visualization	-8036
boo	-8037
bye	-8038
eds	-8039
lfr	-8040
tra	-8041
via	-8042
▁33	-8043
▁dv	-8044
abul	-8045
char	-8046
iler	-8047
illa	-8048
▁shy	-8049
aches	-8050
aping	-8051
copic	-8052
iated	-8053
orden	-8054
stone	-8055
▁2011	-8056
▁ampl	-8057
▁bags	-8058
▁carl	-8059
▁coch	-8060
▁enem	-8061
▁genu	-8062
▁july	-8063
▁loan	-8064
▁mesh	-8065
▁mini	-8066
▁mold	-8067
▁murd	-8068
▁pige	-8069
▁sale	-8070
▁stew	-8071
gments	-8072
ulsion	-8073
▁camel	-8074
▁divor	-8075
▁immig	-8076
▁laure	-8077
▁lever	-8078
▁membr	-8079
▁numer	-8080
▁parks	-8081
▁rehab	-8082
▁scans	-8083
▁screw	-8084
▁ships	-8085
▁slums	-8086
▁trace	-8087
illance	-8088
itating	-8089
▁butter	-8090
▁columb	-8091
▁covers	-8092
▁diving	-8093
▁foster	-8094
▁helium	-8095
▁kidney	-8096
▁luxury	-8097
▁scenes	-8098
▁static	-8099
▁strict	-8100
▁summit	-8101
▁thread	-8102
▁voting	-8103
▁wright	-8104
american	-8105
andering	-8106
controll	-8107
▁corrupt	-8108
▁creator	-8109
▁cricket	-8110
▁cybercr	-8111
▁educate	-8112
▁elegant	-8113
▁iranian	-8114
▁italian	-8115
▁officer	-8116
▁rethink	-8117
▁secrets	-8118
▁shocked	-8119
▁shortly	-8120
▁welfare	-8121
▁altitude	-8122
▁backyard	-8123
▁benjamin	-8124
▁calculus	-8125
▁calories	-8126
▁cartoons	-8127
▁disagree	-8128
▁dropping	-8129
▁equality	-8130
▁failures	-8131
▁overhead	-8132
▁replaced	-8133
▁stunning	-8134
▁substant	-8135
▁unemploy	-8136
▁agreement	-8137
▁attitudes	-8138
▁authentic	-8139
▁competing	-8140
▁deception	-8141
▁electrons	-8142
▁emergence	-8143
▁locations	-8144
▁magnitude	-8145
▁mechanics	-8146
▁renewable	-8147
▁additional	-8148
▁approaches	-8149
▁automobile	-8150
▁categories	-8151
▁classrooms	-8152
▁consistent	-8153
▁mainstream	-8154
▁narratives	-8155
▁consciously	-8156
▁marketplace	-8157
▁historically	-8158
▁psychologist	-8159
▁storytelling	-8160
▁neighborhoods	-8161
▁psychologists	-8162
ava	-8163
izz	-8164
pat	-8165
▁29	-8166
gent	-8167
ilty	-8168
ipts	-8169
prod	-8170
umes	-8171
xual	-8172
▁mol	-8173
▁obt	-8174
anged	-8175
clock	-8176
field	-8177
izers	-8178
licit	-8179
lings	-8180
phere	-8181
▁1900	-8182
▁bono	-8183
▁calm	-8184
▁clue	-8185
▁cube	-8186
▁demo	-8187
▁dirt	-8188
▁enzy	-8189
▁jung	-8190
▁mumb	-8191
▁nove	-8192
▁rick	-8193
▁sail	-8194
▁scot	-8195
▁unle	-8196
itated	-8197
mental	-8198
▁bills	-8199
▁boats	-8200
▁cruel	-8201
▁deals	-8202
▁depos	-8203
▁doors	-8204
▁flick	-8205
▁gases	-8206
▁grabb	-8207
▁indig	-8208
▁leban	-8209
▁meals	-8210
▁miner	-8211
▁rings	-8212
▁safer	-8213
▁squid	-8214
▁taxes	-8215
ressing	-8216
▁estate	-8217
▁joseph	-8218
▁marath	-8219
▁metric	-8220
▁rating	-8221
▁recipe	-8222
▁selves	-8223
▁sensor	-8224
▁summar	-8225
▁upload	-8226
▁absence	-8227
▁enemies	-8228
▁follows	-8229
▁lottery	-8230
▁origins	-8231
▁playful	-8232
▁reserve	-8233
▁smoking	-8234
▁strings	-8235
▁teaches	-8236
▁wedding	-8237
▁applying	-8238
▁diameter	-8239
▁drawings	-8240
▁electrom	-8241
▁honestly	-8242
▁leonardo	-8243
▁mobility	-8244
▁navigate	-8245
▁peaceful	-8246
▁portrait	-8247
▁relation	-8248
▁scanning	-8249
▁surgical	-8250
▁throwing	-8251
▁candidate	-8252
▁comparing	-8253
▁correctly	-8254
▁dominated	-8255
▁equations	-8256
▁interrupt	-8257
▁preparing	-8258
▁recession	-8259
▁succeeded	-8260
▁surgeries	-8261
▁convenient	-8262
▁excitement	-8263
▁inevitably	-8264
▁intriguing	-8265
▁reflection	-8266
▁competitive	-8267
▁contributed	-8268
▁interviewed	-8269
▁predictable	-8270
▁concentrated	-8271
▁corporations	-8272
▁embarrassing	-8273
▁philanthropy	-8274
▁schizophrenia	-8275
▁straightforward	-8276
ga	-8277
tt	-8278
gie	-8279
ias	-8280
ima	-8281
udi	-8282
asty	-8283
bled	-8284
pond	-8285
▁ads	-8286
▁awk	-8287
▁bam	-8288
▁jaw	-8289
▁kam	-8290
▁kle	-8291
▁kos	-8292
▁moz	-8293
▁orb	-8294
▁pla	-8295
▁rod	-8296
eries	-8297
isons	-8298
peare	-8299
▁bern	-8300
▁bulb	-8301
▁cape	-8302
▁cuts	-8303
▁dood	-8304
▁infl	-8305
▁lion	-8306
▁migr	-8307
▁nich	-8308
▁shoe	-8309
▁turk	-8310
ifting	-8311
inging	-8312
▁align	-8313
▁delay	-8314
▁donor	-8315
▁fault	-8316
▁illum	-8317
▁jewel	-8318
▁lingu	-8319
▁minus	-8320
▁outdo	-8321
▁picks	-8322
▁pills	-8323
▁probe	-8324
▁ridge	-8325
▁schem	-8326
▁spare	-8327
▁watts	-8328
ascular	-8329
▁accent	-8330
▁albert	-8331
▁claims	-8332
▁cultiv	-8333
▁flavor	-8334
▁girlfr	-8335
▁habits	-8336
▁hunter	-8337
▁retina	-8338
▁surviv	-8339
▁tables	-8340
▁tasman	-8341
▁temple	-8342
▁victor	-8343
▁winner	-8344
▁adapted	-8345
▁awkward	-8346
▁bedroom	-8347
▁chamber	-8348
▁cluster	-8349
▁compreh	-8350
▁condoms	-8351
▁courses	-8352
▁enjoyed	-8353
▁genuine	-8354
▁gesture	-8355
▁healing	-8356
▁ignored	-8357
▁retreat	-8358
▁stomach	-8359
▁accounts	-8360
▁adoption	-8361
▁advances	-8362
▁angiogen	-8363
▁carolina	-8364
▁contempl	-8365
▁cylinder	-8366
▁division	-8367
▁exposure	-8368
▁fragment	-8369
▁hopeless	-8370
▁proposal	-8371
▁sometime	-8372
▁switched	-8373
▁batteries	-8374
▁distances	-8375
▁installed	-8376
▁meanwhile	-8377
▁microbial	-8378
▁mushrooms	-8379
▁reactions	-8380
▁temporary	-8381
▁aggressive	-8382
▁compromise	-8383
▁difficulty	-8384
▁friendship	-8385
▁helicopter	-8386
▁hemisphere	-8387
▁interviews	-8388
▁medication	-8389
▁prediction	-8390
▁reasonable	-8391
▁devastating	-8392
▁electromagn	-8393
▁frightening	-8394
▁shakespeare	-8395
▁supermarket	-8396
▁calculations	-8397
▁surveillance	-8398
▁transmission	-8399
▁transformative	-8400
gy	-8401
ja	-8402
ali	-8403
cin	-8404
law	-8405
net	-8406
▁bm	-8407
▁pc	-8408
cure	-8409
erey	-8410
ergy	-8411
ette	-8412
etti	-8413
irts	-8414
oric	-8415
pled	-8416
▁bip	-8417
▁lew	-8418
▁pit	-8419
▁une	-8420
eding	-8421
ested	-8422
ifact	-8423
ighth	-8424
inery	-8425
matic	-8426
sized	-8427
▁anno	-8428
▁asth	-8429
▁bowl	-8430
▁hint	-8431
▁kong	-8432
▁pier	-8433
▁pitt	-8434
▁sett	-8435
▁sons	-8436
▁ties	-8437
▁ward	-8438
ancing	-8439
comput	-8440
iances	-8441
lihood	-8442
▁anten	-8443
▁conqu	-8444
▁drown	-8445
▁embod	-8446
▁erect	-8447
▁fence	-8448
▁fried	-8449
▁hopes	-8450
▁index	-8451
▁inhib	-8452
▁items	-8453
▁juice	-8454
▁laden	-8455
▁lions	-8456
▁lobby	-8457
▁pants	-8458
▁satur	-8459
▁scaff	-8460
▁thumb	-8461
▁vivid	-8462
▁wrist	-8463
▁deadly	-8464
▁guilty	-8465
▁loving	-8466
▁masses	-8467
▁nathan	-8468
▁outbre	-8469
▁pencil	-8470
▁posted	-8471
▁upside	-8472
standing	-8473
▁bridges	-8474
▁congest	-8475
▁doubled	-8476
▁halfway	-8477
▁mindset	-8478
▁nearest	-8479
▁neutral	-8480
▁passage	-8481
▁resolve	-8482
▁rewards	-8483
▁scanner	-8484
▁artifact	-8485
▁boundary	-8486
▁breeding	-8487
▁customer	-8488
▁enjoying	-8489
▁explicit	-8490
▁kindness	-8491
▁monterey	-8492
▁nigerian	-8493
▁nitrogen	-8494
▁november	-8495
▁pleasant	-8496
▁promised	-8497
▁skeletal	-8498
▁spinning	-8499
▁striking	-8500
▁visually	-8501
▁amazingly	-8502
▁bacterial	-8503
▁believing	-8504
▁diplomacy	-8505
▁estimates	-8506
▁favorites	-8507
▁indonesia	-8508
▁intensity	-8509
▁occurring	-8510
▁residents	-8511
▁secretary	-8512
▁approached	-8513
▁engineered	-8514
▁likelihood	-8515
▁regardless	-8516
▁renewables	-8517
▁retirement	-8518
▁structural	-8519
▁variations	-8520
▁legislation	-8521
▁encyclopedia	-8522
▁humanitarian	-8523
▁communicating	-8524
▁systematically	-8525
oy	-8526
py	-8527
tz	-8528
ado	-8529
glo	-8530
hea	-8531
nik	-8532
oli	-8533
▁eb	-8534
▁ky	-8535
▁si	-8536
▁tu	-8537
alog	-8538
mind	-8539
mony	-8540
outs	-8541
rane	-8542
rist	-8543
▁bor	-8544
▁coc	-8545
▁ire	-8546
▁pic	-8547
▁sew	-8548
▁sne	-8549
▁syl	-8550
adian	-8551
alend	-8552
anges	-8553
ching	-8554
chool	-8555
creat	-8556
etown	-8557
irect	-8558
osity	-8559
rodes	-8560
▁bust	-8561
▁coat	-8562
▁extr	-8563
▁mixt	-8564
▁neoc	-8565
▁penn	-8566
▁sole	-8567
▁util	-8568
▁vice	-8569
arians	-8570
weight	-8571
▁6,000	-8572
▁alarm	-8573
▁artic	-8574
▁brows	-8575
▁bulbs	-8576
▁cares	-8577
▁clubs	-8578
▁crush	-8579
▁cyrus	-8580
▁drops	-8581
▁farms	-8582
▁feeds	-8583
▁gross	-8584
▁inher	-8585
▁intro	-8586
▁juven	-8587
▁param	-8588
▁perip	-8589
▁shred	-8590
essions	-8591
▁aliens	-8592
▁arthur	-8593
▁binary	-8594
▁campus	-8595
▁contam	-8596
▁crimes	-8597
▁dating	-8598
▁gandhi	-8599
▁grades	-8600
▁iconic	-8601
▁intact	-8602
▁legend	-8603
▁livest	-8604
▁magnet	-8605
▁manner	-8606
▁marrow	-8607
▁mumbai	-8608
▁rubber	-8609
▁stored	-8610
▁topics	-8611
▁unseen	-8612
▁beijing	-8613
▁biomass	-8614
▁everest	-8615
▁females	-8616
▁folding	-8617
▁genomes	-8618
▁glimpse	-8619
▁goodbye	-8620
▁israeli	-8621
▁locally	-8622
▁nonviol	-8623
▁reaches	-8624
▁seventh	-8625
▁venture	-8626
▁whistle	-8627
▁zealand	-8628
▁approved	-8629
▁catholic	-8630
▁consumed	-8631
▁coverage	-8632
▁democrat	-8633
▁glorious	-8634
▁intended	-8635
▁literacy	-8636
▁minority	-8637
▁multiply	-8638
▁predator	-8639
▁scenario	-8640
▁selected	-8641
▁survived	-8642
▁symphony	-8643
▁transist	-8644
▁underest	-8645
▁aesthetic	-8646
▁eliminate	-8647
▁household	-8648
▁mosquitos	-8649
▁portraits	-8650
▁realistic	-8651
▁sacrifice	-8652
▁strategic	-8653
▁tolerance	-8654
▁correspond	-8655
▁electrodes	-8656
▁frequently	-8657
▁phenomenal	-8658
▁suggestion	-8659
▁ultrasound	-8660
▁overwhelmed	-8661
ym	-8662
▁+	-8663
ani	-8664
gue	-8665
hal	-8666
lor	-8667
nat	-8668
rey	-8669
rid	-8670
▁37	-8671
▁ga	-8672
ador	-8673
aeda	-8674
edge	-8675
page	-8676
plus	-8677
rade	-8678
take	-8679
utan	-8680
▁190	-8681
▁dim	-8682
▁ego	-8683
▁hay	-8684
▁huh	-8685
▁ibm	-8686
▁kin	-8687
▁rib	-8688
▁seb	-8689
▁tid	-8690
abeth	-8691
atoes	-8692
berry	-8693
digit	-8694
enses	-8695
eting	-8696
human	-8697
ifies	-8698
itzer	-8699
ivial	-8700
ncing	-8701
onaut	-8702
▁2020	-8703
▁bite	-8704
▁croc	-8705
▁dean	-8706
▁ende	-8707
▁heal	-8708
▁melt	-8709
▁mood	-8710
▁rect	-8711
▁ster	-8712
▁tags	-8713
▁turt	-8714
icient	-8715
orters	-8716
▁cheat	-8717
▁diarr	-8718
▁fatal	-8719
▁femin	-8720
▁freak	-8721
▁grant	-8722
▁ignor	-8723
▁longe	-8724
▁obese	-8725
▁penet	-8726
▁stead	-8727
▁sweat	-8728
▁voted	-8729
▁woods	-8730
itative	-8731
thetics	-8732
▁assets	-8733
▁behold	-8734
▁calend	-8735
▁canvas	-8736
▁corals	-8737
▁denial	-8738
▁firing	-8739
▁hiding	-8740
▁recall	-8741
▁rotate	-8742
▁themes	-8743
▁unfold	-8744
▁artwork	-8745
▁carries	-8746
▁charlie	-8747
▁damaged	-8748
▁deepest	-8749
▁digging	-8750
▁enhance	-8751
▁exhaust	-8752
▁exploit	-8753
▁filling	-8754
▁heading	-8755
▁hopeful	-8756
▁indians	-8757
▁ireland	-8758
▁logical	-8759
▁maximum	-8760
▁optical	-8761
▁scaling	-8762
▁stewart	-8763
▁heritage	-8764
▁administr	-8765
▁graduated	-8766
▁integrate	-8767
▁intensive	-8768
▁longevity	-8769
▁motivated	-8770
▁parkinson	-8771
▁seemingly	-8772
▁statistic	-8773
▁territory	-8774
▁vegetable	-8775
forestation	-8776
▁continuous	-8777
▁encouraged	-8778
▁manipulate	-8779
▁monitoring	-8780
▁organizing	-8781
▁physicians	-8782
▁psychopath	-8783
▁journalists	-8784
▁realization	-8785
▁understands	-8786
▁angiogenesis	-8787
▁contribution	-8788
▁installation	-8789
▁philosophers	-8790
▁approximately	-8791
▁concentration	-8792
▁philosophical	-8793
aa	-8794
sa	-8795
tr	-8796
ano	-8797
eel	-8798
mun	-8799
▁31	-8800
▁lu	-8801
fire	-8802
imag	-8803
lers	-8804
pack	-8805
pend	-8806
▁192	-8807
▁jay	-8808
▁kat	-8809
actic	-8810
ansas	-8811
aware	-8812
icked	-8813
inity	-8814
ormal	-8815
pring	-8816
▁1930	-8817
▁abed	-8818
▁blah	-8819
▁foie	-8820
▁grim	-8821
▁hamb	-8822
▁incl	-8823
▁pays	-8824
▁prol	-8825
▁rome	-8826
▁sake	-8827
▁stad	-8828
▁tact	-8829
▁temp	-8830
▁unst	-8831
▁vary	-8832
driven	-8833
unting	-8834
▁algae	-8835
▁asian	-8836
▁chase	-8837
▁craig	-8838
▁ethic	-8839
▁hills	-8840
▁kosov	-8841
▁octop	-8842
▁penal	-8843
▁recre	-8844
▁saudi	-8845
▁sends	-8846
▁supre	-8847
▁agents	-8848
▁behalf	-8849
▁berlin	-8850
▁cambod	-8851
▁cattle	-8852
▁copied	-8853
▁copies	-8854
▁infant	-8855
▁intric	-8856
▁korean	-8857
▁modest	-8858
▁purple	-8859
▁render	-8860
▁safely	-8861
▁shifts	-8862
▁slower	-8863
▁smells	-8864
▁strain	-8865
▁sylvia	-8866
▁wilson	-8867
▁wishes	-8868
cription	-8869
▁broader	-8870
▁chronic	-8871
▁clinics	-8872
▁cocaine	-8873
▁committ	-8874
▁commons	-8875
▁crossed	-8876
▁dancers	-8877
▁hormone	-8878
▁hostile	-8879
▁labeled	-8880
▁landing	-8881
▁periods	-8882
▁rituals	-8883
▁sectors	-8884
▁trapped	-8885
▁whoever	-8886
▁alphabet	-8887
▁announce	-8888
▁arrested	-8889
▁assemble	-8890
▁concerns	-8891
▁deployed	-8892
▁findings	-8893
▁gasoline	-8894
▁managers	-8895
▁olympics	-8896
▁prisoner	-8897
▁randomly	-8898
▁shepherd	-8899
▁simplest	-8900
▁teenager	-8901
▁vaccines	-8902
▁websites	-8903
▁abundance	-8904
▁aristotle	-8905
▁commodity	-8906
▁criminals	-8907
▁dictators	-8908
▁hierarchy	-8909
▁livestock	-8910
▁reasoning	-8911
▁sequences	-8912
▁undergrad	-8913
▁adolescent	-8914
▁chromosome	-8915
▁destroying	-8916
▁determines	-8917
▁irrational	-8918
▁projection	-8919
▁prosperity	-8920
▁beautifully	-8921
▁cooperative	-8922
▁distinction	-8923
▁introduction	-8924
▁observations	-8925
▁overwhelming	-8926
▁computational	-8927
▁controversial	-8928
▁accountability	-8929
tw	-8930
ila	-8931
imb	-8932
urd	-8933
wan	-8934
▁48	-8935
▁72	-8936
▁ku	-8937
▁yo	-8938
aken	-8939
iots	-8940
real	-8941
rend	-8942
step	-8943
ules	-8944
▁12-	-8945
▁15-	-8946
▁awe	-8947
▁gad	-8948
▁hug	-8949
▁lem	-8950
▁rip	-8951
▁sco	-8952
elled	-8953
ffect	-8954
orted	-8955
▁alan	-8956
▁apps	-8957
▁belt	-8958
▁brad	-8959
▁cany	-8960
▁coup	-8961
▁dian	-8962
▁dick	-8963
▁eliz	-8964
▁logo	-8965
▁mant	-8966
▁mask	-8967
▁mast	-8968
▁mild	-8969
▁oven	-8970
▁sexy	-8971
boards	-8972
itable	-8973
orient	-8974
▁1,500	-8975
▁acids	-8976
▁blink	-8977
▁blown	-8978
▁brave	-8979
▁cared	-8980
▁entry	-8981
▁ethan	-8982
▁gains	-8983
▁harry	-8984
▁hydro	-8985
▁indus	-8986
▁lanes	-8987
▁mines	-8988
▁pulls	-8989
▁revel	-8990
▁simon	-8991
▁sizes	-8992
▁stays	-8993
▁sweep	-8994
▁tiger	-8995
▁yeast	-8996
conduct	-8997
enhagen	-8998
itivity	-8999
keepers	-9000
ounding	-9001
▁60,000	-9002
▁beetle	-9003
▁cables	-9004
▁cathed	-9005
▁census	-9006
▁grocer	-9007
▁guitar	-9008
▁hawaii	-9009
▁horror	-9010
▁hybrid	-9011
▁norden	-9012
▁pigeon	-9013
▁proved	-9014
▁revers	-9015
▁compute	-9016
▁cooling	-9017
▁descend	-9018
▁enabled	-9019
▁founder	-9020
▁heating	-9021
▁mankind	-9022
▁staring	-9023
▁technic	-9024
▁useless	-9025
▁autonomy	-9026
▁barriers	-9027
▁brooklyn	-9028
▁catching	-9029
▁diarrhea	-9030
▁evolving	-9031
▁expanded	-9032
▁intimacy	-9033
▁lifespan	-9034
▁mcdonald	-9035
▁opinions	-9036
▁revealed	-9037
▁stereoty	-9038
▁tedtalks	-9039
▁touching	-9040
▁triangle	-9041
▁abandoned	-9042
▁attracted	-9043
▁blindness	-9044
▁elizabeth	-9045
▁filmmaker	-9046
▁formation	-9047
▁greenland	-9048
▁machinery	-9049
▁parachute	-9050
▁parenting	-9051
▁reflected	-9052
▁reproduce	-9053
▁resistant	-9054
▁textbooks	-9055
▁workforce	-9056
▁chimpanzee	-9057
▁conceptual	-9058
▁copenhagen	-9059
▁ingredient	-9060
▁practicing	-9061
▁professors	-9062
▁satellites	-9063
▁sufficient	-9064
▁investments	-9065
▁programmers	-9066
▁republicans	-9067
▁accomplished	-9068
▁collectively	-9069
▁continuously	-9070
▁demonstrated	-9071
▁measurements	-9072
▁significance	-9073
▁temperatures	-9074
alt	-9075
dis	-9076
ena	-9077
ete	-9078
gal	-9079
hah	-9080
idi	-9081
lar	-9082
oen	-9083
vol	-9084
▁42	-9085
▁46	-9086
▁96	-9087
▁98	-9088
▁jh	-9089
ason	-9090
aves	-9091
bean	-9092
enth	-9093
igma	-9094
laim	-9095
olen	-9096
omic	-9097
word	-9098
▁1.2	-9099
▁130	-9100
▁193	-9101
▁abd	-9102
▁jur	-9103
▁sah	-9104
▁yog	-9105
asses	-9106
pless	-9107
restr	-9108
thals	-9109
ulses	-9110
▁1998	-9111
▁1999	-9112
▁aims	-9113
▁beam	-9114
▁buzz	-9115
▁deck	-9116
▁dose	-9117
▁eats	-9118
▁epis	-9119
▁fles	-9120
▁germ	-9121
▁ipod	-9122
▁keys	-9123
▁peel	-9124
▁rape	-9125
▁ross	-9126
▁whoa	-9127
aching	-9128
alysis	-9129
global	-9130
olitan	-9131
racies	-9132
▁bench	-9133
▁caves	-9134
▁couch	-9135
▁crows	-9136
▁fever	-9137
▁frogs	-9138
▁lewis	-9139
▁lifel	-9140
▁pairs	-9141
▁paste	-9142
▁raped	-9143
▁risky	-9144
▁sarah	-9145
▁straw	-9146
▁trips	-9147
ictions	-9148
onsense	-9149
osexual	-9150
perform	-9151
theless	-9152
umented	-9153
▁athlet	-9154
▁beaten	-9155
▁bother	-9156
▁chains	-9157
▁contag	-9158
▁criter	-9159
▁digest	-9160
▁grains	-9161
▁hambur	-9162
▁lifted	-9163
▁nightm	-9164
▁orders	-9165
▁passes	-9166
▁prince	-9167
▁queens	-9168
▁sebast	-9169
▁stolen	-9170
▁tattoo	-9171
▁truths	-9172
▁ventil	-9173
ventions	-9174
▁acquire	-9175
▁banking	-9176
▁desktop	-9177
▁farther	-9178
▁leopard	-9179
▁olympic	-9180
▁screens	-9181
▁seeking	-9182
▁shorter	-9183
▁supreme	-9184
▁travels	-9185
▁utterly	-9186
▁annivers	-9187
▁assembly	-9188
▁detector	-9189
▁hometown	-9190
▁incorpor	-9191
▁intimate	-9192
▁magician	-9193
▁mentally	-9194
▁ministry	-9195
▁recycled	-9196
▁scaffold	-9197
▁terrific	-9198
▁tropical	-9199
▁youngest	-9200
▁alexander	-9201
▁associate	-9202
▁bacterium	-9203
▁celebrity	-9204
▁convicted	-9205
▁diagnosis	-9206
▁platforms	-9207
▁reporting	-9208
▁shoulders	-9209
▁terrified	-9210
▁universes	-9211
▁anesthesia	-9212
▁congestion	-9213
▁enormously	-9214
▁horizontal	-9215
▁meditation	-9216
▁politician	-9217
▁privileged	-9218
▁profitable	-9219
▁prototypes	-9220
▁separation	-9221
▁sequencing	-9222
▁acknowledge	-9223
▁chromosomes	-9224
▁concentrate	-9225
▁desperately	-9226
▁destination	-9227
▁frequencies	-9228
▁integration	-9229
▁recognizing	-9230
▁specialized	-9231
▁symmetrical	-9232
▁neanderthals	-9233
▁nevertheless	-9234
▁interventions	-9235
bag	-9236
iro	-9237
kin	-9238
lon	-9239
low	-9240
opa	-9241
ran	-9242
▁38	-9243
▁bh	-9244
▁gi	-9245
▁iv	-9246
alem	-9247
anas	-9248
burg	-9249
celi	-9250
ithm	-9251
oral	-9252
oton	-9253
plic	-9254
star	-9255
▁ade	-9256
▁adh	-9257
▁cad	-9258
▁esc	-9259
▁fda	-9260
▁kit	-9261
▁lak	-9262
▁por	-9263
▁sie	-9264
▁usa	-9265
asive	-9266
enous	-9267
ierra	-9268
inent	-9269
inger	-9270
inter	-9271
oenix	-9272
ogens	-9273
▁1994	-9274
▁alas	-9275
▁anth	-9276
▁biof	-9277
▁blew	-9278
▁coca	-9279
▁curt	-9280
▁dare	-9281
▁debr	-9282
▁depr	-9283
▁kidn	-9284
▁milo	-9285
▁odor	-9286
▁soap	-9287
▁spat	-9288
▁sput	-9289
▁twin	-9290
▁vene	-9291
▁wore	-9292
celium	-9293
culiar	-9294
enance	-9295
income	-9296
person	-9297
uation	-9298
uctive	-9299
▁acute	-9300
▁ambit	-9301
▁chile	-9302
▁cloth	-9303
▁demos	-9304
▁dread	-9305
▁flesh	-9306
▁jacqu	-9307
▁lists	-9308
▁marks	-9309
▁mater	-9310
▁milky	-9311
▁mobil	-9312
▁patri	-9313
▁roofs	-9314
▁sands	-9315
▁seals	-9316
▁shops	-9317
▁texts	-9318
▁tibet	-9319
▁wiped	-9320
▁yards	-9321
frontal	-9322
▁25,000	-9323
▁alumin	-9324
▁apolog	-9325
▁apples	-9326
▁argues	-9327
▁bosnia	-9328
▁buddha	-9329
▁bullet	-9330
▁combat	-9331
▁config	-9332
▁copper	-9333
▁divers	-9334
▁donors	-9335
▁eighth	-9336
▁famine	-9337
▁fundra	-9338
▁johnny	-9339
▁kicked	-9340
▁metrop	-9341
▁noneth	-9342
▁packed	-9343
▁presum	-9344
▁retail	-9345
▁riding	-9346
▁shoots	-9347
breaking	-9348
▁authors	-9349
▁belongs	-9350
▁chasing	-9351
▁fantasy	-9352
▁gardens	-9353
▁happily	-9354
▁injured	-9355
▁neglect	-9356
▁planned	-9357
▁pouring	-9358
▁premise	-9359
▁refugee	-9360
▁sensing	-9361
▁shifted	-9362
▁streams	-9363
▁telecom	-9364
▁texture	-9365
▁trivial	-9366
▁accuracy	-9367
▁ceremony	-9368
▁chapters	-9369
▁cheating	-9370
▁friction	-9371
▁helpless	-9372
▁jonathan	-9373
▁marathon	-9374
▁momentum	-9375
▁mutation	-9376
▁mycelium	-9377
▁nonsense	-9378
▁peculiar	-9379
▁prescrib	-9380
▁protocol	-9381
▁sidewalk	-9382
▁thrilled	-9383
▁embracing	-9384
▁expressed	-9385
▁judgments	-9386
▁officials	-9387
▁witnessed	-9388
▁accelerate	-9389
▁celebrated	-9390
▁disappears	-9391
▁girlfriend	-9392
▁constraints	-9393
▁correlation	-9394
▁nonetheless	-9395
▁politically	-9396
▁unfortunate	-9397
▁accelerating	-9398
▁authenticity	-9399
▁constitution	-9400
▁coordination	-9401
▁economically	-9402
▁hallucinations	-9403
ni	-9404
aby	-9405
fly	-9406
hot	-9407
ira	-9408
log	-9409
mes	-9410
oto	-9411
pal	-9412
sea	-9413
uts	-9414
▁ny	-9415
▁oy	-9416
acre	-9417
bing	-9418
etal	-9419
four	-9420
iful	-9421
isan	-9422
mile	-9423
offs	-9424
oman	-9425
omin	-9426
pper	-9427
qual	-9428
reen	-9429
ucks	-9430
▁han	-9431
▁haz	-9432
▁hir	-9433
▁lam	-9434
▁naz	-9435
▁reh	-9436
▁ren	-9437
▁tox	-9438
aired	-9439
bling	-9440
holds	-9441
▁2030	-9442
▁beef	-9443
▁bugs	-9444
▁epip	-9445
▁jews	-9446
▁jord	-9447
▁lawn	-9448
▁lego	-9449
▁puff	-9450
▁scal	-9451
▁sher	-9452
▁thor	-9453
▁velo	-9454
▁wins	-9455
elines	-9456
iatric	-9457
minded	-9458
tering	-9459
▁apoll	-9460
▁belly	-9461
▁boost	-9462
▁carib	-9463
▁clips	-9464
▁crude	-9465
▁float	-9466
▁incon	-9467
▁infer	-9468
▁panic	-9469
▁patch	-9470
▁plank	-9471
▁poems	-9472
▁reass	-9473
▁relat	-9474
▁retro	-9475
▁slice	-9476
▁tunis	-9477
▁unint	-9478
faction	-9479
version	-9480
▁12,000	-9481
▁cataly	-9482
▁dishes	-9483
▁elabor	-9484
▁empath	-9485
▁execut	-9486
▁lonely	-9487
▁mentor	-9488
▁metals	-9489
▁philip	-9490
▁pollut	-9491
▁portug	-9492
▁prepar	-9493
▁priest	-9494
▁sooner	-9495
▁strand	-9496
▁triang	-9497
▁unfair	-9498
▁warmer	-9499
▁worthy	-9500
▁assumed	-9501
▁blowing	-9502
▁charter	-9503
▁climbed	-9504
▁corners	-9505
▁counted	-9506
▁default	-9507
▁fulfill	-9508
▁lebanon	-9509
▁liberty	-9510
▁manager	-9511
▁melting	-9512
▁mirrors	-9513
▁octopus	-9514
▁phoenix	-9515
▁prostit	-9516
▁reclaim	-9517
▁secular	-9518
▁segment	-9519
▁shining	-9520
▁squares	-9521
▁strikes	-9522
▁toilets	-9523
▁trusted	-9524
▁attacked	-9525
▁interpre	-9526
▁lectures	-9527
▁observed	-9528
▁operates	-9529
▁pathways	-9530
▁receptor	-9531
▁sticking	-9532
▁talented	-9533
ographical	-9534
▁ambitious	-9535
▁collision	-9536
▁desperate	-9537
▁disasters	-9538
▁estimated	-9539
▁negotiate	-9540
▁overnight	-9541
▁receiving	-9542
▁workplace	-9543
▁accomplish	-9544
▁addressing	-9545
▁apartments	-9546
▁candidates	-9547
▁christians	-9548
▁dependence	-9549
▁enterprise	-9550
▁households	-9551
▁indigenous	-9552
▁inventions	-9553
▁millennium	-9554
▁millimeter	-9555
▁networking	-9556
▁symmetries	-9557
▁anniversary	-9558
▁astronomers	-9559
▁composition	-9560
▁distinguish	-9561
▁documentary	-9562
▁embarrassed	-9563
▁emotionally	-9564
▁palestinian	-9565
▁replacement	-9566
▁revolutions	-9567
▁stimulation	-9568
▁storyteller	-9569
▁appreciation	-9570
▁chemotherapy	-9571
▁headquarters	-9572
▁improvements	-9573
▁scientifically	-9574
-2	-9575
.5	-9576
bc	-9577
eu	-9578
ald	-9579
bot	-9580
kyo	-9581
wid	-9582
▁2,	-9583
▁86	-9584
asha	-9585
chel	-9586
crim	-9587
five	-9588
igan	-9589
olar	-9590
teen	-9591
udge	-9592
unks	-9593
▁aur	-9594
▁cul	-9595
▁fog	-9596
▁jup	-9597
▁pav	-9598
apore	-9599
ccoli	-9600
ength	-9601
heads	-9602
iolet	-9603
piece	-9604
proof	-9605
raine	-9606
speed	-9607
storm	-9608
▁belo	-9609
▁bert	-9610
▁blur	-9611
▁carp	-9612
▁enab	-9613
▁entr	-9614
▁geck	-9615
▁lays	-9616
▁lith	-9617
▁offs	-9618
▁pean	-9619
▁perm	-9620
▁piss	-9621
▁rays	-9622
▁rust	-9623
▁solo	-9624
▁symp	-9625
▁toll	-9626
stairs	-9627
usalem	-9628
vasive	-9629
▁advis	-9630
▁banjo	-9631
▁consp	-9632
▁cream	-9633
▁decom	-9634
▁fifty	-9635
▁folds	-9636
▁hated	-9637
▁irony	-9638
▁laund	-9639
▁manus	-9640
▁messy	-9641
▁resur	-9642
▁sadly	-9643
▁simul	-9644
▁towns	-9645
imeters	-9646
▁boards	-9647
▁disney	-9648
▁equals	-9649
▁equity	-9650
▁exotic	-9651
▁exquis	-9652
▁format	-9653
▁league	-9654
▁mature	-9655
▁mixing	-9656
▁multin	-9657
▁nights	-9658
▁occupy	-9659
▁tagged	-9660
▁timing	-9661
▁traces	-9662
▁upward	-9663
▁viscer	-9664
computer	-9665
culation	-9666
restrial	-9667
▁150,000	-9668
▁antenna	-9669
▁atlanta	-9670
▁consens	-9671
▁copying	-9672
▁counsel	-9673
▁devoted	-9674
▁forgive	-9675
▁grabbed	-9676
▁honored	-9677
▁jupiter	-9678
▁linking	-9679
▁mexican	-9680
▁monster	-9681
▁needles	-9682
▁nucleus	-9683
▁pricing	-9684
▁primate	-9685
▁rehabil	-9686
▁rockets	-9687
▁seattle	-9688
▁spiders	-9689
▁sputnik	-9690
▁submers	-9691
▁switzer	-9692
▁talents	-9693
▁trading	-9694
▁upright	-9695
▁visions	-9696
▁wrapped	-9697
▁acquired	-9698
▁aluminum	-9699
▁anderson	-9700
▁broccoli	-9701
▁buddhist	-9702
▁cocktail	-9703
▁compound	-9704
▁deserves	-9705
▁explored	-9706
▁forecast	-9707
▁indicate	-9708
▁innovate	-9709
▁pipeline	-9710
▁primates	-9711
▁priority	-9712
▁reporter	-9713
▁seawater	-9714
▁sexually	-9715
▁symbolic	-9716
▁treasure	-9717
▁variable	-9718
▁activists	-9719
▁astronomy	-9720
▁breakdown	-9721
▁committee	-9722
▁converted	-9723
▁democrats	-9724
▁illusions	-9725
▁isolation	-9726
▁jerusalem	-9727
▁obsession	-9728
▁relatives	-9729
▁resilient	-9730
▁responded	-9731
▁sebastian	-9732
▁singapore	-9733
▁visualize	-9734
▁assistance	-9735
▁convincing	-9736
▁delivering	-9737
▁documented	-9738
▁frightened	-9739
▁imperative	-9740
▁infectious	-9741
▁powerpoint	-9742
▁presenting	-9743
▁preventing	-9744
▁priorities	-9745
▁propaganda	-9746
▁punishment	-9747
▁sanitation	-9748
▁systematic	-9749
▁accompanied	-9750
▁corporation	-9751
▁corresponds	-9752
▁frustration	-9753
▁functioning	-9754
▁instruction	-9755
▁preparation	-9756
▁switzerland	-9757
▁catastrophic	-9758
▁prescription	-9759
▁authoritarian	-9760
▁multinational	-9761
99	-9762
bu	-9763
fi	-9764
nn	-9765
mat	-9766
rah	-9767
▁97	-9768
▁cd	-9769
▁dj	-9770
▁oz	-9771
▁wk	-9772
alay	-9773
bird	-9774
eyed	-9775
inas	-9776
itis	-9777
mate	-9778
nake	-9779
omed	-9780
rock	-9781
size	-9782
ylac	-9783
zler	-9784
▁ark	-9785
▁bib	-9786
▁cod	-9787
▁dum	-9788
▁dvd	-9789
▁eru	-9790
▁hmm	-9791
▁jun	-9792
▁kim	-9793
▁mum	-9794
▁osc	-9795
▁pou	-9796
▁rab	-9797
▁unw	-9798
▁veg	-9799
▁von	-9800
▁wre	-9801
arded	-9802
brush	-9803
front	-9804
olera	-9805
ouses	-9806
quate	-9807
▁2012	-9808
▁apes	-9809
▁aunt	-9810
▁beck	-9811
▁beds	-9812
▁cope	-9813
▁cups	-9814
▁dave	-9815
▁goat	-9816
▁gran	-9817
▁marg	-9818
▁prey	-9819
▁quar	-9820
▁verb	-9821
erving	-9822
normal	-9823
vering	-9824
verted	-9825
▁alert	-9826
▁arbit	-9827
▁blast	-9828
▁bribe	-9829
▁bruce	-9830
▁clues	-9831
▁codes	-9832
▁decor	-9833
▁favel	-9834
▁ghost	-9835
▁knees	-9836
▁lexic	-9837
▁loses	-9838
▁louis	-9839
▁meets	-9840
▁naive	-9841
▁namib	-9842
▁norms	-9843
▁pulse	-9844
▁rains	-9845
▁susan	-9846
▁tanks	-9847
▁tokyo	-9848
▁wells	-9849
ulative	-9850
umbling	-9851
▁allies	-9852
▁asthma	-9853
▁astrol	-9854
▁brands	-9855
▁counts	-9856
▁crocod	-9857
▁debris	-9858
▁divine	-9859
▁ethics	-9860
▁graphs	-9861
▁gravit	-9862
▁hurric	-9863
▁julian	-9864
▁kosovo	-9865
▁nether	-9866
▁pestic	-9867
▁prayer	-9868
▁precip	-9869
▁psycho	-9870
▁reader	-9871
▁sierra	-9872
▁singer	-9873
▁stabil	-9874
▁thylac	-9875
▁tribal	-9876
function	-9877
▁anatomy	-9878
▁babbage	-9879
▁budgets	-9880
▁buttons	-9881
▁charged	-9882
▁chemist	-9883
▁cholera	-9884
▁coastal	-9885
▁drought	-9886
▁earning	-9887
▁ethanol	-9888
▁francis	-9889
▁grocery	-9890
▁heavily	-9891
▁himalay	-9892
▁inhabit	-9893
▁mixture	-9894
▁pathway	-9895
▁penalty	-9896
▁philipp	-9897
▁pleased	-9898
▁praying	-9899
▁rosling	-9900
▁squared	-9901
▁	-9902
e	-9903
t	-9904
a	-9905
o	-9906
i	-9907
s	-9908
n	-9909
r	-9910
h	-9911
l	-9912
d	-9913
u	-9914
c	-9915
p	-9916
m	-9917
w	-9918
y	-9919
g	-9920
f	-9921
,	-9922
b	-9923
.	-9924
v	-9925
k	-9926
;	-9927
&	-9928
-	-9929
q	-9930
x	-9931
j	-9932
0	-9933
?	-9934
z	-9935
1	-9936
:	-9937
2	-9938
9	-9939
5	-9940
3	-9941
4	-9942
8	-9943
6	-9944
7	-9945
#	-9946
!	-9947
/	-9948
—	-9949
$	-9950
é	-9951
+	-9952
á	-9953
)	-9954
í	-9955
%	-9956
@	-9957
ö	-9958
–	-9959
ó	-9960
=	-9961
è	-9962
(	-9963
ü	-9964
ä	-9965
^	-9966
_	-9967
ã	-9968
â	-9969
ç	-9970
ê	-9971
อ	-9972
*	-9973
	-9974
	-9975
ñ	-9976
£	-9977
à	-9978
ø	-9979
ā	-9980
ย	-9981
ร	-9982
่	-9983
\	-9984
ë	-9985
ï	-9986
ô	-9987
ú	-9988
ă	-9989
ć	-9990
ē	-9991
ť	-9992
€	-9993
你	-9994
葱	-9995
送	-9996
