<unk>	0
<s>	0
</s>	0
▁t	-0
▁a	-1
in	-2
he	-3
re	-4
▁s	-5
on	-6
▁the	-7
er	-8
▁c	-9
▁o	-10
▁f	-11
▁,	-12
at	-13
▁p	-14
▁w	-15
it	-16
en	-17
es	-18
or	-19
▁b	-20
▁.	-21
an	-22
▁m	-23
is	-24
▁an	-25
▁in	-26
ou	-27
al	-28
▁d	-29
ar	-30
ing	-31
ed	-32
▁of	-33
▁and	-34
ro	-35
ion	-36
▁to	-37
ic	-38
le	-39
▁h	-40
▁l	-41
as	-42
▁e	-43
om	-44
▁re	-45
▁n	-46
il	-47
ct	-48
ent	-49
el	-50
▁g	-51
ot	-52
us	-53
▁y	-54
▁th	-55
▁for	-56
et	-57
▁you	-58
os	-59
ur	-60
ation	-61
▁is	-62
▁on	-63
ig	-64
ol	-65
ith	-66
ve	-67
am	-68
▁st	-69
▁&	-70
ac	-71
▁with	-72
ut	-73
id	-74
ow	-75
im	-76
▁v	-77
▁pro	-78
qu	-79
ly	-80
▁be	-81
un	-82
ay	-83
ers	-84
ap	-85
ad	-86
▁con	-87
ir	-88
st	-89
ch	-90
▁1	-91
▁:	-92
▁al	-93
ul	-94
▁r	-95
ce	-96
▁2	-97
▁com	-98
▁)	-99
▁(	-100
ag	-101
ab	-102
ri	-103
rom	-104
if	-105
▁or	-106
ts	-107
▁as	-108
▁it	-109
▁we	-110
ment	-111
▁are	-112
▁from	-113
▁de	-114
ter	-115
▁se	-116
ver	-117
▁he	-118
igh	-119
ess	-120
▁k	-121
▁-	-122
od	-123
▁us	-124
▁ex	-125
▁wh	-126
est	-127
ill	-128
ure	-129
▁that	-130
pp	-131
ain	-132
▁ne	-133
her	-134
▁ch	-135
▁su	-136
and	-137
ity	-138
▁at	-139
▁your	-140
▁sh	-141
ort	-142
ate	-143
art	-144
ect	-145
▁by	-146
ore	-147
ies	-148
▁tr	-149
▁this	-150
oun	-151
▁j	-152
op	-153
ist	-154
ak	-155
oc	-156
em	-157
um	-158
▁can	-159
▁sp	-160
iv	-161
▁un	-162
▁en	-163
00	-164
▁comp	-165
res	-166
ant	-167
ust	-168
ive	-169
se	-170
quot	-171
▁ad	-172
all	-173
ok	-174
▁not	-175
▁pl	-176
act	-177
able	-178
▁all	-179
ie	-180
apos	-181
ard	-182
▁le	-183
ine	-184
▁ha	-185
ight	-186
ld	-187
▁ac	-188
age	-189
ial	-190
▁cont	-191
our	-192
▁/	-193
ice	-194
▁i	-195
th	-196
ions	-197
ast	-198
▁man	-199
▁cl	-200
▁fl	-201
▁ro	-202
per	-203
ail	-204
up	-205
ren	-206
▁our	-207
ell	-208
ge	-209
ated	-210
og	-211
▁will	-212
uct	-213
▁wor	-214
ud	-215
ide	-216
ind	-217
ook	-218
▁ar	-219
▁3	-220
ip	-221
ich	-222
are	-223
ack	-224
out	-225
for	-226
com	-227
ire	-228
ib	-229
▁have	-230
end	-231
▁ab	-232
pt	-233
▁20	-234
amp	-235
▁hot	-236
ia	-237
ree	-238
▁was	-239
ical	-240
cess	-241
ost	-242
▁pr	-243
▁im	-244
▁int	-245
▁app	-246
ther	-247
▁whe	-248
▁hotel	-249
ite	-250
▁te	-251
▁ser	-252
ans	-253
form	-254
▁res	-255
▁’	-256
ance	-257
ber	-258
av	-259
▁me	-260
ace	-261
▁off	-262
▁up	-263
▁new	-264
cl	-265
pl	-266
so	-267
ound	-268
ations	-269
ach	-270
▁which	-271
▁qu	-272
▁has	-273
iz	-274
ous	-275
▁more	-276
ff	-277
duct	-278
▁so	-279
▁per	-280
ign	-281
ase	-282
ile	-283
▁201	-284
▁part	-285
ual	-286
▁dat	-287
ec	-288
▁do	-289
ition	-290
ry	-291
ark	-292
▁dis	-293
▁if	-294
▁4	-295
ong	-296
der	-297
▁also	-298
▁gr	-299
▁go	-300
ik	-301
lect	-302
▁tim	-303
ear	-304
▁des	-305
port	-306
▁5	-307
iew	-308
▁ag	-309
▁?	-310
▁&#	-311
gh	-312
ub	-313
ary	-314
ens	-315
red	-316
ount	-317
ould	-318
ick	-319
ake	-320
▁but	-321
▁fe	-322
ass	-323
▁co	-324
ame	-325
▁product	-326
ult	-327
▁am	-328
▁out	-329
▁br	-330
▁sc	-331
▁inter	-332
▁serv	-333
▁there	-334
▁one	-335
ue	-336
ress	-337
▁dev	-338
ose	-339
▁sy	-340
ish	-341
▁col	-342
erm	-343
▁work	-344
one	-345
ments	-346
▁other	-347
ater	-348
▁bl	-349
▁ind	-350
▁comm	-351
▁add	-352
▁its	-353
▁ev	-354
pe	-355
own	-356
ra	-357
▁–	-358
▁no	-359
▁!	-360
ome	-361
ough	-362
▁reg	-363
▁pre	-364
ings	-365
▁ph	-366
▁free	-367
▁time	-368
ors	-369
▁prov	-370
▁use	-371
gr	-372
▁their	-373
ices	-374
▁about	-375
▁eu	-376
▁inform	-377
ely	-378
▁data	-379
lic	-380
▁fr	-381
..	-382
ang	-383
ov	-384
ays	-385
ights	-386
ord	-387
fe	-388
▁gu	-389
▁any	-390
▁how	-391
ence	-392
▁supp	-393
les	-394
▁find	-395
▁av	-396
▁they	-397
▁air	-398
▁loc	-399
▁sa	-400
▁bu	-401
reat	-402
▁19	-403
▁car	-404
▁;	-405
▁trans	-406
▁year	-407
▁em	-408
▁che	-409
te	-410
arch	-411
▁inst	-412
ond	-413
ities	-414
ks	-415
▁...	-416
ery	-417
▁information	-418
uc	-419
▁6	-420
ject	-421
rent	-422
ents	-423
ory	-424
stem	-425
▁mod	-426
▁af	-427
anc	-428
▁room	-429
▁act	-430
▁when	-431
ob	-432
▁spec	-433
▁“	-434
ures	-435
▁cent	-436
ft	-437
▁system	-438
ade	-439
ild	-440
wn	-441
very	-442
we	-443
ian	-444
▁over	-445
▁best	-446
▁z	-447
int	-448
clud	-449
▁only	-450
che	-451
▁his	-452
ep	-453
ove	-454
any	-455
▁book	-456
▁high	-457
ible	-458
▁pers	-459
▁pos	-460
▁”	-461
▁min	-462
▁euro	-463
line	-464
▁pe	-465
▁rel	-466
▁sm	-467
ific	-468
ike	-469
ates	-470
iss	-471
bs	-472
▁well	-473
ility	-474
▁cons	-475
oy	-476
ating	-477
▁acc	-478
▁str	-479
▁than	-480
▁sol	-481
▁who	-482
▁includ	-483
▁fir	-484
▁tw	-485
▁may	-486
12	-487
riv	-488
als	-489
▁my	-490
▁7	-491
▁avail	-492
ood	-493
▁aut	-494
▁sec	-495
▁ent	-496
▁8	-497
ational	-498
ath	-499
▁&#9	-500
ange	-501
▁bet	-502
ower	-503
▁%	-504
chn	-505
▁kn	-506
▁imp	-507
ning	-508
ons	-509
▁most	-510
▁what	-511
▁set	-512
▁hel	-513
ert	-514
ise	-515
▁them	-516
ular	-517
▁bus	-518
ious	-519
▁mon	-520
irect	-521
▁rec	-522
▁into	-523
▁10	-524
ics	-525
▁these	-526
▁pol	-527
▁intern	-528
▁requ	-529
▁after	-530
▁met	-531
▁process	-532
▁down	-533
▁rev	-534
▁op	-535
part	-536
▁look	-537
▁bo	-538
▁world	-539
▁ass	-540
els	-541
▁been	-542
▁techn	-543
ax	-544
▁get	-545
ages	-546
enc	-547
▁first	-548
▁la	-549
elop	-550
olog	-551
▁9	-552
▁design	-553
▁po	-554
oll	-555
use	-556
rol	-557
▁available	-558
▁200	-559
▁art	-560
ble	-561
ful	-562
row	-563
▁direct	-564
▁hotels	-565
▁rem	-566
▁par	-567
▁view	-568
▁used	-569
▁eng	-570
▁develop	-571
land	-572
▁vis	-573
io	-574
ric	-575
ows	-576
▁need	-577
▁mark	-578
▁cust	-579
ality	-580
▁person	-581
▁det	-582
ally	-583
▁custom	-584
▁form	-585
itt	-586
▁germ	-587
▁every	-588
▁online	-589
▁bas	-590
ck	-591
▁see	-592
lo	-593
▁very	-594
▁europe	-595
▁ext	-596
▁gen	-597
▁thr	-598
▁gl	-599
ink	-600
▁dif	-601
▁hol	-602
li	-603
▁now	-604
▁exp	-605
ather	-606
▁flights	-607
▁sk	-608
▁exper	-609
ock	-610
ug	-611
▁were	-612
uring	-613
▁access	-614
▁like	-615
▁such	-616
▁sw	-617
▁sub	-618
▁x	-619
▁del	-620
ption	-621
hed	-622
▁help	-623
▁0	-624
▁ed	-625
ines	-626
▁two	-627
▁val	-628
▁through	-629
ey	-630
▁play	-631
▁fun	-632
ets	-633
▁fin	-634
let	-635
▁her	-636
xt	-637
▁sim	-638
comm	-639
urn	-640
▁just	-641
124	-642
▁some	-643
▁back	-644
▁service	-645
fore	-646
124;	-647
▁&#124;	-648
▁ren	-649
ily	-650
ient	-651
day	-652
▁med	-653
▁pres	-654
▁provid	-655
oth	-656
ner	-657
ouse	-658
▁inv	-659
nect	-660
▁sal	-661
▁cur	-662
▁count	-663
▁att	-664
▁search	-665
▁sur	-666
▁prot	-667
ph	-668
▁bel	-669
sh	-670
▁she	-671
▁here	-672
▁char	-673
▁where	-674
iness	-675
▁hand	-676
▁should	-677
▁mem	-678
air	-679
▁tri	-680
oup	-681
▁inc	-682
▁rest	-683
▁good	-684
▁num	-685
▁many	-686
▁open	-687
▁disc	-688
▁long	-689
▁make	-690
▁inte	-691
▁foll	-692
▁peop	-693
▁connect	-694
ution	-695
▁eff	-696
▁city	-697
its	-698
▁rep	-699
of	-700
▁ty	-701
▁people	-702
▁cre	-703
▁fil	-704
▁products	-705
ween	-706
▁dri	-707
▁eas	-708
room	-709
▁between	-710
ited	-711
▁even	-712
▁under	-713
▁area	-714
▁oper	-715
▁lif	-716
▁cor	-717
▁control	-718
ied	-719
▁equ	-720
▁ful	-721
▁dec	-722
get	-723
load	-724
▁then	-725
▁diffe	-726
ern	-727
▁ple	-728
▁main	-729
ants	-730
▁pub	-731
▁day	-732
▁follow	-733
▁adv	-734
▁pur	-735
ty	-736
▁years	-737
▁ins	-738
▁webs	-739
ware	-740
▁own	-741
▁cap	-742
▁right	-743
▁applic	-744
▁poss	-745
▁special	-746
▁business	-747
▁review	-748
▁cr	-749
way	-750
▁contact	-751
▁ob	-752
▁cond	-753
▁support	-754
ict	-755
ience	-756
ature	-757
▁stand	-758
▁mar	-759
▁services	-760
▁sing	-761
con	-762
old	-763
gram	-764
▁made	-765
▁home	-766
▁stud	-767
ative	-768
▁cle	-769
erg	-770
ix	-771
▁file	-772
▁wind	-773
▁prof	-774
▁ref	-775
▁read	-776
gan	-777
▁protect	-778
▁proper	-779
▁lar	-780
▁program	-781
ward	-782
▁gener	-783
▁had	-784
▁apart	-785
▁sl	-786
ys	-787
▁show	-788
▁offers	-789
▁bed	-790
▁dist	-791
rib	-792
▁resp	-793
elf	-794
arm	-795
▁top	-796
▁fam	-797
▁elect	-798
uf	-799
▁user	-800
ca	-801
eld	-802
ours	-803
▁group	-804
▁dr	-805
▁manual	-806
▁near	-807
▁priv	-808
▁sign	-809
▁order	-810
▁import	-811
wor	-812
▁bre	-813
led	-814
ivers	-815
az	-816
ann	-817
▁bar	-818
▁water	-819
▁offer	-820
▁would	-821
▁var	-822
▁phot	-823
▁market	-824
▁again	-825
▁start	-826
ting	-827
▁without	-828
▁different	-829
tern	-830
▁using	-831
▁take	-832
▁download	-833
ize	-834
▁partic	-835
▁place	-836
▁found	-837
ract	-838
20	-839
▁red	-840
ction	-841
orts	-842
ute	-843
▁know	-844
lish	-845
err	-846
▁project	-847
ruct	-848
▁great	-849
▁inf	-850
▁company	-851
▁website	-852
▁want	-853
▁list	-854
▁select	-855
iet	-856
▁personal	-857
▁within	-858
▁power	-859
▁trav	-860
▁light	-861
▁sch	-862
ural	-863
▁15	-864
▁opt	-865
▁quality	-866
▁net	-867
ank	-868
▁ste	-869
▁appro	-870
hes	-871
ries	-872
ina	-873
ology	-874
▁cheap	-875
itions	-876
ident	-877
ium	-878
▁require	-879
▁way	-880
▁mus	-881
ss	-882
ee	-883
▁km	-884
ont	-885
▁soc	-886
reen	-887
▁ret	-888
less	-889
▁price	-890
ipp	-891
▁detail	-892
ll	-893
▁each	-894
▁train	-895
▁commun	-896
▁house	-897
▁number	-898
▁european	-899
ives	-900
▁addition	-901
pr	-902
ms	-903
ission	-904
▁during	-905
ufact	-906
▁u	-907
▁install	-908
▁soft	-909
mm	-910
▁12	-911
ness	-912
▁leg	-913
▁manufact	-914
1;	-915
▁&#91;	-916
▁bath	-917
rest	-918
ered	-919
ateg	-920
ically	-921
3;	-922
▁&#93;	-923
▁mater	-924
.0	-925
▁end	-926
▁ve	-927
ital	-928
ability	-929
ces	-930
ah	-931
▁international	-932
▁device	-933
▁last	-934
ton	-935
▁child	-936
▁18	-937
aking	-938
bo	-939
▁indust	-940
▁mach	-941
▁material	-942
▁rece	-943
▁looking	-944
read	-945
000	-946
▁before	-947
pos	-948
iron	-949
ized	-950
▁rent	-951
▁visit	-952
▁park	-953
▁organ	-954
▁please	-955
come	-956
ince	-957
▁mot	-958
▁sit	-959
▁conc	-960
au	-961
▁port	-962
▁current	-963
▁map	-964
▁small	-965
iqu	-966
ator	-967
to	-968
▁cho	-969
aph	-970
▁mat	-971
▁does	-972
▁trip	-973
▁fac	-974
▁collect	-975
ek	-976
▁conf	-977
ues	-978
aut	-979
▁must	-980
▁perform	-981
▁cour	-982
▁close	-983
ten	-984
▁+	-985
akes	-986
alk	-987
▁life	-988
ests	-989
▁rooms	-990
ists	-991
app	-992
▁autom	-993
▁important	-994
▁fore	-995
ne	-996
aur	-997
▁stay	-998
▁him	-999
uss	-1000
br	-1001
▁manage	-1002
▁flight	-1003
▁black	-1004
▁term	-1005
▁following	-1006
▁def	-1007
ames	-1008
▁men	-1009
▁wr	-1010
▁jo	-1011
co	-1012
ron	-1013
ral	-1014
▁build	-1015
ional	-1016
play	-1017
▁feat	-1018
▁located	-1019
▁lev	-1020
ins	-1021
work	-1022
ains	-1023
commod	-1024
.1	-1025
ved	-1026
▁ca	-1027
▁vide	-1028
▁accommod	-1029
▁proble	-1030
▁holid	-1031
ird	-1032
▁pop	-1033
▁possible	-1034
▁const	-1035
▁pass	-1036
▁activ	-1037
▁desc	-1038
▁pat	-1039
▁cas	-1040
▁including	-1041
eng	-1042
riend	-1043
ier	-1044
▁fur	-1045
▁lead	-1046
▁travel	-1047
▁el	-1048
cause	-1049
▁germany	-1050
▁because	-1051
hen	-1052
▁real	-1053
lex	-1054
vis	-1055
min	-1056
▁airport	-1057
▁effect	-1058
▁cal	-1059
▁public	-1060
▁es	-1061
oor	-1062
50	-1063
ield	-1064
▁anal	-1065
▁tem	-1066
arn	-1067
▁same	-1068
▁days	-1069
▁around	-1070
▁love	-1071
▁sn	-1072
▁bro	-1073
▁contin	-1074
▁manufacture	-1075
▁development	-1076
▁full	-1077
▁cert	-1078
ished	-1079
hing	-1080
▁while	-1081
ene	-1082
▁buy	-1083
▁quest	-1084
lin	-1085
ung	-1086
▁incre	-1087
▁second	-1088
▁meas	-1089
▁experience	-1090
▁log	-1091
ories	-1092
▁shall	-1093
▁private	-1094
ivid	-1095
urg	-1096
▁hist	-1097
▁state	-1098
▁restaur	-1099
▁both	-1100
▁est	-1101
▁site	-1102
▁german	-1103
▁30	-1104
ool	-1105
▁weather	-1106
▁interest	-1107
aces	-1108
▁call	-1109
omet	-1110
ploy	-1111
▁inn	-1112
▁pack	-1113
▁accord	-1114
▁mil	-1115
▁prev	-1116
▁tour	-1117
ars	-1118
▁rese	-1119
▁provide	-1120
▁comput	-1121
▁further	-1122
▁pay	-1123
▁ide	-1124
▁name	-1125
ever	-1126
ased	-1127
ering	-1128
lement	-1129
▁prices	-1130
▁spe	-1131
ilities	-1132
ips	-1133
und	-1134
▁could	-1135
▁class	-1136
▁di	-1137
▁€	-1138
ways	-1139
▁ma	-1140
▁driver	-1141
▁large	-1142
fort	-1143
ave	-1144
ale	-1145
▁card	-1146
▁check	-1147
▁since	-1148
▁plan	-1149
gt	-1150
▁dem	-1151
▁three	-1152
▁univers	-1153
iving	-1154
▁doc	-1155
▁fact	-1156
▁11	-1157
▁beaut	-1158
▁management	-1159
▁case	-1160
▁quick	-1161
▁key	-1162
▁tv	-1163
ds	-1164
▁expl	-1165
me	-1166
▁ke	-1167
▁100	-1168
▁software	-1169
▁present	-1170
▁standard	-1171
ves	-1172
utions	-1173
▁features	-1174
ody	-1175
▁mount	-1176
▁trad	-1177
▁kit	-1178
▁head	-1179
▁month	-1180
▁fre	-1181
▁page	-1182
▁low	-1183
▁env	-1184
sc	-1185
cept	-1186
fect	-1187
aff	-1188
▁exc	-1189
fer	-1190
▁test	-1191
ately	-1192
atic	-1193
▁holiday	-1194
▁reviews	-1195
▁technology	-1196
▁post	-1197
utes	-1198
ination	-1199
▁16	-1200
▁click	-1201
uch	-1202
▁family	-1203
▁conv	-1204
ults	-1205
alth	-1206
▁mult	-1207
▁systems	-1208
orn	-1209
ason	-1210
ling	-1211
ross	-1212
▁2017	-1213
▁apartment	-1214
▁customer	-1215
▁cam	-1216
▁sat	-1217
▁14	-1218
▁engine	-1219
▁docu	-1220
▁cook	-1221
▁care	-1222
ified	-1223
▁vill	-1224
▁sun	-1225
▁wom	-1226
▁run	-1227
▁old	-1228
▁ens	-1229
▁protection	-1230
▁those	-1231
▁tool	-1232
over	-1233
▁based	-1234
joy	-1235
▁mic	-1236
chen	-1237
▁land	-1238
▁hum	-1239
ism	-1240
▁friend	-1241
ash	-1242
▁share	-1243
ux	-1244
ually	-1245
▁enjoy	-1246
▁comb	-1247
▁vers	-1248
de	-1249
▁conditions	-1250
▁meet	-1251
▁perfect	-1252
▁country	-1253
▁windows	-1254
▁suc	-1255
▁team	-1256
▁research	-1257
▁next	-1258
▁environ	-1259
ulation	-1260
inal	-1261
▁energ	-1262
▁children	-1263
▁mill	-1264
▁econ	-1265
ced	-1266
icle	-1267
▁still	-1268
hor	-1269
ency	-1270
▁music	-1271
▁white	-1272
▁simp	-1273
▁address	-1274
▁however	-1275
ised	-1276
▁econom	-1277
▁being	-1278
▁war	-1279
▁sou	-1280
▁hard	-1281
▁press	-1282
▁week	-1283
ote	-1284
ime	-1285
▁vol	-1286
other	-1287
▁easy	-1288
feren	-1289
▁english	-1290
ention	-1291
▁computer	-1292
.5	-1293
▁law	-1294
▁examp	-1295
▁upd	-1296
▁center	-1297
▁nat	-1298
▁compan	-1299
▁production	-1300
▁web	-1301
▁dou	-1302
▁content	-1303
▁lo	-1304
▁lang	-1305
▁break	-1306
▁bal	-1307
▁employ	-1308
-1	-1309
▁states	-1310
ration	-1311
ined	-1312
ps	-1313
▁orig	-1314
lete	-1315
▁24	-1316
▁don	-1317
▁specific	-1318
par	-1319
▁always	-1320
mb	-1321
▁application	-1322
▁rele	-1323
▁win	-1324
▁member	-1325
cc	-1326
irt	-1327
hip	-1328
▁individ	-1329
▁range	-1330
oss	-1331
na	-1332
▁sho	-1333
▁details	-1334
ders	-1335
▁13	-1336
▁deli	-1337
▁health	-1338
▁dig	-1339
▁social	-1340
▁change	-1341
▁internet	-1342
▁live	-1343
▁energy	-1344
ision	-1345
▁video	-1346
▁camp	-1347
orth	-1348
bers	-1349
▁stre	-1350
por	-1351
▁news	-1352
▁impro	-1353
▁mag	-1354
ches	-1355
▁table	-1356
▁print	-1357
ury	-1358
▁compare	-1359
ites	-1360
▁fa	-1361
▁secur	-1362
▁account	-1363
▁bathroom	-1364
▁link	-1365
▁sil	-1366
▁type	-1367
▁comfort	-1368
▁profess	-1369
▁guests	-1370
▁books	-1371
▁working	-1372
▁property	-1373
▁particular	-1374
▁mob	-1375
▁today	-1376
▁game	-1377
▁accommodation	-1378
▁17	-1379
▁lim	-1380
ially	-1381
▁able	-1382
▁super	-1383
▁environment	-1384
.2	-1385
ique	-1386
▁store	-1387
ott	-1388
▁centre	-1389
▁prom	-1390
▁manufacturer	-1391
▁night	-1392
▁dep	-1393
▁fo	-1394
▁oil	-1395
▁#	-1396
▁away	-1397
▁much	-1398
▁success	-1399
aster	-1400
▁location	-1401
▁pan	-1402
ization	-1403
▁cat	-1404
icy	-1405
man	-1406
▁®	-1407
burg	-1408
▁subject	-1409
▁companies	-1410
▁against	-1411
▁max	-1412
▁level	-1413
▁users	-1414
ription	-1415
med	-1416
▁short	-1417
ving	-1418
▁hy	-1419
ready	-1420
▁clean	-1421
▁langu	-1422
▁chang	-1423
vert	-1424
▁non	-1425
▁cos	-1426
▁cost	-1427
▁wat	-1428
erc	-1429
alls	-1430
by	-1431
▁general	-1432
▁lab	-1433
▁pa	-1434
▁step	-1435
▁*	-1436
▁beach	-1437
▁lin	-1438
▁point	-1439
▁already	-1440
ler	-1441
ibility	-1442
▁let	-1443
▁walk	-1444
▁bat	-1445
▁integr	-1446
▁tick	-1447
▁gard	-1448
ogr	-1449
▁ele	-1450
iful	-1451
ony	-1452
▁suppli	-1453
▁via	-1454
▁ber	-1455
▁commission	-1456
▁did	-1457
ify	-1458
▁compet	-1459
clus	-1460
▁national	-1461
rist	-1462
▁invest	-1463
▁food	-1464
▁complet	-1465
▁results	-1466
▁ce	-1467
ners	-1468
▁author	-1469
▁according	-1470
ai	-1471
▁field	-1472
▁request	-1473
▁few	-1474
▁—	-1475
▁security	-1476
▁god	-1477
▁categ	-1478
acy	-1479
irts	-1480
▁another	-1481
▁aud	-1482
▁dom	-1483
ger	-1484
▁course	-1485
▁pract	-1486
▁arch	-1487
▁50	-1488
▁cy	-1489
ze	-1490
▁sea	-1491
▁network	-1492
▁beautiful	-1493
▁sale	-1494
▁body	-1495
▁199	-1496
▁sty	-1497
duc	-1498
▁25	-1499
▁local	-1500
▁performance	-1501
ots	-1502
▁individual	-1503
be	-1504
▁cult	-1505
▁rom	-1506
▁customers	-1507
ior	-1508
▁happ	-1509
▁opp	-1510
▁said	-1511
▁industry	-1512
▁swit	-1513
ane	-1514
▁modern	-1515
▁come	-1516
▁station	-1517
▁ital	-1518
ension	-1519
▁kitchen	-1520
▁shop	-1521
▁allow	-1522
tain	-1523
▁games	-1524
▁technical	-1525
ew	-1526
▁aust	-1527
▁treat	-1528
▁grow	-1529
▁lat	-1530
▁single	-1531
▁minutes	-1532
gether	-1533
▁together	-1534
▁size	-1535
phone	-1536
▁situ	-1537
pect	-1538
▁transport	-1539
▁example	-1540
mber	-1541
▁brow	-1542
▁terr	-1543
▁ant	-1544
▁town	-1545
ipment	-1546
aw	-1547
ended	-1548
▁necess	-1549
▁ann	-1550
▁third	-1551
▁machine	-1552
▁nor	-1553
▁areas	-1554
▁pal	-1555
ams	-1556
ending	-1557
ising	-1558
▁report	-1559
▁object	-1560
10	-1561
▁whether	-1562
▁keep	-1563
▁create	-1564
iting	-1565
▁mm	-1566
▁saf	-1567
▁function	-1568
erv	-1569
▁fut	-1570
▁king	-1571
▁popular	-1572
ently	-1573
self	-1574
▁dating	-1575
▁vi	-1576
ape	-1577
▁display	-1578
▁united	-1579
iod	-1580
ances	-1581
▁creat	-1582
▁choose	-1583
aint	-1584
▁mov	-1585
▁$	-1586
▁stat	-1587
▁hours	-1588
▁christ	-1589
▁summ	-1590
▁line	-1591
▁iss	-1592
▁wel	-1593
▁double	-1594
▁coun	-1595
ads	-1596
▁times	-1597
▁processing	-1598
▁respons	-1599
book	-1600
▁result	-1601
imum	-1602
▁past	-1603
▁ge	-1604
▁women	-1605
▁model	-1606
▁ju	-1607
▁item	-1608
ense	-1609
▁side	-1610
▁gre	-1611
iation	-1612
▁provided	-1613
▁2018	-1614
▁ear	-1615
▁unt	-1616
▁things	-1617
ode	-1618
▁big	-1619
▁typ	-1620
▁countries	-1621
▁tot	-1622
ming	-1623
itor	-1624
ively	-1625
▁pool	-1626
▁mess	-1627
▁recomm	-1628
▁building	-1629
▁stri	-1630
▁equipment	-1631
▁rad	-1632
▁below	-1633
▁south	-1634
▁pri	-1635
▁communic	-1636
▁enter	-1637
verage	-1638
▁event	-1639
▁clos	-1640
▁solutions	-1641
eric	-1642
▁photos	-1643
▁front	-1644
▁agree	-1645
▁manag	-1646
iety	-1647
▁occ	-1648
▁tele	-1649
sw	-1650
ides	-1651
▁role	-1652
ential	-1653
▁four	-1654
▁wood	-1655
eration	-1656
raw	-1657
▁natural	-1658
ruction	-1659
▁files	-1660
ember	-1661
▁green	-1662
▁space	-1663
face	-1664
▁rout	-1665
▁drive	-1666
cle	-1667
aper	-1668
uary	-1669
30	-1670
▁board	-1671
ats	-1672
▁future	-1673
ences	-1674
▁brand	-1675
▁means	-1676
▁sever	-1677
gest	-1678
▁hig	-1679
▁turn	-1680
▁learn	-1681
▁2016	-1682
▁less	-1683
ex	-1684
▁beg	-1685
▁provides	-1686
▁clear	-1687
▁therefore	-1688
▁et	-1689
▁singles	-1690
▁description	-1691
▁among	-1692
▁facilities	-1693
▁digital	-1694
iven	-1695
ven	-1696
▁period	-1697
▁various	-1698
thing	-1699
imate	-1700
▁include	-1701
▁somet	-1702
▁gold	-1703
ients	-1704
▁prin	-1705
▁necessary	-1706
▁beh	-1707
▁pages	-1708
ino	-1709
▁ask	-1710
hod	-1711
itive	-1712
▁color	-1713
▁give	-1714
▁human	-1715
▁glob	-1716
▁star	-1717
▁aff	-1718
▁box	-1719
▁parts	-1720
df	-1721
▁additional	-1722
▁innov	-1723
▁pict	-1724
▁series	-1725
ru	-1726
▁cop	-1727
▁school	-1728
▁tur	-1729
ofa	-1730
▁tit	-1731
ittle	-1732
pro	-1733
▁island	-1734
▁ris	-1735
ification	-1736
▁suit	-1737
▁flirts	-1738
▁mid	-1739
▁living	-1740
▁regard	-1741
▁bi	-1742
▁flirtsofa	-1743
ilt	-1744
▁depart	-1745
▁above	-1746
▁jun	-1747
▁several	-1748
▁until	-1749
▁complete	-1750
itted	-1751
▁sens	-1752
▁steel	-1753
uck	-1754
▁mobile	-1755
▁heart	-1756
▁problem	-1757
▁terms	-1758
▁policy	-1759
▁berlin	-1760
▁financ	-1761
▁purch	-1762
▁ensure	-1763
▁cut	-1764
▁little	-1765
▁dest	-1766
ety	-1767
ctor	-1768
ought	-1769
astic	-1770
ged	-1771
▁once	-1772
▁office	-1773
ining	-1774
▁micro	-1775
▁central	-1776
▁email	-1777
▁garden	-1778
▁ip	-1779
▁instit	-1780
▁stor	-1781
ference	-1782
hib	-1783
ipped	-1784
oud	-1785
▁value	-1786
▁due	-1787
vern	-1788
▁san	-1789
▁mo	-1790
▁text	-1791
▁face	-1792
▁dam	-1793
▁ident	-1794
▁repres	-1795
ables	-1796
wards	-1797
▁pet	-1798
▁struct	-1799
▁assoc	-1800
pec	-1801
ster	-1802
▁vac	-1803
▁training	-1804
60	-1805
▁far	-1806
ke	-1807
▁foc	-1808
▁note	-1809
▁host	-1810
▁regist	-1811
ament	-1812
▁university	-1813
▁directly	-1814
▁date	-1815
▁charact	-1816
▁rights	-1817
▁method	-1818
▁record	-1819
▁mal	-1820
▁maj	-1821
▁condition	-1822
▁send	-1823
visor	-1824
osp	-1825
▁contract	-1826
ograph	-1827
▁why	-1828
▁cann	-1829
side	-1830
▁move	-1831
▁related	-1832
uce	-1833
.9	-1834
lished	-1835
▁bene	-1836
ring	-1837
ones	-1838
▁sound	-1839
▁stock	-1840
▁safety	-1841
▁better	-1842
▁consum	-1843
▁deals	-1844
▁history	-1845
▁deal	-1846
zer	-1847
▁return	-1848
▁article	-1849
fast	-1850
▁solution	-1851
▁fast	-1852
▁driv	-1853
ired	-1854
.3	-1855
▁activities	-1856
▁pot	-1857
▁put	-1858
▁mor	-1859
▁total	-1860
,000	-1861
▁contain	-1862
tle	-1863
▁americ	-1864
▁china	-1865
ha	-1866
ng	-1867
▁partner	-1868
ids	-1869
▁sour	-1870
▁implement	-1871
view	-1872
era	-1873
▁job	-1874
▁designed	-1875
▁particip	-1876
advisor	-1877
▁version	-1878
▁offic	-1879
▁become	-1880
▁tripadvisor	-1881
▁language	-1882
ilar	-1883
▁million	-1884
▁won	-1885
▁‘	-1886
ules	-1887
▁required	-1888
▁events	-1889
▁tradition	-1890
▁govern	-1891
▁common	-1892
▁bedroom	-1893
rop	-1894
▁applications	-1895
ley	-1896
ister	-1897
▁exist	-1898
▁pie	-1899
▁cir	-1900
▁media	-1901
ison	-1902
ule	-1903
▁effic	-1904
▁feel	-1905
▁certain	-1906
▁muse	-1907
▁zo	-1908
▁delivery	-1909
▁estab	-1910
▁cast	-1911
▁optim	-1912
arant	-1913
▁often	-1914
▁unders	-1915
▁position	-1916
▁partners	-1917
ises	-1918
▁21	-1919
▁educ	-1920
▁france	-1921
▁document	-1922
▁focus	-1923
▁led	-1924
ding	-1925
apt	-1926
▁members	-1927
▁bag	-1928
▁track	-1929
▁ach	-1930
▁left	-1931
here	-1932
▁ang	-1933
▁staff	-1934
▁guest	-1935
▁materials	-1936
▁transfer	-1937
▁works	-1938
ser	-1939
▁answ	-1940
ees	-1941
▁requirements	-1942
▁plat	-1943
▁benef	-1944
ived	-1945
cast	-1946
▁glass	-1947
▁along	-1948
▁fire	-1949
▁problems	-1950
ases	-1951
ret	-1952
▁similar	-1953
▁repl	-1954
▁pc	-1955
▁question	-1956
▁pdf	-1957
ieve	-1958
▁electron	-1959
▁attract	-1960
▁ski	-1961
▁restaurant	-1962
ators	-1963
▁option	-1964
▁connection	-1965
▁needs	-1966
▁blue	-1967
▁40	-1968
▁foot	-1969
af	-1970
▁too	-1971
▁guarant	-1972
▁squ	-1973
▁har	-1974
▁makes	-1975
▁ey	-1976
▁tax	-1977
.4	-1978
▁places	-1979
ival	-1980
▁say	-1981
▁flat	-1982
▁underst	-1983
▁museum	-1984
▁average	-1985
▁22	-1986
▁kind	-1987
▁hal	-1988
▁strong	-1989
▁cookies	-1990
ints	-1991
▁speed	-1992
▁expect	-1993
put	-1994
▁alm	-1995
▁•	-1996
ider	-1997
▁express	-1998
▁veh	-1999
▁global	-2000
▁major	-2001
▁tre	-2002
▁restaurants	-2003
aim	-2004
ush	-2005
iter	-2006
▁transl	-2007
round	-2008
▁legal	-2009
▁ec	-2010
mark	-2011
ably	-2012
▁region	-2013
80	-2014
▁floor	-2015
aken	-2016
ope	-2017
▁excell	-2018
▁yet	-2019
▁respect	-2020
▁professional	-2021
▁breakfast	-2022
ls	-2023
▁north	-2024
▁months	-2025
▁ver	-2026
ground	-2027
▁unique	-2028
▁cm	-2029
ille	-2030
▁costs	-2031
▁questions	-2032
▁shower	-2033
▁fit	-2034
▁entire	-2035
▁strateg	-2036
▁try	-2037
▁represent	-2038
▁easily	-2039
▁booking	-2040
▁options	-2041
▁think	-2042
oney	-2043
ogle	-2044
▁measure	-2045
▁sent	-2046
▁wall	-2047
▁original	-2048
▁image	-2049
▁compon	-2050
▁google	-2051
mbh	-2052
▁models	-2053
board	-2054
▁financial	-2055
▁produc	-2056
▁polit	-2057
rict	-2058
▁tar	-2059
▁lux	-2060
yn	-2061
▁fav	-2062
▁2015	-2063
pa	-2064
▁safe	-2065
▁collection	-2066
▁economic	-2067
▁nature	-2068
cy	-2069
den	-2070
▁adj	-2071
▁gmbh	-2072
▁sports	-2073
▁lot	-2074
▁receive	-2075
▁sure	-2076
▁making	-2077
iver	-2078
ither	-2079
▁analys	-2080
▁thus	-2081
urs	-2082
▁carri	-2083
▁paper	-2084
▁construction	-2085
▁chur	-2086
▁begin	-2087
anding	-2088
▁welcome	-2089
▁phil	-2090
ria	-2091
cent	-2092
▁oct	-2093
▁added	-2094
istic	-2095
▁temper	-2096
ma	-2097
ana	-2098
▁ir	-2099
▁created	-2100
▁wide	-2101
▁2019	-2102
asing	-2103
▁cable	-2104
▁electric	-2105
▁suitable	-2106
▁installation	-2107
▁improve	-2108
▁analy	-2109
ledge	-2110
▁rate	-2111
▁sle	-2112
▁rental	-2113
▁category	-2114
▁00	-2115
▁community	-2116
.00	-2117
▁exch	-2118
▁espec	-2119
▁ther	-2120
▁furn	-2121
▁given	-2122
ump	-2123
▁lord	-2124
▁storage	-2125
eral	-2126
▁projects	-2127
▁especially	-2128
ctions	-2129
▁cover	-2130
▁aug	-2131
▁save	-2132
-2	-2133
▁fly	-2134
▁road	-2135
▁exhib	-2136
▁character	-2137
▁party	-2138
▁sell	-2139
lines	-2140
ensive	-2141
iable	-2142
▁includes	-2143
▁ago	-2144
▁sav	-2145
▁arm	-2146
medi	-2147
▁accessories	-2148
▁built	-2149
▁ut	-2150
▁equipped	-2151
▁everything	-2152
pper	-2153
▁title	-2154
▁feature	-2155
▁operating	-2156
▁init	-2157
▁ideal	-2158
▁q	-2159
▁known	-2160
ortun	-2161
▁watch	-2162
net	-2163
▁cross	-2164
▁opportun	-2165
ift	-2166
berg	-2167
▁menu	-2168
▁smart	-2169
cil	-2170
▁eur	-2171
uk	-2172
▁histor	-2173
▁trade	-2174
▁appear	-2175
▁parking	-2176
atically	-2177
▁sales	-2178
▁jan	-2179
▁approx	-2180
oint	-2181
ume	-2182
isation	-2183
idge	-2184
rench	-2185
▁cell	-2186
▁surround	-2187
▁tou	-2188
▁motor	-2189
ared	-2190
--	-2191
▁prec	-2192
▁separ	-2193
▁really	-2194
▁currently	-2195
▁apartments	-2196
▁included	-2197
▁cannot	-2198
anced	-2199
▁relations	-2200
pping	-2201
▁compar	-2202
▁»	-2203
40	-2204
mal	-2205
▁mun	-2206
▁server	-2207
▁fully	-2208
yl	-2209
▁zoom	-2210
▁might	-2211
▁young	-2212
▁wif	-2213
▁mac	-2214
olution	-2215
▁ess	-2216
▁allows	-2217
▁bud	-2218
▁anim	-2219
ney	-2220
ters	-2221
▁continu	-2222
olf	-2223
▁admin	-2224
ogn	-2225
▁ham	-2226
▁tools	-2227
ibr	-2228
▁frame	-2229
▁thanks	-2230
▁completely	-2231
▁snap	-2232
▁later	-2233
icles	-2234
▁active	-2235
▁action	-2236
▁least	-2237
▁wi	-2238
▁mass	-2239
▁commit	-2240
▁style	-2241
▁browser	-2242
go	-2243
▁simple	-2244
▁views	-2245
▁longer	-2246
▁60	-2247
▁round	-2248
▁outd	-2249
▁flex	-2250
▁ground	-2251
▁distrib	-2252
▁previous	-2253
▁sept	-2254
▁self	-2255
▁coll	-2256
ands	-2257
▁knowledge	-2258
▁whole	-2259
sel	-2260
▁rentals	-2261
▁relax	-2262
▁bank	-2263
▁ic	-2264
▁developed	-2265
▁abs	-2266
▁upon	-2267
bit	-2268
▁exclus	-2269
▁comfortable	-2270
▁excellent	-2271
▁mr	-2272
▁bott	-2273
▁tas	-2274
▁friends	-2275
raft	-2276
▁mountain	-2277
▁spir	-2278
▁images	-2279
▁23	-2280
▁council	-2281
▁accept	-2282
▁risk	-2283
▁study	-2284
▁skin	-2285
▁recommend	-2286
.6	-2287
▁hor	-2288
ada	-2289
▁dry	-2290
emb	-2291
▁cart	-2292
▁reach	-2293
ease	-2294
rect	-2295
▁platform	-2296
ancing	-2297
▁photo	-2298
▁screen	-2299
amic	-2300
ills	-2301
▁tag	-2302
70	-2303
▁union	-2304
▁lond	-2305
tic	-2306
▁regular	-2307
ges	-2308
▁bab	-2309
▁coop	-2310
ength	-2311
▁successful	-2312
ipping	-2313
▁apply	-2314
▁nice	-2315
▁etc	-2316
▁coff	-2317
▁mean	-2318
▁french	-2319
▁mi	-2320
▁enc	-2321
aging	-2322
▁latest	-2323
back	-2324
▁balls	-2325
▁prem	-2326
poses	-2327
ties	-2328
▁london	-2329
▁simply	-2330
▁september	-2331
▁flow	-2332
▁sett	-2333
dom	-2334
rem	-2335
▁summer	-2336
▁indic	-2337
▁beads	-2338
▁2014	-2339
▁er	-2340
▁extra	-2341
▁phone	-2342
▁ten	-2343
▁code	-2344
▁farm	-2345
▁subs	-2346
▁measures	-2347
▁sust	-2348
▁devices	-2349
▁lay	-2350
cel	-2351
▁°	-2352
▁uk	-2353
▁circ	-2354
ological	-2355
▁chall	-2356
ta	-2357
▁fair	-2358
▁supply	-2359
▁err	-2360
▁comes	-2361
resh	-2362
▁traditional	-2363
▁intro	-2364
gen	-2365
▁adjust	-2366
aste	-2367
▁takes	-2368
▁section	-2369
▁desk	-2370
uit	-2371
rial	-2372
▁something	-2373
▁_	-2374
▁sustain	-2375
atory	-2376
istics	-2377
▁guide	-2378
▁tickets	-2379
duction	-2380
▁jour	-2381
▁hair	-2382
▁connected	-2383
ires	-2384
▁ur	-2385
▁reason	-2386
▁ii	-2387
▁2012	-2388
▁signific	-2389
the	-2390
▁july	-2391
▁contrib	-2392
cher	-2393
▁hous	-2394
▁sites	-2395
▁concer	-2396
▁phys	-2397
▁batter	-2398
▁processes	-2399
201	-2400
▁discover	-2401
▁apr	-2402
▁surface	-2403
pri	-2404
▁emb	-2405
▁fing	-2406
▁bad	-2407
▁church	-2408
▁infl	-2409
▁west	-2410
▁sex	-2411
idence	-2412
▁italy	-2413
▁remote	-2414
▁points	-2415
▁communication	-2416
▁automatically	-2417
▁tow	-2418
ched	-2419
iple	-2420
▁graph	-2421
▁distance	-2422
▁coffee	-2423
bon	-2424
▁syn	-2425
gress	-2426
▁june	-2427
aily	-2428
ober	-2429
aring	-2430
shot	-2431
▁age	-2432
▁cro	-2433
▁changes	-2434
▁monitor	-2435
ored	-2436
.7	-2437
bor	-2438
▁taken	-2439
▁resour	-2440
▁almost	-2441
▁exchange	-2442
▁called	-2443
▁treatment	-2444
▁dress	-2445
▁hom	-2446
▁daily	-2447
ians	-2448
▁wish	-2449
house	-2450
▁russ	-2451
▁marketing	-2452
ica	-2453
▁lov	-2454
fl	-2455
▁chann	-2456
▁draw	-2457
▁capac	-2458
▁analysis	-2459
▁fab	-2460
amet	-2461
▁ill	-2462
▁base	-2463
▁purposes	-2464
zz	-2465
▁meeting	-2466
▁28	-2467
▁plant	-2468
box	-2469
▁remain	-2470
▁wa	-2471
.8	-2472
ube	-2473
iated	-2474
▁basis	-2475
▁lake	-2476
▁never	-2477
▁payment	-2478
▁administ	-2479
▁increase	-2480
▁27	-2481
▁film	-2482
word	-2483
▁26	-2484
▁bring	-2485
▁education	-2486
aced	-2487
▁secure	-2488
▁metal	-2489
▁advant	-2490
▁consult	-2491
action	-2492
oking	-2493
▁speak	-2494
▁october	-2495
▁documents	-2496
ese	-2497
comp	-2498
▁regul	-2499
▁stren	-2500
▁august	-2501
▁immedi	-2502
▁ra	-2503
▁ep	-2504
▁sug	-2505
▁money	-2506
▁las	-2507
▁industrial	-2508
hn	-2509
mail	-2510
▁prior	-2511
ounts	-2512
▁diff	-2513
▁manuals	-2514
arth	-2515
▁feed	-2516
pose	-2517
antly	-2518
▁2013	-2519
▁season	-2520
▁experi	-2521
▁den	-2522
▁having	-2523
▁dur	-2524
▁extension	-2525
▁club	-2526
chan	-2527
▁recogn	-2528
▁assist	-2529
▁mom	-2530
▁maximum	-2531
▁son	-2532
▁arriv	-2533
ara	-2534
▁continue	-2535
▁others	-2536
▁cool	-2537
▁privacy	-2538
▁weight	-2539
ached	-2540
oid	-2541
▁shipping	-2542
▁mix	-2543
▁instru	-2544
▁unit	-2545
▁vacation	-2546
▁lic	-2547
▁basic	-2548
▁quickly	-2549
ging	-2550
▁ps	-2551
▁groups	-2552
▁ult	-2553
▁cred	-2554
▁snapshot	-2555
selves	-2556
tr	-2557
▁colour	-2558
▁wire	-2559
▁yourself	-2560
▁aim	-2561
aps	-2562
▁five	-2563
▁source	-2564
▁march	-2565
▁selection	-2566
▁invol	-2567
▁toile	-2568
unch	-2569
▁29	-2570
▁stop	-2571
▁decor	-2572
▁responsible	-2573
▁agreement	-2574
▁plus	-2575
▁gas	-2576
▁terrace	-2577
▁update	-2578
ivity	-2579
que	-2580
▁arr	-2581
▁dece	-2582
▁types	-2583
▁operation	-2584
▁eg	-2585
▁components	-2586
airs	-2587
▁claim	-2588
▁early	-2589
▁load	-2590
alu	-2591
▁length	-2592
-0	-2593
▁temperature	-2594
epend	-2595
oph	-2596
▁fix	-2597
▁resort	-2598
str	-2599
▁master	-2600
▁fish	-2601
fi	-2602
▁miles	-2603
▁altern	-2604
▁player	-2605
▁links	-2606
▁mer	-2607
▁heav	-2608
▁ho	-2609
▁mind	-2610
ano	-2611
▁gir	-2612
▁outdoor	-2613
▁official	-2614
ona	-2615
▁button	-2616
▁discuss	-2617
▁datab	-2618
▁fill	-2619
▁comments	-2620
▁growth	-2621
▁word	-2622
▁cheapest	-2623
vers	-2624
▁decision	-2625
lim	-2626
▁determ	-2627
▁archit	-2628
▁profile	-2629
▁purchase	-2630
▁subm	-2631
▁roll	-2632
▁sant	-2633
dle	-2634
time	-2635
▁amount	-2636
▁airlines	-2637
uel	-2638
▁route	-2639
▁remov	-2640
itten	-2641
itation	-2642
▁uses	-2643
▁cases	-2644
▁government	-2645
▁fed	-2646
ternal	-2647
▁reduc	-2648
▁across	-2649
▁spirit	-2650
▁chat	-2651
▁shows	-2652
▁ll	-2653
▁transm	-2654
▁capital	-2655
lig	-2656
▁cab	-2657
▁leading	-2658
▁copy	-2659
iction	-2660
▁employees	-2661
▁ap	-2662
▁outside	-2663
▁complex	-2664
▁properties	-2665
▁jack	-2666
hol	-2667
▁jew	-2668
▁award	-2669
su	-2670
▁architect	-2671
▁pain	-2672
▁students	-2673
▁medical	-2674
elling	-2675
▁wid	-2676
▁wed	-2677
ided	-2678
▁forward	-2679
light	-2680
▁toilet	-2681
▁paris	-2682
uts	-2683
▁village	-2684
▁silver	-2685
zerland	-2686
▁plug	-2687
▁either	-2688
▁swim	-2689
▁frequ	-2690
▁higher	-2691
▁parties	-2692
▁scient	-2693
▁leather	-2694
▁switzerland	-2695
▁mechan	-2696
▁offered	-2697
▁princ	-2698
▁spa	-2699
ted	-2700
bl	-2701
▁forecast	-2702
▁poly	-2703
▁half	-2704
ude	-2705
kn	-2706
▁goods	-2707
▁31	-2708
▁format	-2709
▁warm	-2710
▁suppliers	-2711
▁april	-2712
umin	-2713
▁swe	-2714
▁bul	-2715
wide	-2716
▁acqu	-2717
▁proced	-2718
▁integrated	-2719
ork	-2720
▁advert	-2721
▁trail	-2722
▁alb	-2723
▁touch	-2724
rast	-2725
▁fares	-2726
urt	-2727
▁rail	-2728
ceed	-2729
▁dancing	-2730
ooth	-2731
▁choice	-2732
ij	-2733
▁hu	-2734
▁calc	-2735
▁winter	-2736
ox	-2737
▁planning	-2738
▁itself	-2739
▁pen	-2740
▁appropri	-2741
▁fig	-2742
▁ben	-2743
▁january	-2744
apan	-2745
▁items	-2746
▁camera	-2747
▁independ	-2748
▁structure	-2749
▁grand	-2750
▁highly	-2751
▁pictures	-2752
▁propos	-2753
aches	-2754
▁villa	-2755
11	-2756
agr	-2757
▁pressure	-2758
▁programs	-2759
▁miss	-2760
▁ticket	-2761
vant	-2762
▁came	-2763
▁je	-2764
▁president	-2765
ny	-2766
sk	-2767
icult	-2768
hens	-2769
▁selected	-2770
▁describ	-2771
minute	-2772
▁taking	-2773
fa	-2774
▁mode	-2775
▁dark	-2776
▁2010	-2777
erous	-2778
▁east	-2779
▁hd	-2780
▁confir	-2781
▁cloud	-2782
▁particularly	-2783
▁lower	-2784
▁bir	-2785
▁street	-2786
ades	-2787
▁ever	-2788
▁capacity	-2789
▁visitors	-2790
▁sand	-2791
▁exec	-2792
▁hall	-2793
▁december	-2794
▁spain	-2795
▁took	-2796
▁appli	-2797
▁wifi	-2798
▁promot	-2799
atives	-2800
▁manufacturers	-2801
asons	-2802
▁concerning	-2803
▁dial	-2804
▁pow	-2805
▁bit	-2806
▁bill	-2807
▁maintain	-2808
▁caus	-2809
met	-2810
▁political	-2811
▁instruct	-2812
▁rock	-2813
▁earth	-2814
▁electronic	-2815
▁shopping	-2816
▁bon	-2817
▁iron	-2818
▁afric	-2819
▁ban	-2820
val	-2821
ourses	-2822
▁detailed	-2823
▁rat	-2824
▁supplier	-2825
▁nove	-2826
▁snow	-2827
▁evalu	-2828
▁sport	-2829
▁roleplay	-2830
▁deb	-2831
▁automatic	-2832
▁throughout	-2833
▁expert	-2834
▁fresh	-2835
▁neg	-2836
▁message	-2837
▁final	-2838
▁path	-2839
▁198	-2840
▁climate	-2841
▁nav	-2842
▁limited	-2843
▁situation	-2844
▁bor	-2845
▁heat	-2846
▁damage	-2847
▁century	-2848
imately	-2849
▁existing	-2850
▁installed	-2851
▁contains	-2852
mer	-2853
▁japan	-2854
▁solve	-2855
▁november	-2856
lies	-2857
▁suff	-2858
▁cooperation	-2859
▁peace	-2860
▁config	-2861
▁2011	-2862
asc	-2863
▁prim	-2864
▁gal	-2865
▁rare	-2866
▁id	-2867
▁wine	-2868
▁functions	-2869
isions	-2870
▁35	-2871
▁plastic	-2872
▁courses	-2873
▁classic	-2874
▁background	-2875
▁usually	-2876
▁cities	-2877
▁ven	-2878
▁amaz	-2879
▁reser	-2880
▁programme	-2881
▁rob	-2882
▁manager	-2883
▁purpose	-2884
▁variety	-2885
▁forest	-2886
▁apple	-2887
▁austria	-2888
▁corpor	-2889
hest	-2890
▁neigh	-2891
ball	-2892
▁chem	-2893
▁river	-2894
▁starting	-2895
▁explore	-2896
24	-2897
▁hyd	-2898
▁domain	-2899
▁tor	-2900
▁opening	-2901
izes	-2902
ercial	-2903
▁broad	-2904
▁kingdom	-2905
rie	-2906
▁bur	-2907
▁dv	-2908
▁square	-2909
▁origin	-2910
shop	-2911
▁prep	-2912
la	-2913
▁society	-2914
▁soon	-2915
▁dre	-2916
▁charge	-2917
iger	-2918
▁bay	-2919
oon	-2920
▁six	-2921
▁database	-2922
▁enough	-2923
▁compos	-2924
▁appropriate	-2925
▁cit	-2926
▁impact	-2927
▁pu	-2928
coming	-2929
▁remove	-2930
▁strap	-2931
▁going	-2932
sequ	-2933
▁concern	-2934
▁happy	-2935
▁heating	-2936
▁hour	-2937
▁impress	-2938
▁audio	-2939
▁properly	-2940
ham	-2941
▁frank	-2942
ologies	-2943
gu	-2944
ends	-2945
▁div	-2946
▁difficult	-2947
▁wonder	-2948
▁subst	-2949
▁external	-2950
ka	-2951
▁dim	-2952
▁science	-2953
resp	-2954
▁potential	-2955
▁90	-2956
ari	-2957
▁switch	-2958
▁received	-2959
itting	-2960
▁usb	-2961
▁written	-2962
▁deep	-2963
▁culture	-2964
90	-2965
▁done	-2966
▁father	-2967
▁perm	-2968
▁80	-2969
▁inside	-2970
▁correct	-2971
▁match	-2972
▁target	-2973
▁published	-2974
▁rates	-2975
▁battery	-2976
▁gar	-2977
▁american	-2978
▁qual	-2979
▁listed	-2980
▁running	-2981
▁situated	-2982
▁tell	-2983
orf	-2984
▁resist	-2985
▁persons	-2986
ental	-2987
▁steps	-2988
anish	-2989
▁started	-2990
▁settings	-2991
▁availability	-2992
▁metres	-2993
▁enterpr	-2994
▁cand	-2995
▁offering	-2996
▁aw	-2997
▁standards	-2998
▁friendly	-2999
▁increasing	-3000
▁fail	-3001
based	-3002
▁tren	-3003
▁32	-3004
hel	-3005
▁ball	-3006
ili	-3007
▁filter	-3008
▁court	-3009
▁fund	-3010
▁vo	-3011
▁rules	-3012
▁spr	-3013
▁deg	-3014
▁imm	-3015
imes	-3016
▁mos	-3017
▁famous	-3018
ford	-3019
▁towards	-3020
▁effects	-3021
▁commercial	-3022
▁stript	-3023
▁wal	-3024
ague	-3025
▁striptease	-3026
▁immediately	-3027
▁din	-3028
roid	-3029
▁prevent	-3030
▁pul	-3031
tenance	-3032
▁videos	-3033
▁innovative	-3034
▁resources	-3035
▁conven	-3036
▁obs	-3037
▁comparison	-3038
▁mini	-3039
▁concept	-3040
▁efficient	-3041
ga	-3042
▁conference	-3043
▁regulation	-3044
▁panel	-3045
▁maintenance	-3046
▁overview	-3047
▁cot	-3048
rup	-3049
▁tom	-3050
▁answers	-3051
inary	-3052
▁sector	-3053
▁der	-3054
urance	-3055
▁refer	-3056
▁consider	-3057
ania	-3058
▁activity	-3059
▁45	-3060
▁swiss	-3061
▁dog	-3062
ama	-3063
ertain	-3064
▁stain	-3065
▁machines	-3066
uff	-3067
▁radio	-3068
▁band	-3069
▁replace	-3070
amed	-3071
▁scre	-3072
▁highest	-3073
▁door	-3074
▁held	-3075
▁ready	-3076
▁pleas	-3077
▁achieve	-3078
▁quiet	-3079
▁decl	-3080
▁medic	-3081
▁leave	-3082
▁satell	-3083
▁understand	-3084
▁mad	-3085
eks	-3086
▁nov	-3087
▁balcon	-3088
star	-3089
▁affect	-3090
iles	-3091
25	-3092
respond	-3093
▁got	-3094
▁rot	-3095
▁block	-3096
▁though	-3097
▁fest	-3098
▁setting	-3099
▁talk	-3100
▁dining	-3101
▁convert	-3102
▁rich	-3103
ico	-3104
▁lik	-3105
▁oblig	-3106
ened	-3107
▁needed	-3108
▁obtain	-3109
▁loss	-3110
▁middle	-3111
▁vehicle	-3112
▁guarantee	-3113
umb	-3114
hern	-3115
▁cd	-3116
▁yes	-3117
ban	-3118
▁deliver	-3119
iture	-3120
▁effective	-3121
▁issues	-3122
▁technologies	-3123
mes	-3124
ien	-3125
▁reasons	-3126
▁establish	-3127
▁true	-3128
▁gall	-3129
▁advanced	-3130
ho	-3131
▁italian	-3132
encies	-3133
▁release	-3134
mp	-3135
ening	-3136
▁studies	-3137
▁piece	-3138
▁2008	-3139
aged	-3140
▁approach	-3141
▁os	-3142
▁client	-3143
▁avoid	-3144
▁iphone	-3145
▁elements	-3146
▁levels	-3147
rael	-3148
▁usa	-3149
▁foreign	-3150
iency	-3151
▁gro	-3152
▁engineering	-3153
▁reflect	-3154
▁valid	-3155
▁saint	-3156
▁@	-3157
▁jet	-3158
▁intel	-3159
▁dyn	-3160
▁words	-3161
▁baby	-3162
▁gives	-3163
▁facebook	-3164
▁rub	-3165
▁seen	-3166
▁tips	-3167
▁cry	-3168
isf	-3169
▁fer	-3170
▁2009	-3171
iding	-3172
▁essential	-3173
▁package	-3174
aves	-3175
▁exerc	-3176
rant	-3177
▁influ	-3178
hood	-3179
-3	-3180
works	-3181
▁israel	-3182
▁song	-3183
▁relevant	-3184
▁ol	-3185
▁dut	-3186
▁virt	-3187
ashion	-3188
bruary	-3189
▁500	-3190
▁exam	-3191
▁mir	-3192
▁sams	-3193
▁jud	-3194
lands	-3195
▁picture	-3196
▁district	-3197
▁favor	-3198
▁environmental	-3199
▁edit	-3200
▁swimming	-3201
▁largest	-3202
▁detect	-3203
▁mel	-3204
▁fine	-3205
▁weeks	-3206
bour	-3207
▁worldwide	-3208
▁ded	-3209
▁info	-3210
▁fall	-3211
▁consist	-3212
▁owner	-3213
▁percent	-3214
▁adop	-3215
wise	-3216
ste	-3217
▁satellite	-3218
arily	-3219
▁sus	-3220
▁wes	-3221
eth	-3222
▁exhibition	-3223
▁multi	-3224
mas	-3225
▁internal	-3226
ellow	-3227
▁adapt	-3228
ipe	-3229
duce	-3230
fully	-3231
▁death	-3232
▁sony	-3233
▁blood	-3234
▁core	-3235
▁insp	-3236
ously	-3237
▁window	-3238
km	-3239
augh	-3240
ript	-3241
more	-3242
▁edition	-3243
▁smoking	-3244
▁exact	-3245
15	-3246
▁du	-3247
ception	-3248
itter	-3249
▁rain	-3250
nes	-3251
▁vien	-3252
▁advent	-3253
▁luxury	-3254
▁defin	-3255
▁committe	-3256
isc	-3257
▁york	-3258
▁force	-3259
ville	-3260
▁repub	-3261
ief	-3262
▁cultural	-3263
aries	-3264
▁canc	-3265
▁cup	-3266
▁spring	-3267
iability	-3268
▁vict	-3269
▁status	-3270
▁jes	-3271
▁conduct	-3272
▁subsc	-3273
▁nearby	-3274
▁fashion	-3275
▁dub	-3276
▁values	-3277
▁assess	-3278
ured	-3279
abor	-3280
▁stored	-3281
▁2007	-3282
▁beginning	-3283
zy	-3284
▁fingering	-3285
▁catal	-3286
▁bike	-3287
▁john	-3288
▁reliable	-3289
fr	-3290
▁golf	-3291
▁rating	-3292
▁munich	-3293
▁hp	-3294
ette	-3295
▁presented	-3296
▁increased	-3297
▁opportunity	-3298
▁opin	-3299
rency	-3300
ography	-3301
reg	-3302
td	-3303
▁depos	-3304
▁factory	-3305
enced	-3306
▁behind	-3307
▁samsung	-3308
aming	-3309
hers	-3310
acing	-3311
▁parli	-3312
▁february	-3313
▁convers	-3314
▁stainless	-3315
ba	-3316
▁jobs	-3317
▁categories	-3318
▁ways	-3319
free	-3320
▁cleaning	-3321
za	-3322
ocks	-3323
▁turk	-3324
eed	-3325
▁regarding	-3326
oke	-3327
▁instructions	-3328
▁forum	-3329
▁credit	-3330
▁went	-3331
▁approximately	-3332
gas	-3333
▁satisf	-3334
▁viol	-3335
▁morning	-3336
▁methods	-3337
arning	-3338
yle	-3339
▁themselves	-3340
sp	-3341
▁alth	-3342
▁fabric	-3343
▁bec	-3344
▁recent	-3345
ml	-3346
set	-3347
▁updated	-3348
ishes	-3349
▁medium	-3350
▁balcony	-3351
aker	-3352
▁pick	-3353
▁reserv	-3354
▁seem	-3355
▁accur	-3356
▁70	-3357
▁established	-3358
▁investment	-3359
son	-3360
ky	-3361
▁samp	-3362
▁chair	-3363
▁sleep	-3364
ead	-3365
hold	-3366
site	-3367
ained	-3368
▁washing	-3369
▁conditioning	-3370
men	-3371
▁hosp	-3372
▁republic	-3373
▁bedrooms	-3374
▁strategy	-3375
▁interested	-3376
▁although	-3377
▁challeng	-3378
arian	-3379
▁vir	-3380
▁output	-3381
▁gree	-3382
▁enh	-3383
▁combination	-3384
▁coast	-3385
▁„	-3386
▁rap	-3387
▁born	-3388
▁civ	-3389
▁harm	-3390
▁multiple	-3391
▁practice	-3392
▁attack	-3393
▁numerous	-3394
▁parliament	-3395
▁institute	-3396
▁atm	-3397
▁sold	-3398
▁solid	-3399
▁demand	-3400
▁tun	-3401
▁artists	-3402
▁hund	-3403
▁pattern	-3404
▁accordance	-3405
▁1,	-3406
32	-3407
▁shoes	-3408
▁blog	-3409
▁austral	-3410
▁hon	-3411
▁hands	-3412
▁trust	-3413
ür	-3414
▁regional	-3415
▁cause	-3416
▁relationship	-3417
TM	-3418
▁TM	-3419
▁became	-3420
▁units	-3421
▁matter	-3422
▁implementation	-3423
▁3-	-3424
pts	-3425
▁depending	-3426
▁extrem	-3427
▁lines	-3428
▁vienna	-3429
▁stage	-3430
▁markets	-3431
▁benefits	-3432
▁kil	-3433
▁eye	-3434
dam	-3435
▁issue	-3436
vision	-3437
ife	-3438
rel	-3439
65	-3440
▁worth	-3441
▁announ	-3442
▁hundred	-3443
▁height	-3444
ulated	-3445
▁providing	-3446
▁separate	-3447
ensions	-3448
va	-3449
rian	-3450
▁controller	-3451
porary	-3452
▁gift	-3453
▁beds	-3454
▁cards	-3455
▁bright	-3456
▁cele	-3457
adem	-3458
screen	-3459
▁paint	-3460
▁cotton	-3461
comes	-3462
▁carry	-3463
▁progress	-3464
iff	-3465
▁committee	-3466
tt	-3467
itz	-3468
ender	-3469
▁register	-3470
▁movement	-3471
ini	-3472
▁ly	-3473
▁correspond	-3474
ugg	-3475
▁pieces	-3476
soft	-3477
▁spl	-3478
▁prepar	-3479
▁sustainable	-3480
▁telephone	-3481
▁=	-3482
uted	-3483
ago	-3484
agen	-3485
▁freed	-3486
▁studio	-3487
ula	-3488
▁firm	-3489
▁locations	-3490
▁thing	-3491
▁lad	-3492
▁attractions	-3493
▁64	-3494
▁300	-3495
▁players	-3496
▁historical	-3497
▁former	-3498
▁wireless	-3499
osed	-3500
▁houses	-3501
▁packaging	-3502
▁celebr	-3503
▁efficiency	-3504
▁ms	-3505
▁197	-3506
▁recommended	-3507
sch	-3508
▁competition	-3509
ios	-3510
▁apps	-3511
▁jesus	-3512
▁department	-3513
king	-3514
ried	-3515
look	-3516
▁wild	-3517
▁suite	-3518
▁association	-3519
▁shown	-3520
▁alumin	-3521
▁contents	-3522
mi	-3523
▁spect	-3524
▁everyone	-3525
▁exclusive	-3526
▁furniture	-3527
umn	-3528
▁kr	-3529
iced	-3530
▁quite	-3531
mann	-3532
▁attention	-3533
igation	-3534
▁transform	-3535
▁instead	-3536
▁cars	-3537
▁independent	-3538
asts	-3539
▁dialog	-3540
▁clients	-3541
▁fort	-3542
▁password	-3543
▁greater	-3544
▁minimum	-3545
▁stars	-3546
ius	-3547
▁assemb	-3548
▁volume	-3549
▁director	-3550
▁innovation	-3551
▁learning	-3552
▁entertain	-3553
isl	-3554
▁angel	-3555
▁thank	-3556
place	-3557
▁channels	-3558
▁tal	-3559
▁federal	-3560
▁ring	-3561
▁story	-3562
una	-3563
▁plants	-3564
▁answer	-3565
▁crit	-3566
top	-3567
▁und	-3568
▁advantage	-3569
furt	-3570
▁certific	-3571
▁vehicles	-3572
▁africa	-3573
▁tea	-3574
▁stone	-3575
▁western	-3576
▁brit	-3577
▁ing	-3578
▁says	-3579
▁joint	-3580
▁sky	-3581
▁allowed	-3582
▁produced	-3583
▁upper	-3584
izing	-3585
▁spac	-3586
inese	-3587
▁castle	-3588
▁journey	-3589
99	-3590
▁connecting	-3591
▁roy	-3592
▁spanish	-3593
iking	-3594
cm	-3595
▁valley	-3596
▁idea	-3597
▁lamp	-3598
▁android	-3599
idered	-3600
▁websites	-3601
▁compat	-3602
▁kar	-3603
▁pin	-3604
▁error	-3605
▁asked	-3606
▁meters	-3607
▁mother	-3608
▁libr	-3609
aching	-3610
▁supports	-3611
▁differen	-3612
rain	-3613
▁fol	-3614
▁beauty	-3615
ros	-3616
▁flo	-3617
▁£	-3618
vey	-3619
▁compre	-3620
▁quant	-3621
▁rather	-3622
▁eleg	-3623
▁stra	-3624
▁drivers	-3625
▁blu	-3626
illed	-3627
▁reference	-3628
▁ax	-3629
▁champ	-3630
▁drink	-3631
org	-3632
▁prob	-3633
▁newslet	-3634
sm	-3635
▁freedom	-3636
45	-3637
▁fem	-3638
16	-3639
▁2000	-3640
iling	-3641
ares	-3642
▁movie	-3643
▁evening	-3644
ext	-3645
▁moment	-3646
▁cycl	-3647
apter	-3648
▁mart	-3649
▁finally	-3650
▁directive	-3651
▁landsc	-3652
▁anti	-3653
▁seat	-3654
ple	-3655
▁dedic	-3656
▁minute	-3657
▁premium	-3658
▁warrant	-3659
▁wheel	-3660
▁nothing	-3661
▁esc	-3662
ferences	-3663
▁late	-3664
elt	-3665
icient	-3666
▁notice	-3667
amb	-3668
▁sched	-3669
▁initi	-3670
aling	-3671
▁hold	-3672
▁departure	-3673
▁ast	-3674
▁overall	-3675
▁civil	-3676
abled	-3677
▁useful	-3678
term	-3679
where	-3680
▁chinese	-3681
▁cloth	-3682
▁scen	-3683
▁rome	-3684
▁achie	-3685
▁positive	-3686
▁ideas	-3687
ola	-3688
proof	-3689
▁extremely	-3690
▁lost	-3691
▁birth	-3692
▁flexible	-3693
▁physical	-3694
▁mail	-3695
▁traff	-3696
▁vent	-3697
▁budget	-3698
▁applied	-3699
▁cold	-3700
ards	-3701
▁grad	-3702
char	-3703
▁significant	-3704
▁distribution	-3705
▁los	-3706
▁forms	-3707
▁aspect	-3708
▁powerful	-3709
.201	-3710
▁reduce	-3711
▁languages	-3712
bed	-3713
▁occur	-3714
▁memory	-3715
▁fields	-3716
▁ice	-3717
▁believe	-3718
▁vat	-3719
ocol	-3720
ault	-3721
▁que	-3722
▁mont	-3723
cd	-3724
ocr	-3725
▁academ	-3726
▁comprehens	-3727
▁kay	-3728
▁associated	-3729
▁atmosp	-3730
▁registration	-3731
18	-3732
▁hire	-3733
▁die	-3734
▁sometimes	-3735
▁cou	-3736
▁hope	-3737
▁48	-3738
▁saw	-3739
iber	-3740
14	-3741
▁expected	-3742
▁reports	-3743
▁convenient	-3744
iant	-3745
▁fat	-3746
itary	-3747
▁consent	-3748
▁wik	-3749
▁woman	-3750
▁collected	-3751
▁visual	-3752
gth	-3753
overy	-3754
▁bes	-3755
▁organic	-3756
▁creating	-3757
▁divers	-3758
itude	-3759
rid	-3760
▁benefit	-3761
▁america	-3762
▁surf	-3763
▁arrival	-3764
orm	-3765
▁gd	-3766
▁foundation	-3767
▁enable	-3768
friend	-3769
▁pure	-3770
mon	-3771
▁vit	-3772
▁colle	-3773
▁refr	-3774
▁shape	-3775
▁workshop	-3776
▁kids	-3777
▁possibility	-3778
▁van	-3779
edia	-3780
uis	-3781
▁pred	-3782
ameter	-3783
▁butt	-3784
▁getting	-3785
▁interests	-3786
▁experts	-3787
▁prefer	-3788
known	-3789
▁chain	-3790
▁monitoring	-3791
antic	-3792
▁placed	-3793
35	-3794
▁cove	-3795
rich	-3796
▁franc	-3797
▁corporate	-3798
▁dead	-3799
quality	-3800
▁dav	-3801
▁finish	-3802
75	-3803
▁helps	-3804
▁advance	-3805
▁mountains	-3806
▁christmas	-3807
▁swed	-3808
▁kg	-3809
▁carried	-3810
▁spacious	-3811
▁eyes	-3812
▁demon	-3813
▁collabor	-3814
bert	-3815
▁write	-3816
▁provider	-3817
▁administr	-3818
▁..	-3819
▁chemical	-3820
▁walking	-3821
▁fight	-3822
heim	-3823
icip	-3824
inations	-3825
wood	-3826
▁enterprise	-3827
▁pm	-3828
▁emerg	-3829
▁combined	-3830
▁́	-3831
▁pad	-3832
▁join	-3833
hr	-3834
▁shared	-3835
▁entry	-3836
att	-3837
▁manufacturing	-3838
pack	-3839
▁command	-3840
▁wonderful	-3841
▁meaning	-3842
▁strength	-3843
▁hardware	-3844
▁hamburg	-3845
▁casino	-3846
ellig	-3847
▁alt	-3848
uth	-3849
rical	-3850
▁ltd	-3851
▁possib	-3852
craft	-3853
▁task	-3854
▁interface	-3855
▁ba	-3856
▁opened	-3857
▁interior	-3858
▁lod	-3859
ani	-3860
▁citiz	-3861
▁stick	-3862
head	-3863
▁annual	-3864
ken	-3865
▁disp	-3866
rec	-3867
▁da	-3868
▁compared	-3869
▁advertising	-3870
▁destination	-3871
▁analyt	-3872
▁economy	-3873
▁goal	-3874
▁restrict	-3875
aba	-3876
▁scientific	-3877
▁pron	-3878
▁interesting	-3879
▁flash	-3880
▁doesn	-3881
▁insurance	-3882
ata	-3883
▁pil	-3884
aving	-3885
rastruct	-3886
▁equival	-3887
▁framework	-3888
▁dvd	-3889
da	-3890
▁nar	-3891
▁responsibility	-3892
▁arrange	-3893
▁doll	-3894
▁breat	-3895
▁mas	-3896
▁rh	-3897
▁guid	-3898
▁suggest	-3899
▁considered	-3900
▁2006	-3901
▁relig	-3902
▁infrastruct	-3903
nd	-3904
▁neck	-3905
▁yellow	-3906
▁microsoft	-3907
▁accommodations	-3908
▁posted	-3909
▁entr	-3910
▁pock	-3911
▁royal	-3912
▁templ	-3913
▁buff	-3914
▁confirm	-3915
▁capt	-3916
▁authorities	-3917
▁hung	-3918
▁printing	-3919
▁otherwise	-3920
▁intellig	-3921
▁album	-3922
▁buildings	-3923
▁practical	-3924
ato	-3925
▁agric	-3926
▁fant	-3927
▁dish	-3928
▁instruments	-3929
hl	-3930
▁anc	-3931
▁fal	-3932
▁ze	-3933
ancy	-3934
▁coming	-3935
fol	-3936
onse	-3937
▁traffic	-3938
▁hear	-3939
13	-3940
▁amb	-3941
▁registered	-3942
inated	-3943
▁graphics	-3944
▁fixed	-3945
▁4-	-3946
▁bey	-3947
▁skills	-3948
▁label	-3949
▁routes	-3950
22	-3951
64	-3952
▁opportunities	-3953
▁supported	-3954
▁symb	-3955
▁integration	-3956
▁ship	-3957
hab	-3958
▁context	-3959
▁solar	-3960
▁newsletter	-3961
▁delic	-3962
▁liqu	-3963
▁agricult	-3964
hem	-3965
▁haird	-3966
▁sess	-3967
iations	-3968
▁canada	-3969
▁secret	-3970
▁scan	-3971
▁frankfurt	-3972
ship	-3973
▁transpa	-3974
▁gear	-3975
▁involved	-3976
▁comment	-3977
▁operations	-3978
aria	-3979
▁translation	-3980
▁homes	-3981
▁linked	-3982
off	-3983
▁veget	-3984
▁referred	-3985
▁input	-3986
▁2005	-3987
▁bonus	-3988
▁fle	-3989
▁alternative	-3990
▁smooth	-3991
▁patients	-3992
▁adm	-3993
▁tasks	-3994
▁compli	-3995
▁logo	-3996
▁changed	-3997
▁described	-3998
▁covered	-3999
right	-4000
▁organiz	-4001
▁incor	-4002
imb	-4003
alled	-4004
▁refriger	-4005
▁paul	-4006
▁lighting	-4007
▁shops	-4008
▁assign	-4009
amm	-4010
▁enables	-4011
▁comprehensive	-4012
agon	-4013
▁updates	-4014
▁direction	-4015
ya	-4016
▁sort	-4017
▁thick	-4018
▁mention	-4019
▁bow	-4020
issions	-4021
▁deposit	-4022
▁grant	-4023
▁nort	-4024
▁signal	-4025
▁wear	-4026
▁appoint	-4027
▁thought	-4028
▁generation	-4029
▁rear	-4030
▁cycle	-4031
▁princip	-4032
oles	-4033
▁response	-4034
wh	-4035
▁edge	-4036
▁reading	-4037
▁favour	-4038
▁legisl	-4039
▁eth	-4040
hof	-4041
▁36	-4042
▁testing	-4043
rs	-4044
▁thous	-4045
▁voice	-4046
▁33	-4047
force	-4048
▁handle	-4049
▁shut	-4050
▁occas	-4051
▁cutting	-4052
agn	-4053
▁race	-4054
▁india	-4055
▁width	-4056
gs	-4057
▁reached	-4058
ja	-4059
▁dates	-4060
▁kayak	-4061
▁lock	-4062
▁liter	-4063
▁nether	-4064
▁dedicated	-4065
▁amen	-4066
pc	-4067
inate	-4068
▁ib	-4069
▁helpful	-4070
▁regulations	-4071
▁tail	-4072
▁served	-4073
▁discount	-4074
can	-4075
▁spread	-4076
▁procedure	-4077
▁contem	-4078
omb	-4079
▁microw	-4080
▁objects	-4081
▁ox	-4082
▁rein	-4083
▁bond	-4084
▁configur	-4085
▁spot	-4086
▁normal	-4087
▁actually	-4088
▁laser	-4089
▁plate	-4090
95	-4091
haus	-4092
nal	-4093
ella	-4094
▁closed	-4095
▁holidays	-4096
▁australia	-4097
aign	-4098
enge	-4099
▁compact	-4100
▁agre	-4101
▁boat	-4102
▁consumption	-4103
▁symbol	-4104
▁creative	-4105
▁bottom	-4106
▁deuts	-4107
ued	-4108
▁150	-4109
▁applicable	-4110
▁doing	-4111
▁«	-4112
▁labor	-4113
▁animals	-4114
▁organization	-4115
ops	-4116
▁colors	-4117
▁wooden	-4118
▁atmosphere	-4119
▁nut	-4120
▁ingred	-4121
▁hen	-4122
▁mig	-4123
▁barcel	-4124
▁5-	-4125
▁ord	-4126
▁concent	-4127
▁unto	-4128
▁whose	-4129
▁festival	-4130
ae	-4131
▁beyond	-4132
▁perman	-4133
▁lift	-4134
▁exercise	-4135
iers	-4136
ryer	-4137
▁aid	-4138
▁chance	-4139
▁brought	-4140
▁recently	-4141
ports	-4142
▁netherlands	-4143
▁constit	-4144
ctors	-4145
▁virtual	-4146
ero	-4147
▁writing	-4148
▁portug	-4149
▁library	-4150
▁produce	-4151
▁requires	-4152
▁ipad	-4153
inery	-4154
vent	-4155
▁architecture	-4156
▁ros	-4157
▁famil	-4158
▁population	-4159
arter	-4160
apes	-4161
point	-4162
▁mb	-4163
▁ped	-4164
▁opinion	-4165
▁taste	-4166
▁advice	-4167
▁orders	-4168
▁russian	-4169
▁growing	-4170
▁discounts	-4171
▁himself	-4172
▁neighbor	-4173
▁agencies	-4174
▁brother	-4175
▁experiences	-4176
atch	-4177
▁loun	-4178
▁fruit	-4179
▁75	-4180
▁tours	-4181
▁behav	-4182
▁license	-4183
▁fold	-4184
▁played	-4185
▁fulf	-4186
▁consumer	-4187
▁interact	-4188
▁tourist	-4189
▁38	-4190
▁equivalent	-4191
▁sheet	-4192
▁showing	-4193
▁institutions	-4194
oting	-4195
▁reduced	-4196
▁coup	-4197
▁introduc	-4198
▁tab	-4199
▁infrastructure	-4200
▁sense	-4201
▁microwave	-4202
▁ones	-4203
▁larger	-4204
▁campaign	-4205
▁islands	-4206
▁lives	-4207
▁absol	-4208
▁degree	-4209
▁clin	-4210
year	-4211
▁colours	-4212
▁tourism	-4213
▁messages	-4214
▁ef	-4215
pool	-4216
▁ability	-4217
▁brown	-4218
▁conce	-4219
▁suites	-4220
▁unless	-4221
▁playing	-4222
▁exception	-4223
vel	-4224
▁appe	-4225
ws	-4226
▁emp	-4227
▁belg	-4228
▁balance	-4229
21	-4230
▁si	-4231
▁prop	-4232
inder	-4233
▁frid	-4234
▁cash	-4235
▁boy	-4236
▁bathrooms	-4237
cost	-4238
▁measurement	-4239
bn	-4240
nel	-4241
▁russia	-4242
▁lib	-4243
▁maps	-4244
▁heavy	-4245
▁tree	-4246
▁articles	-4247
▁sofa	-4248
iate	-4249
▁teac	-4250
▁bridge	-4251
▁delive	-4252
▁pump	-4253
▁released	-4254
▁desp	-4255
▁tub	-4256
▁remains	-4257
▁extensive	-4258
▁kilomet	-4259
istry	-4260
▁dream	-4261
itch	-4262
▁bang	-4263
▁lack	-4264
▁34	-4265
▁sensor	-4266
▁barcelona	-4267
▁leaders	-4268
▁›	-4269
unt	-4270
▁protected	-4271
ulate	-4272
▁accessible	-4273
▁developing	-4274
▁alp	-4275
▁surrounding	-4276
▁tro	-4277
▁module	-4278
▁delivered	-4279
▁vibr	-4280
▁mond	-4281
▁belong	-4282
-4	-4283
▁machinery	-4284
▁resolution	-4285
▁susp	-4286
▁seven	-4287
▁hairdryer	-4288
▁seg	-4289
▁remember	-4290
▁unl	-4291
▁vision	-4292
▁participants	-4293
inc	-4294
▁founded	-4295
▁promote	-4296
▁waste	-4297
tion	-4298
▁divid	-4299
fit	-4300
▁mp	-4301
▁fitness	-4302
ket	-4303
▁driving	-4304
▁export	-4305
ils	-4306
dy	-4307
▁mainly	-4308
▁tagged	-4309
▁networks	-4310
▁limit	-4311
gl	-4312
band	-4313
▁tex	-4314
▁philips	-4315
▁execut	-4316
enty	-4317
▁icon	-4318
▁consequ	-4319
▁democr	-4320
▁creation	-4321
▁grey	-4322
▁historic	-4323
▁fee	-4324
▁repair	-4325
standing	-4326
▁statement	-4327
▁amenities	-4328
▁football	-4329
hot	-4330
rad	-4331
▁carbon	-4332
▁completed	-4333
▁challenges	-4334
▁furthermore	-4335
▁resistance	-4336
▁stress	-4337
▁flor	-4338
▁regions	-4339
▁entertainment	-4340
▁employee	-4341
▁instrument	-4342
▁browse	-4343
▁oce	-4344
19	-4345
▁profession	-4346
▁sole	-4347
▁scr	-4348
▁girl	-4349
▁coord	-4350
▁inspect	-4351
cond	-4352
▁retail	-4353
▁ye	-4354
▁names	-4355
▁specifications	-4356
▁yog	-4357
▁sizes	-4358
▁exactly	-4359
▁straight	-4360
enses	-4361
▁likely	-4362
ym	-4363
▁featuring	-4364
▁element	-4365
▁else	-4366
▁bod	-4367
sterdam	-4368
▁400	-4369
▁polic	-4370
▁rose	-4371
hips	-4372
▁urban	-4373
outh	-4374
▁196	-4375
▁warranty	-4376
▁adventure	-4377
illing	-4378
▁37	-4379
reme	-4380
▁connections	-4381
▁barb	-4382
anz	-4383
onom	-4384
▁flu	-4385
▁pros	-4386
▁catalog	-4387
▁serious	-4388
▁fuel	-4389
▁paid	-4390
▁families	-4391
▁military	-4392
arest	-4393
▁ire	-4394
▁typical	-4395
-5	-4396
▁renew	-4397
▁illust	-4398
▁counter	-4399
▁battle	-4400
▁consists	-4401
▁amsterdam	-4402
was	-4403
▁faith	-4404
▁usage	-4405
ulations	-4406
▁evaluation	-4407
apy	-4408
▁billion	-4409
▁sweet	-4410
▁mission	-4411
▁claims	-4412
▁estate	-4413
▁sout	-4414
esh	-4415
▁elegant	-4416
▁wedding	-4417
▁sear	-4418
▁satur	-4419
▁od	-4420
▁reduction	-4421
▁currency	-4422
▁flowers	-4423
▁pharm	-4424
▁numbers	-4425
▁career	-4426
▁assembly	-4427
▁owners	-4428
▁lis	-4429
▁earn	-4430
zech	-4431
ias	-4432
ena	-4433
▁sets	-4434
▁gallery	-4435
▁cabin	-4436
▁identify	-4437
ded	-4438
17	-4439
▁strengt	-4440
▁atl	-4441
▁clock	-4442
▁195	-4443
▁asus	-4444
▁healthy	-4445
▁arab	-4446
▁began	-4447
oo	-4448
▁discl	-4449
▁expand	-4450
▁drop	-4451
inding	-4452
▁animal	-4453
▁ireland	-4454
anned	-4455
rents	-4456
▁artist	-4457
ura	-4458
▁television	-4459
▁--	-4460
pm	-4461
▁feet	-4462
▁huge	-4463
▁55	-4464
▁authority	-4465
▁delet	-4466
▁hiking	-4467
eur	-4468
▁improved	-4469
▁hundreds	-4470
▁slee	-4471
iences	-4472
▁accomp	-4473
▁ta	-4474
▁rapid	-4475
ych	-4476
▁santa	-4477
▁score	-4478
▁actions	-4479
▁organis	-4480
▁magaz	-4481
▁replacement	-4482
▁mex	-4483
▁reve	-4484
rive	-4485
▁diameter	-4486
▁czech	-4487
▁electronics	-4488
▁ak	-4489
▁friday	-4490
▁aqu	-4491
rics	-4492
▁demonstr	-4493
bu	-4494
▁phase	-4495
sl	-4496
ava	-4497
▁agreed	-4498
▁magn	-4499
▁ton	-4500
▁sail	-4501
▁upgr	-4502
road	-4503
aled	-4504
▁seed	-4505
▁occup	-4506
▁goes	-4507
▁doctor	-4508
▁worked	-4509
▁thom	-4510
▁calls	-4511
▁fan	-4512
▁importance	-4513
▁tube	-4514
▁sam	-4515
atively	-4516
unc	-4517
▁eat	-4518
▁thermal	-4519
▁cris	-4520
▁decided	-4521
▁anything	-4522
▁controls	-4523
▁cer	-4524
iano	-4525
----	-4526
▁bird	-4527
▁sen	-4528
stein	-4529
▁stations	-4530
▁displ	-4531
▁stret	-4532
col	-4533
▁ko	-4534
▁agency	-4535
▁wanted	-4536
▁weekend	-4537
▁citizens	-4538
▁errors	-4539
press	-4540
▁prepared	-4541
ita	-4542
▁threat	-4543
▁challenge	-4544
▁christian	-4545
bach	-4546
▁residence	-4547
▁mich	-4548
▁letter	-4549
▁understanding	-4550
▁ok	-4551
▁asia	-4552
▁hostel	-4553
▁ist	-4554
▁functional	-4555
▁flower	-4556
aft	-4557
▁lou	-4558
▁liquid	-4559
100	-4560
▁2004	-4561
▁passeng	-4562
▁ml	-4563
▁fishing	-4564
▁gain	-4565
▁diction	-4566
shirt	-4567
▁camel	-4568
▁eight	-4569
▁ter	-4570
▁cryst	-4571
ua	-4572
▁dynamic	-4573
▁rubber	-4574
▁respective	-4575
▁slight	-4576
▁cells	-4577
condition	-4578
,5	-4579
▁sym	-4580
▁duration	-4581
▁simpl	-4582
▁golden	-4583
▁policies	-4584
onym	-4585
▁handling	-4586
▁zur	-4587
▁interp	-4588
▁administration	-4589
enue	-4590
▁withd	-4591
▁favorite	-4592
▁displayed	-4593
esc	-4594
unction	-4595
oven	-4596
idden	-4597
anch	-4598
▁compatible	-4599
▁except	-4600
▁entrance	-4601
▁perfectly	-4602
▁workers	-4603
rete	-4604
▁experim	-4605
▁extract	-4606
▁experienced	-4607
▁sin	-4608
▁bear	-4609
▁probably	-4610
ented	-4611
▁slow	-4612
▁weekly	-4613
▁surpr	-4614
▁british	-4615
▁topics	-4616
▁minim	-4617
▁42	-4618
▁roof	-4619
▁pun	-4620
▁musical	-4621
▁landscape	-4622
eter	-4623
▁tower	-4624
▁providers	-4625
▁municip	-4626
ameters	-4627
▁index	-4628
▁delete	-4629
▁rank	-4630
ael	-4631
odes	-4632
▁trou	-4633
▁gran	-4634
▁quot	-4635
▁becomes	-4636
▁channel	-4637
▁repe	-4638
▁jetcost	-4639
▁bags	-4640
▁calend	-4641
ald	-4642
▁gate	-4643
▁oven	-4644
▁japanese	-4645
▁quarter	-4646
▁journal	-4647
▁portfol	-4648
▁refrigerator	-4649
▁hill	-4650
▁launch	-4651
▁clothing	-4652
▁palace	-4653
78	-4654
▁employment	-4655
▁jul	-4656
eu	-4657
▁iso	-4658
▁wil	-4659
▁39	-4660
rated	-4661
▁gave	-4662
▁mand	-4663
▁caused	-4664
friendly	-4665
▁universal	-4666
▁certificate	-4667
▁sources	-4668
▁provisions	-4669
▁usd	-4670
osen	-4671
▁nights	-4672
▁despite	-4673
▁conver	-4674
▁jacket	-4675
▁ori	-4676
▁intended	-4677
illa	-4678
▁electrical	-4679
ker	-4680
▁horse	-4681
▁holy	-4682
▁expertise	-4683
▁sunday	-4684
▁gets	-4685
▁clearly	-4686
itors	-4687
▁ingredients	-4688
▁....	-4689
▁2003	-4690
▁proceed	-4691
▁respond	-4692
▁lapt	-4693
▁easier	-4694
▁consid	-4695
28	-4696
▁david	-4697
▁les	-4698
▁girls	-4699
▁named	-4700
osure	-4701
▁cream	-4702
▁serve	-4703
▁buying	-4704
▁bm	-4705
fo	-4706
gb	-4707
▁iv	-4708
idential	-4709
▁printed	-4710
sa	-4711
forts	-4712
▁peter	-4713
▁contemporary	-4714
▁roman	-4715
berry	-4716
▁corresponding	-4717
une	-4718
▁cham	-4719
▁mechanical	-4720
▁transmission	-4721
leg	-4722
▁braz	-4723
▁authen	-4724
list	-4725
▁fees	-4726
▁encour	-4727
23	-4728
▁alex	-4729
ki	-4730
▁advantages	-4731
bar	-4732
roy	-4733
▁brands	-4734
▁species	-4735
▁topic	-4736
cles	-4737
▁specif	-4738
▁achieved	-4739
.99	-4740
down	-4741
▁amazing	-4742
▁processed	-4743
▁194	-4744
▁diam	-4745
▁spend	-4746
▁transf	-4747
uz	-4748
▁revolution	-4749
▁alone	-4750
▁plans	-4751
▁scale	-4752
▁railway	-4753
▁directory	-4754
▁influence	-4755
▁euros	-4756
▁certified	-4757
▁adults	-4758
▁optimal	-4759
▁recovery	-4760
uge	-4761
▁poland	-4762
no	-4763
▁psych	-4764
▁ride	-4765
▁notes	-4766
▁looks	-4767
▁dinner	-4768
▁2-	-4769
▁conversion	-4770
▁ancient	-4771
▁bol	-4772
▁burn	-4773
▁corner	-4774
▁attem	-4775
▁trading	-4776
ün	-4777
bre	-4778
▁leader	-4779
▁aspects	-4780
▁presentation	-4781
▁44	-4782
▁2020	-4783
▁displays	-4784
estic	-4785
▁zone	-4786
▁wishes	-4787
▁desired	-4788
ull	-4789
▁publish	-4790
po	-4791
▁frequently	-4792
car	-4793
▁assistance	-4794
nis	-4795
▁fif	-4796
▁tap	-4797
▁drug	-4798
pped	-4799
▁compress	-4800
▁mur	-4801
weight	-4802
akers	-4803
ii	-4804
▁milk	-4805
▁elev	-4806
▁seconds	-4807
ror	-4808
▁holder	-4809
▁significantly	-4810
▁hit	-4811
▁seating	-4812
▁lounge	-4813
▁extended	-4814
▁medicine	-4815
rd	-4816
orted	-4817
33	-4818
▁changing	-4819
▁bos	-4820
ibaba	-4821
ais	-4822
▁inner	-4823
▁pleasant	-4824
ras	-4825
▁structures	-4826
▁truth	-4827
▁authentic	-4828
▁dang	-4829
▁volt	-4830
▁ensures	-4831
▁default	-4832
▁cuis	-4833
gin	-4834
▁insert	-4835
▁salt	-4836
▁basket	-4837
vc	-4838
inks	-4839
vere	-4840
apers	-4841
▁circum	-4842
▁infect	-4843
▁indoor	-4844
▁rule	-4845
▁49	-4846
cont	-4847
rief	-4848
▁mete	-4849
iveness	-4850
▁examples	-4851
rip	-4852
▁breath	-4853
abilities	-4854
▁cra	-4855
▁panor	-4856
▁performed	-4857
▁250	-4858
toe	-4859
▁gb	-4860
▁lies	-4861
▁presence	-4862
▁guaranteed	-4863
▁fu	-4864
▁shar	-4865
▁applies	-4866
vo	-4867
lets	-4868
▁ads	-4869
▁designs	-4870
ypt	-4871
▁floors	-4872
▁gh	-4873
cam	-4874
hour	-4875
▁pray	-4876
▁whom	-4877
▁defined	-4878
▁laws	-4879
▁wars	-4880
▁province	-4881
▁raw	-4882
▁expensive	-4883
▁listen	-4884
orrow	-4885
▁compliance	-4886
▁aer	-4887
▁profit	-4888
▁turkey	-4889
otive	-4890
▁conflic	-4891
▁bottle	-4892
▁monday	-4893
ira	-4894
orge	-4895
▁dishwas	-4896
▁teaching	-4897
▁alibaba	-4898
▁noticed	-4899
haps	-4900
iques	-4901
▁anyone	-4902
▁everyday	-4903
othes	-4904
▁orange	-4905
xx	-4906
▁perhaps	-4907
▁generally	-4908
▁reception	-4909
▁figure	-4910
made	-4911
▁trees	-4912
▁sche	-4913
▁student	-4914
▁thread	-4915
▁bruss	-4916
iro	-4917
▁sac	-4918
ns	-4919
▁camping	-4920
▁assessment	-4921
▁prote	-4922
erve	-4923
▁preparation	-4924
▁procedures	-4925
usion	-4926
▁youth	-4927
▁constant	-4928
quir	-4929
gn	-4930
alle	-4931
▁giving	-4932
▁65	-4933
▁ocean	-4934
▁walls	-4935
oring	-4936
▁leads	-4937
▁reform	-4938
▁cameltoe	-4939
▁twitter	-4940
▁followed	-4941
▁arts	-4942
▁desktop	-4943
▁liability	-4944
▁successfully	-4945
enz	-4946
▁belt	-4947
▁oppos	-4948
▁bluet	-4949
▁northern	-4950
▁dro	-4951
chers	-4952
▁female	-4953
▁hun	-4954
▁strip	-4955
▁impl	-4956
▁brussels	-4957
▁principle	-4958
▁parameters	-4959
▁introduction	-4960
▁fans	-4961
dr	-4962
▁resid	-4963
oms	-4964
▁ht	-4965
▁bars	-4966
▁faster	-4967
▁alarm	-4968
ray	-4969
field	-4970
▁covers	-4971
▁criter	-4972
▁magnet	-4973
▁theme	-4974
▁concrete	-4975
▁occasion	-4976
▁difference	-4977
inst	-4978
▁diet	-4979
▁someone	-4980
▁saturday	-4981
▁dc	-4982
▁configuration	-4983
▁guit	-4984
▁carriers	-4985
olic	-4986
▁depth	-4987
▁diamond	-4988
▁copyright	-4989
▁01	-4990
▁attractive	-4991
▁shel	-4992
▁yoga	-4993
▁brazil	-4994
▁cookie	-4995
▁amend	-4996
▁sufficient	-4997
▁theat	-4998
▁versions	-4999
iny	-5000
equ	-5001
▁belgium	-5002
oren	-5003
▁wash	-5004
▁effort	-5005
▁automated	-5006
▁measuring	-5007
▁conclus	-5008
▁proposal	-5009
▁chosen	-5010
mo	-5011
body	-5012
called	-5013
▁lights	-5014
▁bluetooth	-5015
▁mostly	-5016
▁feedback	-5017
▁wants	-5018
▁fundament	-5019
used	-5020
▁imag	-5021
▁diagn	-5022
supp	-5023
▁tank	-5024
▁laun	-5025
▁recip	-5026
▁actual	-5027
▁greece	-5028
▁scope	-5029
▁executive	-5030
iring	-5031
▁twin	-5032
▁amazon	-5033
▁editor	-5034
▁furnished	-5035
▁magic	-5036
▁dishwasher	-5037
▁tests	-5038
,00	-5039
eck	-5040
▁layer	-5041
▁auto	-5042
▁120	-5043
▁chic	-5044
▁border	-5045
▁tel	-5046
▁zurich	-5047
style	-5048
▁1000	-5049
▁told	-5050
▁dispos	-5051
▁businesses	-5052
ami	-5053
▁95	-5054
▁reserve	-5055
▁precision	-5056
rep	-5057
▁forces	-5058
▁stands	-5059
amin	-5060
lights	-5061
anda	-5062
care	-5063
▁fis	-5064
▁certainly	-5065
▁transportation	-5066
▁leis	-5067
▁beaches	-5068
▁withdraw	-5069
▁reality	-5070
▁mis	-5071
▁interview	-5072
▁weld	-5073
▁thomas	-5074
iance	-5075
rome	-5076
▁diss	-5077
▁doors	-5078
je	-5079
▁imposs	-5080
▁parents	-5081
ogne	-5082
▁county	-5083
▁compr	-5084
▁strategic	-5085
inity	-5086
▁police	-5087
▁airports	-5088
otic	-5089
▁dictionary	-5090
▁valu	-5091
▁moving	-5092
▁stability	-5093
aped	-5094
▁sweden	-5095
▁bought	-5096
▁primary	-5097
gi	-5098
▁voc	-5099
▁england	-5100
▁dimensions	-5101
27	-5102
cluded	-5103
▁printer	-5104
ora	-5105
▁depend	-5106
▁minister	-5107
▁leisure	-5108
▁requested	-5109
▁fitted	-5110
▁schools	-5111
▁investig	-5112
▁mist	-5113
▁portfolio	-5114
▁sauna	-5115
▁industries	-5116
▁proud	-5117
unately	-5118
▁renov	-5119
bul	-5120
▁lie	-5121
▁weak	-5122
lt	-5123
rum	-5124
▁resear	-5125
party	-5126
▁hospital	-5127
▁resulting	-5128
▁genu	-5129
▁earli	-5130
actions	-5131
▁registry	-5132
▁jac	-5133
▁onto	-5134
▁pink	-5135
▁factors	-5136
▁pok	-5137
▁optional	-5138
pers	-5139
▁cin	-5140
▁recy	-5141
▁dance	-5142
▁analytics	-5143
▁kw	-5144
pie	-5145
▁2002	-5146
▁egypt	-5147
▁session	-5148
ala	-5149
▁repro	-5150
▁starts	-5151
▁concerned	-5152
eff	-5153
anging	-5154
▁appearance	-5155
▁pip	-5156
▁construct	-5157
▁contacts	-5158
▁spaces	-5159
tg	-5160
▁prague	-5161
▁sq	-5162
▁managed	-5163
isco	-5164
▁hab	-5165
eller	-5166
▁logistics	-5167
26	-5168
▁dual	-5169
▁crisis	-5170
▁exciting	-5171
▁determine	-5172
onia	-5173
▁fear	-5174
▁entit	-5175
▁shirt	-5176
▁43	-5177
▁male	-5178
▁vector	-5179
ifications	-5180
mar	-5181
▁adopted	-5182
lan	-5183
▁laptop	-5184
▁cuisine	-5185
erse	-5186
▁towels	-5187
lar	-5188
▁cla	-5189
▁dol	-5190
▁disease	-5191
▁passion	-5192
▁mentioned	-5193
▁uns	-5194
▁saying	-5195
▁smaller	-5196
▁supporting	-5197
▁component	-5198
▁banks	-5199
▁dishes	-5200
unciation	-5201
▁characteristics	-5202
▁surv	-5203
▁finished	-5204
▁neighborhood	-5205
▁eastern	-5206
ida	-5207
▁bern	-5208
▁backup	-5209
▁ket	-5210
▁brief	-5211
ista	-5212
▁incl	-5213
pet	-5214
▁previously	-5215
▁steam	-5216
▁rig	-5217
▁critical	-5218
▁cock	-5219
▁pill	-5220
▁impossible	-5221
ilit	-5222
▁contrast	-5223
85	-5224
▁principles	-5225
itory	-5226
▁pret	-5227
▁outstanding	-5228
▁specifically	-5229
▁feeling	-5230
▁bik	-5231
▁sap	-5232
▁surrounded	-5233
▁porn	-5234
▁croat	-5235
ti	-5236
▁ga	-5237
▁modules	-5238
▁sample	-5239
▁superior	-5240
▁subsequ	-5241
▁posts	-5242
▁calendar	-5243
overed	-5244
▁possibilities	-5245
▁elim	-5246
▁navigation	-5247
▁competitive	-5248
nam	-5249
▁rated	-5250
▁housing	-5251
raul	-5252
▁organisation	-5253
utor	-5254
▁expans	-5255
▁keeping	-5256
▁luc	-5257
▁tablet	-5258
▁managing	-5259
bles	-5260
▁cord	-5261
charge	-5262
▁queen	-5263
▁thy	-5264
wear	-5265
▁guides	-5266
▁sequ	-5267
▁orgas	-5268
▁prepare	-5269
▁util	-5270
▁nearest	-5271
▁600	-5272
▁login	-5273
▁subscrib	-5274
▁medit	-5275
▁notebook	-5276
▁sciences	-5277
itage	-5278
roll	-5279
▁ukrain	-5280
oust	-5281
▁tip	-5282
pective	-5283
▁tomorrow	-5284
ko	-5285
▁goals	-5286
▁manner	-5287
▁awa	-5288
▁horiz	-5289
robe	-5290
▁initial	-5291
▁communications	-5292
▁offices	-5293
sec	-5294
▁prize	-5295
▁powder	-5296
▁merc	-5297
icing	-5298
▁stable	-5299
▁turned	-5300
▁adjustable	-5301
▁aluminium	-5302
-10	-5303
▁tru	-5304
ander	-5305
erved	-5306
agraph	-5307
▁reservation	-5308
ef	-5309
▁labour	-5310
eline	-5311
bal	-5312
▁screw	-5313
▁visible	-5314
▁patient	-5315
▁permanent	-5316
▁fib	-5317
clusive	-5318
▁operate	-5319
het	-5320
▁madrid	-5321
▁destroy	-5322
osing	-5323
▁chron	-5324
▁designer	-5325
▁spiritual	-5326
▁southern	-5327
ingu	-5328
▁disabled	-5329
▁collaboration	-5330
▁participation	-5331
related	-5332
200	-5333
▁pronunciation	-5334
▁cooling	-5335
36	-5336
▁eb	-5337
▁lovely	-5338
▁moved	-5339
▁hidden	-5340
▁kl	-5341
well	-5342
▁accepted	-5343
▁afford	-5344
▁rise	-5345
▁soph	-5346
▁campsite	-5347
▁wet	-5348
▁cott	-5349
▁peak	-5350
▁keyboard	-5351
▁automotive	-5352
otes	-5353
▁painting	-5354
▁popularity	-5355
▁polish	-5356
▁jer	-5357
erts	-5358
▁nic	-5359
▁didn	-5360
▁attach	-5361
▁adapter	-5362
▁rack	-5363
▁truck	-5364
▁automation	-5365
▁flexibility	-5366
▁felt	-5367
▁teams	-5368
▁specialist	-5369
▁statistics	-5370
▁coupl	-5371
▁fantastic	-5372
▁ru	-5373
▁extent	-5374
▁pocket	-5375
des	-5376
▁mexico	-5377
▁frequency	-5378
▁galax	-5379
▁apprec	-5380
▁column	-5381
▁upload	-5382
▁divided	-5383
▁1.0	-5384
▁unc	-5385
oured	-5386
▁partnership	-5387
▁opens	-5388
▁commitment	-5389
▁jose	-5390
▁mut	-5391
▁sor	-5392
▁2.0	-5393
marks	-5394
▁spare	-5395
▁lunch	-5396
▁cancel	-5397
▁wellness	-5398
▁continuous	-5399
▁hos	-5400
alf	-5401
icit	-5402
▁vel	-5403
▁equal	-5404
▁guard	-5405
▁highlight	-5406
▁joy	-5407
▁pair	-5408
▁specified	-5409
▁gent	-5410
▁norm	-5411
▁appears	-5412
enh	-5413
▁190	-5414
▁pets	-5415
▁soul	-5416
▁buffet	-5417
▁funds	-5418
bur	-5419
anged	-5420
▁instance	-5421
atures	-5422
▁mobility	-5423
▁64-	-5424
ester	-5425
▁bicy	-5426
▁sights	-5427
88	-5428
umps	-5429
▁bound	-5430
▁ultra	-5431
▁fridge	-5432
▁runs	-5433
▁certification	-5434
▁asc	-5435
▁criteria	-5436
▁supplies	-5437
▁efforts	-5438
▁finance	-5439
▁division	-5440
▁besides	-5441
▁vert	-5442
▁acid	-5443
▁risks	-5444
▁servers	-5445
▁functionality	-5446
▁sugar	-5447
▁kh	-5448
▁sab	-5449
▁negot	-5450
▁von	-5451
.10	-5452
azz	-5453
▁dutch	-5454
▁hydraul	-5455
▁interpret	-5456
▁mall	-5457
▁split	-5458
▁1.5	-5459
▁michael	-5460
▁tested	-5461
▁genuine	-5462
rate	-5463
water	-5464
ervation	-5465
▁continued	-5466
rit	-5467
▁flag	-5468
▁guitar	-5469
paper	-5470
▁viewed	-5471
▁magazine	-5472
▁operator	-5473
▁visiting	-5474
34	-5475
zen	-5476
wing	-5477
▁46	-5478
ucks	-5479
▁fra	-5480
elled	-5481
▁hydro	-5482
ifying	-5483
▁milan	-5484
▁clothes	-5485
▁daugh	-5486
▁lit	-5487
▁gene	-5488
kl	-5489
ione	-5490
bel	-5491
▁il	-5492
▁recycl	-5493
▁records	-5494
▁documentation	-5495
▁ram	-5496
▁©	-5497
▁adult	-5498
▁stretch	-5499
wer	-5500
▁relating	-5501
▁decisions	-5502
▁2001	-5503
elines	-5504
▁stylish	-5505
▁sd	-5506
▁programmes	-5507
erate	-5508
ör	-5509
▁slightly	-5510
▁consulting	-5511
hus	-5512
▁kb	-5513
▁objective	-5514
▁lowest	-5515
▁gdpr	-5516
▁cooking	-5517
▁cycling	-5518
▁carefully	-5519
▁om	-5520
▁operators	-5521
▁parad	-5522
▁transparent	-5523
enn	-5524
▁saved	-5525
▁shad	-5526
▁searches	-5527
▁remaining	-5528
itely	-5529
▁dell	-5530
iously	-5531
ursday	-5532
▁champions	-5533
ensity	-5534
▁belie	-5535
▁surroundings	-5536
▁hong	-5537
▁absor	-5538
▁unfort	-5539
▁leaves	-5540
▁embed	-5541
▁regularly	-5542
▁planned	-5543
supported	-5544
▁abroad	-5545
▁decide	-5546
▁austrian	-5547
▁spray	-5548
▁voltage	-5549
▁noise	-5550
▁serves	-5551
▁practices	-5552
▁destinations	-5553
▁compens	-5554
▁enhance	-5555
▁24-	-5556
▁ul	-5557
▁seems	-5558
hou	-5559
▁linen	-5560
▁sides	-5561
▁figures	-5562
▁viewing	-5563
spe	-5564
▁hero	-5565
▁estim	-5566
urb	-5567
icon	-5568
▁tags	-5569
▁electricity	-5570
idi	-5571
▁az	-5572
▁affected	-5573
38	-5574
uv	-5575
unning	-5576
▁nations	-5577
▁crystal	-5578
▁addresses	-5579
ystem	-5580
▁tennis	-5581
▁por	-5582
▁anne	-5583
▁wife	-5584
▁semin	-5585
▁accel	-5586
▁resol	-5587
▁circumst	-5588
▁impressive	-5589
opes	-5590
▁brings	-5591
ograp	-5592
▁controlled	-5593
how	-5594
▁emot	-5595
▁deploy	-5596
▁pix	-5597
▁exceed	-5598
pal	-5599
▁jump	-5600
▁lots	-5601
▁ward	-5602
▁recon	-5603
▁convent	-5604
▁poll	-5605
▁confirmation	-5606
77	-5607
▁moist	-5608
▁educational	-5609
▁fi	-5610
▁cologne	-5611
▁caf	-5612
▁constantly	-5613
ovo	-5614
uits	-5615
▁ferry	-5616
▁wrong	-5617
▁heard	-5618
cks	-5619
▁generated	-5620
▁oh	-5621
▁datas	-5622
▁removed	-5623
▁heritage	-5624
phones	-5625
▁legit	-5626
▁ratings	-5627
▁transfers	-5628
▁legislation	-5629
▁arg	-5630
page	-5631
▁survey	-5632
▁romantic	-5633
▁hood	-5634
▁emph	-5635
▁characters	-5636
acle	-5637
▁virus	-5638
▁submit	-5639
▁stories	-5640
▁template	-5641
▁sem	-5642
errane	-5643
▁suits	-5644
unk	-5645
▁folder	-5646
▁implemented	-5647
▁stream	-5648
iliar	-5649
▁seller	-5650
▁provision	-5651
vas	-5652
▁sud	-5653
▁meat	-5654
orders	-5655
exe	-5656
▁anonym	-5657
▁chocol	-5658
▁awarded	-5659
▁biggest	-5660
▁toy	-5661
heet	-5662
▁advis	-5663
tor	-5664
win	-5665
▁li	-5666
▁dust	-5667
▁committed	-5668
▁tables	-5669
▁pursu	-5670
▁creates	-5671
rif	-5672
▁thin	-5673
▁47	-5674
▁introduced	-5675
rim	-5676
feld	-5677
▁riding	-5678
▁positions	-5679
▁institution	-5680
▁racing	-5681
▁facility	-5682
▁paragraph	-5683
▁jewel	-5684
aza	-5685
▁boss	-5686
▁combine	-5687
umes	-5688
▁cub	-5689
▁income	-5690
29	-5691
▁nap	-5692
nesday	-5693
▁proof	-5694
▁toiletries	-5695
▁iii	-5696
▁discussion	-5697
▁archive	-5698
▁calif	-5699
▁ratio	-5700
▁vin	-5701
▁sustainability	-5702
▁kore	-5703
▁returned	-5704
ims	-5705
▁fro	-5706
limited	-5707
▁concert	-5708
▁identity	-5709
▁announced	-5710
▁spent	-5711
gets	-5712
▁flav	-5713
▁clar	-5714
▁undert	-5715
▁rib	-5716
▁heaven	-5717
▁entitled	-5718
ila	-5719
▁kong	-5720
uesday	-5721
▁lcd	-5722
ahn	-5723
ema	-5724
▁gardens	-5725
▁bra	-5726
▁wit	-5727
emark	-5728
asting	-5729
▁statements	-5730
▁mosc	-5731
▁scene	-5732
wa	-5733
▁philos	-5734
▁bell	-5735
▁travelling	-5736
▁lan	-5737
▁initiative	-5738
▁thursday	-5739
▁unfortunately	-5740
▁vic	-5741
▁professionals	-5742
▁obv	-5743
▁wholes	-5744
▁contained	-5745
▁facilit	-5746
ores	-5747
▁consc	-5748
▁causes	-5749
▁climb	-5750
▁containing	-5751
▁demands	-5752
▁submitted	-5753
▁publication	-5754
ourg	-5755
▁extreme	-5756
▁trends	-5757
▁expectations	-5758
▁85	-5759
▁brain	-5760
▁convention	-5761
▁reliability	-5762
▁proven	-5763
▁thousands	-5764
▁caps	-5765
▁coat	-5766
▁administrative	-5767
▁reported	-5768
▁indian	-5769
▁expansion	-5770
▁smartphone	-5771
▁contribution	-5772
iba	-5773
inct	-5774
stra	-5775
aya	-5776
▁audi	-5777
▁mouse	-5778
▁decre	-5779
ographic	-5780
▁aware	-5781
▁supplement	-5782
▁bund	-5783
▁compl	-5784
▁acquis	-5785
▁hospit	-5786
▁army	-5787
▁unsupported	-5788
alt	-5789
bnb	-5790
▁surg	-5791
▁galaxy	-5792
▁singap	-5793
▁entered	-5794
wr	-5795
-201	-5796
▁therapy	-5797
▁consumers	-5798
key	-5799
osis	-5800
▁800	-5801
▁dies	-5802
▁ster	-5803
▁packages	-5804
▁\	-5805
▁refuge	-5806
▁airbnb	-5807
▁developments	-5808
▁older	-5809
inating	-5810
▁10-	-5811
▁bac	-5812
▁waiting	-5813
going	-5814
▁keyword	-5815
erranean	-5816
▁unlimited	-5817
town	-5818
▁majority	-5819
▁attempt	-5820
▁berg	-5821
▁finding	-5822
hand	-5823
▁rou	-5824
▁nord	-5825
see	-5826
▁inj	-5827
▁portal	-5828
gg	-5829
▁emphas	-5830
▁wolf	-5831
▁confidence	-5832
▁inject	-5833
▁techniques	-5834
▁invent	-5835
▁joh	-5836
▁recording	-5837
▁gig	-5838
▁accuracy	-5839
▁reviewed	-5840
▁salz	-5841
▁cad	-5842
▁luck	-5843
▁moscow	-5844
▁concepts	-5845
looking	-5846
▁californ	-5847
tered	-5848
▁trips	-5849
▁delicious	-5850
life	-5851
▁brake	-5852
▁schedule	-5853
39	-5854
jo	-5855
xy	-5856
tube	-5857
▁chart	-5858
▁sharp	-5859
▁motorcy	-5860
▁presents	-5861
▁increases	-5862
adt	-5863
▁andre	-5864
▁priority	-5865
▁lg	-5866
▁mirror	-5867
ado	-5868
▁terminal	-5869
▁·	-5870
▁neither	-5871
▁relaxing	-5872
dll	-5873
▁hat	-5874
▁bread	-5875
▁measured	-5876
▁determined	-5877
▁07	-5878
▁bio	-5879
owned	-5880
▁seam	-5881
▁contribute	-5882
▁fundamental	-5883
cs	-5884
▁couple	-5885
▁cheaper	-5886
▁clicking	-5887
▁crim	-5888
▁moreover	-5889
68	-5890
ucle	-5891
▁died	-5892
▁portugal	-5893
▁utility	-5894
▁happens	-5895
▁accurate	-5896
gal	-5897
▁weap	-5898
▁happened	-5899
▁incorpor	-5900
class	-5901
▁doub	-5902
▁meets	-5903
▁minib	-5904
fts	-5905
ova	-5906
▁lect	-5907
▁thou	-5908
▁mouth	-5909
zzle	-5910
▁kept	-5911
▁newly	-5912
ji	-5913
▁pipe	-5914
▁ath	-5915
▁oly	-5916
eland	-5917
▁plenty	-5918
▁coating	-5919
▁ts	-5920
iled	-5921
▁inhab	-5922
▁motion	-5923
▁wednesday	-5924
▁laund	-5925
▁declar	-5926
▁hydraulic	-5927
ris	-5928
anges	-5929
▁justice	-5930
▁revenue	-5931
eries	-5932
▁kinds	-5933
▁lisbon	-5934
▁signed	-5935
▁stores	-5936
▁organizations	-5937
37	-5938
heless	-5939
▁push	-5940
eless	-5941
▁candid	-5942
lis	-5943
▁truly	-5944
▁optical	-5945
▁charming	-5946
▁negative	-5947
▁ware	-5948
▁trying	-5949
▁sensors	-5950
▁mt	-5951
▁aluminum	-5952
▁requests	-5953
bus	-5954
▁cru	-5955
▁va	-5956
▁coc	-5957
▁emissions	-5958
do	-5959
▁09	-5960
▁assets	-5961
▁continues	-5962
▁99	-5963
eldorf	-5964
▁meteo	-5965
▁trend	-5966
▁filled	-5967
▁pleasure	-5968
▁vs	-5969
ige	-5970
▁vip	-5971
▁vess	-5972
▁nearly	-5973
▁approved	-5974
▁passed	-5975
▁follows	-5976
▁decorated	-5977
hi	-5978
▁lose	-5979
▁sto	-5980
▁olymp	-5981
▁tuesday	-5982
bi	-5983
▁trademark	-5984
▁wheels	-5985
▁inspired	-5986
aga	-5987
▁08	-5988
▁preview	-5989
▁exclusively	-5990
▁vary	-5991
▁180	-5992
▁pit	-5993
▁representatives	-5994
▁matt	-5995
▁martin	-5996
▁planet	-5997
▁domestic	-5998
▁stut	-5999
▁attrib	-6000
▁sensitive	-6001
▁valve	-6002
oe	-6003
▁bmw	-6004
▁fasc	-6005
▁songs	-6006
▁flying	-6007
▁precise	-6008
▁camer	-6009
▁singapore	-6010
▁mediterranean	-6011
▁speakers	-6012
iki	-6013
▁keys	-6014
▁agent	-6015
oration	-6016
▁individuals	-6017
▁familiar	-6018
▁california	-6019
vest	-6020
▁bodies	-6021
▁highlights	-6022
anks	-6023
▁funding	-6024
▁sharing	-6025
▁allowing	-6026
▁thinking	-6027
▁2.5	-6028
▁poor	-6029
▁container	-6030
▁lightweight	-6031
▁tempor	-6032
▁agricultural	-6033
▁engage	-6034
▁movies	-6035
55	-6036
▁trial	-6037
▁holding	-6038
▁visited	-6039
▁valuable	-6040
▁legend	-6041
uxe	-6042
ador	-6043
▁lugg	-6044
69	-6045
▁summary	-6046
▁wait	-6047
▁discip	-6048
▁filters	-6049
▁massage	-6050
▁sectors	-6051
▁statist	-6052
▁theatre	-6053
▁resource	-6054
▁circumstances	-6055
▁hob	-6056
▁enem	-6057
ellers	-6058
▁guided	-6059
uum	-6060
war	-6061
▁meetings	-6062
▁indeed	-6063
▁xp	-6064
noon	-6065
▁facts	-6066
▁recorded	-6067
▁nation	-6068
▁hus	-6069
▁moon	-6070
▁universe	-6071
▁objectives	-6072
▁ot	-6073
▁beer	-6074
▁forget	-6075
▁orgasm	-6076
▁meal	-6077
▁drinks	-6078
rees	-6079
▁59	-6080
▁invo	-6081
▁quantity	-6082
▁issued	-6083
▁earlier	-6084
▁afternoon	-6085
▁sar	-6086
▁delay	-6087
▁unknown	-6088
ails	-6089
▁participate	-6090
▁luggage	-6091
▁agents	-6092
▁cosmet	-6093
▁religious	-6094
▁41	-6095
▁lens	-6096
▁na	-6097
▁segment	-6098
oster	-6099
▁definitely	-6100
orter	-6101
fm	-6102
▁sad	-6103
▁monu	-6104
▁mixed	-6105
▁accounts	-6106
dorf	-6107
▁beat	-6108
▁films	-6109
▁signs	-6110
▁entries	-6111
▁payments	-6112
irl	-6113
▁asp	-6114
▁stim	-6115
ifts	-6116
▁skiing	-6117
▁trains	-6118
▁cyl	-6119
▁pend	-6120
▁guidelines	-6121
▁chf	-6122
▁chocolate	-6123
▁lu	-6124
▁brace	-6125
holders	-6126
▁zip	-6127
tgart	-6128
▁bout	-6129
▁hole	-6130
▁imper	-6131
▁saving	-6132
▁missing	-6133
▁transferred	-6134
fs	-6135
▁fried	-6136
▁proposed	-6137
▁organisations	-6138
west	-6139
▁tracking	-6140
ager	-6141
▁nom	-6142
▁lam	-6143
▁semi	-6144
▁slim	-6145
▁speaker	-6146
▁strengthen	-6147
tes	-6148
▁surfaces	-6149
▁neu	-6150
▁tract	-6151
▁formed	-6152
▁specialists	-6153
run	-6154
ifier	-6155
▁bios	-6156
▁happen	-6157
▁incred	-6158
▁sounds	-6159
31	-6160
▁pretty	-6161
▁greek	-6162
▁becoming	-6163
tz	-6164
▁02	-6165
▁classes	-6166
▁increasingly	-6167
mat	-6168
▁trig	-6169
elle	-6170
▁dra	-6171
▁laundry	-6172
▁cancer	-6173
▁rid	-6174
▁maxim	-6175
▁54	-6176
▁nucle	-6177
▁corrup	-6178
▁circuit	-6179
▁obligations	-6180
▁vint	-6181
smoking	-6182
▁mc	-6183
flow	-6184
▁buck	-6185
▁shuttle	-6186
▁stuttgart	-6187
▁1999	-6188
▁gradu	-6189
▁analyz	-6190
▁ministry	-6191
▁additionally	-6192
iest	-6193
▁formats	-6194
▁emergency	-6195
▁operational	-6196
▁bou	-6197
▁shell	-6198
▁theory	-6199
▁waters	-6200
▁evidence	-6201
▁au	-6202
▁interv	-6203
▁grounds	-6204
▁ss	-6205
▁prison	-6206
▁attached	-6207
▁forg	-6208
▁temple	-6209
▁photography	-6210
away	-6211
ildo	-6212
night	-6213
▁absolut	-6214
▁visitor	-6215
ere	-6216
▁denmark	-6217
▁platforms	-6218
▁relaxation	-6219
ales	-6220
▁improving	-6221
▁definition	-6222
▁domin	-6223
▁isl	-6224
obe	-6225
▁motiv	-6226
▁turkish	-6227
▁establishment	-6228
▁vine	-6229
ipl	-6230
▁factor	-6231
▁vacuum	-6232
66	-6233
74	-6234
▁isn	-6235
icks	-6236
▁bil	-6237
▁defect	-6238
▁accompan	-6239
yr	-6240
▁phen	-6241
▁broch	-6242
▁angeles	-6243
▁2,	-6244
▁alg	-6245
quet	-6246
▁victor	-6247
▁electro	-6248
▁stunning	-6249
▁cs	-6250
ante	-6251
▁hub	-6252
▁mounting	-6253
▁directions	-6254
▁bav	-6255
▁comply	-6256
ache	-6257
gers	-6258
▁agreements	-6259
▁individually	-6260
iner	-6261
▁marked	-6262
▁moments	-6263
▁rural	-6264
▁dublin	-6265
▁gi	-6266
▁ka	-6267
▁composition	-6268
▁supplied	-6269
▁preferred	-6270
▁waterproof	-6271
▁abst	-6272
▁lady	-6273
▁taxi	-6274
▁sending	-6275
asp	-6276
▁knows	-6277
ogen	-6278
▁chi	-6279
▁joined	-6280
▁isol	-6281
▁venice	-6282
▁charging	-6283
▁batteries	-6284
▁sunny	-6285
-8	-6286
▁eco	-6287
▁disapp	-6288
▁prime	-6289
erce	-6290
iration	-6291
▁robust	-6292
grat	-6293
unes	-6294
▁wool	-6295
▁standing	-6296
cing	-6297
▁1998	-6298
▁versat	-6299
▁clip	-6300
▁scul	-6301
▁reporting	-6302
▁tracks	-6303
▁aircraft	-6304
▁disk	-6305
▁audience	-6306
quiry	-6307
lec	-6308
▁ironing	-6309
▁sitting	-6310
▁practition	-6311
▁strict	-6312
▁plane	-6313
▁gel	-6314
▁seek	-6315
▁canon	-6316
▁researchers	-6317
▁representative	-6318
▁johann	-6319
▁harmon	-6320
▁academy	-6321
▁croatia	-6322
▁resorts	-6323
acks	-6324
▁faq	-6325
aland	-6326
inger	-6327
▁cathed	-6328
▁deluxe	-6329
▁brows	-6330
▁dy	-6331
▁ultimate	-6332
▁promotion	-6333
▁deck	-6334
▁lith	-6335
▁craft	-6336
▁household	-6337
▁affordable	-6338
▁drawing	-6339
▁exceptional	-6340
▁barri	-6341
▁chamber	-6342
▁neighbour	-6343
oty	-6344
▁nam	-6345
▁appointed	-6346
▁native	-6347
▁boots	-6348
▁dildo	-6349
och	-6350
izer	-6351
▁shares	-6352
▁rc	-6353
aught	-6354
▁acts	-6355
▁deleted	-6356
▁substant	-6357
▁announce	-6358
▁intelligent	-6359
▁han	-6360
▁mit	-6361
▁cruc	-6362
▁brush	-6363
▁laboratory	-6364
▁interactive	-6365
▁myself	-6366
▁patent	-6367
▁sheets	-6368
▁06	-6369
▁rac	-6370
▁philosoph	-6371
▁360	-6372
rition	-6373
▁youtube	-6374
▁natur	-6375
▁launched	-6376
▁toys	-6377
▁chapter	-6378
▁ign	-6379
▁mold	-6380
▁monthly	-6381
▁94	-6382
▁drum	-6383
▁improvement	-6384
▁copper	-6385
han	-6386
card	-6387
▁candy	-6388
▁awards	-6389
▁string	-6390
▁protective	-6391
▁dogs	-6392
▁empt	-6393
atever	-6394
▁ensuring	-6395
▁protocol	-6396
▁gym	-6397
▁adhes	-6398
▁vintage	-6399
▁maybe	-6400
▁arms	-6401
▁tend	-6402
▁piano	-6403
▁whatever	-6404
▁represents	-6405
ela	-6406
▁ah	-6407
asse	-6408
▁gun	-6409
▁behalf	-6410
▁treaty	-6411
▁legitimate	-6412
rix	-6413
▁heads	-6414
▁minibar	-6415
▁watches	-6416
▁temperatures	-6417
▁04	-6418
▁dubai	-6419
▁possess	-6420
ishing	-6421
▁supervis	-6422
▁seal	-6423
▁explo	-6424
▁pear	-6425
▁subscription	-6426
▁mary	-6427
▁alpine	-6428
▁plays	-6429
▁stamp	-6430
▁ahead	-6431
▁boost	-6432
▁falls	-6433
▁substances	-6434
spec	-6435
ilation	-6436
▁dar	-6437
▁narrow	-6438
my	-6439
order	-6440
▁stocks	-6441
▁failure	-6442
▁reservations	-6443
▁streets	-6444
▁shoulder	-6445
▁twe	-6446
table	-6447
▁strategies	-6448
▁vul	-6449
▁checking	-6450
▁absolutely	-6451
ika	-6452
▁setup	-6453
▁len	-6454
▁obtained	-6455
▁identified	-6456
▁cn	-6457
▁butter	-6458
001	-6459
▁vibrator	-6460
▁satisfaction	-6461
▁drag	-6462
embourg	-6463
▁stated	-6464
▁daughter	-6465
▁guarantees	-6466
▁minor	-6467
▁treas	-6468
▁favourite	-6469
ota	-6470
▁sock	-6471
▁booked	-6472
▁inspection	-6473
aux	-6474
oma	-6475
▁alph	-6476
▁league	-6477
▁sculpt	-6478
sole	-6479
▁landmarks	-6480
▁photograp	-6481
▁fell	-6482
▁bench	-6483
ppers	-6484
ellation	-6485
▁museums	-6486
▁dialogue	-6487
▁customized	-6488
▁05	-6489
▁structural	-6490
▁therm	-6491
enburg	-6492
▁cathedral	-6493
iam	-6494
asonic	-6495
▁charm	-6496
▁maria	-6497
▁relation	-6498
▁literature	-6499
sur	-6500
▁kill	-6501
▁scar	-6502
▁officer	-6503
▁dise	-6504
▁complim	-6505
▁washington	-6506
▁deutsche	-6507
▁congress	-6508
▁canvas	-6509
▁granted	-6510
usal	-6511
pu	-6512
▁hills	-6513
▁professor	-6514
kok	-6515
▁purchased	-6516
.12	-6517
▁rect	-6518
▁closer	-6519
lers	-6520
uled	-6521
▁tent	-6522
▁ceramic	-6523
▁declaration	-6524
ole	-6525
oves	-6526
▁costa	-6527
▁adding	-6528
▁1.2	-6529
▁wro	-6530
▁duty	-6531
▁hans	-6532
▁chief	-6533
▁loading	-6534
▁connector	-6535
▁transition	-6536
▁89	-6537
▁evil	-6538
▁memor	-6539
▁react	-6540
▁pension	-6541
▁bless	-6542
▁approval	-6543
▁shoe	-6544
▁removal	-6545
▁behavior	-6546
▁thickness	-6547
▁outer	-6548
▁gentle	-6549
▁refine	-6550
▁clinical	-6551
▁sophistic	-6552
▁diverse	-6553
▁protein	-6554
▁lum	-6555
▁upgrade	-6556
▁portable	-6557
▁computers	-6558
▁luxembourg	-6559
sen	-6560
▁slot	-6561
▁operated	-6562
▁congrat	-6563
▁spectac	-6564
▁intelligence	-6565
▁gt	-6566
anbul	-6567
inter	-6568
▁magnetic	-6569
▁tight	-6570
▁bb	-6571
▁holl	-6572
▁kettle	-6573
▁explain	-6574
▁entering	-6575
▁honey	-6576
▁trails	-6577
▁primarily	-6578
▁wake	-6579
▁wave	-6580
▁annivers	-6581
▁recommendations	-6582
▁palm	-6583
▁georg	-6584
▁firmware	-6585
uls	-6586
▁cultiv	-6587
▁angle	-6588
▁boxes	-6589
▁ry	-6590
ulator	-6591
▁spons	-6592
▁towns	-6593
▁mineral	-6594
fall	-6595
▁rand	-6596
▁scientists	-6597
ui	-6598
▁58	-6599
▁proport	-6600
estyle	-6601
istan	-6602
▁laid	-6603
▁delight	-6604
▁filling	-6605
▁featured	-6606
▁confirmed	-6607
ev	-6608
▁gaming	-6609
▁effectively	-6610
▁publications	-6611
idas	-6612
▁attend	-6613
▁enthus	-6614
▁informed	-6615
▁marri	-6616
▁crown	-6617
▁row	-6618
▁conflict	-6619
▁agriculture	-6620
▁lag	-6621
etic	-6622
▁pac	-6623
▁obligation	-6624
acht	-6625
▁tried	-6626
ima	-6627
▁oak	-6628
▁bonds	-6629
▁immediate	-6630
def	-6631
chester	-6632
print	-6633
case	-6634
ream	-6635
▁pig	-6636
repren	-6637
▁licens	-6638
▁ceiling	-6639
▁ukraine	-6640
▁profiles	-6641
▁reasonable	-6642
▁falun	-6643
▁louis	-6644
▁pleased	-6645
avel	-6646
▁ken	-6647
▁convey	-6648
▁temporarily	-6649
uries	-6650
▁begins	-6651
▁bicycle	-6652
▁mine	-6653
▁graphic	-6654
▁intellect	-6655
▁crow	-6656
▁refund	-6657
▁expression	-6658
olid	-6659
rooms	-6660
▁sympt	-6661
▁combines	-6662
oda	-6663
▁arc	-6664
hy	-6665
▁ny	-6666
▁paralle	-6667
▁desire	-6668
▁diseases	-6669
▁vertical	-6670
.000	-6671
▁cc	-6672
anger	-6673
▁thor	-6674
▁depends	-6675
▁recognition	-6676
erst	-6677
▁bid	-6678
▁dear	-6679
▁returns	-6680
▁wholesale	-6681
oted	-6682
▁spin	-6683
▁till	-6684
▁temporary	-6685
▁pi	-6686
ighter	-6687
▁nutrition	-6688
▁buttons	-6689
▁ourselves	-6690
▁downloading	-6691
▁sexy	-6692
▁breed	-6693
station	-6694
▁istanbul	-6695
▁advertise	-6696
▁panoramic	-6697
▁encry	-6698
▁anywhere	-6699
▁entrepren	-6700
▁specially	-6701
hop	-6702
real	-6703
piece	-6704
▁mast	-6705
entially	-6706
▁artific	-6707
▁durable	-6708
▁trailer	-6709
tech	-6710
▁prest	-6711
front	-6712
ocation	-6713
▁script	-6714
▁teachers	-6715
▁ger	-6716
▁juke	-6717
▁hungary	-6718
▁greatest	-6719
▁peaceful	-6720
▁3.0	-6721
▁formula	-6722
48	-6723
▁ash	-6724
▁villas	-6725
▁gross	-6726
▁replaced	-6727
▁salzburg	-6728
▁concerns	-6729
▁membership	-6730
▁rab	-6731
▁tosh	-6732
ön	-6733
▁mah	-6734
▁glad	-6735
▁drives	-6736
▁floren	-6737
▁bangkok	-6738
▁academic	-6739
▁forth	-6740
▁anton	-6741
▁uv	-6742
▁pier	-6743
▁soil	-6744
entary	-6745
▁shock	-6746
▁affairs	-6747
▁conventional	-6748
▁hosts	-6749
▁overs	-6750
▁subsidi	-6751
▁sv	-6752
▁tat	-6753
▁pregn	-6754
▁contracts	-6755
conditioned	-6756
▁situations	-6757
▁carrier	-6758
ipt	-6759
▁3.5	-6760
▁fiber	-6761
▁reader	-6762
▁jukebox	-6763
▁reducing	-6764
aked	-6765
ading	-6766
▁nick	-6767
▁thereby	-6768
▁texts	-6769
▁limits	-6770
▁behavi	-6771
▁ordered	-6772
▁lub	-6773
▁spark	-6774
▁simult	-6775
▁parks	-6776
▁cheese	-6777
agues	-6778
▁dan	-6779
▁affair	-6780
▁identification	-6781
▁qualified	-6782
▁calculated	-6783
▁leadership	-6784
▁preferences	-6785
iel	-6786
▁elastic	-6787
▁artistic	-6788
▁56	-6789
▁cath	-6790
▁enterprises	-6791
▁nik	-6792
▁pic	-6793
brid	-6794
▁competent	-6795
▁detection	-6796
▁simultane	-6797
▁translated	-6798
▁residential	-6799
▁jewish	-6800
▁labels	-6801
function	-6802
▁tape	-6803
▁hello	-6804
▁tyres	-6805
▁jewelry	-6806
▁reserved	-6807
icial	-6808
▁mesh	-6809
▁fourth	-6810
▁ios	-6811
apest	-6812
▁reserves	-6813
▁datasheet	-6814
▁pod	-6815
▁aims	-6816
▁lessons	-6817
▁hook	-6818
▁horn	-6819
▁gather	-6820
▁helping	-6821
▁accident	-6822
▁inhabit	-6823
▁treated	-6824
▁programming	-6825
rise	-6826
▁differences	-6827
▁teacher	-6828
cohol	-6829
▁autumn	-6830
abil	-6831
▁ans	-6832
▁hyper	-6833
▁serving	-6834
▁budapest	-6835
▁maker	-6836
▁spectacular	-6837
▁exit	-6838
▁contest	-6839
▁screens	-6840
▁universities	-6841
inn	-6842
▁lind	-6843
▁remark	-6844
▁savings	-6845
▁communities	-6846
lor	-6847
▁chest	-6848
▁excess	-6849
▁anniversary	-6850
▁mg	-6851
▁sed	-6852
enhagen	-6853
▁tum	-6854
▁stad	-6855
▁orient	-6856
wan	-6857
▁olive	-6858
▁arrive	-6859
▁african	-6860
▁sophisticated	-6861
ibly	-6862
▁thee	-6863
▁draft	-6864
▁matching	-6865
▁workshops	-6866
▁transmitted	-6867
▁blocks	-6868
▁skys	-6869
▁adidas	-6870
▁panels	-6871
▁redirect	-6872
▁classical	-6873
▁marine	-6874
▁~	-6875
▁dj	-6876
▁garage	-6877
▁nevert	-6878
▁territory	-6879
quis	-6880
agram	-6881
▁toshiba	-6882
▁brid	-6883
▁dynam	-6884
▁lists	-6885
ibration	-6886
▁welding	-6887
▁receiving	-6888
▁james	-6889
▁charged	-6890
▁normally	-6891
▁legs	-6892
▁birthday	-6893
▁nevertheless	-6894
rock	-6895
▁nine	-6896
orient	-6897
▁invited	-6898
▁mu	-6899
holm	-6900
tek	-6901
▁asian	-6902
▁manually	-6903
▁examination	-6904
-19	-6905
▁52	-6906
▁lodge	-6907
▁vista	-6908
▁97	-6909
hard	-6910
▁ports	-6911
▁prohib	-6912
▁assigned	-6913
▁ww	-6914
▁leaving	-6915
▁dup	-6916
ronom	-6917
▁productivity	-6918
▁1990	-6919
▁vote	-6920
uster	-6921
market	-6922
▁retreat	-6923
▁acquisition	-6924
▁college	-6925
▁millions	-6926
▁wardrobe	-6927
▁catch	-6928
▁empty	-6929
▁relatively	-6930
▁usern	-6931
▁norway	-6932
▁renovated	-6933
compl	-6934
quart	-6935
▁monte	-6936
▁showed	-6937
▁engines	-6938
▁boot	-6939
▁cozy	-6940
▁epis	-6941
▁closely	-6942
▁pvc	-6943
eness	-6944
ounds	-6945
▁excurs	-6946
▁virgin	-6947
oul	-6948
inia	-6949
▁jur	-6950
▁kid	-6951
▁bass	-6952
tub	-6953
▁lets	-6954
▁trucks	-6955
▁outlook	-6956
▁polyester	-6957
-12	-6958
orca	-6959
▁cater	-6960
▁meals	-6961
▁metro	-6962
enda	-6963
▁backpack	-6964
ipper	-6965
nament	-6966
▁transaction	-6967
▁manufactured	-6968
▁buyer	-6969
▁taxes	-6970
▁gender	-6971
▁inch	-6972
▁kitchenette	-6973
▁requirement	-6974
▁environments	-6975
300	-6976
▁riv	-6977
acter	-6978
▁tiss	-6979
▁incorrect	-6980
onic	-6981
▁cul	-6982
▁novel	-6983
▁sailing	-6984
cedes	-6985
▁ends	-6986
ulating	-6987
oli	-6988
▁fits	-6989
▁meter	-6990
▁casa	-6991
▁mask	-6992
ifies	-6993
▁sections	-6994
▁insulation	-6995
▁ampl	-6996
▁chairs	-6997
▁reject	-6998
▁strugg	-6999
▁webcam	-7000
specific	-7001
▁originally	-7002
▁transactions	-7003
67	-7004
-20	-7005
▁charter	-7006
▁investments	-7007
ups	-7008
▁focused	-7009
▁username	-7010
di	-7011
▁boats	-7012
▁entirely	-7013
pn	-7014
▁ky	-7015
▁sli	-7016
▁69	-7017
ylon	-7018
▁syd	-7019
▁grass	-7020
▁travelers	-7021
▁artificial	-7022
ario	-7023
icians	-7024
▁surve	-7025
▁broken	-7026
isters	-7027
▁sexual	-7028
▁centers	-7029
▁tall	-7030
▁consistent	-7031
burgh	-7032
▁damages	-7033
isms	-7034
▁1.1	-7035
haust	-7036
▁shift	-7037
▁bulg	-7038
▁terror	-7039
▁francisco	-7040
eg	-7041
▁junior	-7042
▁eld	-7043
▁extend	-7044
▁finger	-7045
▁forced	-7046
▁decades	-7047
▁matters	-7048
▁organized	-7049
▁processor	-7050
cr	-7051
▁cameras	-7052
▁hr	-7053
▁lob	-7054
▁patterns	-7055
▁fare	-7056
▁looked	-7057
▁perspective	-7058
▁hann	-7059
▁shot	-7060
▁ink	-7061
making	-7062
▁chrome	-7063
▁warning	-7064
days	-7065
▁meant	-7066
▁kilometers	-7067
▁pant	-7068
▁bearing	-7069
▁chicago	-7070
pg	-7071
▁charges	-7072
▁philipp	-7073
▁sleeve	-7074
cer	-7075
▁lived	-7076
▁politics	-7077
▁mechanism	-7078
▁discovered	-7079
▁raised	-7080
▁embedded	-7081
▁sr	-7082
▁sons	-7083
ailand	-7084
▁branch	-7085
▁cottage	-7086
▁disposal	-7087
▁photograph	-7088
▁gps	-7089
▁decoration	-7090
▁cod	-7091
▁erg	-7092
guard	-7093
▁pull	-7094
▁quart	-7095
▁powered	-7096
▁resistant	-7097
pad	-7098
idity	-7099
▁mercedes	-7100
▁ft	-7101
▁diesel	-7102
▁hourly	-7103
▁springs	-7104
▁abstract	-7105
▁downtown	-7106
▁foam	-7107
▁shan	-7108
uction	-7109
▁opera	-7110
▁thailand	-7111
▁translations	-7112
▁complimentary	-7113
▁quad	-7114
▁barbec	-7115
▁ladies	-7116
▁ceo	-7117
▁escape	-7118
▁compensation	-7119
abet	-7120
outs	-7121
▁neut	-7122
▁pumps	-7123
onto	-7124
▁passenger	-7125
▁typically	-7126
▁consequences	-7127
vi	-7128
hotel	-7129
▁distinct	-7130
▁hop	-7131
▁nuclear	-7132
▁extraord	-7133
▁buses	-7134
▁portra	-7135
▁prompt	-7136
▁cables	-7137
▁degrees	-7138
▁lace	-7139
▁merch	-7140
▁copenhagen	-7141
▁styles	-7142
▁financing	-7143
▁suspension	-7144
▁03	-7145
▁88	-7146
▁ships	-7147
▁jav	-7148
▁adobe	-7149
▁enlar	-7150
▁layout	-7151
▁orche	-7152
▁frames	-7153
▁powers	-7154
arity	-7155
▁editing	-7156
▁capabilities	-7157
▁modified	-7158
▁conducted	-7159
▁developer	-7160
▁hearing	-7161
▁92	-7162
▁dollar	-7163
▁severe	-7164
▁matches	-7165
▁seamless	-7166
▁haz	-7167
▁analog	-7168
▁marina	-7169
▁turning	-7170
▁recognized	-7171
▁enhanced	-7172
▁movements	-7173
▁witness	-7174
▁reb	-7175
▁selling	-7176
▁villages	-7177
▁flirt	-7178
▁facing	-7179
▁publis	-7180
▁attacks	-7181
▁160	-7182
▁kal	-7183
▁nan	-7184
▁alcohol	-7185
▁boutique	-7186
know	-7187
▁font	-7188
▁mounted	-7189
▁motorcycle	-7190
▁gem	-7191
▁nv	-7192
▁visa	-7193
▁wiki	-7194
▁sight	-7195
▁florence	-7196
▁hil	-7197
▁lip	-7198
▁implementing	-7199
▁acer	-7200
▁circle	-7201
▁personally	-7202
▁complement	-7203
▁cree	-7204
▁tast	-7205
▁downloads	-7206
▁explicit	-7207
▁transformation	-7208
▁unf	-7209
▁marg	-7210
▁mixt	-7211
▁firef	-7212
▁proceedings	-7213
▁cancellation	-7214
▁pp	-7215
▁tu	-7216
rection	-7217
▁authorized	-7218
▁publishing	-7219
▁lodging	-7220
▁regulatory	-7221
▁seeds	-7222
▁regards	-7223
▁birds	-7224
▁rough	-7225
▁passengers	-7226
▁kir	-7227
▁encl	-7228
▁catalogue	-7229
▁intellectual	-7230
61	-7231
▁98	-7232
▁municipal	-7233
▁sof	-7234
▁blend	-7235
▁thousand	-7236
▁permitted	-7237
▁pir	-7238
speed	-7239
▁searching	-7240
zo	-7241
aq	-7242
▁stays	-7243
▁vital	-7244
▁princess	-7245
▁personnel	-7246
▁represented	-7247
▁db	-7248
▁adequ	-7249
▁trop	-7250
irty	-7251
etime	-7252
▁adapted	-7253
▁generate	-7254
▁migration	-7255
▁exhaust	-7256
▁signature	-7257
like	-7258
ulty	-7259
▁grid	-7260
▁hors	-7261
▁contr	-7262
▁measurements	-7263
▁110	-7264
▁pra	-7265
▁brass	-7266
▁gm	-7267
ener	-7268
▁cosy	-7269
▁samples	-7270
▁parallel	-7271
▁technique	-7272
▁continuously	-7273
ingen	-7274
▁spok	-7275
▁wines	-7276
79	-7277
usc	-7278
▁hybrid	-7279
▁sydney	-7280
▁lifestyle	-7281
jan	-7282
▁usual	-7283
awa	-7284
link	-7285
olis	-7286
▁ille	-7287
▁recre	-7288
▁centres	-7289
▁explains	-7290
▁fuck	-7291
▁diversity	-7292
▁accounting	-7293
▁amounts	-7294
▁converter	-7295
44	-7296
▁finland	-7297
isely	-7298
▁sunset	-7299
▁correctly	-7300
kt	-7301
▁latin	-7302
▁colleagues	-7303
600	-7304
ovak	-7305
▁stake	-7306
▁dollars	-7307
▁variable	-7308
▁inhabitants	-7309
ugh	-7310
▁closest	-7311
▁concerts	-7312
aceut	-7313
▁binding	-7314
▁enjoyed	-7315
asy	-7316
▁reduces	-7317
▁restore	-7318
igned	-7319
▁helped	-7320
▁kilometres	-7321
▁philosophy	-7322
.20	-7323
▁assum	-7324
▁athens	-7325
▁absolute	-7326
▁51	-7327
▁ri	-7328
▁café	-7329
▁chick	-7330
▁seats	-7331
▁adjustment	-7332
▁statistical	-7333
▁cape	-7334
▁troubles	-7335
▁intermedi	-7336
usalem	-7337
▁opposite	-7338
▁possibly	-7339
üss	-7340
▁reset	-7341
▁existence	-7342
▁myst	-7343
▁plates	-7344
▁investors	-7345
▁tech	-7346
▁unif	-7347
▁blade	-7348
▁robot	-7349
▁recover	-7350
▁lid	-7351
papers	-7352
▁involve	-7353
aka	-7354
ieties	-7355
▁continuing	-7356
▁luxur	-7357
▁religion	-7358
▁liv	-7359
▁arom	-7360
▁iran	-7361
▁dryer	-7362
aa	-7363
▁puert	-7364
▁municipality	-7365
▁ble	-7366
▁tob	-7367
▁digit	-7368
▁dragon	-7369
▁visits	-7370
▁annex	-7371
▁clamp	-7372
▁geneva	-7373
▁bathtub	-7374
nic	-7375
▁none	-7376
▁alloy	-7377
install	-7378
▁deutsch	-7379
▁harvest	-7380
▁jerusalem	-7381
bes	-7382
greg	-7383
▁urg	-7384
▁alle	-7385
▁leaf	-7386
▁rings	-7387
▁venue	-7388
▁pockets	-7389
▁paradise	-7390
▁alps	-7391
tv	-7392
cat	-7393
▁dani	-7394
▁define	-7395
▁banking	-7396
▁delivers	-7397
▁managers	-7398
ials	-7399
lying	-7400
▁analyze	-7401
▁versatile	-7402
▁neighborhoods	-7403
iana	-7404
▁aest	-7405
canner	-7406
▁navig	-7407
▁behaviour	-7408
▁conclusion	-7409
▁burg	-7410
▁proposals	-7411
▁fax	-7412
▁motors	-7413
▁debate	-7414
▁shield	-7415
▁headquart	-7416
▁57	-7417
▁ds	-7418
▁ig	-7419
▁silic	-7420
▁robert	-7421
▁magnific	-7422
▁formation	-7423
▁transparency	-7424
rer	-7425
▁coin	-7426
▁camps	-7427
▁renowned	-7428
▁designers	-7429
▁impression	-7430
▁96	-7431
eech	-7432
asses	-7433
▁mathem	-7434
▁paperback	-7435
uan	-7436
▁athlet	-7437
▁widely	-7438
oh	-7439
vin	-7440
▁gat	-7441
▁colon	-7442
▁charger	-7443
▁travellers	-7444
▁piz	-7445
▁clips	-7446
▁collections	-7447
▁4.0	-7448
▁dangerous	-7449
▁execution	-7450
▁congratulations	-7451
▁refers	-7452
aceutical	-7453
etary	-7454
hetic	-7455
▁bracelet	-7456
▁technological	-7457
▁consolid	-7458
▁naturally	-7459
▁accompanied	-7460
▁underground	-7461
mn	-7462
atz	-7463
ito	-7464
▁acoust	-7465
▁symptoms	-7466
▁relationships	-7467
▁barbecue	-7468
▁tailored	-7469
▁multip	-7470
▁stages	-7471
▁capable	-7472
▁consultation	-7473
aser	-7474
▁rol	-7475
world	-7476
▁knew	-7477
▁instant	-7478
▁dimension	-7479
▁evolution	-7480
aro	-7481
iah	-7482
▁listening	-7483
astics	-7484
▁asset	-7485
▁zealand	-7486
▁pursuant	-7487
▁shr	-7488
▁downloaded	-7489
cover	-7490
▁crew	-7491
▁roller	-7492
ulf	-7493
▁bot	-7494
▁purchasing	-7495
▁gong	-7496
▁root	-7497
▁indicated	-7498
▁regardless	-7499
▁skyscanner	-7500
oft	-7501
zig	-7502
lock	-7503
under	-7504
▁vast	-7505
▁cf	-7506
olit	-7507
reness	-7508
▁formal	-7509
▁healing	-7510
▁packing	-7511
weg	-7512
▁cha	-7513
apped	-7514
▁700	-7515
▁argu	-7516
▁prince	-7517
▁talking	-7518
▁rim	-7519
▁bron	-7520
▁93	-7521
▁discussed	-7522
▁blank	-7523
▁sorry	-7524
▁yield	-7525
▁dal	-7526
▁hes	-7527
▁vice	-7528
▁countryside	-7529
▁140	-7530
▁guidance	-7531
▁fireplace	-7532
▁vegetables	-7533
▁ni	-7534
▁salv	-7535
▁viet	-7536
▁bosch	-7537
▁references	-7538
▁vou	-7539
▁haven	-7540
▁wealth	-7541
▁alliance	-7542
▁subjects	-7543
lett	-7544
iment	-7545
▁coins	-7546
▁pendant	-7547
▁renewable	-7548
▁kon	-7549
▁obst	-7550
▁customs	-7551
▁extensions	-7552
.30	-7553
▁modular	-7554
▁speaking	-7555
▁xl	-7556
▁surgery	-7557
edy	-7558
iti	-7559
▁warehouse	-7560
▁democratic	-7561
rot	-7562
oors	-7563
ounce	-7564
▁dres	-7565
▁injection	-7566
▁communicate	-7567
▁loved	-7568
▁porto	-7569
ni	-7570
▁gifts	-7571
▁criminal	-7572
gy	-7573
ati	-7574
▁dealers	-7575
abling	-7576
▁8.1	-7577
▁carpet	-7578
ón	-7579
lay	-7580
atics	-7581
▁lakes	-7582
▁poker	-7583
▁opinions	-7584
▁permission	-7585
click	-7586
▁toronto	-7587
▁sweat	-7588
▁senior	-7589
▁1997	-7590
▁sudden	-7591
▁cher	-7592
▁capture	-7593
▁letters	-7594
▁stockholm	-7595
hd	-7596
ioned	-7597
▁drawn	-7598
▁pools	-7599
▁breast	-7600
▁crucial	-7601
▁itunes	-7602
bb	-7603
▁som	-7604
▁molec	-7605
ping	-7606
chron	-7607
level	-7608
▁grade	-7609
▁unfor	-7610
▁hostels	-7611
anes	-7612
▁linux	-7613
resist	-7614
▁speech	-7615
▁prevention	-7616
▁treatments	-7617
▁interaction	-7618
▁extraordinary	-7619
▁cush	-7620
▁george	-7621
▁turns	-7622
▁observ	-7623
▁periods	-7624
▁carrying	-7625
ican	-7626
▁textile	-7627
▁rf	-7628
▁fert	-7629
▁seeing	-7630
cut	-7631
auer	-7632
park	-7633
▁bowl	-7634
▁muscle	-7635
▁verify	-7636
▁adjusted	-7637
▁steering	-7638
▁welcoming	-7639
▁practitioners	-7640
▁68	-7641
▁wlan	-7642
▁zero	-7643
▁appeal	-7644
▁geomet	-7645
▁conscious	-7646
▁approaches	-7647
oto	-7648
▁ober	-7649
▁schol	-7650
sized	-7651
▁invite	-7652
▁subscribe	-7653
aha	-7654
▁rio	-7655
▁gast	-7656
▁arrived	-7657
▁concentration	-7658
▁intr	-7659
▁finds	-7660
▁stere	-7661
▁constitution	-7662
▁marble	-7663
pres	-7664
▁predict	-7665
▁corporation	-7666
inos	-7667
▁blind	-7668
▁codes	-7669
▁enforce	-7670
▁climbing	-7671
▁explained	-7672
ersey	-7673
ijing	-7674
▁writer	-7675
▁illustr	-7676
▁distingu	-7677
▁innovations	-7678
iler	-7679
▁kle	-7680
▁moisture	-7681
▁encourage	-7682
▁×	-7683
▁comprises	-7684
▁rs	-7685
▁toler	-7686
▁ages	-7687
▁fleet	-7688
▁willing	-7689
▁broadcast	-7690
▁acknow	-7691
▁covering	-7692
▁charl	-7693
▁summit	-7694
▁pcs	-7695
▁1960	-7696
▁1995	-7697
hausen	-7698
▁puzzle	-7699
▁awareness	-7700
49	-7701
▁gone	-7702
▁proc	-7703
▁intensive	-7704
▁precisely	-7705
▁suggestions	-7706
▁1994	-7707
▁boys	-7708
▁teach	-7709
▁twice	-7710
▁wrote	-7711
▁acquire	-7712
olo	-7713
▁hur	-7714
▁pel	-7715
▁unus	-7716
▁recognize	-7717
▁flood	-7718
▁honor	-7719
▁argent	-7720
▁satisfied	-7721
▁alternatives	-7722
kin	-7723
▁lac	-7724
▁slide	-7725
▁beijing	-7726
▁enabled	-7727
▁churches	-7728
▁plaza	-7729
▁swedish	-7730
▁whenever	-7731
▁nit	-7732
▁brun	-7733
▁optimization	-7734
van	-7735
▁mere	-7736
▁um	-7737
ghai	-7738
▁adds	-7739
▁winning	-7740
▁horizont	-7741
▁violence	-7742
▁pharmaceutical	-7743
.50	-7744
stadt	-7745
▁prox	-7746
▁rust	-7747
▁developers	-7748
▁fc	-7749
perform	-7750
▁cruise	-7751
▁indirect	-7752
▁romania	-7753
ße	-7754
▁pist	-7755
▁puerto	-7756
▁minimal	-7757
▁distributed	-7758
▁tra	-7759
ushed	-7760
▁trim	-7761
▁vend	-7762
▁producing	-7763
▁throw	-7764
▁unforget	-7765
▁specialized	-7766
▁vr	-7767
▁chal	-7768
▁manif	-7769
▁studied	-7770
zone	-7771
▁fragr	-7772
▁partly	-7773
▁simulation	-7774
▁cooper	-7775
▁hearts	-7776
ician	-7777
▁hide	-7778
▁inquiry	-7779
▁receipt	-7780
▁decorative	-7781
▁hi	-7782
▁deleg	-7783
▁anch	-7784
▁blow	-7785
kyo	-7786
▁stuff	-7787
▁dresden	-7788
▁upcoming	-7789
▁playground	-7790
▁notification	-7791
▁wc	-7792
ouses	-7793
▁damaged	-7794
▁husband	-7795
▁supervisory	-7796
fare	-7797
▁televis	-7798
▁coverage	-7799
▁shanghai	-7800
▁sleeping	-7801
▁targeted	-7802
▁subsequent	-7803
▁magnificent	-7804
ello	-7805
idel	-7806
▁secondary	-7807
▁exhibitions	-7808
pes	-7809
▁shaft	-7810
▁waist	-7811
▁casual	-7812
▁staying	-7813
▁unforgettable	-7814
atable	-7815
author	-7816
▁72	-7817
▁mining	-7818
▁random	-7819
-9	-7820
▁ray	-7821
▁crafts	-7822
▁desert	-7823
▁fruits	-7824
▁weapons	-7825
▁acceptance	-7826
▁holds	-7827
hered	-7828
▁instruction	-7829
whe	-7830
anne	-7831
▁mün	-7832
▁youn	-7833
▁suited	-7834
▁homepage	-7835
yth	-7836
ipedia	-7837
bag	-7838
▁dm	-7839
▁pione	-7840
▁complic	-7841
▁mallorca	-7842
▁estimated	-7843
▁keeps	-7844
▁recycling	-7845
▁fluid	-7846
▁luxurious	-7847
du	-7848
▁clou	-7849
▁notify	-7850
▁customize	-7851
▁analytical	-7852
si	-7853
▁§	-7854
▁diving	-7855
oriented	-7856
▁ipod	-7857
▁liver	-7858
info	-7859
▁venture	-7860
71	-7861
▁000	-7862
▁sax	-7863
▁clim	-7864
▁toward	-7865
▁vulner	-7866
▁engineers	-7867
▁cav	-7868
▁karl	-7869
▁mort	-7870
▁resc	-7871
▁vegas	-7872
▁	-7873
e	-7874
t	-7875
a	-7876
o	-7877
i	-7878
n	-7879
r	-7880
s	-7881
l	-7882
h	-7883
c	-7884
d	-7885
u	-7886
m	-7887
p	-7888
f	-7889
g	-7890
y	-7891
w	-7892
b	-7893
v	-7894
.	-7895
,	-7896
k	-7897
-	-7898
0	-7899
1	-7900
2	-7901
x	-7902
;	-7903
&	-7904
q	-7905
:	-7906
j	-7907
)	-7908
(	-7909
z	-7910
3	-7911
5	-7912
4	-7913
9	-7914
6	-7915
8	-7916
7	-7917
/	-7918
’	-7919
#	-7920
?	-7921
–	-7922
!	-7923
“	-7924
”	-7925
%	-7926
+	-7927
ü	-7928
€	-7929
é	-7930
®	-7931
*	-7932
ö	-7933
—	-7934
$	-7935
‘	-7936
•	-7937
ä	-7938
»	-7939
°	-7940
á	-7941
_	-7942
@	-7943
„	-7944
M	-7945
T	-7946
=	-7947
ó	-7948
í	-7949
£	-7950
́	-7951
«	-7952
›	-7953
ß	-7954
è	-7955
š	-7956
ø	-7957
©	-7958
ç	-7959
č	-7960
\	-7961
·	-7962
`	-7963
ñ	-7964
à	-7965
~	-7966
ô	-7967
×	-7968
§	-7969
å	-7970
â	-7971
‐	-7972
ł	-7973
ž	-7974
ã	-7975
ú	-7976
ā	-7977
{	-7978
}	-7979
→	-7980
ć	-7981
‹	-7982
●	-7983
′	-7984
ë	-7985
ê	-7986
ý	-7987
⁄	-7988
ı	-7989
ş	-7990
ř	-7991
±	-7992
►	-7993
õ	-7994
←	-7995
ě	-7996
æ	-7997
μ	-7998
ă	-7999
ń	-8000
^	-8001
★	-8002
а	-8003
о	-8004
и	-8005
î	-8006
ś	-8007
ï	-8008
ī	-8009
‚	-8010
−	-8011
ō	-8012
е	-8013
ę	-8014
↑	-8015
н	-8016
ò	-8017
ğ	-8018
ő	-8019
ż	-8020
■	-8021
ū	-8022
†	-8023
✓	-8024
с	-8025
̇	-8026
р	-8027
в	-8028
т	-8029
ù	-8030
ì	-8031
¶	-8032
ș	-8033
к	-8034
ą	-8035
л	-8036
₹	-8037
̶	-8038
ð	-8039
✔	-8040
฿	-8041
ė	-8042
≥	-8043
ē	-8044
ň	-8045
ů	-8046
♥	-8047
C	-8048
▪	-8049
⇒	-8050
ˆ	-8051
đ	-8052
м	-8053
🙂	-8054
▶	-8055
≤	-8056
☆	-8057
↓	-8058
♦	-8059
¥	-8060
д	-8061
ţ	-8062
ا	-8063
ź	-8064
▷	-8065
█	-8066
∙	-8067
├	-8068
б	-8069
û	-8070
п	-8071
▼	-8072
😉	-8073
ľ	-8074
α	-8075
ˈ	-8076
ṇ	-8077
у	-8078
ơ	-8079
ț	-8080
ʼ	-8081
я	-8082
ṣ	-8083
─	-8084
ə	-8085
└	-8086
ṛ	-8087
й	-8088
ل	-8089
œ	-8090
з	-8091
❭	-8092
・	-8093
―	-8094
↔	-8095
◆	-8096
г	-8097
ο	-8098
ь	-8099
‒	-8100
√	-8101
ч	-8102
ن	-8103
◄	-8104
¬	-8105
ω	-8106
N	-8107
¡	-8108
▸	-8109
¤	-8110
♭	-8111
ρ	-8112
ι	-8113
ệ	-8114
≈	-8115
̈	-8116
ν	-8117
ر	-8118
❤	-8119
ď	-8120
ế	-8121
ʹ	-8122
ε	-8123
і	-8124
ي	-8125
✕	-8126
σ	-8127
ʿ	-8128
ː	-8129
κ	-8130
ы	-8131
▲	-8132
þ	-8133
̊	-8134
🦊	-8135
ʻ	-8136
ḥ	-8137
抰	-8138
ņ	-8139
ɪ	-8140
τ	-8141
י	-8142
‡	-8143
╝	-8144
▾	-8145
ŭ	-8146
ų	-8147
¢	-8148
÷	-8149
ς	-8150
γ	-8151
ו	-8152
β	-8153
π	-8154
­	-8155
ɛ	-8156
✈	-8157
抯	-8158
η	-8159
λ	-8160
م	-8161
ṭ	-8162
➤	-8163
「	-8164
₺	-8165
ж	-8166
∞	-8167
┬	-8168
⠀	-8169
ί	-8170
ר	-8171
ب	-8172
ा	-8173
₩	-8174
₪	-8175
∂	-8176
の	-8177
ĕ	-8178
ű	-8179
ф	-8180
ạ	-8181
‰	-8182
⌃	-8183
➔	-8184
📑	-8185
¿	-8186
ķ	-8187
δ	-8188
х	-8189
ц	-8190
ю	-8191
ت	-8192
د	-8193
س	-8194
و	-8195
※	-8196
ÿ	-8197
ħ	-8198
ļ	-8199
ة	-8200
℗	-8201
▌	-8202
◦	-8203
」	-8204
า	-8205
ḑ	-8206
ḩ	-8207
ả	-8208
○	-8209
의	-8210
ġ	-8211
ш	-8212
э	-8213
ל	-8214
،	-8215
ع	-8216
ی	-8217
₱	-8218
ー	-8219
ĭ	-8220
ǎ	-8221
ɔ	-8222
̧	-8223
υ	-8224
א	-8225
ב	-8226
מ	-8227
‟	-8228
░	-8229
☰	-8230
😀	-8231
ư	-8232
̨	-8233
φ	-8234
त	-8235
⌀	-8236
😊	-8237
ɑ	-8238
ك	-8239
ِ	-8240
۞	-8241
ṅ	-8242
‧	-8243
ה	-8244
ת	-8245
ầ	-8246
ễ	-8247
ọ	-8248
‛	-8249
⇩	-8250
♯	-8251
》	-8252
は	-8253
ク	-8254
ス	-8255
ン	-8256
👂	-8257
🚫	-8258
S	-8259
į	-8260
ǀ	-8261
ʃ	-8262
ʊ	-8263
ש	-8264
ج	-8265
ف	-8266
ق	-8267
♫	-8268
❙	-8269
F	-8270
ʾ	-8271
ˑ	-8272
̄	-8273
ώ	-8274
ד	-8275
נ	-8276
ồ	-8277
⇢	-8278
⇧	-8279
∇	-8280
♡	-8281
♪	-8282
《	-8283
』	-8284
에	-8285
ŏ	-8286
ή	-8287
θ	-8288
ό	-8289
ύ	-8290
щ	-8291
כ	-8292
ح	-8293
ط	-8294
र	-8295
व	-8296
น	-8297
อ	-8298
ḏ	-8299
ố	-8300
⁡	-8301
↳	-8302
∆	-8303
∗	-8304
┤	-8305
▓	-8306
✖	-8307
❯	-8308
ッ	-8309
人	-8310
大	-8311
小	-8312
🔥	-8313
ĺ	-8314
ť	-8315
ǔ	-8316
ʁ	-8317
ˇ	-8318
έ	-8319
ъ	-8320
ם	-8321
أ	-8322
ز	-8323
ი	-8324
ḍ	-8325
ṃ	-8326
ậ	-8327
ề	-8328
ộ	-8329
⇓	-8330
∅	-8331
∫	-8332
⌘	-8333
│	-8334
□	-8335
◢	-8336
♣	-8337
➜	-8338
『	-8339
に	-8340
一	-8341
가	-8342
	-8343
	-8344
🇧	-8345
🇬	-8346
¦	-8347
ɐ	-8348
ɡ	-8349
ʒ	-8350
̋	-8351
خ	-8352
म	-8353
स	-8354
्	-8355
ு	-8356
்	-8357
ง	-8358
ท	-8359
ร	-8360
ა	-8361
ấ	-8362
ờ	-8363
ứ	-8364
‣	-8365
☺	-8366
♛	-8367
♠	-8368
❘	-8369
こ	-8370
ア	-8371
ト	-8372
ル	-8373
家	-8374
本	-8375
长	-8376
🎉	-8377
	-8378
	-8379
	-8380
ģ	-8381
ũ	-8382
ψ	-8383
ј	-8384
ش	-8385
غ	-8386
ه	-8387
क	-8388
ह	-8389
ी	-8390
க	-8391
ก	-8392
่	-8393
₤	-8394
₽	-8395
∴	-8396
≠	-8397
╗	-8398
╳	-8399
▀	-8400
◀	-8401
☀	-8402
✅	-8403
✎	-8404
✧	-8405
❑	-8406
⟩	-8407
⟶	-8408
⦁	-8409
⭐	-8410
、	-8411
と	-8412
り	-8413
イ	-8414
テ	-8415
ド	-8416
マ	-8417
リ	-8418
原	-8419
日	-8420
材	-8421
的	-8422
素	-8423
공	-8424
도	-8425
은	-8426
💎	-8427
😂	-8428
ċ	-8429
ŋ	-8430
ɾ	-8431
̆	-8432
̯	-8433
ע	-8434
ק	-8435
ं	-8436
य	-8437
ु	-8438
े	-8439
ส	-8440
ั	-8441
แ	-8442
ḳ	-8443
ị	-8444
ớ	-8445
ừ	-8446
ử	-8447
₫	-8448
↗	-8449
↩	-8450
∀	-8451
∈	-8452
∑	-8453
≡	-8454
≦	-8455
⊗	-8456
⋅	-8457
◉	-8458
◊	-8459
◎	-8460
◙	-8461
☉	-8462
☞	-8463
☠	-8464
⚑	-8465
⚓	-8466
✗	-8467
✨	-8468
✪	-8469
❚	-8470
い	-8471
た	-8472
や	-8473
オ	-8474
コ	-8475
フ	-8476
ラ	-8477
レ	-8478
三	-8479
中	-8480
南	-8481
手	-8482
文	-8483
書	-8484
森	-8485
用	-8486
田	-8487
美	-8488
部	-8489
降	-8490
高	-8491
수	-8492
스	-8493
아	-8494
와	-8495
을	-8496
이	-8497
ĩ	-8498
ŵ	-8499
ɨ	-8500
ʺ	-8501
̃	-8502
̥	-8503
̱	-8504
ά	-8505
ξ	-8506
ա	-8507
ן	-8508
ס	-8509
إ	-8510
ض	-8511
ک	-8512
۰	-8513
न	-8514
४	-8515
ன	-8516
ข	-8517
ด	-8518
ต	-8519
บ	-8520
ล	-8521
ว	-8522
ิ	-8523
เ	-8524
ლ	-8525
ẫ	-8526
ỏ	-8527
ủ	-8528
⁃	-8529
↵	-8530
⇔	-8531
≫	-8532
⋆	-8533
⌊	-8534
⌋	-8535
☄	-8536
♀	-8537
✤	-8538
✦	-8539
➋	-8540
➢	-8541
〜	-8542
が	-8543
し	-8544
で	-8545
な	-8546
る	-8547
ナ	-8548
ハ	-8549
バ	-8550
メ	-8551
上	-8552
下	-8553
二	-8554
其	-8555
分	-8556
力	-8557
名	-8558
和	-8559
土	-8560
年	-8561
形	-8562
愛	-8563
新	-8564
東	-8565
林	-8566
梩	-8567
神	-8568
虎	-8569
行	-8570
野	-8571
ꞌ	-8572
보	-8573
상	-8574
	-8575
🏆	-8576
👉	-8577
💡	-8578
🕔	-8579
🙁	-8580
	-8581
	-8582
	-8583
ĝ	-8584
ŕ	-8585
ŝ	-8586
ƫ	-8587
ǐ	-8588
ǒ	-8589
ǝ	-8590
ɒ	-8591
ɕ	-8592
ʀ	-8593
͡	-8594
χ	-8595
ϋ	-8596
ї	-8597
ћ	-8598
ի	-8599
ո	-8600
ז	-8601
ח	-8602
פ	-8603
؟	-8604
ث	-8605
ى	-8606
ً	-8607
١	-8608
٣	-8609
٦	-8610
٩	-8611
پ	-8612
چ	-8613
گ	-8614
ज	-8615
प	-8616
ल	-8617
ै	-8618
०	-8619
ব	-8620
্	-8621
ம	-8622
வ	-8623
จ	-8624
ป	-8625
ม	-8626
ย	-8627
ห	-8628
ุ	-8629
ู	-8630
โ	-8631
้	-8632
༡	-8633
၏	-8634
გ	-8635
ე	-8636
ვ	-8637
ო	-8638
რ	-8639
ា	-8640
ṁ	-8641
ẓ	-8642
ắ	-8643
ỉ	-8644
ợ	-8645
ụ	-8646
ữ	-8647
ỹ	-8648
₴	-8649
⇱	-8650
∨	-8651
∪	-8652
≙	-8653
⋮	-8654
␣	-8655
┼	-8656
▄	-8657
◇	-8658
◻	-8659
☁	-8660
☑	-8661
☢	-8662
⚇	-8663
⚜	-8664
⚠	-8665
✭	-8666
➥	-8667
⟵	-8668
【	-8669
】	-8670
う	-8671
か	-8672
き	-8673
く	-8674
す	-8675
っ	-8676
ろ	-8677
を	-8678
ん	-8679
ェ	-8680
シ	-8681
ジ	-8682
タ	-8683
ビ	-8684
プ	-8685
ミ	-8686
ュ	-8687
ロ	-8688
东	-8689
之	-8690
乞	-8691
介	-8692
光	-8693
入	-8694
加	-8695
可	-8696
國	-8697
型	-8698
天	-8699
学	-8700
寺	-8701
対	-8702
平	-8703
广	-8704
応	-8705
情	-8706
我	-8707
抳	-8708
教	-8709
明	-8710
暇	-8711
月	-8712
村	-8713
正	-8714
水	-8715
洪	-8716
物	-8717
球	-8718
理	-8719
生	-8720
留	-8721
百	-8722
真	-8723
知	-8724
磗	-8725
空	-8726
第	-8727
羅	-8728
自	-8729
英	-8730
藤	-8731
語	-8732
道	-8733
陸	-8734
馬	-8735
鳳	-8736
ꟷ	-8737
국	-8738
기	-8739
눇	-8740
대	-8741
를	-8742
만	-8743
사	-8744
서	-8745
시	-8746
안	-8747
연	-8748
작	-8749
장	-8750
천	-8751
최	-8752
한	-8753
	-8754
	-8755
🌍	-8756
🌿	-8757
🎄	-8758
🎮	-8759
🏻	-8760
👌	-8761
👍	-8762
💕	-8763
🔊	-8764
😻	-8765
R	-8766
	-8767
ĵ	-8768
ŗ	-8769
ȝ	-8770
ɗ	-8771
ɲ	-8772
ʅ	-8773
ʋ	-8774
ʎ	-8775
ʑ	-8776
ζ	-8777
ё	-8778
ґ	-8779
ҥ	-8780
ծ	-8781
մ	-8782
ն	-8783
տ	-8784
ג	-8785
ذ	-8786
ص	-8787
٢	-8788
٬	-8789
۩	-8790
۴	-8791
ग	-8792
ध	-8793
भ	-8794
।	-8795
१	-8796
६	-8797
য	-8798
ি	-8799
ட	-8800
த	-8801
ந	-8802
ி	-8803
ை	-8804
ค	-8805
ช	-8806
ถ	-8807
ธ	-8808
ผ	-8809
พ	-8810
ภ	-8811
ศ	-8812
ษ	-8813
ใ	-8814
์	-8815
ํ	-8816
๏	-8817
༓	-8818
༺	-8819
მ	-8820
ს	-8821
ტ	-8822
შ	-8823
ស	-8824
អ	-8825
៊	-8826
ᵻ	-8827
ḵ	-8828
ḷ	-8829
ẕ	-8830
ẖ	-8831
ặ	-8832
ẹ	-8833
ẻ	-8834
ẽ	-8835
₣	-8836
₦	-8837
↪	-8838
⇐	-8839
∘	-8840
∧	-8841
∮	-8842
∶	-8843
∼	-8844
≧	-8845
≪	-8846
⊃	-8847
⊞	-8848
⎯	-8849
▫	-8850
▬	-8851
▹	-8852
◂	-8853
◕	-8854
◗	-8855
◼	-8856
☛	-8857
☣	-8858
⚡	-8859
⛱	-8860
✆	-8861
✚	-8862
✩	-8863
✺	-8864
✿	-8865
❐	-8866
❖	-8867
❮	-8868
❷	-8869
❿	-8870
➍	-8871
➛	-8872
➡	-8873
➩	-8874
⟨	-8875
⮱	-8876
ⲉ	-8877
〃	-8878
あ	-8879
お	-8880
ち	-8881
つ	-8882
ま	-8883
み	-8884
ら	-8885
ィ	-8886
ウ	-8887
カ	-8888
キ	-8889
サ	-8890
ノ	-8891
ピ	-8892
ワ	-8893
久	-8894
乙	-8895
体	-8896
你	-8897
俱	-8898
全	-8899
关	-8900
内	-8901
军	-8902
出	-8903
十	-8904
华	-8905
博	-8906
受	-8907
合	-8908
周	-8909
咲	-8910
哈	-8911
団	-8912
国	-8913
在	-8914
地	-8915
场	-8916
外	-8917
太	-8918
夫	-8919
子	-8920
少	-8921
尔	-8922
居	-8923
屋	-8924
山	-8925
崔	-8926
川	-8927
工	-8928
度	-8929
廣	-8930
弹	-8931
德	-8932
惣	-8933
感	-8934
抣	-8935
抦	-8936
抮	-8937
拳	-8938
排	-8939
摺	-8940
放	-8941
旅	-8942
族	-8943
星	-8944
最	-8945
木	-8946
梕	-8947
橋	-8948
歩	-8949
比	-8950
浄	-8951
海	-8952
港	-8953
湖	-8954
演	-8955
澤	-8956
灸	-8957
炸	-8958
版	-8959
獣	-8960
甲	-8961
电	-8962
番	-8963
白	-8964
着	-8965
简	-8966
米	-8967
粉	-8968
線	-8969
经	-8970
罪	-8971
義	-8972
舞	-8973
良	-8974
草	-8975
華	-8976
許	-8977
譚	-8978
谷	-8979
足	-8980
路	-8981
身	-8982
車	-8983
輪	-8984
转	-8985
辞	-8986
連	-8987
達	-8988
選	-8989
重	-8990
金	-8991
雄	-8992
非	-8993
顧	-8994
首	-8995
고	-8996
과	-8997
관	-8998
께	-8999
내	-9000
년	-9001
다	-9002
독	-9003
란	-9004
랑	-9005
복	-9006
부	-9007
성	-9008
소	-9009
애	-9010
영	-9011
위	-9012
유	-9013
인	-9014
제	-9015
추	-9016
카	-9017
큦	-9018
함	-9019
항	-9020
해	-9021
훈	-9022
	-9023
	-9024
～	-9025
🆕	-9026
🇨	-9027
🇪	-9028
🇸	-9029
🌏	-9030
🌸	-9031
🍖	-9032
🍪	-9033
🎈	-9034
🎧	-9035
🎬	-9036
🏕	-9037
🐶	-9038
👇	-9039
👟	-9040
👤	-9041
💞	-9042
📜	-9043
📝	-9044
🔗	-9045
🔴	-9046
🔷	-9047
😃	-9048
😅	-9049
😋	-9050
😍	-9051
😮	-9052
🤔	-9053
🥳	-9054
B	-9055
[	-9056
]	-9057
	-9058
	-9059
ĥ	-9060
ŷ	-9061
ƀ	-9062
ƅ	-9063
ƈ	-9064
ƨ	-9065
ƴ	-9066
ƿ	-9067
ǁ	-9068
ǂ	-9069
ǚ	-9070
ǣ	-9071
ǵ	-9072
ȉ	-9073
ȋ	-9074
ȏ	-9075
ȯ	-9076
ɖ	-9077
ɣ	-9078
ɦ	-9079
ɧ	-9080
ʂ	-9081
ʔ	-9082
ˌ	-9083
ˎ	-9084
ˮ	-9085
˻	-9086
˼	-9087
̀	-9088
̂	-9089
̌	-9090
̍	-9091
̚	-9092
̣	-9093
̩	-9094
̰	-9095
̲	-9096
͘	-9097
є	-9098
њ	-9099
ў	-9100
џ	-9101
ғ	-9102
ҫ	-9103
ұ	-9104
ӧ	-9105
ӯ	-9106
բ	-9107
ե	-9108
զ	-9109
կ	-9110
ս	-9111
վ	-9112
ք	-9113
օ	-9114
։	-9115
ֵ	-9116
ָ	-9117
ט	-9118
ף	-9119
צ	-9120
آ	-9121
ّ	-9122
٥	-9123
٧	-9124
٨	-9125
٫	-9126
ژ	-9127
ھ	-9128
۔	-9129
۱	-9130
۲	-9131
۳	-9132
۸	-9133
अ	-9134
आ	-9135
उ	-9136
ऐ	-9137
घ	-9138
च	-9139
ट	-9140
ड	-9141
ण	-9142
ब	-9143
श	-9144
ि	-9145
ो	-9146
ौ	-9147
२	-9148
५	-9149
७	-9150
८	-9151
গ	-9152
দ	-9153
ন	-9154
র	-9155
ল	-9156
শ	-9157
়	-9158
া	-9159
ী	-9160
ਕ	-9161
ਥ	-9162
ਪ	-9163
ਰ	-9164
ਲ	-9165
ਾ	-9166
ੂ	-9167
ச	-9168
ண	-9169
ய	-9170
ர	-9171
ழ	-9172
ா	-9173
ே	-9174
ฆ	-9175
ฏ	-9176
ี	-9177
ื	-9178
ไ	-9179
็	-9180
๐	-9181
ງ	-9182
ຖ	-9183
ວ	-9184
ສ	-9185
ອ	-9186
ແ	-9187
༠	-9188
༢	-9189
༨	-9190
༻	-9191
င	-9192
ပ	-9193
မ	-9194
သ	-9195
ါ	-9196
ီ	-9197
ေ	-9198
း	-9199
်	-9200
၁	-9201
ბ	-9202
ზ	-9203
კ	-9204
ნ	-9205
ც	-9206
ჭ	-9207
ር	-9208
ቅ	-9209
ቤ	-9210
ነ	-9211
ን	-9212
ው	-9213
ጥ	-9214
ᐃ	-9215
ᐣ	-9216
ᐧ	-9217
ᑎ	-9218
ᑫ	-9219
ᓂ	-9220
ᓅ	-9221
ក	-9222
ង	-9223
យ	-9224
វ	-9225
ឡ	-9226
ី	-9227
េ	-9228
ែ	-9229
្	-9230
៛	-9231
ᴓ	-9232
ḇ	-9233
ḫ	-9234
ḱ	-9235
ṉ	-9236
ṓ	-9237
ṙ	-9238
ṟ	-9239
ṯ	-9240
ṳ	-9241
ẩ	-9242
ẵ	-9243
ổ	-9244
ỗ	-9245
ở	-9246
ỳ	-9247
ἀ	-9248
ἄ	-9249
ἰ	-9250
ὐ	-9251
ὑ	-9252
ῆ	-9253
ῶ	-9254
⁝	-9255
⁞	-9256
₿	-9257
↕	-9258
↘	-9259
↙	-9260
↤	-9261
↶	-9262
↹	-9263
↺	-9264
⇆	-9265
⇛	-9266
⇣	-9267
∓	-9268
∥	-9269
≃	-9270
⊂	-9271
⊆	-9272
⊤	-9273
⊨	-9274
⋃	-9275
⌂	-9276
⌕	-9277
⌥	-9278
⎙	-9279
⎪	-9280
⏏	-9281
⏷	-9282
␡	-9283
╣	-9284
╬	-9285
▒	-9286
△	-9287
▻	-9288
◁	-9289
◈	-9290
◯	-9291
◾	-9292
☇	-9293
☎	-9294
☐	-9295
☘	-9296
☜	-9297
☻	-9298
☼	-9299
♋	-9300
♌	-9301
♍	-9302
♏	-9303
♐	-9304
♑	-9305
♝	-9306
♤	-9307
♬	-9308
⚽	-9309
⛈	-9310
⛵	-9311
✊	-9312
✘	-9313
✙	-9314
✝	-9315
✟	-9316
✡	-9317
✬	-9318
✮	-9319
✰	-9320
✷	-9321
❃	-9322
❊	-9323
❋	-9324
❏	-9325
❕	-9326
❗	-9327
❥	-9328
❶	-9329
➀	-9330
➊	-9331
➌	-9332
➎	-9333
➒	-9334
➗	-9335
➘	-9336
➚	-9337
➝	-9338
➠	-9339
➦	-9340
➨	-9341
➮	-9342
➸	-9343
➼	-9344
⧖	-9345
⨯	-9346
⩾	-9347
⬆	-9348
⯈	-9349
⯐	-9350
ⱡ	-9351
ⲙ	-9352
ⲛ	-9353
ⲣ	-9354
ⲧ	-9355
。	-9356
〇	-9357
〈	-9358
〽	-9359
え	-9360
ぎ	-9361
け	-9362
げ	-9363
ず	-9364
せ	-9365
だ	-9366
て	-9367
ど	-9368
ば	-9369
ひ	-9370
ぷ	-9371
へ	-9372
も	-9373
ゃ	-9374
ゅ	-9375
よ	-9376
れ	-9377
゚	-9378
ガ	-9379
ギ	-9380
グ	-9381
ゲ	-9382
セ	-9383
ゼ	-9384
ダ	-9385
デ	-9386
ニ	-9387
ブ	-9388
ポ	-9389
ム	-9390
ャ	-9391
ヤ	-9392
丁	-9393
世	-9394
丙	-9395
业	-9396
严	-9397
丸	-9398
主	-9399
乐	-9400
也	-9401
乱	-9402
亀	-9403
于	-9404
五	-9405
井	-9406
交	-9407
京	-9408
亭	-9409
今	-9410
他	-9411
令	-9412
们	-9413
仲	-9414
伍	-9415
伏	-9416
作	-9417
佳	-9418
使	-9419
依	-9420
侯	-9421
係	-9422
促	-9423
俊	-9424
保	-9425
信	-9426
修	-9427
借	-9428
倫	-9429
做	-9430
健	-9431
僕	-9432
儒	-9433
免	-9434
党	-9435
兵	-9436
典	-9437
写	-9438
农	-9439
凡	-9440
刘	-9441
別	-9442
剧	-9443
劉	-9444
努	-9445
匪	-9446
匿	-9447
區	-9448
午	-9449
半	-9450
卖	-9451
印	-9452
去	-9453
參	-9454
叔	-9455
取	-9456
叡	-9457
叶	-9458
司	-9459
君	-9460
吻	-9461
呈	-9462
呑	-9463
命	-9464
唐	-9465
商	-9466
啓	-9467
喻	-9468
嘉	-9469
噛	-9470
回	-9471
团	-9472
图	-9473
城	-9474
堂	-9475
報	-9476
壁	-9477
士	-9478
売	-9479
変	-9480
夏	-9481
夢	-9482
奥	-9483
女	-9484
姓	-9485
姦	-9486
孟	-9487
孫	-9488
宇	-9489
守	-9490
安	-9491
宗	-9492
官	-9493
实	-9494
客	-9495
宫	-9496
寒	-9497
寙	-9498
寛	-9499
専	-9500
射	-9501
峡	-9502
峽	-9503
崎	-9504
嵌	-9505
州	-9506
左	-9507
己	-9508
巴	-9509
巾	-9510
帆	-9511
师	-9512
幻	-9513
広	-9514
库	-9515
庫	-9516
康	-9517
廖	-9518
异	-9519
弃	-9520
式	-9521
引	-9522
張	-9523
強	-9524
当	-9525
录	-9526
彦	-9527
役	-9528
従	-9529
徳	-9530
徵	-9531
志	-9532
忘	-9533
忠	-9534
念	-9535
性	-9536
怪	-9537
患	-9538
想	-9539
意	-9540
慎	-9541
憶	-9542
懿	-9543
成	-9544
战	-9545
戰	-9546
所	-9547
批	-9548
抎	-9549
投	-9550
捲	-9551
接	-9552
搑	-9553
摒	-9554
撐	-9555
撲	-9556
政	-9557
敏	-9558
整	-9559
斝	-9560
斯	-9561
旗	-9562
无	-9563
昭	-9564
是	-9565
晉	-9566
暦	-9567
曝	-9568
曲	-9569
更	-9570
有	-9571
服	-9572
期	-9573
未	-9574
末	-9575
朱	-9576
机	-9577
来	-9578
松	-9579
枚	-9580
柄	-9581
柳	-9582
格	-9583
桓	-9584
桔	-9585
梁	-9586
梗	-9587
梚	-9588
梟	-9589
楊	-9590
業	-9591
楷	-9592
楼	-9593
楽	-9594
榮	-9595
樂	-9596
模	-9597
横	-9598
樹	-9599
欒	-9600
次	-9601
欧	-9602
武	-9603
段	-9604
殺	-9605
殿	-9606
毕	-9607
毛	-9608
氏	-9609
民	-9610
氣	-9611
永	-9612
汉	-9613
江	-9614
汤	-9615
治	-9616
況	-9617
法	-9618
波	-9619
派	-9620
流	-9621
浜	-9622
涼	-9623
添	-9624
清	-9625
渋	-9626
渡	-9627
湯	-9628
源	-9629
滝	-9630
滨	-9631
炎	-9632
点	-9633
無	-9634
然	-9635
照	-9636
熊	-9637
熨	-9638
熱	-9639
片	-9640
特	-9641
状	-9642
狂	-9643
狡	-9644
獲	-9645
玄	-9646
玉	-9647
王	-9648
玛	-9649
环	-9650
玲	-9651
現	-9652
琛	-9653
瑠	-9654
璃	-9655
畑	-9656
病	-9657
瘓	-9658
癌	-9659
癱	-9660
発	-9661
皇	-9662
皓	-9663
相	-9664
石	-9665
砂	-9666
社	-9667
祥	-9668
票	-9669
秋	-9670
科	-9671
秘	-9672
租	-9673
称	-9674
突	-9675
立	-9676
章	-9677
竹	-9678
笈	-9679
笠	-9680
筠	-9681
管	-9682
精	-9683
糊	-9684
系	-9685
組	-9686
結	-9687
經	-9688
緋	-9689
繼	-9690
线	-9691
组	-9692
给	-9693
统	-9694
罗	-9695
罰	-9696
群	-9697
老	-9698
耕	-9699
聚	-9700
育	-9701
肺	-9702
能	-9703
脑	-9704
至	-9705
與	-9706
色	-9707
花	-9708
苏	-9709
荣	-9710
荫	-9711
菜	-9712
营	-9713
萬	-9714
葉	-9715
董	-9716
蒋	-9717
蒼	-9718
薯	-9719
蚁	-9720
蜢	-9721
血	-9722
衣	-9723
表	-9724
袖	-9725
被	-9726
装	-9727
裕	-9728
襲	-9729
西	-9730
触	-9731
說	-9732
説	-9733
調	-9734
論	-9735
諧	-9736
謝	-9737
識	-9738
让	-9739
设	-9740
证	-9741
词	-9742
试	-9743
谭	-9744
豊	-9745
貴	-9746
賈	-9747
賊	-9748
贸	-9749
费	-9750
赤	-9751
起	-9752
軼	-9753
軽	-9754
车	-9755
轰	-9756
辟	-9757
辱	-9758
返	-9759
连	-9760
送	-9761
通	-9762
逝	-9763
違	-9764
遠	-9765
邓	-9766
邪	-9767
邱	-9768
郎	-9769
郑	-9770
郜	-9771
酒	-9772
里	-9773
量	-9774
針	-9775
鈥	-9776
鈪	-9777
銀	-9778
錦	-9779
鐵	-9780
针	-9781
钱	-9782
铁	-9783
長	-9784
門	-9785
間	-9786
關	-9787
阪	-9788
阳	-9789
阿	-9790
限	-9791
陵	-9792
集	-9793
雛	-9794
雪	-9795
雷	-9796
霊	-9797
青	-9798
韓	-9799
順	-9800
題	-9801
飛	-9802
飞	-9803
食	-9804
飲	-9805
駅	-9806
騎	-9807
马	-9808
鬻	-9809
魔	-9810
鳴	-9811
鶴	-9812
龍	-9813
龙	-9814
감	-9815
개	-9816
검	-9817
게	-9818
격	-9819
견	-9820
계	-9821
곡	-9822
구	-9823
군	-9824
귀	-9825
금	-9826
긠	-9827
나	-9828
낫	-9829
냉	-9830
네	-9831
논	-9832
농	-9833
단	-9834
더	-9835
들	-9836
라	-9837
랜	-9838
로	-9839
르	-9840
리	-9841
명	-9842
모	-9843
목	-9844
물	-9845
민	-9846
박	-9847
받	-9848
발	-9849
배	-9850
백	-9851
벌	-9852
봉	-9853
북	-9854
붕	-9855
빵	-9856
산	-9857
생	-9858
선	-9859
센	-9860
손	-9861
순	-9862
식	-9863
신	-9864
실	-9865
압	-9866
앙	-9867
야	-9868
어	-9869
여	-9870
예	-9871
오	-9872
운	-9873
울	-9874
원	-9875
월	-9876
윙	-9877
육	-9878
익	-9879
임	-9880
입	-9881
있	-9882
자	-9883
잡	-9884
적	-9885
정	-9886
족	-9887
죄	-9888
주	-9889
진	-9890
착	-9891
철	-9892
축	-9893
코	-9894
탁	-9895
탕	-9896
태	-9897
트	-9898
특	-9899
평	-9900
포	-9901
풍	-9902
피	-9903
하	-9904
행	-9905
허	-9906
협	-9907
형	-9908
호	-9909
홈	-9910
후	-9911
	-9912
	-9913
	-9914
	-9915
	-9916
	-9917
	-9918
	-9919
	-9920
️	-9921
🆓	-9922
🇩	-9923
🇫	-9924
🇭	-9925
🇴	-9926
🇷	-9927
🇺	-9928
🌅	-9929
🌎	-9930
🌑	-9931
🌕	-9932
🌙	-9933
🌛	-9934
🌞	-9935
🌟	-9936
🌵	-9937
🍴	-9938
🍿	-9939
🎗	-9940
🎤	-9941
🏝	-9942
🏡	-9943
🏭	-9944
🏴	-9945
🏽	-9946
🐙	-9947
🐧	-9948
🐲	-9949
👆	-9950
👎	-9951
👑	-9952
👗	-9953
👥	-9954
👩	-9955
👻	-9956
👾	-9957
💄	-9958
💓	-9959
💔	-9960
💙	-9961
💜	-9962
💝	-9963
💥	-9964
💦	-9965
💯	-9966
💰	-9967
💵	-9968
💶	-9969
💸	-9970
📆	-9971
📕	-9972
📞	-9973
📡	-9974
📵	-9975
📷	-9976
🔍	-9977
🔹	-9978
🕇	-9979
😁	-9980
😄	-9981
😎	-9982
😖	-9983
😘	-9984
😛	-9985
😡	-9986
😢	-9987
😪	-9988
😭	-9989
😯	-9990
😰	-9991
😵	-9992
🙈	-9993
🚗	-9994
🚛	-9995
🚨	-9996
