<unk>	0
<s>	0
</s>	0
en	-0
er	-1
ch	-2
▁d	-3
in	-4
un	-5
▁s	-6
ie	-7
▁a	-8
▁,	-9
ei	-10
st	-11
▁b	-12
▁w	-13
▁m	-14
▁e	-15
▁.	-16
on	-17
▁un	-18
▁v	-19
ge	-20
an	-21
te	-22
▁f	-23
▁die	-24
▁k	-25
ich	-26
ung	-27
sch	-28
▁und	-29
▁z	-30
▁h	-31
▁ein	-32
ar	-33
it	-34
or	-35
▁i	-36
▁in	-37
ll	-38
▁der	-39
▁n	-40
es	-41
▁au	-42
at	-43
▁p	-44
as	-45
ten	-46
al	-47
hr	-48
ur	-49
▁g	-50
▁l	-51
ter	-52
em	-53
der	-54
ti	-55
▁r	-56
den	-57
▁zu	-58
gen	-59
▁ge	-60
au	-61
▁an	-62
▁be	-63
▁ver	-64
de	-65
▁t	-66
▁von	-67
se	-68
ür	-69
▁sie	-70
▁mit	-71
ir	-72
▁er	-73
ro	-74
lich	-75
ach	-76
am	-77
ber	-78
▁das	-79
ck	-80
el	-81
ein	-82
ier	-83
▁auf	-84
▁für	-85
eit	-86
om	-87
um	-88
▁o	-89
is	-90
et	-91
ent	-92
▁sch	-93
▁den	-94
▁:	-95
isch	-96
le	-97
▁1	-98
▁st	-99
ig	-100
ion	-101
▁j	-102
ben	-103
▁c	-104
ra	-105
ol	-106
▁aus	-107
▁ist	-108
il	-109
▁2	-110
ste	-111
▁&	-112
▁)	-113
▁(	-114
▁im	-115
ser	-116
nen	-117
sen	-118
▁wir	-119
tz	-120
rei	-121
ot	-122
re	-123
and	-124
icht	-125
▁des	-126
ungen	-127
us	-128
▁ihr	-129
ft	-130
▁-	-131
sp	-132
▁so	-133
▁eine	-134
über	-135
kt	-136
men	-137
eu	-138
ien	-139
sten	-140
qu	-141
ls	-142
ff	-143
ne	-144
be	-145
▁sich	-146
▁nach	-147
▁wer	-148
hl	-149
▁sp	-150
▁über	-151
▁um	-152
uch	-153
ation	-154
ind	-155
▁pro	-156
▁re	-157
än	-158
lle	-159
ahr	-160
eich	-161
ann	-162
ing	-163
os	-164
im	-165
▁es	-166
▁oder	-167
ver	-168
▁dem	-169
▁bei	-170
▁unter	-171
ri	-172
▁ho	-173
▁vor	-174
la	-175
ern	-176
00	-177
llen	-178
▁ent	-179
ik	-180
▁nicht	-181
▁werden	-182
ön	-183
ad	-184
ungs	-185
ort	-186
gt	-187
hen	-188
ehr	-189
mer	-190
▁ab	-191
ab	-192
kti	-193
op	-194
ischen	-195
wei	-196
▁wie	-197
he	-198
▁als	-199
hal	-200
▁sind	-201
iel	-202
tel	-203
quot	-204
▁ha	-205
▁fl	-206
ag	-207
fü	-208
for	-209
ap	-210
wer	-211
fen	-212
▁kön	-213
▁/	-214
ün	-215
urch	-216
hn	-217
▁ar	-218
chen	-219
utz	-220
▁auch	-221
enn	-222
zu	-223
▁unser	-224
▁3	-225
eil	-226
tet	-227
▁einer	-228
du	-229
▁ber	-230
▁wird	-231
▁her	-232
aten	-233
▁durch	-234
▁sein	-235
▁gr	-236
▁einen	-237
▁zur	-238
und	-239
ick	-240
ul	-241
ers	-242
ang	-243
gr	-244
art	-245
▁einem	-246
end	-247
ät	-248
▁kon	-249
▁20	-250
eiten	-251
tig	-252
▁können	-253
scha	-254
iv	-255
aus	-256
ut	-257
all	-258
ic	-259
▁kom	-260
▁am	-261
ische	-262
stell	-263
ör	-264
ed	-265
och	-266
▁dass	-267
▁wei	-268
▁te	-269
geb	-270
schl	-271
▁fr	-272
ieren	-273
▁zum	-274
tr	-275
▁kl	-276
lichen	-277
fe	-278
gl	-279
▁da	-280
hmen	-281
▁we	-282
lo	-283
ger	-284
bar	-285
anz	-286
▁hat	-287
sam	-288
ück	-289
ige	-290
▁war	-291
iert	-292
▁neu	-293
▁ch	-294
▁wenn	-295
ess	-296
▁ich	-297
▁se	-298
liche	-299
▁dies	-300
är	-301
▁ste	-302
▁fin	-303
amp	-304
▁–	-305
etz	-306
pp	-307
ster	-308
fer	-309
form	-310
▁4	-311
▁wur	-312
▁lie	-313
keit	-314
og	-315
ru	-316
age	-317
arb	-318
▁?	-319
▁201	-320
▁wo	-321
ok	-322
her	-323
bl	-324
ahl	-325
▁kann	-326
tern	-327
▁haben	-328
▁ihre	-329
▁diese	-330
▁mehr	-331
ts	-332
ug	-333
▁ko	-334
ktion	-335
▁ma	-336
igen	-337
▁5	-338
lin	-339
che	-340
eine	-341
▁le	-342
▁jahr	-343
we	-344
ank	-345
gel	-346
ill	-347
schaft	-348
▁ger	-349
uss	-350
▁bis	-351
unden	-352
▁all	-353
iz	-354
tw	-355
glich	-356
▁mo	-357
▁!	-358
fl	-359
eigen	-360
▁hin	-361
▁“	-362
schen	-363
▁du	-364
ner	-365
ist	-366
atz	-367
▁man	-368
▁ander	-369
ht	-370
▁bes	-371
auf	-372
ark	-373
▁de	-374
heit	-375
pl	-376
rä	-377
▁mö	-378
▁&#	-379
▁en	-380
▁was	-381
▁wel	-382
▁br	-383
tes	-384
▁al	-385
br	-386
▁alle	-387
▁nur	-388
▁gen	-389
ho	-390
ationen	-391
ität	-392
ma	-393
ßen	-394
▁produ	-395
me	-396
nis	-397
▁„	-398
bt	-399
▁je	-400
▁gl	-401
▁ih	-402
▁gesch	-403
▁ro	-404
ass	-405
ha	-406
▁eur	-407
▁daten	-408
det	-409
ähr	-410
war	-411
▁weiter	-412
immer	-413
dern	-414
lei	-415
▁gro	-416
bs	-417
tra	-418
..	-419
▁ex	-420
fahr	-421
▁for	-422
ta	-423
▁sow	-424
▁19	-425
▁wurde	-426
äu	-427
kte	-428
▁uns	-429
▁dar	-430
tier	-431
▁pers	-432
setz	-433
ia	-434
cht	-435
chn	-436
zen	-437
ial	-438
▁hotel	-439
▁fe	-440
oll	-441
yst	-442
▁...	-443
▁6	-444
assen	-445
▁ne	-446
▁verw	-447
per	-448
ild	-449
▁ö	-450
▁kosten	-451
▁;	-452
▁son	-453
▁vom	-454
▁dieser	-455
ffen	-456
imm	-457
eut	-458
▁u	-459
halten	-460
ak	-461
ystem	-462
▁ihnen	-463
eite	-464
äl	-465
▁or	-466
▁gew	-467
▁finden	-468
tung	-469
ekt	-470
rie	-471
▁bie	-472
id	-473
▁inform	-474
ze	-475
iele	-476
ow	-477
ierung	-478
ale	-479
tels	-480
▁aber	-481
itt	-482
führ	-483
kl	-484
üs	-485
▁nutz	-486
nehmen	-487
▁deut	-488
▁gem	-489
▁such	-490
sel	-491
▁tr	-492
▁bl	-493
na	-494
sche	-495
▁ben	-496
▁qu	-497
ate	-498
▁verb	-499
ken	-500
▁zeit	-501
▁verfü	-502
ce	-503
▁hier	-504
▁pl	-505
▁aut	-506
▁sowie	-507
teil	-508
▁flug	-509
tige	-510
onen	-511
▁arb	-512
▁co	-513
▁min	-514
vor	-515
▁ange	-516
kom	-517
▁rei	-518
▁noch	-519
12	-520
lie	-521
ktiv	-522
schie	-523
mp	-524
com	-525
wick	-526
del	-527
▁prei	-528
io	-529
▁ihren	-530
▁zwei	-531
▁soll	-532
ite	-533
▁nä	-534
änd	-535
pro	-536
▁7	-537
▁unsere	-538
ast	-539
bo	-540
ße	-541
fern	-542
ard	-543
ue	-544
ment	-545
ine	-546
▁8	-547
ant	-548
fol	-549
▁to	-550
amm	-551
ütz	-552
▁ausge	-553
▁mon	-554
▁10	-555
alen	-556
tigen	-557
sta	-558
hlen	-559
eitung	-560
ud	-561
acht	-562
▁teil	-563
▁best	-564
aum	-565
dem	-566
ive	-567
entr	-568
▁sehr	-569
fach	-570
zeit	-571
▁ser	-572
▁zw	-573
ss	-574
▁%	-575
▁sicher	-576
▁men	-577
cher	-578
▁gi	-579
▁200	-580
▁gegen	-581
ätz	-582
▁hotels	-583
▁dir	-584
▁intern	-585
ßer	-586
▁ba	-587
▁reg	-588
▁fü	-589
sion	-590
▁eigen	-591
fin	-592
cken	-593
ga	-594
zeu	-595
▁bo	-596
▁eines	-597
spr	-598
▁bed	-599
▁mar	-600
▁europ	-601
▁zusam	-602
mit	-603
▁viel	-604
adt	-605
▁9	-606
▁zusammen	-607
att	-608
▁on	-609
ften	-610
▁&#9	-611
ord	-612
▁sa	-613
ip	-614
▁besch	-615
lung	-616
▁ihrer	-617
atei	-618
chte	-619
▁informationen	-620
▁tra	-621
bst	-622
keiten	-623
▁sel	-624
▁per	-625
ler	-626
▁möglich	-627
ös	-628
tik	-629
gung	-630
mal	-631
▁fol	-632
▁op	-633
ater	-634
▁entwick	-635
▁spiel	-636
reich	-637
ierte	-638
üge	-639
▁pr	-640
▁geb	-641
ov	-642
unktion	-643
kun	-644
achen	-645
▁dieses	-646
▁0	-647
▁lei	-648
▁gel	-649
co	-650
▁ti	-651
▁dam	-652
mo	-653
▁x	-654
unter	-655
▁neue	-656
eits	-657
atur	-658
hör	-659
enden	-660
hne	-661
▁leben	-662
satz	-663
pr	-664
▁inst	-665
net	-666
▁hau	-667
▁fre	-668
▁keine	-669
etzt	-670
tion	-671
▁einz	-672
▁ganz	-673
▁unternehmen	-674
▁einfach	-675
einen	-676
olog	-677
apos	-678
▁gibt	-679
eichen	-680
ett	-681
ichtig	-682
▁bet	-683
124	-684
▁verk	-685
▁kar	-686
▁jed	-687
elt	-688
▁buch	-689
124;	-690
▁&#124;	-691
upp	-692
▁zwischen	-693
uten	-694
fa	-695
gang	-696
▁me	-697
▁wieder	-698
▁schne	-699
igkeit	-700
▁part	-701
▁beste	-702
▁dr	-703
ke	-704
gan	-705
▁la	-706
enz	-707
fte	-708
▁hand	-709
issen	-710
sto	-711
iger	-712
ez	-713
▁bietet	-714
hm	-715
wo	-716
ition	-717
▁fahr	-718
▁komm	-719
▁techn	-720
ice	-721
▁inter	-722
kon	-723
ünst	-724
itz	-725
ba	-726
▁dann	-727
ans	-728
alt	-729
▁fer	-730
aufen	-731
kunft	-732
itte	-733
▁ob	-734
zimmer	-735
mö	-736
▁hoch	-737
▁po	-738
pt	-739
▁kunden	-740
▁spr	-741
onder	-742
line	-743
such	-744
▁com	-745
dr	-746
▁webs	-747
ruck	-748
änder	-749
land	-750
▁entfern	-751
▁anderen	-752
▁preis	-753
ischer	-754
wend	-755
stellen	-756
geben	-757
weise	-758
▁km	-759
▁zimmer	-760
ide	-761
▁stand	-762
▁besten	-763
▁gar	-764
▁welt	-765
▁ohne	-766
kommen	-767
▁ta	-768
alität	-769
▁land	-770
wert	-771
▁anz	-772
etter	-773
stellung	-774
ies	-775
schieden	-776
▁voll	-777
ust	-778
▁y	-779
▁ur	-780
▁us	-781
▁ra	-782
20	-783
chten	-784
▁pol	-785
▁diesem	-786
▁betr	-787
stellt	-788
▁funktion	-789
▁benutz	-790
forder	-791
ign	-792
spiel	-793
▁kü	-794
▁seine	-795
▁hö	-796
▁währ	-797
häl	-798
fahren	-799
▁immer	-800
ständ	-801
▁na	-802
ve	-803
ffe	-804
sicht	-805
lage	-806
aut	-807
▁unserer	-808
ph	-809
if	-810
esse	-811
▁th	-812
oren	-813
inder	-814
▁grö	-815
▁fa	-816
▁ihrem	-817
▁unterst	-818
▁angeb	-819
schn	-820
▁fra	-821
auen	-822
▁ele	-823
▁ph	-824
gs	-825
stand	-826
▁andere	-827
mittel	-828
sehen	-829
▁lu	-830
▁bez	-831
▁frei	-832
▁damit	-833
▁öff	-834
▁stadt	-835
yp	-836
▁führ	-837
▁selbst	-838
▁su	-839
▁verschieden	-840
ell	-841
▁folgen	-842
ys	-843
▁ins	-844
▁lin	-845
stat	-846
▁15	-847
eig	-848
▁mus	-849
los	-850
äten	-851
ital	-852
rechen	-853
▁wurden	-854
pf	-855
▁nie	-856
▁sing	-857
lan	-858
▁akt	-859
halb	-860
▁online	-861
ichte	-862
eln	-863
▁etw	-864
richt	-865
▁liefer	-866
ingen	-867
pu	-868
kten	-869
▁wasser	-870
bil	-871
▁gu	-872
▁sti	-873
▁wä	-874
esen	-875
▁the	-876
▁sehen	-877
iver	-878
▁erhalten	-879
des	-880
▁system	-881
blem	-882
ert	-883
▁grund	-884
lau	-885
▁mein	-886
▁par	-887
ienst	-888
▁kur	-889
ium	-890
ierten	-891
▁während	-892
▁gemein	-893
hält	-894
▁sol	-895
schlie	-896
ote	-897
bung	-898
brau	-899
so	-900
▁kostenlo	-901
▁gleich	-902
▁entfernt	-903
umen	-904
▁tag	-905
vice	-906
ware	-907
glie	-908
öff	-909
▁fest	-910
legen	-911
gesch	-912
arbei	-913
▁jetzt	-914
urg	-915
▁veran	-916
nisse	-917
▁personen	-918
▁hil	-919
.0	-920
▁spez	-921
üssen	-922
▁produkt	-923
▁med	-924
leist	-925
▁schw	-926
▁unterstütz	-927
▁18	-928
andel	-929
▁emp	-930
▁app	-931
▁beg	-932
▁wohn	-933
▁herr	-934
▁ad	-935
äd	-936
cke	-937
▁12	-938
▁gef	-939
▁at	-940
▁nähe	-941
▁seite	-942
schland	-943
▁kr	-944
▁aktiv	-945
▁suche	-946
dung	-947
under	-948
one	-949
▁erfol	-950
▁weitere	-951
▁wen	-952
▁frü	-953
inn	-954
▁sk	-955
gramm	-956
ian	-957
▁sh	-958
000	-959
▁deutschland	-960
▁stra	-961
▁datei	-962
▁€	-963
▁beim	-964
ogen	-965
licher	-966
halt	-967
▁mark	-968
▁besuch	-969
▁geschä	-970
▁prä	-971
▁problem	-972
eile	-973
system	-974
▁europä	-975
tem	-976
alls	-977
bes	-978
▁str	-979
▁mal	-980
▁groß	-981
▁res	-982
po	-983
to	-984
ks	-985
▁pri	-986
▁zurück	-987
tschaft	-988
▁hei	-989
▁lo	-990
▁flüge	-991
min	-992
▁autom	-993
amen	-994
ange	-995
je	-996
▁wissen	-997
▁verl	-998
▁person	-999
bau	-1000
lagen	-1001
▁befin	-1002
fra	-1003
app	-1004
▁konta	-1005
▁waren	-1006
▁zahl	-1007
gbar	-1008
▁fot	-1009
▁viele	-1010
sk	-1011
sätz	-1012
gleich	-1013
▁entsp	-1014
alis	-1015
sa	-1016
tur	-1017
▁el	-1018
str	-1019
▁haus	-1020
ina	-1021
▁menschen	-1022
▁einge	-1023
are	-1024
man	-1025
▁ru	-1026
amil	-1027
▁müssen	-1028
▁hal	-1029
▁pa	-1030
▁schn	-1031
▁prof	-1032
uer	-1033
gie	-1034
▁heu	-1035
ats	-1036
▁liegt	-1037
▁besonder	-1038
wir	-1039
entrum	-1040
▁bitte	-1041
kann	-1042
▁eben	-1043
▁internation	-1044
schutz	-1045
▁seit	-1046
reichen	-1047
itäten	-1048
▁neuen	-1049
ome	-1050
▁wetter	-1051
▁komp	-1052
fre	-1053
gem	-1054
bed	-1055
▁+	-1056
bild	-1057
äß	-1058
▁gerät	-1059
▁form	-1060
sell	-1061
tro	-1062
▁bild	-1063
▁reise	-1064
▁con	-1065
▁gut	-1066
▁kun	-1067
▁fil	-1068
▁mich	-1069
tikel	-1070
▁ferien	-1071
schei	-1072
▁direkt	-1073
ity	-1074
nung	-1075
hme	-1076
▁li	-1077
schaften	-1078
▁wor	-1079
▁außer	-1080
▁machen	-1081
ache	-1082
fä	-1083
▁install	-1084
▁schnell	-1085
asse	-1086
hän	-1087
zeich	-1088
▁gesam	-1089
gar	-1090
kün	-1091
hol	-1092
▁bau	-1093
eren	-1094
werk	-1095
▁jo	-1096
mb	-1097
aterial	-1098
▁jahre	-1099
▁jahren	-1100
▁opti	-1101
ktur	-1102
bel	-1103
▁günst	-1104
▁drei	-1105
lex	-1106
schr	-1107
esser	-1108
▁di	-1109
▁bestimm	-1110
fel	-1111
up	-1112
▁dab	-1113
50	-1114
▁geschäft	-1115
▁bar	-1116
1;	-1117
▁&#91;	-1118
▁dabei	-1119
▁dein	-1120
▁ind	-1121
▁verein	-1122
ations	-1123
3;	-1124
▁&#93;	-1125
ko	-1126
möglich	-1127
grund	-1128
eicht	-1129
sich	-1130
▁kinder	-1131
ativ	-1132
leb	-1133
ron	-1134
les	-1135
10	-1136
▁bil	-1137
▁sor	-1138
▁jeder	-1139
▁ca	-1140
wa	-1141
▁bas	-1142
▁wind	-1143
▁30	-1144
▁muss	-1145
dig	-1146
▁internet	-1147
▁mitglie	-1148
inen	-1149
▁1.	-1150
bereich	-1151
eta	-1152
ings	-1153
▁he	-1154
staur	-1155
▁schl	-1156
eigt	-1157
▁diesen	-1158
ame	-1159
▁verfügbar	-1160
▁ka	-1161
laden	-1162
▁denn	-1163
pa	-1164
▁tage	-1165
hand	-1166
burg	-1167
wertungen	-1168
rist	-1169
▁wirk	-1170
innen	-1171
▁kostenlose	-1172
▁famil	-1173
▁cl	-1174
▁ja	-1175
emen	-1176
▁letz	-1177
ere	-1178
rad	-1179
schließ	-1180
haus	-1181
tiert	-1182
▁bieten	-1183
▁produkte	-1184
asst	-1185
▁is	-1186
ct	-1187
▁seiner	-1188
trag	-1189
▁allen	-1190
opp	-1191
use	-1192
▁lang	-1193
entlich	-1194
ander	-1195
▁priv	-1196
fort	-1197
gend	-1198
ore	-1199
mus	-1200
▁elekt	-1201
essen	-1202
unkt	-1203
anden	-1204
sor	-1205
jekt	-1206
▁arbeit	-1207
▁qualität	-1208
bet	-1209
zeug	-1210
▁rück	-1211
wohn	-1212
▁16	-1213
ald	-1214
▁stud	-1215
▁100	-1216
bez	-1217
▁welche	-1218
mm	-1219
▁aller	-1220
▁nutzen	-1221
yn	-1222
äch	-1223
▁sta	-1224
▁fu	-1225
▁art	-1226
▁vide	-1227
nahme	-1228
▁einzel	-1229
▁unseren	-1230
icken	-1231
▁ersten	-1232
llt	-1233
sh	-1234
▁wichtig	-1235
auer	-1236
▁sollte	-1237
hafen	-1238
bie	-1239
twort	-1240
▁tro	-1241
▁met	-1242
▁14	-1243
▁inte	-1244
ven	-1245
schluss	-1246
▁restaur	-1247
▁go	-1248
mail	-1249
nte	-1250
▁artikel	-1251
▁inner	-1252
leitung	-1253
▁san	-1254
▁bereits	-1255
hö	-1256
▁hinzu	-1257
▁leist	-1258
▁sicherheit	-1259
tigt	-1260
▁ort	-1261
▁ter	-1262
ichten	-1263
▁aktue	-1264
gabe	-1265
▁schla	-1266
own	-1267
part	-1268
▁engl	-1269
▁mei	-1270
ission	-1271
▁and	-1272
▁automat	-1273
▁proz	-1274
▁will	-1275
vo	-1276
endet	-1277
ähl	-1278
ftware	-1279
tre	-1280
▁unterkunft	-1281
▁dienst	-1282
▁seiten	-1283
▁ä	-1284
▁far	-1285
▁lebens	-1286
▁gest	-1287
arbeitung	-1288
▁ober	-1289
▁heute	-1290
▁zug	-1291
▁inn	-1292
▁dazu	-1293
▁pra	-1294
unde	-1295
ücher	-1296
▁hel	-1297
▁anal	-1298
▁schr	-1299
ändern	-1300
▁ac	-1301
▁umf	-1302
▁website	-1303
▁park	-1304
▁schon	-1305
▁new	-1306
gor	-1307
▁kunst	-1308
ette	-1309
▁mir	-1310
ator	-1311
▁gä	-1312
mel	-1313
▁*	-1314
ase	-1315
▁ges	-1316
öl	-1317
ossen	-1318
chts	-1319
da	-1320
▁betrie	-1321
tieren	-1322
▁anwend	-1323
▁hol	-1324
zug	-1325
▁bede	-1326
▁ide	-1327
▁11	-1328
▁schwar	-1329
indung	-1330
▁of	-1331
▁bewer	-1332
buch	-1333
steller	-1334
▁mode	-1335
▁bereich	-1336
▁suchen	-1337
spro	-1338
▁alles	-1339
▁nat	-1340
▁jedoch	-1341
abel	-1342
schnitt	-1343
▁bedien	-1344
gew	-1345
druck	-1346
▁frank	-1347
▁13	-1348
▁ener	-1349
▁lös	-1350
az	-1351
▁sü	-1352
reiber	-1353
▁bro	-1354
▁karte	-1355
▁ziel	-1356
▁habe	-1357
achten	-1358
ub	-1359
▁möchten	-1360
▁kein	-1361
▁mitarbei	-1362
ologie	-1363
▁dis	-1364
▁lassen	-1365
ffiz	-1366
▁air	-1367
kar	-1368
iell	-1369
▁wa	-1370
raft	-1371
hin	-1372
gaben	-1373
puter	-1374
ivers	-1375
zw	-1376
▁fir	-1377
▁gol	-1378
▁tri	-1379
ende	-1380
▁ak	-1381
▁flughafen	-1382
reis	-1383
▁unserem	-1384
▁17	-1385
si	-1386
▁bus	-1387
stück	-1388
glichen	-1389
sw	-1390
▁kaufen	-1391
▁grün	-1392
▁hinter	-1393
ker	-1394
igung	-1395
▁ag	-1396
▁bekann	-1397
▁erst	-1398
ds	-1399
▁2017	-1400
▁gebrau	-1401
datei	-1402
hei	-1403
stoff	-1404
▁recht	-1405
▁wi	-1406
zer	-1407
tif	-1408
ungsan	-1409
spiele	-1410
▁pf	-1411
oten	-1412
int	-1413
▁deta	-1414
platz	-1415
▁regel	-1416
▁uhr	-1417
▁große	-1418
anzen	-1419
bare	-1420
setzt	-1421
▁einige	-1422
.1	-1423
▁hatte	-1424
▁”	-1425
▁tä	-1426
ix	-1427
▁entsprechen	-1428
▁gra	-1429
▁organ	-1430
▁24	-1431
▁heraus	-1432
itten	-1433
▁stellen	-1434
▁design	-1435
elle	-1436
▁wahr	-1437
flä	-1438
▁netz	-1439
▁ausw	-1440
▁eu	-1441
▁anzeigen	-1442
ingungen	-1443
▁buchen	-1444
▁entwicklung	-1445
▁fern	-1446
▁mm	-1447
uppe	-1448
▁computer	-1449
▁nor	-1450
▁befindet	-1451
▁dort	-1452
uche	-1453
schuss	-1454
▁klein	-1455
▁sondern	-1456
▁geben	-1457
nahmen	-1458
ellen	-1459
▁wür	-1460
zial	-1461
ategor	-1462
äte	-1463
▁stehen	-1464
hof	-1465
▁bill	-1466
▁ihn	-1467
▁lö	-1468
▁»	-1469
▁wirtschaft	-1470
für	-1471
▁rund	-1472
ca	-1473
fig	-1474
klär	-1475
▁®	-1476
▁verfügung	-1477
gestellt	-1478
▁herunter	-1479
raum	-1480
riff	-1481
▁verm	-1482
▁musik	-1483
▁kostenlos	-1484
▁zusätz	-1485
▁etwas	-1486
isten	-1487
arbeit	-1488
▁auto	-1489
▁dich	-1490
stra	-1491
ansp	-1492
masch	-1493
ute	-1494
▁region	-1495
▁schwei	-1496
angen	-1497
ton	-1498
istr	-1499
▁benutzer	-1500
▁nun	-1501
cker	-1502
üssel	-1503
▁belie	-1504
▁abge	-1505
ommen	-1506
▁tre	-1507
▁got	-1508
▁partn	-1509
▁näch	-1510
▁sollten	-1511
▁dank	-1512
▁sei	-1513
künfte	-1514
iss	-1515
bin	-1516
▁denen	-1517
▁service	-1518
äss	-1519
▁großen	-1520
amer	-1521
▁sport	-1522
▁50	-1523
iet	-1524
ile	-1525
▁som	-1526
▁sc	-1527
▁europäischen	-1528
▁weg	-1529
▁geschäfts	-1530
▁bi	-1531
▁natür	-1532
▁klim	-1533
reibung	-1534
▁kn	-1535
ka	-1536
▁erw	-1537
blick	-1538
▁material	-1539
od	-1540
▁ergeb	-1541
isches	-1542
ager	-1543
▁mittel	-1544
ultur	-1545
schlossen	-1546
ßt	-1547
seite	-1548
▁25	-1549
anten	-1550
ruktur	-1551
▁natur	-1552
falls	-1553
▁gehör	-1554
▁kommen	-1555
▁maß	-1556
▁software	-1557
▁199	-1558
tisch	-1559
ative	-1560
▁et	-1561
bezogen	-1562
▁verbesser	-1563
fr	-1564
▁persön	-1565
▁neben	-1566
▁seinen	-1567
arbeiten	-1568
▁wählen	-1569
rom	-1570
▁verwendet	-1571
itzen	-1572
daten	-1573
ows	-1574
▁programm	-1575
▁pu	-1576
▁erfolg	-1577
▁port	-1578
fon	-1579
▁kre	-1580
▁daß	-1581
▁scha	-1582
aler	-1583
▁verwenden	-1584
▁innerhalb	-1585
▁blei	-1586
altung	-1587
▁haupt	-1588
▁meine	-1589
▁lage	-1590
▁kontakt	-1591
agement	-1592
▁as	-1593
▁ir	-1594
▁erste	-1595
▁zer	-1596
▁mot	-1597
▁empf	-1598
flug	-1599
iere	-1600
▁gesp	-1601
tigkeit	-1602
lay	-1603
▁entschei	-1604
etten	-1605
welt	-1606
▁jun	-1607
sellschaft	-1608
▁rechts	-1609
▁max	-1610
führung	-1611
▁nutzung	-1612
▁rahmen	-1613
▁univers	-1614
▁deine	-1615
stehen	-1616
▁arbeits	-1617
▁vertr	-1618
gän	-1619
▁schön	-1620
▁dig	-1621
ember	-1622
▁tour	-1623
▁zo	-1624
tag	-1625
hler	-1626
▁indu	-1627
frei	-1628
▁markt	-1629
schein	-1630
▁tex	-1631
führt	-1632
▁vier	-1633
örper	-1634
▁standard	-1635
▁dok	-1636
behör	-1637
▁perfe	-1638
▁energie	-1639
orn	-1640
auchen	-1641
ände	-1642
produ	-1643
port	-1644
▁erfahr	-1645
▁ital	-1646
▁rich	-1647
▁mitglied	-1648
▁berlin	-1649
ari	-1650
▁fragen	-1651
▁bade	-1652
▁pos	-1653
▁bewertungen	-1654
▁verschiedenen	-1655
äs	-1656
▁mill	-1657
▁ei	-1658
▁veröff	-1659
▁not	-1660
▁flir	-1661
▁integr	-1662
▁windows	-1663
▁char	-1664
▁vollständ	-1665
ib	-1666
▁beit	-1667
ams	-1668
▁mag	-1669
▁ern	-1670
opf	-1671
▁forsch	-1672
▁ev	-1673
▁bereit	-1674
ond	-1675
ges	-1676
▁fort	-1677
-1	-1678
punkt	-1679
▁pat	-1680
▁gemeinsam	-1681
▁bew	-1682
oppel	-1683
▁unterschie	-1684
▁macht	-1685
▁sto	-1686
gebung	-1687
▁euch	-1688
setzung	-1689
▁rel	-1690
▁down	-1691
▁kap	-1692
▁doch	-1693
vis	-1694
▁ihres	-1695
▁steht	-1696
urt	-1697
▁kategor	-1698
▁wert	-1699
ade	-1700
▁ihm	-1701
orf	-1702
▁rad	-1703
▁schlaf	-1704
▁offen	-1705
▁nation	-1706
our	-1707
ob	-1708
örse	-1709
par	-1710
ieh	-1711
▁aufge	-1712
kr	-1713
▁cook	-1714
berg	-1715
üf	-1716
▁finanz	-1717
heiten	-1718
geln	-1719
ema	-1720
▁vol	-1721
▁unterkünfte	-1722
df	-1723
▁star	-1724
ennen	-1725
▁schutz	-1726
▁pass	-1727
▁span	-1728
zahl	-1729
dition	-1730
▁transp	-1731
angeb	-1732
▁sm	-1733
ku	-1734
▁vergleich	-1735
stadt	-1736
▁pe	-1737
hnen	-1738
itu	-1739
▁verantwort	-1740
▁werk	-1741
▁partners	-1742
▁sal	-1743
▁win	-1744
ure	-1745
▁allgem	-1746
klus	-1747
schließlich	-1748
▁etwa	-1749
▁rollen	-1750
30	-1751
stimm	-1752
▁kompl	-1753
▁speich	-1754
▁fotos	-1755
endung	-1756
agen	-1757
ac	-1758
alten	-1759
chsel	-1760
▁organis	-1761
▁ju	-1762
weis	-1763
ießen	-1764
schri	-1765
▁blick	-1766
▁häu	-1767
▁schrei	-1768
ils	-1769
▁2018	-1770
▁folgenden	-1771
▁dav	-1772
▁fä	-1773
▁richt	-1774
▁also	-1775
schu	-1776
▁moder	-1777
▁sozial	-1778
▁personenbezogen	-1779
mbh	-1780
▁minuten	-1781
▁2016	-1782
ühr	-1783
ennt	-1784
ionen	-1785
verl	-1786
▁plan	-1787
leistungen	-1788
gehen	-1789
▁sy	-1790
▁#	-1791
▁singles	-1792
▁live	-1793
▁2.	-1794
ande	-1795
kur	-1796
als	-1797
▁genau	-1798
anken	-1799
lag	-1800
liches	-1801
forderungen	-1802
äge	-1803
▁tele	-1804
ument	-1805
▁gmbh	-1806
▁besser	-1807
▁platz	-1808
ino	-1809
▁namen	-1810
cket	-1811
▁klicken	-1812
ofa	-1813
▁mor	-1814
▁hersteller	-1815
äre	-1816
▁partnersuche	-1817
mäß	-1818
▁preise	-1819
ikation	-1820
hle	-1821
▁weiß	-1822
mar	-1823
▁erforder	-1824
techn	-1825
jahr	-1826
▁darüber	-1827
laub	-1828
bei	-1829
▁ähn	-1830
ktionen	-1831
ober	-1832
▁doppel	-1833
▁bür	-1834
▁indem	-1835
lichkeit	-1836
▁schwarz	-1837
▁sil	-1838
▁italien	-1839
▁video	-1840
▁druck	-1841
▁polit	-1842
änger	-1843
▁bad	-1844
▁schö	-1845
▁treiber	-1846
ance	-1847
twor	-1848
▁sen	-1849
▁projekt	-1850
▁aben	-1851
▁schnapp	-1852
▁car	-1853
▁ausgestat	-1854
▁mün	-1855
ckt	-1856
pad	-1857
flüge	-1858
▁letzten	-1859
bahn	-1860
häng	-1861
▁unterschied	-1862
üt	-1863
örder	-1864
▁vielen	-1865
halte	-1866
reifen	-1867
tsofa	-1868
▁arch	-1869
stellungen	-1870
fäh	-1871
rag	-1872
▁innen	-1873
eitig	-1874
▁gäste	-1875
▁log	-1876
▁ende	-1877
▁flirtsofa	-1878
lebörse	-1879
▁singlebörse	-1880
uppen	-1881
▁downlo	-1882
▁trans	-1883
setzen	-1884
▁öl	-1885
▁mie	-1886
▁bzw	-1887
ingt	-1888
tragen	-1889
▁partner	-1890
▁veröffentlich	-1891
frage	-1892
▁meer	-1893
▁ferienwohn	-1894
▁verfügt	-1895
▁entde	-1896
eist	-1897
▁geht	-1898
weg	-1899
▁schnappschuss	-1900
▁beispiel	-1901
▁stre	-1902
ogra	-1903
▁pal	-1904
▁früh	-1905
▁luft	-1906
▁fuß	-1907
▁zoom	-1908
▁arbeiten	-1909
▁weil	-1910
kor	-1911
60	-1912
▁kommission	-1913
sl	-1914
legt	-1915
häu	-1916
▁zentrum	-1917
▁schlie	-1918
hau	-1919
achsen	-1920
▁jeden	-1921
abl	-1922
atten	-1923
▁gener	-1924
▁bin	-1925
iels	-1926
▁besonders	-1927
▁cm	-1928
▁rein	-1929
rieben	-1930
▁europa	-1931
▁erf	-1932
sterreich	-1933
▁wider	-1934
iff	-1935
dent	-1936
ession	-1937
▁mitarbeiter	-1938
▁fall	-1939
▁eigenen	-1940
ül	-1941
▁erfahren	-1942
▁kor	-1943
pe	-1944
▁fach	-1945
ong	-1946
▁einmal	-1947
▁möglichkeit	-1948
▁verschiedene	-1949
iges	-1950
mon	-1951
▁hilfe	-1952
▁darauf	-1953
bewer	-1954
▁innov	-1955
▁web	-1956
▁tun	-1957
äum	-1958
▁ster	-1959
ight	-1960
▁end	-1961
▁indust	-1962
▁deren	-1963
▁kommun	-1964
cen	-1965
aren	-1966
▁nieder	-1967
,5	-1968
▁hohe	-1969
▁top	-1970
sicher	-1971
▁lesen	-1972
kel	-1973
istor	-1974
▁jedes	-1975
▁schul	-1976
▁erreichen	-1977
▁euro	-1978
▁herz	-1979
hmer	-1980
▁kultur	-1981
last	-1982
fügen	-1983
▁deutsch	-1984
reise	-1985
zep	-1986
ätze	-1987
▁verkauf	-1988
assung	-1989
▁dafür	-1990
▁21	-1991
▁statt	-1992
▁apart	-1993
▁handel	-1994
▁aufent	-1995
▁könig	-1996
▁nacht	-1997
leben	-1998
entlichen	-1999
▁küche	-2000
verb	-2001
adr	-2002
▁jede	-2003
▁veranst	-2004
auft	-2005
▁anti	-2006
yl	-2007
▁bedienungsan	-2008
▁jul	-2009
▁extr	-2010
▁einsatz	-2011
▁gesund	-2012
ps	-2013
201	-2014
▁spiele	-2015
ivi	-2016
▁stark	-2017
▁bilder	-2018
▁registr	-2019
fil	-2020
suchen	-2021
▁bal	-2022
fs	-2023
utter	-2024
▁frage	-2025
▁optim	-2026
▁del	-2027
gram	-2028
▁körper	-2029
▁außerdem	-2030
▁erz	-2031
▁dom	-2032
ummer	-2033
▁hy	-2034
book	-2035
▁kurz	-2036
▁mer	-2037
▁belieb	-2038
▁produktion	-2039
▁22	-2040
▁40	-2041
▁schwer	-2042
▁ebenfalls	-2043
▁wollen	-2044
▁mär	-2045
▁helfen	-2046
▁zwe	-2047
▁allem	-2048
▁bücher	-2049
▁dat	-2050
▁österreich	-2051
▁vers	-2052
▁englisch	-2053
▁daher	-2054
▁do	-2055
▁gute	-2056
voll	-2057
▁benö	-2058
ierungs	-2059
▁bekannt	-2060
▁mil	-2061
▁beschreibung	-2062
▁pdf	-2063
▁zentr	-2064
▁blo	-2065
ana	-2066
gleichen	-2067
▁besteht	-2068
kehr	-2069
▁wich	-2070
▁masch	-2071
oche	-2072
▁«	-2073
▁typ	-2074
iken	-2075
▁industrie	-2076
th	-2077
▁motor	-2078
▁umgebung	-2079
▁wunder	-2080
▁genießen	-2081
ünf	-2082
▁ü	-2083
ins	-2084
▁verarbeitung	-2085
▁seinem	-2086
stens	-2087
gende	-2088
tember	-2089
▁konz	-2090
▁nutzer	-2091
▁künst	-2092
▁auswahl	-2093
▁kommt	-2094
▁wissenschaft	-2095
▁anbie	-2096
▁stunden	-2097
▁beru	-2098
swür	-2099
▁finde	-2100
▁sonder	-2101
▁größ	-2102
vi	-2103
fläche	-2104
▁holz	-2105
▁wlan	-2106
▁cookies	-2107
▁download	-2108
▁kannst	-2109
ären	-2110
teile	-2111
auben	-2112
▁super	-2113
▁datenschutz	-2114
▁rollenspiele	-2115
▁tür	-2116
do	-2117
▁klima	-2118
▁erwei	-2119
ants	-2120
▁vi	-2121
▁öffnen	-2122
▁ermöglich	-2123
▁gesetz	-2124
ielle	-2125
▁home	-2126
hil	-2127
iten	-2128
ohl	-2129
▁lange	-2130
▁kir	-2131
▁passen	-2132
▁möchte	-2133
ient	-2134
ividu	-2135
igt	-2136
▁garten	-2137
▁tv	-2138
service	-2139
▁•	-2140
▁angebot	-2141
▁leu	-2142
ief	-2143
▁terr	-2144
▁leicht	-2145
▁sowohl	-2146
▁histor	-2147
iter	-2148
▁höch	-2149
con	-2150
▁har	-2151
ja	-2152
feld	-2153
80	-2154
treten	-2155
vest	-2156
▁begr	-2157
▁camp	-2158
nehmer	-2159
▁individu	-2160
ismus	-2161
▁weltw	-2162
mt	-2163
.2	-2164
spruch	-2165
▁anzahl	-2166
▁erklär	-2167
genommen	-2168
▁jewei	-2169
▁gelegen	-2170
eitet	-2171
anlage	-2172
eignet	-2173
▁verbindung	-2174
how	-2175
▁gehen	-2176
▁umwelt	-2177
▁gast	-2178
▁fel	-2179
▁serv	-2180
▁cas	-2181
▁erhält	-2182
ualis	-2183
▁stat	-2184
▁abs	-2185
une	-2186
auber	-2187
dit	-2188
inge	-2189
▁aktivitäten	-2190
▁familien	-2191
lös	-2192
nten	-2193
▁stück	-2194
erv	-2195
▁nehmen	-2196
▁00	-2197
ktor	-2198
▁komfort	-2199
▁analy	-2200
▁günstig	-2201
ech	-2202
▁mik	-2203
tifiz	-2204
▁kat	-2205
wser	-2206
▁aufgrund	-2207
▁ermöglicht	-2208
▁up	-2209
stag	-2210
gangen	-2211
▁apartment	-2212
▁vis	-2213
▁licht	-2214
ogle	-2215
▁gewähr	-2216
▁jan	-2217
▁nov	-2218
alter	-2219
▁kleine	-2220
iehen	-2221
▁kombin	-2222
▁män	-2223
▁led	-2224
achte	-2225
▁google	-2226
licht	-2227
oss	-2228
▁rom	-2229
▁fing	-2230
▁voraus	-2231
ller	-2232
▁start	-2233
▁interess	-2234
▁übern	-2235
▁schu	-2236
▁mel	-2237
ativen	-2238
fo	-2239
▁weltweit	-2240
▁lux	-2241
▁minde	-2242
peratur	-2243
heim	-2244
▁spielen	-2245
▁geschichte	-2246
▁änder	-2247
baren	-2248
▁angebote	-2249
▁raum	-2250
▁wochen	-2251
▁bevor	-2252
▁vergleichen	-2253
▁vo	-2254
▁betriebs	-2255
reg	-2256
▁sitz	-2257
fest	-2258
▁gesundheit	-2259
▁dre	-2260
▁prakti	-2261
stu	-2262
ichtet	-2263
▁richtig	-2264
itter	-2265
▁frauen	-2266
ählen	-2267
▁bu	-2268
40	-2269
reiche	-2270
▁kauf	-2271
▁erfü	-2272
▁billig	-2273
illa	-2274
fall	-2275
.000	-2276
tische	-2277
maschine	-2278
▁hinaus	-2279
▁gesellschaft	-2280
▁sogar	-2281
bank	-2282
atte	-2283
▁erwar	-2284
besonder	-2285
hers	-2286
tigung	-2287
▁pc	-2288
▁betro	-2289
▁film	-2290
▁china	-2291
▁dri	-2292
▁glo	-2293
▁weit	-2294
▁zeigt	-2295
igar	-2296
▁weise	-2297
▁frankreich	-2298
▁insbesonder	-2299
▁erhö	-2300
▁west	-2301
ister	-2302
▁insbesondere	-2303
▁telefon	-2304
▁außen	-2305
▁kam	-2306
▁2015	-2307
▁ausgestattet	-2308
hem	-2309
▁betroffen	-2310
enzen	-2311
aktiv	-2312
▁gefunden	-2313
wor	-2314
leit	-2315
▁zeigen	-2316
fang	-2317
▁entwickelt	-2318
irt	-2319
▁gott	-2320
kan	-2321
▁konnte	-2322
▁2019	-2323
▁hervor	-2324
▁notwend	-2325
▁kontro	-2326
▁franz	-2327
▁kan	-2328
swürdig	-2329
▁empfe	-2330
▁version	-2331
▁versch	-2332
▁lok	-2333
▁zugang	-2334
▁davon	-2335
bedingungen	-2336
▁sprach	-2337
linie	-2338
▁weiteren	-2339
▁teilen	-2340
▁beiden	-2341
▁extrem	-2342
no	-2343
ässt	-2344
zt	-2345
▁test	-2346
▁sep	-2347
▁usa	-2348
zeigt	-2349
▁it	-2350
cl	-2351
-2	-2352
▁lösung	-2353
▁ris	-2354
▁samm	-2355
▁’	-2356
ffizien	-2357
tv	-2358
▁wirklich	-2359
▁größe	-2360
▁unternehmens	-2361
di	-2362
gas	-2363
▁spa	-2364
▁kategorie	-2365
▁hinzufügen	-2366
äter	-2367
▁strand	-2368
▁rest	-2369
▁restaurant	-2370
mann	-2371
▁restaurants	-2372
richtungen	-2373
,9	-2374
cks	-2375
▁nahe	-2376
teilung	-2377
swürdigkeiten	-2378
prä	-2379
staaten	-2380
▁schm	-2381
▁freund	-2382
sein	-2383
wand	-2384
▁webseite	-2385
genden	-2386
▁nord	-2387
ont	-2388
▁falls	-2389
▁60	-2390
handel	-2391
▁stär	-2392
▁nr	-2393
▁mul	-2394
▁juni	-2395
izin	-2396
richtung	-2397
▁zukunft	-2398
ikan	-2399
trie	-2400
▁unten	-2401
▁team	-2402
▁okt	-2403
führen	-2404
spl	-2405
▁muse	-2406
pen	-2407
▁feu	-2408
▁verwendung	-2409
plan	-2410
▁eigent	-2411
▁liste	-2412
▁gegenüber	-2413
▁oft	-2414
▁sonnen	-2415
▁dire	-2416
▁könnte	-2417
▁wahl	-2418
▁no	-2419
▁ol	-2420
▁erl	-2421
met	-2422
▁süd	-2423
kauf	-2424
pack	-2425
recht	-2426
lungen	-2427
▁tradition	-2428
▁phil	-2429
▁meisten	-2430
▁anwendung	-2431
▁stu	-2432
fahrt	-2433
▁familie	-2434
▁kraft	-2435
▁wohnung	-2436
ire	-2437
▁flie	-2438
▁weniger	-2439
▁schweiz	-2440
uren	-2441
▁setz	-2442
trags	-2443
▁bestehen	-2444
stattung	-2445
abil	-2446
va	-2447
▁invest	-2448
asser	-2449
jekte	-2450
▁23	-2451
▁anzu	-2452
▁3.	-2453
▁herunterladen	-2454
▁unterstützt	-2455
ament	-2456
▁einschließlich	-2457
▁installation	-2458
inz	-2459
▁aug	-2460
▁kühl	-2461
▁christ	-2462
spe	-2463
lauf	-2464
▁probleme	-2465
▁durchschnitt	-2466
anc	-2467
▁mobil	-2468
▁kleinen	-2469
▁verst	-2470
▁gil	-2471
▁pap	-2472
ement	-2473
tete	-2474
karte	-2475
gien	-2476
▁bel	-2477
▁bahn	-2478
ausch	-2479
▁juli	-2480
km	-2481
▁heil	-2482
igkeiten	-2483
ches	-2484
▁dien	-2485
zustellen	-2486
richten	-2487
▁erk	-2488
▁browser	-2489
ums	-2490
▁städ	-2491
▁alt	-2492
rat	-2493
ry	-2494
tworten	-2495
▁mikro	-2496
▁woche	-2497
▁unterstützung	-2498
leg	-2499
gliche	-2500
▁unver	-2501
▁wechsel	-2502
aul	-2503
▁em	-2504
ala	-2505
▁zubehör	-2506
▁oben	-2507
▁mehrere	-2508
▁enthalten	-2509
▁$	-2510
▁links	-2511
▁führen	-2512
▁überw	-2513
▁hochwer	-2514
▁steuer	-2515
▁hör	-2516
sucht	-2517
▁spezial	-2518
▁dez	-2519
▁stellt	-2520
▁würde	-2521
▁lehr	-2522
▁°	-2523
▁bewertung	-2524
phone	-2525
▁mai	-2526
▁amer	-2527
hang	-2528
chs	-2529
pol	-2530
▁sex	-2531
▁brei	-2532
▁freu	-2533
stein	-2534
▁sommer	-2535
hersage	-2536
ämp	-2537
iste	-2538
▁eg	-2539
▁details	-2540
lege	-2541
▁liebe	-2542
jähr	-2543
bildung	-2544
▁rat	-2545
▁q	-2546
▁tanzen	-2547
bri	-2548
halts	-2549
▁jahres	-2550
▁früher	-2551
fft	-2552
tin	-2553
70	-2554
▁betre	-2555
▁orig	-2556
▁erstellen	-2557
▁genann	-2558
▁fal	-2559
prü	-2560
▁september	-2561
▁schri	-2562
wirk	-2563
▁unbe	-2564
▁ganze	-2565
▁flex	-2566
ness	-2567
tage	-2568
dienst	-2569
▁maxim	-2570
▁befinden	-2571
▁bund	-2572
stelle	-2573
▁augen	-2574
änge	-2575
til	-2576
▁glas	-2577
ordnung	-2578
▁ergebnisse	-2579
▁_	-2580
▁erfahrung	-2581
▁wohl	-2582
weisen	-2583
▁automatisch	-2584
zeuge	-2585
▁badezimmer	-2586
▁server	-2587
▁bleiben	-2588
▁mess	-2589
▁exper	-2590
▁jedem	-2591
ex	-2592
attform	-2593
ktieren	-2594
▁modell	-2595
▁vereinig	-2596
▁mensch	-2597
▁fehler	-2598
ish	-2599
▁funktionen	-2600
ters	-2601
hunder	-2602
▁einzigar	-2603
vel	-2604
▁2014	-2605
▁farbe	-2606
▁eng	-2607
▁klass	-2608
press	-2609
fallen	-2610
grö	-2611
▁thema	-2612
▁internationalen	-2613
--	-2614
ügel	-2615
▁natürlich	-2616
▁aufenthalt	-2617
.201	-2618
▁ler	-2619
▁pan	-2620
iew	-2621
▁prozess	-2622
za	-2623
▁komment	-2624
▁folgende	-2625
▁oktober	-2626
tischen	-2627
▁später	-2628
▁mom	-2629
▁gebäu	-2630
▁berg	-2631
▁kal	-2632
ular	-2633
▁aktualis	-2634
iellen	-2635
▁dan	-2636
▁frau	-2637
bu	-2638
park	-2639
▁2012	-2640
▁frühstück	-2641
▁günstige	-2642
▁wein	-2643
▁findet	-2644
▁garan	-2645
▁insel	-2646
▁geld	-2647
ink	-2648
▁erweiter	-2649
ählt	-2650
▁ferienwohnungen	-2651
▁versand	-2652
itze	-2653
▁schlafzimmer	-2654
▁wien	-2655
vorhersage	-2656
▁28	-2657
▁schritt	-2658
abhäng	-2659
▁daran	-2660
▁elektron	-2661
cs	-2662
▁fast	-2663
▁wes	-2664
▁glob	-2665
ons	-2666
▁millionen	-2667
▁lässt	-2668
box	-2669
lungs	-2670
drück	-2671
iven	-2672
iko	-2673
▁lager	-2674
▁gilt	-2675
wind	-2676
▁tier	-2677
▁gerade	-2678
▁enthält	-2679
▁künstler	-2680
grün	-2681
möglichkeiten	-2682
▁angeboten	-2683
▁urlaub	-2684
▁sag	-2685
▁farb	-2686
▁nächsten	-2687
preis	-2688
unt	-2689
ites	-2690
▁nachhal	-2691
funktion	-2692
ama	-2693
atis	-2694
▁dusche	-2695
▁leich	-2696
bett	-2697
aub	-2698
blik	-2699
ash	-2700
igh	-2701
▁leistungs	-2702
zeitig	-2703
üst	-2704
▁smart	-2705
▁27	-2706
▁stell	-2707
▁auszu	-2708
▁zudem	-2709
ierungen	-2710
▁beginn	-2711
▁wett	-2712
▁wh	-2713
▁post	-2714
▁fünf	-2715
rech	-2716
▁geist	-2717
▁frie	-2718
▁ren	-2719
▁26	-2720
▁bef	-2721
▁reserv	-2722
por	-2723
▁münchen	-2724
hnt	-2725
▁gerne	-2726
ika	-2727
▁maßnahmen	-2728
struktur	-2729
▁rot	-2730
▁höher	-2731
▁2013	-2732
mode	-2733
▁reisen	-2734
gruppe	-2735
▁zusammenarbeit	-2736
▁höhe	-2737
▁ansehen	-2738
▁technolog	-2739
▁rechte	-2740
▁mann	-2741
ball	-2742
▁jahrhunder	-2743
▁stil	-2744
geber	-2745
▁vorh	-2746
ona	-2747
▁klei	-2748
▁tur	-2749
ya	-2750
▁train	-2751
▁ther	-2752
rip	-2753
▁sonst	-2754
wirtschaft	-2755
▁sam	-2756
▁dokumen	-2757
▁ii	-2758
▁verbunden	-2759
stre	-2760
▁zul	-2761
▁essen	-2762
handlung	-2763
▁vollständig	-2764
▁häufig	-2765
▁gruppe	-2766
▁haut	-2767
leitungen	-2768
▁reich	-2769
immt	-2770
▁bla	-2771
sph	-2772
dul	-2773
ferenz	-2774
inform	-2775
▁größer	-2776
pool	-2777
▁vorhanden	-2778
visor	-2779
▁deutschen	-2780
▁verd	-2781
▁französ	-2782
▁apr	-2783
nete	-2784
zeiten	-2785
▁willkommen	-2786
spiels	-2787
▁gemacht	-2788
▁driver	-2789
▁zuge	-2790
schrank	-2791
▁aktuelle	-2792
achst	-2793
▁gold	-2794
gramme	-2795
▁lernen	-2796
irm	-2797
▁cor	-2798
▁option	-2799
▁förder	-2800
▁profession	-2801
tex	-2802
▁schnelle	-2803
inger	-2804
uar	-2805
▁august	-2806
▁international	-2807
▁mu	-2808
▁stad	-2809
freie	-2810
▁medizin	-2811
zept	-2812
geräte	-2813
▁ham	-2814
▁gelten	-2815
mun	-2816
▁lond	-2817
gerät	-2818
▁paar	-2819
▁ersch	-2820
utzt	-2821
ipp	-2822
▁origin	-2823
▁ul	-2824
▁29	-2825
▁gab	-2826
▁ruh	-2827
angebote	-2828
schriften	-2829
▁gemäß	-2830
haltung	-2831
▁ps	-2832
ara	-2833
▁technische	-2834
▁verkehr	-2835
onnen	-2836
▁eigene	-2837
eige	-2838
▁bewe	-2839
▁gemeinschaft	-2840
programm	-2841
▁farben	-2842
▁europäische	-2843
nehm	-2844
ierter	-2845
leuch	-2846
▁warum	-2847
entwick	-2848
▁einger	-2849
▁anforderungen	-2850
dorf	-2851
aser	-2852
▁ze	-2853
▁verkaufen	-2854
▁hast	-2855
▁sofort	-2856
änden	-2857
▁glück	-2858
▁fingern	-2859
▁—	-2860
▁cam	-2861
▁boden	-2862
▁digital	-2863
▁hatten	-2864
▁bab	-2865
ev	-2866
▁erforderlich	-2867
▁entdecken	-2868
reicht	-2869
▁nichts	-2870
arbeitet	-2871
ifiz	-2872
▁strate	-2873
▁beein	-2874
▁ganzen	-2875
markt	-2876
verläss	-2877
▁mat	-2878
schlag	-2879
▁besuchen	-2880
▁qual	-2881
ildo	-2882
▁märz	-2883
est	-2884
▁sim	-2885
▁kontaktieren	-2886
▁halten	-2887
▁london	-2888
out	-2889
▁union	-2890
▁wichtige	-2891
▁trä	-2892
▁tem	-2893
▁unterstützen	-2894
▁redu	-2895
freund	-2896
▁antworten	-2897
utung	-2898
▁kopf	-2899
stimmung	-2900
▁gesamt	-2901
▁sw	-2902
fri	-2903
▁mic	-2904
tens	-2905
▁struktur	-2906
ägt	-2907
▁ändern	-2908
zung	-2909
▁verpf	-2910
▁russ	-2911
mark	-2912
arf	-2913
▁last	-2914
▁erlau	-2915
möglichen	-2916
▁liebes	-2917
teilt	-2918
▁baum	-2919
▁geeignet	-2920
tiger	-2921
▁neues	-2922
▁möglichkeiten	-2923
akter	-2924
wasser	-2925
▁sicherheits	-2926
▁zuverläss	-2927
▁hohen	-2928
cel	-2929
▁bon	-2930
11	-2931
▁karten	-2932
▁umfassen	-2933
▁gehört	-2934
▁führt	-2935
▁dezember	-2936
ampf	-2937
netz	-2938
iegel	-2939
▁bequ	-2940
kre	-2941
hilfe	-2942
scht	-2943
samt	-2944
stru	-2945
▁dateien	-2946
▁bezieh	-2947
▁beispiels	-2948
▁leistung	-2949
▁ged	-2950
▁winter	-2951
▁worden	-2952
▁verfahren	-2953
klei	-2954
üglich	-2955
▁position	-2956
▁mini	-2957
gefü	-2958
▁city	-2959
play	-2960
ain	-2961
▁see	-2962
set	-2963
kosten	-2964
▁kaffe	-2965
▁morgen	-2966
▁fo	-2967
öhn	-2968
▁4.	-2969
ren	-2970
ices	-2971
▁rauchen	-2972
go	-2973
▁monat	-2974
▁inhalte	-2975
▁transport	-2976
test	-2977
altet	-2978
▁universität	-2979
▁wün	-2980
inner	-2981
▁ergebnis	-2982
▁lösungen	-2983
▁bundes	-2984
hi	-2985
▁ausgew	-2986
▁31	-2987
▁band	-2988
bringen	-2989
▁präsen	-2990
▁solche	-2991
▁prozent	-2992
▁ve	-2993
▁my	-2994
▁tripad	-2995
ics	-2996
▁tripadvisor	-2997
▁beispielsweise	-2998
anne	-2999
tionen	-3000
unkte	-3001
▁sign	-3002
▁einzu	-3003
▁schrift	-3004
ante	-3005
ison	-3006
ake	-3007
unehmen	-3008
bas	-3009
reiben	-3010
▁ven	-3011
▁dessen	-3012
▁gleichzeitig	-3013
▁anw	-3014
▁forschung	-3015
▁off	-3016
▁sä	-3017
▁anmel	-3018
adresse	-3019
isierung	-3020
▁tau	-3021
▁jederzeit	-3022
indungen	-3023
ica	-3024
liefer	-3025
▁bedingungen	-3026
ux	-3027
▁unabhäng	-3028
els	-3029
iti	-3030
▁gegeben	-3031
schließen	-3032
-0	-3033
ücken	-3034
▁sprache	-3035
▁maschinen	-3036
▁can	-3037
mals	-3038
gene	-3039
gegen	-3040
iker	-3041
wort	-3042
▁verfügen	-3043
linien	-3044
▁april	-3045
▁paris	-3046
▁mitgliedstaaten	-3047
▁jen	-3048
ips	-3049
mäßig	-3050
▁januar	-3051
▁stahl	-3052
▁micro	-3053
▁edel	-3054
leistung	-3055
▁gre	-3056
▁dür	-3057
▁öffentlichen	-3058
▁sicht	-3059
▁bra	-3060
utet	-3061
▁tor	-3062
▁herzen	-3063
▁deshalb	-3064
▁198	-3065
▁2010	-3066
entliche	-3067
▁moment	-3068
▁pfl	-3069
▁geräte	-3070
▁guten	-3071
▁metall	-3072
▁gek	-3073
▁tats	-3074
ines	-3075
zess	-3076
äf	-3077
▁laden	-3078
▁­	-3079
dungen	-3080
gesamt	-3081
▁vorge	-3082
ano	-3083
▁stim	-3084
▁mac	-3085
▁ke	-3086
▁nachdem	-3087
▁metho	-3088
vol	-3089
eiden	-3090
plätze	-3091
▁les	-3092
eting	-3093
▁prüf	-3094
▁reduz	-3095
,00	-3096
▁bezeich	-3097
▁gebraucht	-3098
▁name	-3099
hotel	-3100
chan	-3101
ise	-3102
ada	-3103
andels	-3104
▁flach	-3105
▁temperatur	-3106
unsch	-3107
stoffe	-3108
▁staaten	-3109
▁veränder	-3110
▁setzen	-3111
unternehmen	-3112
äng	-3113
▁sollen	-3114
▁wettbewer	-3115
bewertungen	-3116
▁jap	-3117
▁basis	-3118
mitt	-3119
amera	-3120
ucht	-3121
▁out	-3122
gri	-3123
▁ed	-3124
eister	-3125
▁privat	-3126
▁insgesamt	-3127
urs	-3128
▁netzwerk	-3129
twagen	-3130
üsse	-3131
ult	-3132
▁kabel	-3133
mitteln	-3134
▁ländern	-3135
▁schwe	-3136
▁tagen	-3137
▁verz	-3138
▁gespeich	-3139
▁medien	-3140
▁syn	-3141
▁bearbeiten	-3142
▁ip	-3143
▁gesamten	-3144
▁dad	-3145
häuser	-3146
▁wichtigsten	-3147
▁kop	-3148
▁cr	-3149
▁35	-3150
zentrum	-3151
besch	-3152
▁offiz	-3153
▁bat	-3154
▁che	-3155
▁angezeigt	-3156
iesen	-3157
▁kind	-3158
▁sand	-3159
▁shop	-3160
▁liegen	-3161
sc	-3162
▁altern	-3163
teilen	-3164
▁bestä	-3165
▁back	-3166
▁clo	-3167
▁neuer	-3168
▁bem	-3169
▁veröffentlicht	-3170
neten	-3171
▁technologie	-3172
▁2011	-3173
▁ermöglichen	-3174
▁krie	-3175
führer	-3176
▁themen	-3177
▁anfrage	-3178
▁chem	-3179
▁ausgezeich	-3180
ielt	-3181
▁bein	-3182
ieht	-3183
kugeln	-3184
▁beliebte	-3185
▁ideal	-3186
▁november	-3187
▁defin	-3188
▁pen	-3189
▁event	-3190
25	-3191
▁bringen	-3192
▁villa	-3193
by	-3194
▁wegen	-3195
bru	-3196
▁bedeutung	-3197
▁besitz	-3198
gef	-3199
ograf	-3200
▁dauer	-3201
▁foto	-3202
▁getr	-3203
▁sagen	-3204
▁ku	-3205
▁ticket	-3206
▁schütz	-3207
▁bay	-3208
▁80	-3209
▁vorher	-3210
▁bequem	-3211
▁dokument	-3212
▁günstigsten	-3213
▁welches	-3214
iner	-3215
ec	-3216
▁dun	-3217
med	-3218
▁erfolgt	-3219
gra	-3220
fäl	-3221
furt	-3222
▁90	-3223
▁spieler	-3224
▁installieren	-3225
figur	-3226
▁japan	-3227
▁effizien	-3228
▁gehören	-3229
▁black	-3230
▁verbrau	-3231
management	-3232
umm	-3233
▁text	-3234
erweise	-3235
▁bank	-3236
hlt	-3237
bedien	-3238
▁keinen	-3239
örter	-3240
ffer	-3241
bew	-3242
▁mindestens	-3243
▁by	-3244
▁mietwagen	-3245
▁digit	-3246
▁terrasse	-3247
▁zusätzlich	-3248
verfahren	-3249
bit	-3250
zeugen	-3251
▁dadurch	-3252
▁fein	-3253
▁reihe	-3254
utt	-3255
hren	-3256
▁ski	-3257
▁teile	-3258
▁wenig	-3259
▁senden	-3260
▁siehe	-3261
ots	-3262
▁fen	-3263
uz	-3264
▁umfang	-3265
usst	-3266
rik	-3267
stahl	-3268
▁deutsche	-3269
▁veranstalt	-3270
windigkeit	-3271
24	-3272
wagen	-3273
▁national	-3274
ld	-3275
▁rolle	-3276
annen	-3277
▁camping	-3278
ane	-3279
▁adr	-3280
▁col	-3281
llo	-3282
▁pla	-3283
▁tipp	-3284
itik	-3285
tiges	-3286
▁deinen	-3287
▁host	-3288
▁internationale	-3289
▁aud	-3290
▁bestimmten	-3291
▁gebäude	-3292
schung	-3293
▁inhalt	-3294
▁liebeskugeln	-3295
hel	-3296
mobil	-3297
▁kil	-3298
fluss	-3299
▁zwar	-3300
▁erhe	-3301
iness	-3302
▁speichern	-3303
▁beschäf	-3304
kung	-3305
▁stock	-3306
▁lau	-3307
ienten	-3308
▁schöne	-3309
▁gruppen	-3310
▁bekommen	-3311
▁poly	-3312
▁don	-3313
ution	-3314
▁bezug	-3315
steuer	-3316
▁anspruch	-3317
▁erhältlich	-3318
material	-3319
hä	-3320
mat	-3321
eten	-3322
▁besucher	-3323
▁eröff	-3324
▁trotz	-3325
▁hd	-3326
▁klar	-3327
▁anfang	-3328
▁hintergrund	-3329
▁32	-3330
kü	-3331
ügen	-3332
▁beach	-3333
hältnis	-3334
maschinen	-3335
▁45	-3336
▁dv	-3337
▁usb	-3338
▁sl	-3339
▁ord	-3340
ierende	-3341
▁bedeutet	-3342
▁entscheiden	-3343
▁set	-3344
spart	-3345
▁erreicht	-3346
▁jet	-3347
▁attra	-3348
res	-3349
dings	-3350
▁erd	-3351
▁monaten	-3352
asen	-3353
▁ten	-3354
schirm	-3355
▁urspr	-3356
▁unseres	-3357
▁mitarbeitern	-3358
ynam	-3359
▁kolle	-3360
▁posit	-3361
▁face	-3362
▁durchge	-3363
▁spezif	-3364
far	-3365
durch	-3366
quar	-3367
tiv	-3368
▁einzelnen	-3369
▁los	-3370
hop	-3371
.00	-3372
▁get	-3373
ickt	-3374
sellschaften	-3375
bro	-3376
▁ass	-3377
▁wär	-3378
▁meiner	-3379
öst	-3380
▁benutzen	-3381
▁graf	-3382
▁verbin	-3383
rieb	-3384
ctor	-3385
▁richtige	-3386
▁pool	-3387
othe	-3388
90	-3389
▁überprü	-3390
▁archite	-3391
cc	-3392
arch	-3393
oper	-3394
▁ap	-3395
ym	-3396
flächen	-3397
able	-3398
▁aktuell	-3399
▁meter	-3400
▁bran	-3401
▁laut	-3402
▁videos	-3403
▁somit	-3404
▁500	-3405
ume	-3406
▁strom	-3407
▁entfer	-3408
anbie	-3409
32	-3410
▁ersatz	-3411
▁exklus	-3412
träge	-3413
▁damen	-3414
bruar	-3415
kennen	-3416
bi	-3417
▁gefü	-3418
▁arten	-3419
technik	-3420
▁modelle	-3421
wissen	-3422
frie	-3423
stie	-3424
sichtlich	-3425
▁multi	-3426
▁geräts	-3427
▁gebrauchte	-3428
▁pre	-3429
▁fit	-3430
.5	-3431
▁komplett	-3432
▁zusammenhang	-3433
▁empfehlen	-3434
▁speicher	-3435
▁klimaanlage	-3436
ftung	-3437
▁effe	-3438
spricht	-3439
▁tages	-3440
▁sat	-3441
hoben	-3442
▁speziell	-3443
▁kennen	-3444
▁herrn	-3445
ichts	-3446
▁fahren	-3447
▁begl	-3448
▁spanien	-3449
▁za	-3450
▁play	-3451
▁erstellt	-3452
sprache	-3453
frist	-3454
▁freuen	-3455
▁original	-3456
▁wand	-3457
izenz	-3458
▁hilft	-3459
onenten	-3460
▁silber	-3461
▁anwendungen	-3462
▁gästen	-3463
▁link	-3464
nummer	-3465
äußer	-3466
bus	-3467
▁beitrag	-3468
▁persönlichen	-3469
immen	-3470
informationen	-3471
ielleicht	-3472
son	-3473
▁aust	-3474
▁allerdings	-3475
▁regen	-3476
eilen	-3477
▁vielleicht	-3478
▁beteil	-3479
▁treffen	-3480
▁wäre	-3481
▁leder	-3482
barkeit	-3483
▁museum	-3484
▁flexi	-3485
▁oper	-3486
schrän	-3487
nungen	-3488
▁tie	-3489
▁bio	-3490
▁schlüssel	-3491
▁stelle	-3492
org	-3493
immern	-3494
▁denken	-3495
qualität	-3496
▁anleitung	-3497
▁absol	-3498
▁management	-3499
ay	-3500
▁2008	-3501
que	-3502
rock	-3503
uelle	-3504
▁sagte	-3505
▁größten	-3506
▁deutlich	-3507
▁mü	-3508
schau	-3509
tierung	-3510
volle	-3511
▁bereichen	-3512
▁business	-3513
▁information	-3514
▁1,	-3515
ometer	-3516
▁balkon	-3517
▁lösen	-3518
▁ang	-3519
▁brau	-3520
istischen	-3521
▁sorgen	-3522
▁jeweil	-3523
▁häl	-3524
itut	-3525
karten	-3526
ölker	-3527
15	-3528
▁2009	-3529
bad	-3530
band	-3531
▁jes	-3532
wär	-3533
▁entfernen	-3534
▁februar	-3535
▁kür	-3536
▁aktuellen	-3537
▁3-	-3538
hafte	-3539
▁iphone	-3540
▁vergangen	-3541
inst	-3542
get	-3543
▁jugend	-3544
▁zweiten	-3545
▁mass	-3546
haber	-3547
▁cre	-3548
essour	-3549
▁zugriff	-3550
▁hor	-3551
spez	-3552
▁betrieb	-3553
äufer	-3554
aktion	-3555
rän	-3556
▁bot	-3557
▁berech	-3558
schaffen	-3559
ierenden	-3560
▁alten	-3561
▁detaill	-3562
▁funktioniert	-3563
▁blu	-3564
üss	-3565
▁isra	-3566
lang	-3567
▁produkten	-3568
TM	-3569
▁TM	-3570
will	-3571
han	-3572
ünd	-3573
▁situ	-3574
systeme	-3575
▁net	-3576
▁erlaubt	-3577
lligen	-3578
ürf	-3579
▁firmen	-3580
▁konver	-3581
schrift	-3582
▁bisher	-3583
▁mutter	-3584
▁hü	-3585
▁frankfurt	-3586
▁70	-3587
▁verlin	-3588
bür	-3589
▁sams	-3590
ola	-3591
gebiet	-3592
▁gesprä	-3593
▁technischen	-3594
▁haup	-3595
▁apple	-3596
oc	-3597
▁profil	-3598
▁sauber	-3599
▁schwier	-3600
▁männer	-3601
ati	-3602
▁kühlschrank	-3603
▁bud	-3604
▁zun	-3605
scher	-3606
▁begrü	-3607
▁one	-3608
▁eigenschaften	-3609
schul	-3610
▁geschen	-3611
▁appl	-3612
▁materialien	-3613
▁regul	-3614
itor	-3615
▁cap	-3616
messer	-3617
▁ep	-3618
▁sonn	-3619
see	-3620
▁geh	-3621
▁verbessern	-3622
▁pop	-3623
75	-3624
▁anp	-3625
▁av	-3626
iden	-3627
▁einkauf	-3628
-3	-3629
▁blau	-3630
ühren	-3631
deck	-3632
▁kin	-3633
kunden	-3634
▁gesamte	-3635
▁überein	-3636
▁var	-3637
▁erfasst	-3638
win	-3639
▁lauf	-3640
reisen	-3641
▁allgemeinen	-3642
▁kirche	-3643
werke	-3644
▁benötigen	-3645
fragen	-3646
ächlich	-3647
45	-3648
▁sin	-3649
sport	-3650
▁zusätzliche	-3651
▁titel	-3652
65	-3653
len	-3654
tei	-3655
▁iden	-3656
▁wort	-3657
▁elektr	-3658
▁schreib	-3659
▁gottes	-3660
▁supp	-3661
▁bleibt	-3662
wohl	-3663
korb	-3664
▁prü	-3665
▁firma	-3666
▁hause	-3667
hung	-3668
sent	-3669
ets	-3670
▁parl	-3671
▁moderne	-3672
▁facebook	-3673
zz	-3674
▁ergän	-3675
ätzen	-3676
▁handelt	-3677
▁produz	-3678
maß	-3679
▁2007	-3680
rid	-3681
▁marke	-3682
emente	-3683
sichts	-3684
▁verpflich	-3685
▁services	-3686
.3	-3687
▁golf	-3688
▁länder	-3689
▁sofern	-3690
▁präsi	-3691
▁prem	-3692
ieb	-3693
ames	-3694
umin	-3695
lichkeiten	-3696
lassen	-3697
▁wachst	-3698
▁instr	-3699
▁@	-3700
dateien	-3701
finden	-3702
▁vorteile	-3703
log	-3704
▁tool	-3705
tzentrum	-3706
lösung	-3707
▁wol	-3708
▁programme	-3709
eiger	-3710
▁wasch	-3711
uß	-3712
▁samsung	-3713
▁wobei	-3714
▁einigen	-3715
unk	-3716
▁laufen	-3717
▁analyse	-3718
▁dau	-3719
▁bre	-3720
▁ebenso	-3721
▁hervorra	-3722
ham	-3723
antie	-3724
▁elektro	-3725
▁plus	-3726
▁fliegen	-3727
▁beachten	-3728
▁stabil	-3729
▁tisch	-3730
▁tragen	-3731
merk	-3732
▁studien	-3733
▁kommentare	-3734
▁ker	-3735
▁perfekt	-3736
ses	-3737
pap	-3738
tive	-3739
▁antwort	-3740
▁früheren	-3741
isiert	-3742
low	-3743
▁yor	-3744
▁weiterhin	-3745
▁bezahl	-3746
▁deiner	-3747
cy	-3748
schö	-3749
bile	-3750
▁entwickeln	-3751
krä	-3752
indust	-3753
▁landes	-3754
xis	-3755
▁erwartet	-3756
rise	-3757
ike	-3758
ünsch	-3759
▁kommunikation	-3760
stechn	-3761
▁power	-3762
▁beide	-3763
▁erfolgreich	-3764
ühm	-3765
stud	-3766
view	-3767
▁gespeichert	-3768
rüst	-3769
▁großer	-3770
▁einfache	-3771
▁bean	-3772
▁marken	-3773
▁=	-3774
▁beträgt	-3775
▁nachrichten	-3776
istik	-3777
atoren	-3778
produkte	-3779
eisen	-3780
▁sony	-3781
▁extremer	-3782
▁zeich	-3783
gte	-3784
▁cd	-3785
▁gene	-3786
▁vertrag	-3787
▁inf	-3788
▁verfügbarkeit	-3789
▁kg	-3790
pers	-3791
▁schreiben	-3792
▁starten	-3793
▁salz	-3794
▁zahlreiche	-3795
hinder	-3796
sphäre	-3797
barer	-3798
▁pflege	-3799
▁standort	-3800
99	-3801
▁os	-3802
▁wart	-3803
▁real	-3804
▁werde	-3805
▁komplex	-3806
verkehr	-3807
vier	-3808
rucken	-3809
▁edelstahl	-3810
zy	-3811
sterne	-3812
▁zwecke	-3813
▁fei	-3814
▁red	-3815
lager	-3816
▁audio	-3817
wirkungen	-3818
▁meinen	-3819
sprü	-3820
▁hu	-3821
▁bist	-3822
▁ähnliche	-3823
▁entsprechend	-3824
▁verr	-3825
▁300	-3826
version	-3827
▁gleichen	-3828
▁ton	-3829
▁kaffee	-3830
▁mio	-3831
ml	-3832
▁parlament	-3833
inuten	-3834
▁richtung	-3835
dy	-3836
tler	-3837
▁patienten	-3838
industrie	-3839
▁ech	-3840
▁straßen	-3841
▁hät	-3842
ierend	-3843
▁vorteil	-3844
gesellschaft	-3845
▁bürger	-3846
▁forschungs	-3847
▁bestand	-3848
▁taschen	-3849
▁umfasst	-3850
▁erg	-3851
▁äl	-3852
▁derzeit	-3853
▁alter	-3854
essourcen	-3855
▁herren	-3856
▁bru	-3857
▁kons	-3858
▁grie	-3859
▁mitglieder	-3860
iertes	-3861
▁marketing	-3862
räge	-3863
bücher	-3864
▁schle	-3865
▁funktionieren	-3866
▁fäh	-3867
▁himm	-3868
▁abend	-3869
arm	-3870
gruppen	-3871
▁verpack	-3872
ville	-3873
▁andro	-3874
▁woll	-3875
▁vertrags	-3876
anlagen	-3877
fähigkeit	-3878
▁0,	-3879
▁sur	-3880
▁behandlung	-3881
▁verfol	-3882
istische	-3883
eien	-3884
nungs	-3885
aly	-3886
▁autor	-3887
▁sem	-3888
lebnis	-3889
stellten	-3890
chnung	-3891
▁allein	-3892
▁straße	-3893
mu	-3894
▁türk	-3895
▁mail	-3896
▁phys	-3897
▁kunststoff	-3898
16	-3899
ktive	-3900
▁könnten	-3901
ah	-3902
▁mad	-3903
▁rab	-3904
ennung	-3905
gangs	-3906
▁cal	-3907
typ	-3908
▁lim	-3909
osk	-3910
▁alb	-3911
▁äußer	-3912
▁schließ	-3913
zeugt	-3914
erst	-3915
ens	-3916
▁5.	-3917
▁modern	-3918
▁wander	-3919
kraft	-3920
way	-3921
▁konzentr	-3922
▁wal	-3923
welle	-3924
▁staat	-3925
▁kennt	-3926
atung	-3927
▁verf	-3928
publik	-3929
▁personal	-3930
itionen	-3931
ago	-3932
setzungen	-3933
cess	-3934
oth	-3935
achung	-3936
gefügt	-3937
una	-3938
messen	-3939
▁erwachsen	-3940
ktoren	-3941
sorgung	-3942
▁glauben	-3943
text	-3944
▁entsprechenden	-3945
ädchen	-3946
mlich	-3947
teten	-3948
▁preisen	-3949
▁kontroll	-3950
▁berück	-3951
▁herstellung	-3952
llig	-3953
▁ew	-3954
▁beob	-3955
▁schließen	-3956
▁angene	-3957
▁besondere	-3958
alien	-3959
▁resort	-3960
▁mittler	-3961
schließend	-3962
ars	-3963
▁deinem	-3964
mack	-3965
arten	-3966
▁feuer	-3967
▁konnten	-3968
frieden	-3969
▁dynam	-3970
haft	-3971
▁fab	-3972
ziel	-3973
gn	-3974
▁wenige	-3975
formen	-3976
▁poten	-3977
lines	-3978
ösen	-3979
bur	-3980
▁fertig	-3981
▁eingesetzt	-3982
spir	-3983
▁high	-3984
bert	-3985
▁gemüt	-3986
legung	-3987
werte	-3988
dete	-3989
▁dürfen	-3990
▁bahnhof	-3991
▁eigenes	-3992
▁bestimmte	-3993
zogen	-3994
ele	-3995
▁schaffen	-3996
aket	-3997
▁lab	-3998
▁einrichtungen	-3999
folge	-4000
▁dro	-4001
▁2000	-4002
▁jeweils	-4003
▁länger	-4004
▁baby	-4005
▁lizenz	-4006
▁verbr	-4007
pos	-4008
▁menge	-4009
▁fenster	-4010
alisierung	-4011
▁obwohl	-4012
▁fernbedien	-4013
▁vorber	-4014
eiter	-4015
▁perfekte	-4016
öch	-4017
samm	-4018
soft	-4019
▁meist	-4020
ime	-4021
▁hergestellt	-4022
▁änderungen	-4023
35	-4024
▁erleben	-4025
stände	-4026
▁täglich	-4027
dauer	-4028
▁len	-4029
ikationen	-4030
▁sn	-4031
dens	-4032
einander	-4033
▁6.	-4034
▁anschluss	-4035
▁charakter	-4036
▁letzte	-4037
▁grundlage	-4038
▁arm	-4039
▁normal	-4040
▁versuchen	-4041
▁genutzt	-4042
ling	-4043
langen	-4044
stör	-4045
nach	-4046
▁48	-4047
▁cen	-4048
▁well	-4049
▁untersuch	-4050
▁messe	-4051
▁android	-4052
ou	-4053
recher	-4054
annung	-4055
▁löschen	-4056
gebie	-4057
▁hell	-4058
▁grü	-4059
▁strip	-4060
21	-4061
trä	-4062
▁verstär	-4063
▁handbuch	-4064
▁mi	-4065
▁monate	-4066
sagt	-4067
▁mobile	-4068
dus	-4069
▁bestimmt	-4070
denten	-4071
dam	-4072
▁niedr	-4073
▁privaten	-4074
rich	-4075
entwicklung	-4076
cm	-4077
inter	-4078
▁trocken	-4079
▁hinzugefügt	-4080
▁treibers	-4081
▁entscheidung	-4082
cd	-4083
▁durchgeführt	-4084
▁stadtzentrum	-4085
▁exist	-4086
sprechen	-4087
▁filter	-4088
▁sechs	-4089
▁sprachen	-4090
▁wahrschein	-4091
▁ga	-4092
uminium	-4093
▁val	-4094
▁auftrag	-4095
kw	-4096
▁angegeben	-4097
▁berühm	-4098
▁temp	-4099
schule	-4100
ppen	-4101
▁stein	-4102
▁konfigur	-4103
▁israel	-4104
▁interesse	-4105
▁profit	-4106
▁setzt	-4107
▁sohn	-4108
▁darin	-4109
▁schönen	-4110
▁bringt	-4111
uth	-4112
länd	-4113
▁por	-4114
▁zür	-4115
▁sagt	-4116
▁world	-4117
yr	-4118
ction	-4119
▁fahrzeug	-4120
dat	-4121
▁blumen	-4122
▁immobil	-4123
▁intelligen	-4124
▁interessen	-4125
board	-4126
▁york	-4127
▁hochwertige	-4128
mitglie	-4129
▁buchung	-4130
▁vater	-4131
▁tief	-4132
▁mitte	-4133
▁warenkorb	-4134
▁hunder	-4135
▁gere	-4136
sletter	-4137
▁jeweiligen	-4138
partner	-4139
▁austr	-4140
ith	-4141
▁cloud	-4142
▁197	-4143
▁anbieter	-4144
bach	-4145
▁beginnen	-4146
▁vö	-4147
▁extra	-4148
ticket	-4149
▁inklus	-4150
mess	-4151
▁ros	-4152
schw	-4153
▁papier	-4154
4-	-4155
▁handels	-4156
aba	-4157
gesellschaften	-4158
▁gas	-4159
ausgaben	-4160
xy	-4161
▁dinge	-4162
kurse	-4163
▁hamburg	-4164
▁ursprün	-4165
▁schau	-4166
▁intens	-4167
nissen	-4168
häuse	-4169
▁..	-4170
▁anderer	-4171
▁abzu	-4172
▁nav	-4173
yle	-4174
üler	-4175
▁risiko	-4176
▁uner	-4177
▁leider	-4178
▁geöff	-4179
18	-4180
▁hard	-4181
▁meinem	-4182
▁ausschließlich	-4183
stä	-4184
▁aufzu	-4185
vergleich	-4186
stunden	-4187
hy	-4188
▁4-	-4189
rau	-4190
gere	-4191
▁kost	-4192
bald	-4193
▁beruf	-4194
steigen	-4195
angebot	-4196
▁brauchen	-4197
▁anderem	-4198
nt	-4199
▁flor	-4200
uk	-4201
ichtigung	-4202
uell	-4203
▁bezüglich	-4204
▁tätig	-4205
▁frem	-4206
▁zentral	-4207
▁seines	-4208
sätze	-4209
ischem	-4210
▁versuch	-4211
▁wenigen	-4212
gern	-4213
▁präz	-4214
▁proje	-4215
klärung	-4216
▁zeitpunkt	-4217
▁show	-4218
kreis	-4219
▁fahrrad	-4220
▁betroffene	-4221
▁tal	-4222
achtet	-4223
▁erkennen	-4224
▁aluminium	-4225
▁weihn	-4226
▁genannten	-4227
▁datenbank	-4228
▁hab	-4229
▁usw	-4230
▁bedürf	-4231
arte	-4232
inde	-4233
ruf	-4234
▁group	-4235
▁support	-4236
standen	-4237
▁würden	-4238
▁kontin	-4239
▁erinner	-4240
▁verstehen	-4241
cost	-4242
wechsel	-4243
▁urlau	-4244
▁garantiert	-4245
zellen	-4246
▁zustand	-4247
tease	-4248
▁chines	-4249
▁gebiet	-4250
▁kombination	-4251
ath	-4252
▁lebensmittel	-4253
prüf	-4254
▁erreich	-4255
▁mädchen	-4256
▁krä	-4257
▁haar	-4258
▁orgas	-4259
hre	-4260
▁fla	-4261
ones	-4262
▁etc	-4263
häfen	-4264
nutz	-4265
▁projekte	-4266
▁newsletter	-4267
rechte	-4268
▁van	-4269
ergeb	-4270
▁zeitraum	-4271
▁sieht	-4272
▁wc	-4273
▁striptease	-4274
▁optimal	-4275
▁jem	-4276
▁modernen	-4277
dessen	-4278
▁dorf	-4279
▁wik	-4280
▁breite	-4281
14	-4282
ms	-4283
ächst	-4284
▁schlos	-4285
▁erschein	-4286
▁allgemeine	-4287
▁wann	-4288
▁leute	-4289
zin	-4290
▁erfahrungen	-4291
▁ost	-4292
date	-4293
▁ging	-4294
▁menü	-4295
▁minim	-4296
gewöhn	-4297
▁tru	-4298
▁hp	-4299
old	-4300
▁är	-4301
▁sorgt	-4302
platte	-4303
▁anlagen	-4304
ions	-4305
▁detaillierte	-4306
lern	-4307
geschä	-4308
▁hinweise	-4309
pfen	-4310
statt	-4311
▁reicht	-4312
▁kategorien	-4313
▁lag	-4314
▁sinn	-4315
▁vari	-4316
komp	-4317
▁zertifiz	-4318
▁anschließend	-4319
▁wenden	-4320
▁feld	-4321
▁bericht	-4322
▁beschrieben	-4323
▁tw	-4324
▁orgasmus	-4325
▁richtlinie	-4326
▁übertragen	-4327
▁überprüfen	-4328
▁eingeb	-4329
▁sobald	-4330
▁acht	-4331
▁fahrt	-4332
▁ball	-4333
▁technik	-4334
▁erde	-4335
▁mehreren	-4336
ufen	-4337
annt	-4338
rill	-4339
▁flachbild	-4340
▁dvd	-4341
▁fan	-4342
▁dritten	-4343
▁außerhalb	-4344
▁danach	-4345
▁inspir	-4346
▁zürich	-4347
ängt	-4348
▁kindern	-4349
▁prüfen	-4350
▁veranstaltungen	-4351
▁microsoft	-4352
irr	-4353
▁vereinbar	-4354
mbol	-4355
▁zehn	-4356
▁heißt	-4357
▁lieferanten	-4358
▁halb	-4359
▁jetcost	-4360
jen	-4361
▁hinweis	-4362
its	-4363
pan	-4364
icher	-4365
▁zweck	-4366
▁situation	-4367
▁dra	-4368
▁darunter	-4369
▁rar	-4370
völker	-4371
▁tee	-4372
▁kenn	-4373
schläge	-4374
▁flä	-4375
▁cro	-4376
station	-4377
▁vertrauen	-4378
tt	-4379
orte	-4380
▁punkt	-4381
▁verantwortlich	-4382
ini	-4383
oe	-4384
haf	-4385
anner	-4386
▁absatz	-4387
▁gewinn	-4388
itts	-4389
ged	-4390
lösungen	-4391
▁jahrhundert	-4392
▁ferienwohnung	-4393
▁mw	-4394
▁angaben	-4395
▁regierung	-4396
eg	-4397
▁entfernung	-4398
▁blut	-4399
▁beginnt	-4400
▁aufgaben	-4401
▁schweizer	-4402
itär	-4403
kul	-4404
▁bur	-4405
▁wohnzimmer	-4406
llung	-4407
▁billigflüge	-4408
sprach	-4409
schuhe	-4410
▁verlinken	-4411
▁länge	-4412
▁gewicht	-4413
▁33	-4414
▁schließlich	-4415
▁organisation	-4416
▁freien	-4417
▁prov	-4418
▁darf	-4419
▁einheit	-4420
▁rö	-4421
ienen	-4422
tritt	-4423
▁brit	-4424
bungen	-4425
spieler	-4426
tierte	-4427
▁städte	-4428
▁passenden	-4429
▁format	-4430
dis	-4431
▁lt	-4432
üch	-4433
▁sämt	-4434
zi	-4435
▁ressourcen	-4436
▁persönliche	-4437
▁36	-4438
▁zuvor	-4439
▁gegrün	-4440
äck	-4441
▁wirtschafts	-4442
▁2006	-4443
▁geschmack	-4444
posten	-4445
▁betroffenen	-4446
wanne	-4447
▁pflanzen	-4448
▁umsetzung	-4449
mittelt	-4450
▁ausdrück	-4451
▁installiert	-4452
▁ausgewähl	-4453
▁book	-4454
design	-4455
▁folge	-4456
ungsver	-4457
▁freizeit	-4458
▁bezeichnet	-4459
▁historischen	-4460
22	-4461
äden	-4462
▁fitness	-4463
▁inklusive	-4464
▁mechan	-4465
▁wunsch	-4466
eller	-4467
▁dach	-4468
mie	-4469
▁virt	-4470
▁zahn	-4471
eisch	-4472
ograph	-4473
▁verkehrs	-4474
back	-4475
arife	-4476
▁kredit	-4477
▁behör	-4478
13	-4479
▁2-	-4480
amin	-4481
▁radio	-4482
▁apartments	-4483
▁sprechen	-4484
vollen	-4485
stär	-4486
▁kol	-4487
▁batter	-4488
▁schnitt	-4489
▁ferienhaus	-4490
▁küchen	-4491
▁verständ	-4492
▁möglicherweise	-4493
rüstung	-4494
▁fähr	-4495
▁sterne	-4496
▁kilometer	-4497
▁gespräch	-4498
samkeit	-4499
spartner	-4500
▁gestellt	-4501
▁verbindungen	-4502
isse	-4503
▁zugän	-4504
▁domain	-4505
▁serie	-4506
▁zeichen	-4507
ragen	-4508
gänge	-4509
merz	-4510
▁196	-4511
▁teilnehmer	-4512
▁stet	-4513
▁produktions	-4514
ox	-4515
▁notwendig	-4516
bn	-4517
▁›	-4518
uern	-4519
▁150	-4520
▁konstru	-4521
uck	-4522
▁roman	-4523
▁behandel	-4524
▁pet	-4525
▁ausstattung	-4526
gest	-4527
▁norm	-4528
▁gesehen	-4529
▁freunden	-4530
▁betreffen	-4531
frastruktur	-4532
oph	-4533
kn	-4534
▁öffentlich	-4535
▁2005	-4536
▁dreh	-4537
▁unmittel	-4538
▁durchsuchen	-4539
ilien	-4540
▁festge	-4541
▁zweite	-4542
schlüssel	-4543
▁benach	-4544
▁geschrieben	-4545
eme	-4546
onn	-4547
analy	-4548
▁kay	-4549
▁richtigen	-4550
▁ständ	-4551
▁lade	-4552
tain	-4553
bli	-4554
straße	-4555
▁bestellung	-4556
okrat	-4557
▁38	-4558
ai	-4559
bewahr	-4560
frika	-4561
▁krank	-4562
▁nütz	-4563
▁schützen	-4564
▁hum	-4565
▁center	-4566
▁vorder	-4567
▁schiff	-4568
wel	-4569
▁egal	-4570
fung	-4571
▁entspricht	-4572
▁kern	-4573
▁wald	-4574
▁ziele	-4575
▁übersicht	-4576
▁vielzahl	-4577
▁ehem	-4578
▁trend	-4579
▁zuständ	-4580
▁lieferung	-4581
▁tickets	-4582
▁wünschen	-4583
▁club	-4584
▁haust	-4585
▁leistungen	-4586
▁mithilfe	-4587
▁jün	-4588
▁gewünsch	-4589
▁schnee	-4590
▁titels	-4591
▁ebene	-4592
liegen	-4593
▁kontrolle	-4594
brei	-4595
riere	-4596
,2	-4597
ych	-4598
▁koch	-4599
altungs	-4600
▁größte	-4601
fassung	-4602
▁amerikan	-4603
lose	-4604
▁kos	-4605
▁zahlen	-4606
▁aufgabe	-4607
▁vibr	-4608
tigten	-4609
zentr	-4610
▁saint	-4611
▁aner	-4612
▁geschlossen	-4613
▁haupts	-4614
▁‘	-4615
kabel	-4616
▁klin	-4617
ücke	-4618
▁vit	-4619
spezif	-4620
▁jesus	-4621
digen	-4622
hänger	-4623
▁sicherzustellen	-4624
19	-4625
▁jer	-4626
hlung	-4627
▁auswählen	-4628
▁john	-4629
▁politik	-4630
zeichen	-4631
▁brand	-4632
▁landschaft	-4633
▁schein	-4634
wegen	-4635
▁studio	-4636
▁ereig	-4637
▁adresse	-4638
2-	-4639
atik	-4640
▁dokumente	-4641
▁tabl	-4642
ördern	-4643
▁fernse	-4644
▁leit	-4645
ott	-4646
▁repar	-4647
▁raritäten	-4648
ley	-4649
▁umsatz	-4650
▁zunächst	-4651
▁tabe	-4652
▁büro	-4653
▁wörter	-4654
▁komponenten	-4655
ove	-4656
▁apps	-4657
▁aussicht	-4658
▁lieferbare	-4659
▁bald	-4660
igungs	-4661
▁kranken	-4662
▁leg	-4663
▁gep	-4664
▁volks	-4665
▁wachstum	-4666
▁dist	-4667
▁nimmt	-4668
▁restposten	-4669
▁zufrieden	-4670
teuer	-4671
▁schritte	-4672
▁luxus	-4673
▁dritte	-4674
ender	-4675
var	-4676
▁antiquar	-4677
ändler	-4678
stellungs	-4679
▁nächste	-4680
organ	-4681
▁sonderausgaben	-4682
digung	-4683
▁verurs	-4684
▁private	-4685
▁gül	-4686
atell	-4687
▁dritt	-4688
▁entspannen	-4689
ly	-4690
▁weich	-4691
eto	-4692
ube	-4693
äsche	-4694
▁antiquarische	-4695
kap	-4696
iveau	-4697
omen	-4698
wolle	-4699
zeption	-4700
▁termin	-4701
▁va	-4702
adem	-4703
▁gehm	-4704
▁optionen	-4705
▁analys	-4706
wie	-4707
▁informations	-4708
▁uk	-4709
▁allgemein	-4710
▁einkaufs	-4711
▁kostenloser	-4712
▁volk	-4713
▁strecke	-4714
▁inkl	-4715
▁manch	-4716
▁gebr	-4717
▁relig	-4718
▁bedeuten	-4719
▁zoll	-4720
▁angel	-4721
▁block	-4722
▁stets	-4723
▁wild	-4724
stellte	-4725
bilität	-4726
staat	-4727
▁korre	-4728
▁teilweise	-4729
weder	-4730
▁beliebt	-4731
▁fortschr	-4732
lu	-4733
▁sec	-4734
▁bildung	-4735
▁zuletzt	-4736
eitag	-4737
▁beiträge	-4738
▁benötigt	-4739
▁beleuch	-4740
▁stunde	-4741
falt	-4742
heits	-4743
stands	-4744
▁verwende	-4745
ios	-4746
▁hoher	-4747
▁liter	-4748
▁anders	-4749
▁stamm	-4750
vent	-4751
▁alp	-4752
▁sieben	-4753
▁vir	-4754
▁qualitäts	-4755
▁pil	-4756
▁republik	-4757
▁auftreten	-4758
boden	-4759
steht	-4760
▁technologien	-4761
▁joh	-4762
▁konto	-4763
technologie	-4764
▁rech	-4765
▁zahlungs	-4766
▁sozialen	-4767
rein	-4768
▁großes	-4769
▁bek	-4770
▁modul	-4771
▁ess	-4772
igten	-4773
▁ipad	-4774
▁kompeten	-4775
▁box	-4776
▁blog	-4777
▁geträn	-4778
▁mittels	-4779
wür	-4780
spar	-4781
▁info	-4782
▁tom	-4783
bene	-4784
▁welcher	-4785
dri	-4786
code	-4787
▁separ	-4788
li	-4789
ico	-4790
▁kamera	-4791
▁bedarf	-4792
▁airlines	-4793
▁forder	-4794
ikations	-4795
forderung	-4796
senden	-4797
▁gemeinde	-4798
▁75	-4799
▁publ	-4800
▁grand	-4801
▁anderes	-4802
▁leiden	-4803
stieg	-4804
umente	-4805
▁beschäd	-4806
▁montage	-4807
zenten	-4808
leisten	-4809
schrei	-4810
▁erster	-4811
▁bügel	-4812
verständ	-4813
▁maschine	-4814
▁förderung	-4815
▁tarife	-4816
▁einfluss	-4817
▁spezielle	-4818
format	-4819
▁intel	-4820
▁irgend	-4821
▁registrieren	-4822
▁exter	-4823
▁entstehen	-4824
off	-4825
wur	-4826
▁aktion	-4827
▁kunde	-4828
ney	-4829
▁bege	-4830
▁jähr	-4831
▁barcel	-4832
▁abschluss	-4833
▁akzep	-4834
▁großar	-4835
▁island	-4836
▁wichtiger	-4837
▁mart	-4838
▁gehminuten	-4839
konto	-4840
griffen	-4841
▁initi	-4842
▁hören	-4843
ida	-4844
rab	-4845
▁hilf	-4846
▁open	-4847
▁anbieten	-4848
▁darum	-4849
▁ret	-4850
▁staats	-4851
eng	-4852
ohlen	-4853
▁ausführ	-4854
tok	-4855
▁34	-4856
rockner	-4857
,4	-4858
verw	-4859
ammen	-4860
▁phot	-4861
▁house	-4862
▁station	-4863
.4	-4864
auch	-4865
▁praxis	-4866
▁konferenz	-4867
▁nachricht	-4868
holz	-4869
tic	-4870
▁wil	-4871
deten	-4872
weite	-4873
zeichnis	-4874
verbindung	-4875
▁institut	-4876
▁dial	-4877
▁lieben	-4878
▁verbesserung	-4879
top	-4880
▁lieferant	-4881
▁geräum	-4882
▁königreich	-4883
▁himmel	-4884
▁entweder	-4885
▁free	-4886
▁erwarten	-4887
genann	-4888
▁einstellungen	-4889
webs	-4890
liste	-4891
ments	-4892
zeichnung	-4893
▁manager	-4894
▁spaß	-4895
modell	-4896
▁schalt	-4897
▁dekor	-4898
läu	-4899
▁chat	-4900
▁400	-4901
▁dildo	-4902
blatt	-4903
▁verhalten	-4904
,8	-4905
▁ref	-4906
▁195	-4907
▁safe	-4908
▁empfohlen	-4909
over	-4910
▁diag	-4911
▁gegend	-4912
anwend	-4913
▁atmo	-4914
▁preisvergleich	-4915
▁kayak	-4916
▁geschenk	-4917
▁ce	-4918
▁verlassen	-4919
▁benutzern	-4920
,3	-4921
hü	-4922
▁arbeitet	-4923
17	-4924
orien	-4925
ize	-4926
ble	-4927
▁traum	-4928
▁chf	-4929
▁kampf	-4930
▁fällen	-4931
▁philips	-4932
▁gö	-4933
▁experten	-4934
cam	-4935
iar	-4936
▁tolle	-4937
▁fernbedienung	-4938
▁alte	-4939
▁vermie	-4940
lla	-4941
▁rock	-4942
▁kostenfreie	-4943
▁entwicklungs	-4944
▁guter	-4945
▁formen	-4946
zeichnet	-4947
▁dienste	-4948
▁37	-4949
▁ds	-4950
▁manchmal	-4951
▁abw	-4952
azität	-4953
▁stoff	-4954
▁bonus	-4955
▁erleich	-4956
▁ziehen	-4957
▁verbinden	-4958
ktes	-4959
ollar	-4960
▁klick	-4961
▁casino	-4962
dien	-4963
▁news	-4964
▁pack	-4965
▁beweg	-4966
▁freunde	-4967
▁präsident	-4968
▁immobilien	-4969
testen	-4970
▁auswirkungen	-4971
sicherung	-4972
gessen	-4973
gress	-4974
▁airport	-4975
fot	-4976
▁identifiz	-4977
shop	-4978
▁aufmerk	-4979
▁beziehung	-4980
itar	-4981
▁disk	-4982
▁cat	-4983
▁ausland	-4984
äne	-4985
▁party	-4986
▁badewanne	-4987
tron	-4988
▁dauert	-4989
▁master	-4990
▁geöffnet	-4991
▁plattform	-4992
▁französisch	-4993
alog	-4994
▁einzige	-4995
▁hafen	-4996
▁abhäng	-4997
▁erfüllen	-4998
ua	-4999
orden	-5000
▁systems	-5001
ichtung	-5002
krank	-5003
▁impl	-5004
▁nah	-5005
▁jungen	-5006
racht	-5007
▁informieren	-5008
öse	-5009
▁junge	-5010
▁reservieren	-5011
ider	-5012
ützt	-5013
▁sod	-5014
▁automatische	-5015
▁saison	-5016
beu	-5017
bliothe	-5018
▁satell	-5019
wahl	-5020
ochter	-5021
▁erwer	-5022
▁angeschlossen	-5023
▁mb	-5024
haltet	-5025
▁angesehen	-5026
ales	-5027
▁bere	-5028
▁webseiten	-5029
äume	-5030
▁fußball	-5031
64	-5032
▁erneu	-5033
▁erneut	-5034
achtung	-5035
▁einfachen	-5036
lesen	-5037
▁prinz	-5038
▁startseite	-5039
apie	-5040
▁hält	-5041
ktiven	-5042
▁entwickel	-5043
▁ib	-5044
autom	-5045
gegeben	-5046
▁asus	-5047
ändert	-5048
▁eltern	-5049
▁miss	-5050
▁mindest	-5051
irk	-5052
▁note	-5053
▁schloss	-5054
▁besonderen	-5055
▁abschnitt	-5056
▁ml	-5057
▁anlage	-5058
▁angemessen	-5059
▁fok	-5060
▁systeme	-5061
▁portug	-5062
▁mikrowelle	-5063
▁kostenlosen	-5064
▁schreibtisch	-5065
▁amster	-5066
betten	-5067
betrieb	-5068
▁rem	-5069
▁landwirtschaft	-5070
▁mach	-5071
▁spritzen	-5072
▁flüss	-5073
terung	-5074
uhr	-5075
▁stimm	-5076
aden	-5077
▁elec	-5078
uellen	-5079
▁prote	-5080
platten	-5081
▁iso	-5082
▁genug	-5083
▁aufbau	-5084
▁anf	-5085
▁sonntag	-5086
▁johann	-5087
▁entsprechende	-5088
server	-5089
stoffen	-5090
bauen	-5091
▁neuesten	-5092
▁nationalen	-5093
gut	-5094
ura	-5095
ffekt	-5096
▁bevölker	-5097
▁billigflug	-5098
▁anschließen	-5099
software	-5100
▁mwst	-5101
▁ideen	-5102
▁sub	-5103
haupt	-5104
▁fabrik	-5105
▁höchst	-5106
sprozess	-5107
▁spe	-5108
▁gründen	-5109
▁freitag	-5110
speich	-5111
haben	-5112
▁fluss	-5113
▁tourismus	-5114
▁via	-5115
▁19.	-5116
,6	-5117
▁barcelona	-5118
▁nö	-5119
zunehmen	-5120
▁verbraucher	-5121
irl	-5122
urn	-5123
kannt	-5124
iziert	-5125
▁liebl	-5126
▁veranstaltung	-5127
▁köl	-5128
räume	-5129
▁55	-5130
ampag	-5131
quenz	-5132
▁beschrän	-5133
▁internetseite	-5134
▁kla	-5135
▁relev	-5136
uri	-5137
ständen	-5138
▁varian	-5139
▁7.	-5140
igr	-5141
tert	-5142
▁sorg	-5143
▁flu	-5144
▁update	-5145
▁erh	-5146
dungs	-5147
▁premium	-5148
ordin	-5149
rufen	-5150
▁verantwortung	-5151
ese	-5152
▁aussehen	-5153
▁kooper	-5154
gesetzt	-5155
▁erklärt	-5156
▁cent	-5157
vention	-5158
▁ankunft	-5159
▁wachsen	-5160
▁vereinigte	-5161
▁tipps	-5162
▁wellness	-5163
▁wunderschö	-5164
▁jung	-5165
minister	-5166
▁präsentiert	-5167
▁8.	-5168
gens	-5169
▁rechten	-5170
▁produkts	-5171
▁begrüßt	-5172
größe	-5173
ologischen	-5174
▁gefähr	-5175
funktionen	-5176
▁nu	-5177
ektor	-5178
alender	-5179
serie	-5180
▁entlang	-5181
▁archiv	-5182
gi	-5183
▁mas	-5184
▁datum	-5185
▁laser	-5186
▁rh	-5187
▁erwä	-5188
tragung	-5189
▁nutzungs	-5190
▁aspe	-5191
▁stol	-5192
▁thom	-5193
ington	-5194
▁wärme	-5195
▁tu	-5196
sitz	-5197
▁bor	-5198
▁orte	-5199
▁eisen	-5200
▁gegründet	-5201
78	-5202
pfe	-5203
▁wirkung	-5204
tast	-5205
wohner	-5206
forschung	-5207
▁russland	-5208
▁inhalts	-5209
▁oberfläche	-5210
▁20.	-5211
shirt	-5212
▁eure	-5213
▁bilden	-5214
▁schneller	-5215
glas	-5216
▁wege	-5217
▁stör	-5218
▁architektur	-5219
▁einschrän	-5220
die	-5221
▁benutzt	-5222
cial	-5223
▁zie	-5224
▁heizung	-5225
▁amsterdam	-5226
urop	-5227
▁einführung	-5228
▁camelt	-5229
▁....	-5230
▁cameltoe	-5231
▁integration	-5232
▁ök	-5233
▁wichtigen	-5234
tent	-5235
ival	-5236
gehend	-5237
▁sound	-5238
▁überra	-5239
post	-5240
bericht	-5241
ek	-5242
▁aufgenommen	-5243
grenz	-5244
▁forum	-5245
kontro	-5246
▁ausger	-5247
▁elegan	-5248
▁gewährleisten	-5249
metho	-5250
▁hot	-5251
stern	-5252
▁garantie	-5253
▁selten	-5254
▁individuell	-5255
blich	-5256
▁einzigartige	-5257
23	-5258
kommt	-5259
▁39	-5260
▁genehm	-5261
▁niederlan	-5262
▁parkplatz	-5263
▁soweit	-5264
▁durchführung	-5265
▁training	-5266
▁bestimmungen	-5267
▁bewusst	-5268
▁abenteuer	-5269
▁wiederhol	-5270
tzeit	-5271
jenigen	-5272
▁beratung	-5273
work	-5274
lass	-5275
▁mex	-5276
▁geburt	-5277
▁schule	-5278
▁passwort	-5279
ita	-5280
ielen	-5281
▁bildschirm	-5282
krie	-5283
▁las	-5284
fi	-5285
ausstattung	-5286
▁berücksich	-5287
fertigt	-5288
,7	-5289
▁mite	-5290
▁legen	-5291
28	-5292
▁regelmäßig	-5293
▁liefern	-5294
▁bett	-5295
▁werkzeug	-5296
ose	-5297
gefähr	-5298
▁fördern	-5299
kle	-5300
▁pin	-5301
▁kurs	-5302
▁spekt	-5303
▁kleiner	-5304
▁kw	-5305
▁erhol	-5306
▁verlei	-5307
schauen	-5308
▁lap	-5309
▁haart	-5310
▁steuern	-5311
▁bern	-5312
▁beinhaltet	-5313
▁ausstellung	-5314
▁branchen	-5315
▁verloren	-5316
▁kompati	-5317
ata	-5318
▁maler	-5319
▁fas	-5320
serv	-5321
▁mitein	-5322
▁reifen	-5323
ängen	-5324
bran	-5325
▁vermeiden	-5326
sei	-5327
▁zahlreichen	-5328
▁kro	-5329
tim	-5330
▁innovation	-5331
▁err	-5332
losen	-5333
igner	-5334
▁fisch	-5335
▁gesagt	-5336
▁meinung	-5337
▁mr	-5338
▁ant	-5339
▁2004	-5340
▁gran	-5341
▁näher	-5342
sprochen	-5343
▁inc	-5344
▁nahr	-5345
▁überall	-5346
▁prim	-5347
▁erkennt	-5348
ymp	-5349
▁langen	-5350
▁eis	-5351
achts	-5352
▁urs	-5353
▁main	-5354
▁wiederher	-5355
üg	-5356
pon	-5357
edia	-5358
▁doppelzimmer	-5359
▁bm	-5360
stuhl	-5361
▁öffentliche	-5362
gesetz	-5363
künf	-5364
▁tel	-5365
ktivität	-5366
▁besitzt	-5367
zig	-5368
brit	-5369
▁194	-5370
▁vorlie	-5371
▁samstag	-5372
▁gestalten	-5373
▁gleichwer	-5374
ris	-5375
▁zukünf	-5376
▁spielt	-5377
dlich	-5378
ichtete	-5379
car	-5380
▁route	-5381
▁status	-5382
▁digitale	-5383
xi	-5384
▁ausbildung	-5385
▁green	-5386
▁objekt	-5387
▁nachfol	-5388
▁suite	-5389
beschreibung	-5390
ki	-5391
▁check	-5392
▁gelegenheit	-5393
anger	-5394
tifik	-5395
fordern	-5396
stät	-5397
mot	-5398
-5	-5399
▁ehemal	-5400
▁strateg	-5401
▁class	-5402
▁nächst	-5403
ologische	-5404
▁gebie	-5405
geschwindigkeit	-5406
,0	-5407
▁roh	-5408
vas	-5409
bungs	-5410
▁misch	-5411
gewicht	-5412
▁erfüllt	-5413
ump	-5414
▁ach	-5415
▁linie	-5416
▁sogenann	-5417
▁atmosphäre	-5418
ban	-5419
▁genannt	-5420
▁tatsächlich	-5421
nern	-5422
▁erhöhen	-5423
▁lokalen	-5424
▁montag	-5425
maßnahmen	-5426
▁tochter	-5427
▁sämtliche	-5428
▁wettbewerbs	-5429
▁gebrauch	-5430
▁profitieren	-5431
yer	-5432
▁navig	-5433
▁ruhe	-5434
▁ltd	-5435
▁element	-5436
▁bestellen	-5437
▁sun	-5438
▁kapital	-5439
▁kürz	-5440
fter	-5441
▁akti	-5442
▁anhand	-5443
▁admin	-5444
raucher	-5445
▁hochzeit	-5446
ates	-5447
▁agen	-5448
seln	-5449
▁alex	-5450
▁historische	-5451
95	-5452
▁bewertet	-5453
▁2003	-5454
▁linien	-5455
▁gesundheits	-5456
ffung	-5457
▁ungl	-5458
atische	-5459
----	-5460
chnet	-5461
datum	-5462
▁psych	-5463
blichen	-5464
33	-5465
annien	-5466
▁dient	-5467
tierten	-5468
▁dennoch	-5469
▁wohnen	-5470
▁bä	-5471
üren	-5472
▁tat	-5473
volution	-5474
läss	-5475
brauch	-5476
▁schuhe	-5477
▁verpflichtet	-5478
▁bauern	-5479
zehn	-5480
▁städten	-5481
strate	-5482
fälle	-5483
formance	-5484
▁mieten	-5485
aube	-5486
▁begann	-5487
▁geworden	-5488
oga	-5489
ci	-5490
spol	-5491
▁10.	-5492
▁santa	-5493
▁eher	-5494
▁lern	-5495
kleidung	-5496
▁vergessen	-5497
▁dän	-5498
punkte	-5499
▁sparen	-5500
gart	-5501
hause	-5502
▁sonne	-5503
iglich	-5504
▁fire	-5505
▁heim	-5506
ichter	-5507
▁befest	-5508
▁gratis	-5509
▁verwaltung	-5510
▁mp	-5511
▁hätte	-5512
▁tsche	-5513
ards	-5514
▁schlag	-5515
▁gekommen	-5516
▁natürliche	-5517
anbietern	-5518
handlungen	-5519
▁fehl	-5520
▁eingerichtet	-5521
▁düssel	-5522
treter	-5523
▁aufnahme	-5524
▁5-	-5525
isierte	-5526
▁basierend	-5527
hindern	-5528
▁golden	-5529
chtigkeit	-5530
▁spricht	-5531
▁gemeinsamen	-5532
dex	-5533
rechts	-5534
▁sodass	-5535
▁komplette	-5536
▁überblick	-5537
▁rum	-5538
geschäft	-5539
▁grau	-5540
▁bewegung	-5541
▁kostenloses	-5542
tis	-5543
▁vereinigten	-5544
ye	-5545
▁kart	-5546
jährige	-5547
▁gewinnen	-5548
britannien	-5549
▁alib	-5550
▁planen	-5551
erklärung	-5552
▁nichtraucher	-5553
▁cy	-5554
▁deb	-5555
systems	-5556
▁touch	-5557
▁vorzu	-5558
▁geliefer	-5559
gelegen	-5560
▁kontinu	-5561
gro	-5562
▁stutt	-5563
▁handy	-5564
▁david	-5565
▁trägt	-5566
▁publik	-5567
▁verordnung	-5568
▁militär	-5569
▁brem	-5570
▁gesicht	-5571
▁geschwindigkeit	-5572
iser	-5573
▁machte	-5574
gu	-5575
center	-5576
▁geeig	-5577
▁ec	-5578
▁bang	-5579
▁voller	-5580
äuft	-5581
▁bras	-5582
▁pension	-5583
100	-5584
zus	-5585
▁abgeschlossen	-5586
▁haartrockner	-5587
▁hart	-5588
har	-5589
▁weder	-5590
▁großbritannien	-5591
jährigen	-5592
▁methoden	-5593
seiten	-5594
▁unterschei	-5595
eitete	-5596
unkten	-5597
bewertung	-5598
▁tod	-5599
▁alibaba	-5600
▁mem	-5601
▁gründe	-5602
obil	-5603
greifen	-5604
ep	-5605
▁besitzen	-5606
▁älter	-5607
▁warm	-5608
▁grenz	-5609
▁institu	-5610
▁expl	-5611
▁wahrscheinlich	-5612
▁amaz	-5613
▁kreuz	-5614
kö	-5615
▁mod	-5616
▁erhöht	-5617
zip	-5618
▁langfrist	-5619
kopf	-5620
▁szen	-5621
äst	-5622
splattform	-5623
▁miteinander	-5624
cia	-5625
▁flugticket	-5626
aktionen	-5627
▁werbung	-5628
▁zerstör	-5629
▁fak	-5630
▁42	-5631
▁schaden	-5632
▁tschech	-5633
▁01	-5634
▁15.	-5635
▁unge	-5636
vc	-5637
▁meister	-5638
veran	-5639
▁wöch	-5640
▁gelangen	-5641
ius	-5642
leistungs	-5643
ns	-5644
▁roll	-5645
xx	-5646
ziehen	-5647
▁politischen	-5648
▁250	-5649
▁zimmern	-5650
bereit	-5651
▁geheim	-5652
▁zuhause	-5653
preise	-5654
schnei	-5655
▁kurze	-5656
▁keiner	-5657
▁rent	-5658
kir	-5659
▁lediglich	-5660
sammlung	-5661
▁diesel	-5662
▁oberflächen	-5663
▁zusätzlichen	-5664
hu	-5665
omie	-5666
sern	-5667
tics	-5668
▁austausch	-5669
▁strategie	-5670
▁ausgabe	-5671
ost	-5672
▁ultra	-5673
▁formular	-5674
▁bessere	-5675
▁display	-5676
▁unabhängig	-5677
isation	-5678
bien	-5679
heben	-5680
▁urlaubs	-5681
▁übersetzung	-5682
▁websites	-5683
▁fand	-5684
ppe	-5685
zone	-5686
▁general	-5687
su	-5688
modus	-5689
▁vorbe	-5690
▁german	-5691
ray	-5692
uchs	-5693
▁köln	-5694
▁ausreichen	-5695
▁alternative	-5696
▁low	-5697
▁bü	-5698
ssen	-5699
rahmen	-5700
▁liefert	-5701
▁cle	-5702
tigte	-5703
▁düsseldorf	-5704
▁zuerst	-5705
▁regeln	-5706
▁zeiten	-5707
atischen	-5708
▁anzeige	-5709
▁änderung	-5710
▁arbeitspl	-5711
▁denk	-5712
klasse	-5713
▁sinne	-5714
ski	-5715
haften	-5716
▁lieferzeit	-5717
▁love	-5718
tasche	-5719
▁freie	-5720
▁9.	-5721
▁letzter	-5722
▁idee	-5723
▁versor	-5724
▁bereiche	-5725
ria	-5726
icks	-5727
ield	-5728
▁ziv	-5729
mension	-5730
▁tha	-5731
▁line	-5732
aben	-5733
▁falle	-5734
wegs	-5735
▁vertei	-5736
▁transfer	-5737
▁65	-5738
▁spiegel	-5739
▁aussprache	-5740
zugang	-5741
▁geboren	-5742
▁folgt	-5743
▁demokrat	-5744
▁1000	-5745
verschluss	-5746
▁völlig	-5747
optionen	-5748
▁night	-5749
▁größen	-5750
vide	-5751
fehler	-5752
prozess	-5753
schlüsse	-5754
▁49	-5755
inar	-5756
ora	-5757
▁ot	-5758
▁asp	-5759
meister	-5760
-4	-5761
▁vorschriften	-5762
fers	-5763
▁instrument	-5764
akt	-5765
ited	-5766
▁deck	-5767
▁zählen	-5768
höri	-5769
▁sammeln	-5770
▁kul	-5771
▁ideale	-5772
kter	-5773
sb	-5774
kat	-5775
cr	-5776
stil	-5777
▁logo	-5778
▁milch	-5779
▁digitalen	-5780
▁sammlung	-5781
rate	-5782
denken	-5783
prüfung	-5784
▁nort	-5785
▁stimmen	-5786
▁spaz	-5787
▁regionen	-5788
geschichte	-5789
chem	-5790
▁pfer	-5791
▁motiv	-5792
kmale	-5793
digt	-5794
▁code	-5795
▁dialog	-5796
▁konzept	-5797
heber	-5798
▁access	-5799
▁detail	-5800
▁zy	-5801
freien	-5802
▁rücken	-5803
▁übereinstimmung	-5804
▁44	-5805
selben	-5806
▁front	-5807
▁melden	-5808
oo	-5809
tor	-5810
ical	-5811
▁prüfung	-5812
▁gebracht	-5813
▁stuttgart	-5814
▁schei	-5815
▁id	-5816
▁symbol	-5817
▁gleichwertige	-5818
ampe	-5819
aufnahme	-5820
hotels	-5821
▁höchste	-5822
▁geändert	-5823
▁fi	-5824
▁micha	-5825
▁festen	-5826
▁zunehmen	-5827
ock	-5828
ieben	-5829
▁zusatz	-5830
▁tö	-5831
▁inhaber	-5832
▁schmuck	-5833
▁baumwolle	-5834
▁verhindern	-5835
▁griechen	-5836
fit	-5837
▁methode	-5838
▁kaum	-5839
üse	-5840
▁120	-5841
aming	-5842
▁hann	-5843
▁contro	-5844
▁vibrator	-5845
▁angep	-5846
ision	-5847
▁solchen	-5848
▁äg	-5849
iums	-5850
▁zit	-5851
▁punkte	-5852
▁stor	-5853
▁tar	-5854
▁vill	-5855
▁heiligen	-5856
▁anwendungs	-5857
▁neg	-5858
▁elemente	-5859
unge	-5860
▁que	-5861
halter	-5862
▁vollständige	-5863
▁ernähr	-5864
versorgung	-5865
▁2020	-5866
ding	-5867
ört	-5868
ader	-5869
▁optimale	-5870
schla	-5871
▁herzlich	-5872
ameter	-5873
▁stolz	-5874
mand	-5875
▁toil	-5876
▁sonstige	-5877
bahnhof	-5878
▁einrichtung	-5879
err	-5880
ford	-5881
▁erwachsene	-5882
▁wollte	-5883
▁sekunden	-5884
▁card	-5885
▁street	-5886
▁spir	-5887
zte	-5888
▁meeres	-5889
gül	-5890
klass	-5891
▁werte	-5892
▁anmelden	-5893
▁einzelne	-5894
▁fahrer	-5895
king	-5896
endes	-5897
▁jobs	-5898
85	-5899
▁sau	-5900
orben	-5901
▁provinz	-5902
reen	-5903
▁18.	-5904
apter	-5905
▁verarbeitet	-5906
trieb	-5907
▁hierzu	-5908
▁schüler	-5909
▁pok	-5910
▁bit	-5911
▁manche	-5912
▁verletz	-5913
▁stellung	-5914
deln	-5915
kurs	-5916
▁sach	-5917
titel	-5918
lichem	-5919
▁verfügbaren	-5920
▁om	-5921
▁ring	-5922
▁hinsichtlich	-5923
üh	-5924
▁dienen	-5925
▁soziale	-5926
mor	-5927
schlä	-5928
▁int	-5929
▁prag	-5930
▁media	-5931
▁nutzt	-5932
▁43	-5933
▁produzenten	-5934
ii	-5935
▁tagged	-5936
▁favor	-5937
▁press	-5938
▁vielfäl	-5939
analyse	-5940
▁zentrale	-5941
etr	-5942
▁obje	-5943
▁braucht	-5944
▁symp	-5945
▁handt	-5946
▁gala	-5947
▁schnellen	-5948
▁hon	-5949
▁wechseln	-5950
of	-5951
▁außergewöhn	-5952
ible	-5953
▁colle	-5954
▁signal	-5955
etooth	-5956
▁nummer	-5957
▁thomas	-5958
itäts	-5959
itel	-5960
urlaub	-5961
▁gutes	-5962
produktion	-5963
69	-5964
▁nahm	-5965
▁nachbar	-5966
grad	-5967
▁authen	-5968
rol	-5969
ires	-5970
anda	-5971
▁konkre	-5972
▁paul	-5973
baum	-5974
▁kit	-5975
▁franc	-5976
ulation	-5977
▁bemer	-5978
bilder	-5979
sprecher	-5980
▁erhoben	-5981
▁genommen	-5982
seits	-5983
▁sichern	-5984
▁bedürfnisse	-5985
▁infrastruktur	-5986
ole	-5987
▁nein	-5988
ansicht	-5989
alerie	-5990
▁findest	-5991
▁ungefähr	-5992
▁panor	-5993
▁commun	-5994
roh	-5995
ami	-5996
▁geschickt	-5997
▁dick	-5998
▁poliz	-5999
▁fehlen	-6000
27	-6001
▁vorgesch	-6002
▁verwaltungs	-6003
▁passt	-6004
▁polen	-6005
▁merc	-6006
▁vern	-6007
▁hä	-6008
▁quadr	-6009
▁fotograf	-6010
▁attraktionen	-6011
alld	-6012
uter	-6013
▁mid	-6014
hälter	-6015
leistet	-6016
▁koordin	-6017
▁§	-6018
▁wirst	-6019
▁fleisch	-6020
▁vorgesehen	-6021
team	-6022
▁kontinuier	-6023
name	-6024
▁vergrö	-6025
reibt	-6026
▁gb	-6027
▁bluetooth	-6028
▁kämp	-6029
▁planung	-6030
webe	-6031
systemen	-6032
▁gemeinsame	-6033
▁behörden	-6034
▁big	-6035
▁jur	-6036
▁wohnungen	-6037
,99	-6038
▁ferienhäuser	-6039
ary	-6040
bul	-6041
▁schwimm	-6042
▁revolution	-6043
ied	-6044
▁2002	-6045
mär	-6046
leun	-6047
ward	-6048
▁eingang	-6049
▁reinigung	-6050
sprech	-6051
▁miner	-6052
sicherheit	-6053
▁handbücher	-6054
pla	-6055
▁ausdruck	-6056
rifft	-6057
▁erlebnis	-6058
koch	-6059
ript	-6060
fast	-6061
famil	-6062
▁werke	-6063
▁hostel	-6064
▁lieblings	-6065
▁ht	-6066
▁dün	-6067
alischen	-6068
▁geschirr	-6069
▁smartphone	-6070
▁cast	-6071
▁übri	-6072
▁prozesse	-6073
ikon	-6074
▁verg	-6075
▁direkte	-6076
▁positiv	-6077
▁weihnachts	-6078
▁16.	-6079
▁email	-6080
▁eignet	-6081
▁grenzen	-6082
▁generation	-6083
▁offizielle	-6084
igem	-6085
▁gewalt	-6086
▁krieg	-6087
sprüche	-6088
▁natürlichen	-6089
▁ill	-6090
tikeln	-6091
zei	-6092
▁führenden	-6093
twoch	-6094
▁musste	-6095
isierten	-6096
the	-6097
breite	-6098
▁beeinfl	-6099
▁richtlinien	-6100
▁rä	-6101
▁ungar	-6102
▁krit	-6103
▁muster	-6104
▁milliar	-6105
äle	-6106
▁erklären	-6107
enze	-6108
gten	-6109
▁bearbeitung	-6110
▁diam	-6111
▁toll	-6112
speicher	-6113
▁erreichbar	-6114
▁stimme	-6115
iefer	-6116
tagen	-6117
▁suchst	-6118
suche	-6119
▁blue	-6120
▁king	-6121
▁hig	-6122
▁fallen	-6123
▁diskuss	-6124
68	-6125
gb	-6126
nose	-6127
ergebnisse	-6128
motion	-6129
▁600	-6130
politik	-6131
▁echtzeit	-6132
▁presse	-6133
▁sternen	-6134
▁grill	-6135
▁politische	-6136
eth	-6137
luft	-6138
▁höhere	-6139
▁leiter	-6140
stechnik	-6141
▁flughäfen	-6142
▁12.	-6143
▁grad	-6144
▁trin	-6145
▁präsent	-6146
▁eigentlich	-6147
tä	-6148
▁indien	-6149
▁studie	-6150
▁edition	-6151
führten	-6152
▁key	-6153
▁musst	-6154
▁gehäuse	-6155
▁ann	-6156
mittag	-6157
▁peter	-6158
▁klimatis	-6159
▁hom	-6160
gemein	-6161
steuerung	-6162
▁grundsätz	-6163
▁niedri	-6164
▁tätigkeit	-6165
▁arab	-6166
▁zugänglich	-6167
lock	-6168
▁ausgang	-6169
▁donner	-6170
▁jemand	-6171
nü	-6172
kräfte	-6173
ors	-6174
zwe	-6175
utton	-6176
▁laptop	-6177
▁domin	-6178
▁maria	-6179
▁begrenz	-6180
ws	-6181
▁fund	-6182
▁rand	-6183
▁umgeben	-6184
iterien	-6185
▁dunkel	-6186
▁messen	-6187
▁griechenland	-6188
▁sap	-6189
▁australien	-6190
▁burg	-6191
▁gumm	-6192
legten	-6193
▁gefühl	-6194
▁belgien	-6195
▁anspruchs	-6196
▁zahlung	-6197
▁hoff	-6198
▁entgegen	-6199
ual	-6200
▁gepäck	-6201
▁innovative	-6202
▁individuelle	-6203
▁twitter	-6204
▁dol	-6205
▁passende	-6206
▁verbessert	-6207
auftrag	-6208
▁vin	-6209
fg	-6210
ktop	-6211
triebe	-6212
anbieter	-6213
▁spanisch	-6214
andern	-6215
▁ähnlich	-6216
ift	-6217
▁cop	-6218
▁exp	-6219
▁sichere	-6220
▁seg	-6221
dates	-6222
arbeitungs	-6223
strom	-6224
▁moun	-6225
▁namens	-6226
▁zivil	-6227
▁express	-6228
dge	-6229
▁slow	-6230
▁flash	-6231
▁solar	-6232
kshop	-6233
äh	-6234
enk	-6235
▁roy	-6236
▁boot	-6237
▁fühlen	-6238
gebaut	-6239
▁werbe	-6240
▁england	-6241
▁tabelle	-6242
▁performance	-6243
▁mahl	-6244
▁hardware	-6245
▁harmon	-6246
▁white	-6247
▁übernehmen	-6248
▁michael	-6249
mes	-6250
▁tut	-6251
▁plug	-6252
▁album	-6253
▁grafik	-6254
▁meilen	-6255
ace	-6256
▁gal	-6257
▁erkunden	-6258
▁jahrhunderts	-6259
gler	-6260
▁kommentar	-6261
imin	-6262
▁erscheint	-6263
▁bou	-6264
▁abonn	-6265
▁verbrei	-6266
▁17.	-6267
▁bevölkerung	-6268
rick	-6269
ikt	-6270
zubehör	-6271
▁amazon	-6272
▁langsam	-6273
bte	-6274
dre	-6275
rohr	-6276
▁anmeldung	-6277
▁aufbewahr	-6278
▁wettbewerb	-6279
▁zeu	-6280
pfel	-6281
▁verwei	-6282
av	-6283
▁niedrig	-6284
zel	-6285
▁190	-6286
▁office	-6287
bliothek	-6288
▁europas	-6289
orten	-6290
▁wall	-6291
▁fig	-6292
werks	-6293
▁organisationen	-6294
▁mall	-6295
▁beschwer	-6296
draul	-6297
verarbeitung	-6298
minü	-6299
▁motorrad	-6300
ester	-6301
▁begriff	-6302
ssystem	-6303
26	-6304
▁14.	-6305
▁renov	-6306
77	-6307
▁ehe	-6308
schlei	-6309
▁warten	-6310
38	-6311
wart	-6312
▁mosk	-6313
▁ägyp	-6314
▁abflug	-6315
▁europe	-6316
▁gleiche	-6317
▁integrierte	-6318
▁registrierung	-6319
▁ly	-6320
▁zusammenhän	-6321
▁soft	-6322
▁break	-6323
ofen	-6324
▁tot	-6325
▁gewesen	-6326
atch	-6327
stark	-6328
bereiche	-6329
▁exklusiv	-6330
▁studenten	-6331
herr	-6332
▁ries	-6333
▁günstigen	-6334
▁sah	-6335
bliche	-6336
▁enter	-6337
▁verste	-6338
▁durchmesser	-6339
kungen	-6340
geschoss	-6341
▁leichte	-6342
▁beziehungen	-6343
34	-6344
▁porn	-6345
profil	-6346
▁kurzen	-6347
uung	-6348
▁din	-6349
▁lohnt	-6350
▁13.	-6351
▁ast	-6352
▁bir	-6353
▁yoga	-6354
ena	-6355
▁gezeigt	-6356
▁electron	-6357
▁gelö	-6358
▁lust	-6359
▁46	-6360
▁ehr	-6361
▁kab	-6362
▁mission	-6363
▁erfolgen	-6364
ages	-6365
▁statist	-6366
▁speziellen	-6367
garten	-6368
▁drucken	-6369
höhe	-6370
gerufen	-6371
projekt	-6372
▁einfacher	-6373
▁infos	-6374
▁stie	-6375
▁tiere	-6376
▁größere	-6377
▁scheint	-6378
▁verwalten	-6379
mitglied	-6380
▁gering	-6381
formular	-6382
▁individuellen	-6383
jo	-6384
▁11.	-6385
▁dos	-6386
▁maximale	-6387
mi	-6388
▁ernst	-6389
wurf	-6390
▁isol	-6391
ätter	-6392
▁south	-6393
sagen	-6394
▁elast	-6395
twäsche	-6396
▁--	-6397
vorschriften	-6398
▁reag	-6399
▁minute	-6400
▁lad	-6401
▁gewer	-6402
izieren	-6403
▁gü	-6404
▁ware	-6405
▁fischer	-6406
▁partnern	-6407
▁geliefert	-6408
ammer	-6409
▁vors	-6410
▁minibar	-6411
▁produziert	-6412
sm	-6413
unn	-6414
kunst	-6415
ferenzen	-6416
zur	-6417
schön	-6418
▁batterie	-6419
▁effizienz	-6420
gebiete	-6421
▁selben	-6422
▁kombiniert	-6423
▁aktualisiert	-6424
▁2001	-6425
▁durchführen	-6426
grammen	-6427
▁fantast	-6428
tokoll	-6429
▁urheber	-6430
▁führte	-6431
▁starke	-6432
▁verlangen	-6433
onym	-6434
griff	-6435
▁könnt	-6436
▁verwand	-6437
▁teilnehmen	-6438
▁paket	-6439
36	-6440
▁bohr	-6441
produkten	-6442
▁momentan	-6443
▁hilfs	-6444
▁aktien	-6445
▁türkei	-6446
▁light	-6447
isieren	-6448
▁billige	-6449
führte	-6450
▁kreis	-6451
▁plast	-6452
hz	-6453
papier	-6454
▁gebühren	-6455
▁klasse	-6456
▁vergangenen	-6457
▁kb	-6458
▁griff	-6459
▁chron	-6460
ima	-6461
▁pau	-6462
stücke	-6463
▁north	-6464
▁client	-6465
▁höchsten	-6466
bai	-6467
▁steuerung	-6468
verzeichnis	-6469
wood	-6470
▁ukra	-6471
fahrer	-6472
äm	-6473
▁partei	-6474
mband	-6475
▁konkur	-6476
▁führung	-6477
▁konst	-6478
▁realis	-6479
▁wirksam	-6480
zepte	-6481
▁vorbei	-6482
ila	-6483
▁hunderte	-6484
ille	-6485
▁cha	-6486
artikel	-6487
anschluss	-6488
▁milliarden	-6489
▁verarbeiten	-6490
werken	-6491
▁donnerstag	-6492
▁08	-6493
▁wid	-6494
▁verknü	-6495
▁erle	-6496
▁gepl	-6497
▁aufgefallen	-6498
▁kali	-6499
▁katz	-6500
▁administr	-6501
▁aff	-6502
▁brü	-6503
▁mont	-6504
gelassen	-6505
▁transpar	-6506
ces	-6507
count	-6508
freies	-6509
,1	-6510
▁kno	-6511
▁freude	-6512
ram	-6513
▁tos	-6514
▁schönsten	-6515
▁geschaffen	-6516
▁renn	-6517
dom	-6518
▁model	-6519
▁cookie	-6520
burger	-6521
▁quelle	-6522
fé	-6523
ffet	-6524
▁geschle	-6525
▁lg	-6526
▁herbst	-6527
▁handeln	-6528
dro	-6529
geladen	-6530
▁falsch	-6531
leder	-6532
bedingt	-6533
▁spannen	-6534
lt	-6535
▁satz	-6536
▁gedanken	-6537
▁anteil	-6538
▁bekannte	-6539
▁grundlegen	-6540
▁diejenigen	-6541
▁ans	-6542
▁store	-6543
▁tools	-6544
urer	-6545
iga	-6546
▁mittwoch	-6547
▁schönheit	-6548
zähl	-6549
▁habt	-6550
▁möbel	-6551
▁existiert	-6552
▁doppelbett	-6553
ifi	-6554
hnung	-6555
▁sant	-6556
körper	-6557
▁sauna	-6558
▁elektronische	-6559
gy	-6560
▁privats	-6561
▁ausgezeichnet	-6562
tech	-6563
ulver	-6564
▁betten	-6565
menge	-6566
▁vollkommen	-6567
▁drücken	-6568
▁tanz	-6569
▁schlei	-6570
zuführen	-6571
▁steigen	-6572
▁aktivieren	-6573
▁sab	-6574
farben	-6575
▁erfüllung	-6576
▁\	-6577
▁add	-6578
▁madrid	-6579
▁eindruck	-6580
zn	-6581
▁ständig	-6582
▁kle	-6583
ights	-6584
werten	-6585
▁viels	-6586
▁ansicht	-6587
▁spitzen	-6588
ool	-6589
▁altstadt	-6590
▁wahrheit	-6591
▁funktions	-6592
▁1.0	-6593
▁est	-6594
kennung	-6595
▁vic	-6596
▁einsch	-6597
▁getro	-6598
▁privatshow	-6599
ji	-6600
namen	-6601
▁rates	-6602
▁designer	-6603
▁fähigkeiten	-6604
ieur	-6605
▁fair	-6606
laufen	-6607
▁erscheinen	-6608
forn	-6609
filter	-6610
▁herum	-6611
88	-6612
point	-6613
▁vergangenheit	-6614
bruch	-6615
ingung	-6616
geräten	-6617
▁reparatur	-6618
▁iv	-6619
▁künf	-6620
▁bitten	-6621
verhältnis	-6622
arma	-6623
gebäu	-6624
becken	-6625
länder	-6626
▁jose	-6627
▁just	-6628
▁höhen	-6629
kultur	-6630
▁umschn	-6631
▁han	-6632
weiten	-6633
▁©	-6634
alem	-6635
alldildo	-6636
▁nutzern	-6637
▁theater	-6638
▁umschnalldildo	-6639
ents	-6640
▁tank	-6641
▁praktisch	-6642
▁teilnahme	-6643
obe	-6644
▁09	-6645
bern	-6646
▁zut	-6647
viertel	-6648
▁unverz	-6649
▁zuverlässige	-6650
sprogramm	-6651
▁satelliten	-6652
▁verbind	-6653
fm	-6654
arn	-6655
asy	-6656
pal	-6657
▁schweden	-6658
ior	-6659
kunde	-6660
▁vielfalt	-6661
rum	-6662
▁verhältnis	-6663
▁gefahr	-6664
▁entstanden	-6665
▁begeg	-6666
▁geführt	-6667
▁bedienung	-6668
▁reduziert	-6669
▁usd	-6670
▁weißen	-6671
anwendungen	-6672
zo	-6673
▁finn	-6674
spunkt	-6675
mente	-6676
igungen	-6677
▁bach	-6678
▁diver	-6679
▁verlie	-6680
▁abhängig	-6681
▁beschleun	-6682
▁lan	-6683
▁einwill	-6684
▁serviert	-6685
▁2.0	-6686
▁wesentlichen	-6687
ente	-6688
▁breit	-6689
▁trotzdem	-6690
▁ok	-6691
▁irgende	-6692
▁möglichst	-6693
▁verpackung	-6694
splan	-6695
ümer	-6696
▁bettwäsche	-6697
fla	-6698
▁fahrzeuge	-6699
▁sonderangebote	-6700
▁größeren	-6701
▁kleines	-6702
aktivitäten	-6703
▁kamen	-6704
bnb	-6705
rang	-6706
▁ohr	-6707
▁social	-6708
▁global	-6709
▁kleider	-6710
▁schäden	-6711
▁wartung	-6712
▁perfekten	-6713
▁prop	-6714
▁word	-6715
gungs	-6716
▁erhöh	-6717
▁vertreten	-6718
aust	-6719
▁spitze	-6720
▁vertreter	-6721
▁eingesch	-6722
▁rechn	-6723
▁rec	-6724
hlungen	-6725
▁gesetzt	-6726
▁andre	-6727
▁ausführung	-6728
ush	-6729
▁47	-6730
house	-6731
▁airbnb	-6732
▁feed	-6733
▁featur	-6734
schnitten	-6735
▁versicher	-6736
begl	-6737
▁serien	-6738
▁iii	-6739
spielen	-6740
▁herkunft	-6741
weiß	-6742
▁life	-6743
ichteten	-6744
▁dell	-6745
▁einzigartigen	-6746
▁21.	-6747
▁bekannten	-6748
▁bestätigt	-6749
▁800	-6750
▁dienstag	-6751
▁freiheit	-6752
pc	-6753
amerikan	-6754
▁baujahr	-6755
▁behinder	-6756
▁flexibilität	-6757
ience	-6758
▁holl	-6759
▁applikation	-6760
wege	-6761
steigend	-6762
▁fokus	-6763
▁belast	-6764
▁rohr	-6765
▁maximal	-6766
▁karriere	-6767
▁brenn	-6768
▁alltag	-6769
▁brüssel	-6770
▁hof	-6771
▁game	-6772
▁gemeinschafts	-6773
leiter	-6774
▁gericht	-6775
▁qualifiz	-6776
.-	-6777
▁07	-6778
isco	-6779
▁deaktiv	-6780
▁64-	-6781
▁job	-6782
200	-6783
▁eth	-6784
stimmt	-6785
▁nämlich	-6786
achtungen	-6787
▁chan	-6788
drucken	-6789
▁tab	-6790
▁turn	-6791
▁ansatz	-6792
▁waschmaschine	-6793
eiteten	-6794
▁häuser	-6795
▁gekauft	-6796
üd	-6797
▁highl	-6798
▁welchen	-6799
▁unbedingt	-6800
▁cur	-6801
bindung	-6802
verein	-6803
▁weiterer	-6804
▁blü	-6805
▁look	-6806
▁beliebtesten	-6807
deut	-6808
vers	-6809
▁niederlande	-6810
▁bri	-6811
▁professionellen	-6812
▁41	-6813
▁feder	-6814
▁abendessen	-6815
▁kalender	-6816
▁dur	-6817
▁geschützt	-6818
ista	-6819
▁residen	-6820
▁verkauft	-6821
▁song	-6822
wirkung	-6823
geleitet	-6824
val	-6825
▁lit	-6826
▁feuchtigkeit	-6827
▁braun	-6828
▁garantieren	-6829
hou	-6830
▁english	-6831
pfung	-6832
▁ms	-6833
▁bord	-6834
inte	-6835
▁lou	-6836
▁sensor	-6837
▁campingplatz	-6838
gener	-6839
▁grünen	-6840
▁spazier	-6841
▁ken	-6842
umfang	-6843
▁labor	-6844
▁heimat	-6845
ape	-6846
▁überzeugt	-6847
gvo	-6848
pum	-6849
▁versucht	-6850
▁unterstutzt	-6851
▁kas	-6852
nr	-6853
wesen	-6854
▁logistik	-6855
▁95	-6856
▁draht	-6857
▁gebaut	-6858
uchen	-6859
▁zauber	-6860
▁geringer	-6861
dienste	-6862
▁schauen	-6863
▁mountain	-6864
▁reduzieren	-6865
74	-6866
essel	-6867
▁zeig	-6868
▁parkplätze	-6869
▁einstellung	-6870
appe	-6871
günst	-6872
▁basiert	-6873
▁integriert	-6874
ides	-6875
▁000	-6876
▁migr	-6877
stütz	-6878
▁luxem	-6879
▁nachhaltige	-6880
uen	-6881
▁tasche	-6882
▁workshop	-6883
▁rau	-6884
▁elektronischen	-6885
▁sens	-6886
▁matt	-6887
▁untersucht	-6888
ziele	-6889
▁mund	-6890
atisch	-6891
▁lokale	-6892
ju	-6893
door	-6894
▁180	-6895
▁erweiterung	-6896
▁fremd	-6897
▁prinzip	-6898
▁luxuri	-6899
▁informiert	-6900
wn	-6901
▁reihen	-6902
▁klassischen	-6903
mas	-6904
spielt	-6905
▁unterwegs	-6906
▁beliebtheit	-6907
39	-6908
▁kra	-6909
▁nachhaltigkeit	-6910
-10	-6911
▁ferner	-6912
▁vorschlag	-6913
meter	-6914
▁leichter	-6915
66	-6916
▁bö	-6917
▁ausdrücklich	-6918
▁eröffnet	-6919
▁notebook	-6920
▁überhaupt	-6921
▁hotelangebote	-6922
▁bmw	-6923
▁horiz	-6924
▁geräten	-6925
amt	-6926
zahlen	-6927
▁spann	-6928
ring	-6929
hörer	-6930
▁hydraul	-6931
▁pum	-6932
▁sorgfäl	-6933
▁stärken	-6934
▁verring	-6935
▁implemen	-6936
▁99	-6937
▁unglaub	-6938
muse	-6939
▁fett	-6940
ric	-6941
▁decken	-6942
▁mitten	-6943
rel	-6944
▁graph	-6945
▁inseln	-6946
▁gehalten	-6947
▁gestaltung	-6948
▁schnei	-6949
▁atember	-6950
▁getränke	-6951
▁atemberauben	-6952
deu	-6953
hard	-6954
▁fon	-6955
emark	-6956
sichten	-6957
▁damals	-6958
▁zugleich	-6959
▁gebo	-6960
▁lack	-6961
▁branche	-6962
▁31.	-6963
ampen	-6964
▁aktiviert	-6965
▁verhinder	-6966
▁haft	-6967
ktions	-6968
▁halte	-6969
▁verbringen	-6970
▁unterschiedlich	-6971
▁pflanz	-6972
▁ausrüstung	-6973
kette	-6974
▁volle	-6975
mittlung	-6976
▁kleidung	-6977
▁work	-6978
▁autos	-6979
dll	-6980
iki	-6981
▁schie	-6982
▁übersetz	-6983
55	-6984
ax	-6985
▁begeister	-6986
▁erstellung	-6987
exe	-6988
fenster	-6989
▁apparte	-6990
ungsmittel	-6991
▁einwilligung	-6992
dule	-6993
▁eins	-6994
▁häufigsten	-6995
wissenschaft	-6996
▁interessiert	-6997
▁sache	-6998
▁ergeben	-6999
ppich	-7000
▁kanada	-7001
▁dateiendung	-7002
▁sd	-7003
ason	-7004
lingen	-7005
▁desktop	-7006
▁leisten	-7007
räger	-7008
▁geor	-7009
zimmern	-7010
▁partnerschaft	-7011
▁bildern	-7012
▁beur	-7013
▁fläche	-7014
▁verlänger	-7015
▁university	-7016
▁unternehmer	-7017
feu	-7018
▁mt	-7019
▁uv	-7020
▁24-	-7021
ablen	-7022
▁gerichts	-7023
▁geschäfte	-7024
▁·	-7025
örm	-7026
▁ras	-7027
▁vorne	-7028
▁vorteilhafte	-7029
▁hunde	-7030
29	-7031
minute	-7032
▁prior	-7033
weet	-7034
auern	-7035
▁tags	-7036
▁buche	-7037
anzeige	-7038
▁automobil	-7039
▁krist	-7040
iehung	-7041
veranst	-7042
▁hinblick	-7043
▁tausen	-7044
chter	-7045
▁angepasst	-7046
ordnet	-7047
▁akadem	-7048
▁travel	-7049
▁schwarze	-7050
yo	-7051
▁steig	-7052
▁stern	-7053
▁anim	-7054
▁hong	-7055
▁behandelt	-7056
folio	-7057
▁plat	-7058
pflege	-7059
▁kapazität	-7060
▁kontra	-7061
▁aufmerksamkeit	-7062
▁hem	-7063
räder	-7064
chron	-7065
▁alpen	-7066
▁seien	-7067
▁äußerst	-7068
twortet	-7069
▁gastgeber	-7070
▁gewünschten	-7071
▁brust	-7072
▁ident	-7073
ids	-7074
▁rob	-7075
zesse	-7076
▁arme	-7077
▁arzt	-7078
▁sicheren	-7079
empf	-7080
klang	-7081
▁rhein	-7082
▁betriebssystem	-7083
▁aqu	-7084
▁gern	-7085
▁ban	-7086
▁halt	-7087
chtung	-7088
kret	-7089
▁regelmäß	-7090
▁haustiere	-7091
▁mes	-7092
▁gelb	-7093
▁orien	-7094
▁mögliche	-7095
verwaltung	-7096
▁fanden	-7097
▁vektor	-7098
schalter	-7099
▁schwach	-7100
▁rechnung	-7101
▁asien	-7102
▁konkurr	-7103
▁programms	-7104
farbe	-7105
▁late	-7106
▁kleid	-7107
▁solcher	-7108
bat	-7109
sted	-7110
wirken	-7111
gewiesen	-7112
▁ruhigen	-7113
▁heutigen	-7114
▁verständnis	-7115
▁entscheidungen	-7116
▁chance	-7117
züg	-7118
kommun	-7119
worfen	-7120
▁offene	-7121
▁fle	-7122
▁1999	-7123
▁medik	-7124
▁linken	-7125
verbrauch	-7126
▁flugzeug	-7127
ira	-7128
ston	-7129
▁quart	-7130
brechen	-7131
▁ri	-7132
▁mögen	-7133
effizien	-7134
▁vertrieb	-7135
viel	-7136
▁qualit	-7137
▁erstklass	-7138
igte	-7139
▁road	-7140
▁vermö	-7141
▁investition	-7142
▁vereinbarung	-7143
olo	-7144
31	-7145
jahres	-7146
▁‚	-7147
▁osten	-7148
zentren	-7149
▁neueste	-7150
▁benutzung	-7151
▁wesentlich	-7152
▁bereitstellung	-7153
▁flü	-7154
▁olymp	-7155
amerika	-7156
arbeiter	-7157
▁erleichtern	-7158
▁yout	-7159
▁favoriten	-7160
▁wörterbuch	-7161
dm	-7162
ony	-7163
▁banken	-7164
position	-7165
üm	-7166
chst	-7167
▁erstmals	-7168
▁64	-7169
sprä	-7170
▁lieb	-7171
umenten	-7172
▁reaktion	-7173
▁erweitert	-7174
▁zustimmung	-7175
▁jene	-7176
▁updates	-7177
lehr	-7178
▁map	-7179
drich	-7180
▁bauen	-7181
▁beleuchtung	-7182
▁verschiedener	-7183
west	-7184
▁polizei	-7185
wald	-7186
▁freundlich	-7187
▁medizinische	-7188
▁subst	-7189
▁exzellen	-7190
▁hannover	-7191
▁personalis	-7192
passen	-7193
▁hände	-7194
anen	-7195
▁treten	-7196
tein	-7197
▁befe	-7198
▁hund	-7199
▁ruhig	-7200
▁berufs	-7201
▁minister	-7202
lam	-7203
▁30.	-7204
▁veränderungen	-7205
▁atlan	-7206
▁verab	-7207
▁binnen	-7208
▁monitor	-7209
▁angst	-7210
▁worte	-7211
▁gewährleistet	-7212
linder	-7213
▁vision	-7214
stellern	-7215
▁frieden	-7216
▁hauptstadt	-7217
▁hub	-7218
▁flügen	-7219
▁kapitel	-7220
▁wetterlage	-7221
37	-7222
▁liss	-7223
▁untersuchung	-7224
ctory	-7225
kocher	-7226
▁kirchen	-7227
▁einzigen	-7228
▁dokumenten	-7229
▁kä	-7230
blei	-7231
mine	-7232
modelle	-7233
▁erneuer	-7234
▁anhänger	-7235
olf	-7236
▁nötig	-7237
▁gewählt	-7238
▁fernseher	-7239
▁ausü	-7240
▁spül	-7241
deckung	-7242
▁bewerten	-7243
▁zertifik	-7244
bra	-7245
▁beton	-7246
temperatur	-7247
zwischen	-7248
ias	-7249
kok	-7250
rop	-7251
▁selbstverständ	-7252
lade	-7253
▁sum	-7254
orie	-7255
itzer	-7256
▁orange	-7257
▁parad	-7258
▁teams	-7259
▁bestell	-7260
schneider	-7261
▁bestehenden	-7262
well	-7263
▁zucker	-7264
▁möglichen	-7265
lab	-7266
▁dc	-7267
mehr	-7268
▁café	-7269
▁süda	-7270
▁wandern	-7271
strategie	-7272
▁verfügbare	-7273
▁quell	-7274
ämpfung	-7275
bares	-7276
▁niveau	-7277
defin	-7278
▁betrieben	-7279
▁gesetzlichen	-7280
▁vert	-7281
▁handtücher	-7282
hab	-7283
▁aktualisieren	-7284
modul	-7285
▁frisch	-7286
▁martin	-7287
▁neun	-7288
▁kosme	-7289
▁läuft	-7290
▁vollen	-7291
tiere	-7292
▁erwart	-7293
▁aktualisierung	-7294
pra	-7295
terr	-7296
hagen	-7297
iegen	-7298
▁distri	-7299
▁monats	-7300
▁erzeug	-7301
▁events	-7302
▁ausgewählt	-7303
▁erforderlichen	-7304
▁pharma	-7305
▁globalen	-7306
mware	-7307
▁bier	-7308
▁konfl	-7309
film	-7310
uver	-7311
▁hill	-7312
▁versionen	-7313
osoph	-7314
▁gerecht	-7315
komm	-7316
▁vip	-7317
▁ausgewählten	-7318
▁lkw	-7319
ziplin	-7320
▁54	-7321
einstellungen	-7322
spolitik	-7323
▁industr	-7324
▁öffentlichkeit	-7325
inos	-7326
▁cost	-7327
▁bewegen	-7328
▁salzburg	-7329
xt	-7330
▁mc	-7331
aker	-7332
▁fortschritt	-7333
001	-7334
▁bios	-7335
▁telefonnummer	-7336
bb	-7337
nahm	-7338
▁lake	-7339
ladung	-7340
▁geprü	-7341
▁seele	-7342
▁kostet	-7343
▁erhielt	-7344
▁starken	-7345
▁bereitgestellt	-7346
▁traditionellen	-7347
sd	-7348
▁bul	-7349
▁freiwill	-7350
▁59	-7351
rück	-7352
linge	-7353
▁orts	-7354
▁bezahlen	-7355
▁ersatzteile	-7356
stall	-7357
▁schäd	-7358
▁konzer	-7359
▁relativ	-7360
▁wettertyp	-7361
gelt	-7362
▁textil	-7363
▁gig	-7364
reicher	-7365
▁rabatt	-7366
kla	-7367
▁daraus	-7368
▁routen	-7369
▁konzern	-7370
▁angenommen	-7371
▁herausforderung	-7372
▁06	-7373
▁weiße	-7374
▁suites	-7375
▁viertel	-7376
▁standards	-7377
verbindungen	-7378
iler	-7379
▁nür	-7380
schine	-7381
▁schwerpunkt	-7382
▁überwachung	-7383
▁voraussetzungen	-7384
▁opfer	-7385
▁elektrische	-7386
einrichtungen	-7387
▁mur	-7388
▁hinten	-7389
▁besucht	-7390
▁öffnet	-7391
▁kommunikations	-7392
anw	-7393
▁ausschuss	-7394
▁lcd	-7395
▁zell	-7396
▁faszin	-7397
▁hilfrei	-7398
merzen	-7399
▁risiken	-7400
▁weiteres	-7401
▁verkäufer	-7402
nes	-7403
▁runde	-7404
▁steck	-7405
▁eindeu	-7406
▁finger	-7407
tec	-7408
abon	-7409
▁häuf	-7410
▁popul	-7411
▁regulären	-7412
▁normalerweise	-7413
bieren	-7414
branche	-7415
▁entsteht	-7416
▁ziemlich	-7417
▁wöchentliche	-7418
appen	-7419
▁klang	-7420
▁uhren	-7421
▁hälfte	-7422
▁webcam	-7423
▁christus	-7424
▁verbindet	-7425
▁verändern	-7426
▁werkzeuge	-7427
uel	-7428
▁05	-7429
orca	-7430
▁zugreifen	-7431
ero	-7432
▁85	-7433
▁gang	-7434
timent	-7435
▁kreativ	-7436
▁verändert	-7437
3-	-7438
▁ram	-7439
▁schicken	-7440
▁schwarzen	-7441
uit	-7442
▁1,5	-7443
▁wochenende	-7444
▁mand	-7445
▁prin	-7446
fähigen	-7447
▁gebühr	-7448
anleitungen	-7449
▁ursprünglich	-7450
▁gemüse	-7451
▁parall	-7452
sthe	-7453
▁know	-7454
▁seid	-7455
ovo	-7456
▁stücke	-7457
▁1998	-7458
▁moskau	-7459
▁professionelle	-7460
▁mailand	-7461
▁grundsätzlich	-7462
▁pix	-7463
▁keram	-7464
▁verkaufs	-7465
▁umfassende	-7466
irn	-7467
▁filme	-7468
▁fähigkeit	-7469
▁obst	-7470
▁niedriger	-7471
▁erzielen	-7472
▁xp	-7473
ders	-7474
▁händler	-7475
▁bag	-7476
iffer	-7477
ländern	-7478
▁ll	-7479
▁wifi	-7480
▁physik	-7481
▁niemand	-7482
▁haushalts	-7483
▁engagement	-7484
anforderungen	-7485
wunsch	-7486
fordert	-7487
▁selber	-7488
kontrolle	-7489
▁angenehm	-7490
▁hauptsächlich	-7491
▁cer	-7492
muster	-7493
weisung	-7494
▁corpor	-7495
▁aspekte	-7496
ican	-7497
.2017	-7498
▁absolut	-7499
ode	-7500
▁betrifft	-7501
schm	-7502
▁offenen	-7503
▁wodurch	-7504
hls	-7505
haup	-7506
▁wellen	-7507
▁investitionen	-7508
▁kör	-7509
ergie	-7510
▁berge	-7511
▁label	-7512
▁parameter	-7513
▁leidenschaft	-7514
kop	-7515
förm	-7516
player	-7517
▁hallo	-7518
▁aktive	-7519
▁berühmten	-7520
▁unbegrenz	-7521
cor	-7522
▁ließ	-7523
▁reprä	-7524
▁ue	-7525
▁recy	-7526
irlpool	-7527
▁kürzlich	-7528
▁data	-7529
tau	-7530
alte	-7531
ativer	-7532
stimmungen	-7533
▁dargestellt	-7534
▁il	-7535
▁gewonnen	-7536
▁lissabon	-7537
▁user	-7538
lernen	-7539
▁mexiko	-7540
▁cann	-7541
▁edit	-7542
▁gefä	-7543
▁tit	-7544
▁brun	-7545
▁veranstaltungs	-7546
bten	-7547
star	-7548
ärten	-7549
▁testen	-7550
aku	-7551
konstru	-7552
auso	-7553
▁tok	-7554
▁angew	-7555
▁glaube	-7556
halle	-7557
upfer	-7558
▁umzu	-7559
▁dänemark	-7560
▁passiert	-7561
▁ähnlichen	-7562
▁04	-7563
tool	-7564
isa	-7565
ühle	-7566
instr	-7567
▁quadrat	-7568
▁reiß	-7569
▁ingen	-7570
▁breakfast	-7571
▁friedrich	-7572
▁outdoor	-7573
▁anwender	-7574
▁kontaktdaten	-7575
▁fass	-7576
▁brief	-7577
▁thail	-7578
zuladen	-7579
basierte	-7580
▁beitragen	-7581
cal	-7582
idas	-7583
sequ	-7584
cking	-7585
▁bewähr	-7586
▁kehr	-7587
▁feier	-7588
▁objekte	-7589
▁sofa	-7590
▁hochwertigen	-7591
ota	-7592
kal	-7593
▁gitar	-7594
stattet	-7595
träch	-7596
bereitung	-7597
▁echte	-7598
▁intensiv	-7599
anleitung	-7600
vid	-7601
spiegel	-7602
▁variante	-7603
▁gez	-7604
▁hen	-7605
hausen	-7606
▁wasserd	-7607
▁währung	-7608
▁empfangen	-7609
ads	-7610
bal	-7611
▁360	-7612
▁bildet	-7613
▁klassische	-7614
▁hinein	-7615
▁interessante	-7616
▁dor	-7617
▁nett	-7618
▁kaiser	-7619
▁haftung	-7620
▁wandel	-7621
▁erzeugt	-7622
▁rezeption	-7623
▁hervorragende	-7624
unen	-7625
▁25.	-7626
berichte	-7627
pfl	-7628
▁tiefe	-7629
▁schluss	-7630
hersteller	-7631
zeugung	-7632
▁genauso	-7633
▁schönes	-7634
▁erklärung	-7635
▁erläu	-7636
weisungen	-7637
▁johannes	-7638
▁cn	-7639
▁robo	-7640
▁royal	-7641
▁storn	-7642
▁laufe	-7643
tzimmer	-7644
▁brasilien	-7645
heet	-7646
pass	-7647
▁eig	-7648
▁auss	-7649
▁hierbei	-7650
▁übernimmt	-7651
▁angeles	-7652
▁buchsta	-7653
▁ausgeführt	-7654
▁sitze	-7655
▁eigentum	-7656
omm	-7657
▁betreiber	-7658
▁männ	-7659
bedarf	-7660
▁breiten	-7661
▁kenntnis	-7662
▁literatur	-7663
▁darstellen	-7664
angs	-7665
gess	-7666
mag	-7667
▁bedienen	-7668
▁wolf	-7669
▁wirken	-7670
gebracht	-7671
▁02	-7672
ania	-7673
▁view	-7674
ql	-7675
▁katalog	-7676
acher	-7677
kategor	-7678
▁quellen	-7679
▁whirlpool	-7680
uxe	-7681
▁schen	-7682
herapie	-7683
▁griech	-7684
▁inneren	-7685
▁auftrags	-7686
▁frühstücks	-7687
▁optimierung	-7688
▁wissenschaftler	-7689
let	-7690
artet	-7691
▁brot	-7692
▁beinhalten	-7693
▁praktische	-7694
usion	-7695
▁danke	-7696
▁einst	-7697
▁texte	-7698
▁käufer	-7699
▁lehrer	-7700
▁beschäftigt	-7701
▁unw	-7702
▁1-	-7703
▁besuchern	-7704
▁persönlich	-7705
kund	-7706
▁waffen	-7707
hai	-7708
▁thr	-7709
▁formul	-7710
▁artikeln	-7711
berry	-7712
vir	-7713
▁fix	-7714
▁therm	-7715
▁wünsche	-7716
▁engine	-7717
▁music	-7718
▁kollegen	-7719
edes	-7720
spreis	-7721
bart	-7722
deta	-7723
▁rie	-7724
waren	-7725
▁trifft	-7726
▁behalten	-7727
▁zählt	-7728
stab	-7729
arbon	-7730
▁galaxy	-7731
▁nahezu	-7732
▁tennis	-7733
ky	-7734
regel	-7735
▁fällt	-7736
▁gefallen	-7737
▁entwickler	-7738
▁konvertieren	-7739
▁akku	-7740
▁baut	-7741
mechan	-7742
▁audi	-7743
▁booking	-7744
▁nützliche	-7745
▁trock	-7746
▁kooperation	-7747
▁content	-7748
▁stabilität	-7749
page	-7750
älte	-7751
▁network	-7752
▁französischen	-7753
▁gelöscht	-7754
ächt	-7755
▁verlauf	-7756
▁offiziell	-7757
sektor	-7758
▁antrag	-7759
▁tablet	-7760
kohol	-7761
wan	-7762
▁fun	-7763
anbul	-7764
▁spec	-7765
wertung	-7766
aka	-7767
zell	-7768
▁conne	-7769
wohnung	-7770
▁mitteilung	-7771
öss	-7772
▁quer	-7773
▁lautsprecher	-7774
86	-7775
tele	-7776
▁rumän	-7777
▁süß	-7778
musik	-7779
▁ausgesch	-7780
▁portugal	-7781
▁tonnen	-7782
tzu	-7783
▁stärker	-7784
▁entschieden	-7785
▁flo	-7786
▁fertigung	-7787
ypen	-7788
▁perspe	-7789
▁bol	-7790
▁phase	-7791
▁versehen	-7792
atien	-7793
dlichen	-7794
▁interaktiv	-7795
▁darstellung	-7796
iano	-7797
▁sky	-7798
▁full	-7799
cle	-7800
reihe	-7801
▁costa	-7802
▁ausnahme	-7803
▁widerspruch	-7804
▁übernachten	-7805
▁verlust	-7806
cts	-7807
angel	-7808
▁anton	-7809
gebäude	-7810
▁export	-7811
▁nachfrage	-7812
▁chic	-7813
▁drucker	-7814
link	-7815
▁röm	-7816
museum	-7817
▁orten	-7818
▁annehm	-7819
▁wasserkocher	-7820
▁zentralen	-7821
farb	-7822
▁tritt	-7823
▁wirkt	-7824
▁konzip	-7825
▁verursacht	-7826
tischer	-7827
issionen	-7828
▁bars	-7829
500	-7830
▁ut	-7831
stin	-7832
▁süden	-7833
ementen	-7834
minuten	-7835
teilungen	-7836
▁festival	-7837
ustr	-7838
▁gefertigt	-7839
any	-7840
▁werkt	-7841
▁day	-7842
▁etabl	-7843
▁amerika	-7844
▁nationale	-7845
down	-7846
▁oberen	-7847
▁problemen	-7848
▁kostenfrei	-7849
üre	-7850
▁sichtbar	-7851
urity	-7852
ürtel	-7853
▁entdeck	-7854
▁24.	-7855
▁mis	-7856
▁küste	-7857
▁aktuelles	-7858
▁ausgestattete	-7859
osa	-7860
▁genaue	-7861
▁referenz	-7862
äufe	-7863
▁anpassen	-7864
▁täglichen	-7865
förder	-7866
spf	-7867
▁jak	-7868
▁manuelle	-7869
▁tatsache	-7870
▁touristen	-7871
▁unvergess	-7872
▁22.	-7873
▁east	-7874
▁gesche	-7875
▁kommerz	-7876
wörter	-7877
bettzimmer	-7878
betrie	-7879
▁botschaft	-7880
▁aufenthalts	-7881
▁platten	-7882
▁besseren	-7883
▁istanbul	-7884
eier	-7885
▁engag	-7886
▁hotelsuche	-7887
▁willst	-7888
attformen	-7889
▁gründung	-7890
▁dimension	-7891
▁fro	-7892
▁stärke	-7893
▁kollektion	-7894
ula	-7895
▁bangkok	-7896
▁ausblick	-7897
▁bestimmen	-7898
▁weiterlesen	-7899
ädt	-7900
menü	-7901
▁museen	-7902
▁parteien	-7903
sack	-7904
▁verfolgen	-7905
▁́	-7906
▁hr	-7907
itch	-7908
ktiver	-7909
garantie	-7910
quelle	-7911
sendet	-7912
▁rennen	-7913
▁umgang	-7914
▁vieles	-7915
hor	-7916
▁nürn	-7917
▁prie	-7918
▁zieht	-7919
▁kroatien	-7920
▁wirtschaftliche	-7921
jet	-7922
▁canon	-7923
▁beobachten	-7924
▁58	-7925
edig	-7926
▁gir	-7927
artige	-7928
ologien	-7929
▁niederländ	-7930
▁mittelalter	-7931
▁konstruktion	-7932
▁taxi	-7933
▁print	-7934
meldung	-7935
▁empfehlungen	-7936
fron	-7937
▁beraten	-7938
gestellten	-7939
freundliche	-7940
▁tätigkeiten	-7941
ado	-7942
▁liv	-7943
▁erfordert	-7944
▁gebe	-7945
▁kochen	-7946
chat	-7947
websites	-7948
▁profess	-7949
▁deutscher	-7950
▁bestandteil	-7951
▁maus	-7952
istenz	-7953
institut	-7954
plattform	-7955
richtlinie	-7956
bby	-7957
orts	-7958
▁bun	-7959
▁sha	-7960
▁holen	-7961
richtig	-7962
▁touren	-7963
▁berechtigt	-7964
▁rc	-7965
▁lot	-7966
▁fans	-7967
▁juke	-7968
▁deines	-7969
▁teppich	-7970
bü	-7971
ury	-7972
achs	-7973
▁erb	-7974
▁kün	-7975
▁cons	-7976
vision	-7977
einheit	-7978
▁kompatibel	-7979
▁human	-7980
▁cab	-7981
▁pur	-7982
▁endlich	-7983
▁vorgestellt	-7984
▁falun	-7985
produkt	-7986
▁adidas	-7987
▁effekt	-7988
▁unterhaltung	-7989
samen	-7990
▁cool	-7991
▁norden	-7992
▁vertrie	-7993
kamera	-7994
▁ordner	-7995
▁studium	-7996
oberfläche	-7997
▁boss	-7998
▁notwendigen	-7999
komponenten	-8000
▁dres	-8001
▁sucht	-8002
▁faktoren	-8003
istan	-8004
▁fügen	-8005
▁jährlich	-8006
▁herunterzuladen	-8007
79	-8008
▁externen	-8009
▁mischung	-8010
▁komfortabel	-8011
swert	-8012
▁afri	-8013
▁heiß	-8014
▁youtube	-8015
begleitung	-8016
▁günstigste	-8017
put	-8018
▁speisen	-8019
alon	-8020
ameras	-8021
▁agentur	-8022
▁mg	-8023
▁mix	-8024
▁spl	-8025
▁schall	-8026
▁vorlage	-8027
▁interview	-8028
▁islam	-8029
▁button	-8030
▁begonnen	-8031
▁aktivität	-8032
▁geburtstag	-8033
▁marktplatz	-8034
▁eingestellt	-8035
▁entwicklungen	-8036
neu	-8037
ova	-8038
geld	-8039
inne	-8040
iance	-8041
▁jukebox	-8042
▁veröffentlichen	-8043
ene	-8044
meer	-8045
stem	-8046
▁dubai	-8047
maßen	-8048
▁getan	-8049
▁hängt	-8050
▁still	-8051
basis	-8052
▁massen	-8053
▁jahrzehn	-8054
▁kohlen	-8055
▁entwickelte	-8056
▁präsentieren	-8057
▁ky	-8058
▁ner	-8059
▁disku	-8060
▁classic	-8061
▁dritter	-8062
▁traditionelle	-8063
▁agr	-8064
▁einver	-8065
▁funktionalität	-8066
dok	-8067
▁jüng	-8068
▁resul	-8069
tour	-8070
fähig	-8071
▁aktiven	-8072
▁anpassung	-8073
▁angegebenen	-8074
apel	-8075
schuh	-8076
▁action	-8077
▁schulter	-8078
▁kriterien	-8079
▁vorbereitung	-8080
▁berücksichtigt	-8081
fir	-8082
hiba	-8083
▁cock	-8084
taschen	-8085
▁ersetzt	-8086
▁meerblick	-8087
▁niemals	-8088
▁verhindert	-8089
nam	-8090
akte	-8091
ulen	-8092
ussen	-8093
schulen	-8094
▁zuverlässigkeit	-8095
urm	-8096
ansfer	-8097
wander	-8098
▁achten	-8099
▁menschlichen	-8100
▁mak	-8101
▁sexy	-8102
eilung	-8103
▁exten	-8104
▁head	-8105
▁heiz	-8106
▁journ	-8107
▁willen	-8108
▁anreise	-8109
▁grundstück	-8110
▁ört	-8111
▁vertrau	-8112
▁entworfen	-8113
▁festgelegt	-8114
arr	-8115
blin	-8116
▁56	-8117
▁wun	-8118
▁filtern	-8119
▁einerseits	-8120
dige	-8121
altungen	-8122
emaschine	-8123
nehmern	-8124
▁venedig	-8125
▁ausreichend	-8126
▁‐	-8127
eland	-8128
ildet	-8129
▁eleg	-8130
▁führungs	-8131
▁community	-8132
▁leistungsstark	-8133
wig	-8134
▁berühr	-8135
rig	-8136
▁enor	-8137
▁parlaments	-8138
wl	-8139
eis	-8140
▁level	-8141
▁eigentümer	-8142
tek	-8143
▁ausgeb	-8144
▁budap	-8145
▁schok	-8146
händler	-8147
▁schatten	-8148
▁69	-8149
▁toshiba	-8150
datenbank	-8151
▁wunderschönen	-8152
▁sün	-8153
legte	-8154
spekt	-8155
assungs	-8156
▁singap	-8157
▁verwandel	-8158
boot	-8159
genöss	-8160
zustand	-8161
▁bildungs	-8162
▁steigern	-8163
▁trainings	-8164
von	-8165
ütte	-8166
inien	-8167
▁kupfer	-8168
48	-8169
▁ios	-8170
▁pad	-8171
▁hierfür	-8172
▁with	-8173
▁erweitern	-8174
▁impor	-8175
▁alkohol	-8176
ragt	-8177
seinander	-8178
▁28.	-8179
utzung	-8180
▁bewahr	-8181
▁deluxe	-8182
▁schulen	-8183
▁weisen	-8184
▁hotelzimmer	-8185
▁alternativen	-8186
eise	-8187
onom	-8188
cover	-8189
griffe	-8190
sichert	-8191
▁hauses	-8192
▁western	-8193
behandlung	-8194
▁nachmittag	-8195
iffe	-8196
▁hilfreich	-8197
▁betreffenden	-8198
▁wash	-8199
▁verschie	-8200
▁reichen	-8201
konom	-8202
▁ausländ	-8203
▁unmittelbar	-8204
▁verwendeten	-8205
anien	-8206
ritten	-8207
▁zweit	-8208
▁dampf	-8209
mietung	-8210
▁alleine	-8211
▁möchtest	-8212
▁bestellungen	-8213
quare	-8214
▁länd	-8215
▁trag	-8216
▁hilfreiche	-8217
tien	-8218
▁jag	-8219
kennt	-8220
ampagne	-8221
kommens	-8222
▁trinken	-8223
▁auseinander	-8224
▁ts	-8225
znei	-8226
varian	-8227
▁roten	-8228
▁afrika	-8229
spielzeug	-8230
hd	-8231
▁geg	-8232
▁basel	-8233
▁großzüg	-8234
▁reinigungs	-8235
eben	-8236
▁prog	-8237
▁metro	-8238
▁vertriebs	-8239
▁vereinigtes	-8240
äure	-8241
gehäuse	-8242
▁alters	-8243
dollar	-8244
▁porto	-8245
stimmen	-8246
▁backofen	-8247
▁transpor	-8248
▁ereignisse	-8249
▁monte	-8250
▁erzielt	-8251
▁kontext	-8252
▁konkurrenz	-8253
sex	-8254
▁engel	-8255
▁gelegt	-8256
▁leucht	-8257
▁nächte	-8258
ui	-8259
pat	-8260
▁müs	-8261
▁long	-8262
intage	-8263
▁ablauf	-8264
bestimmungen	-8265
▁eintrag	-8266
▁rosa	-8267
hören	-8268
▁snow	-8269
▁genie	-8270
▁charter	-8271
▁kontakte	-8272
▁synchron	-8273
▁optimieren	-8274
erseits	-8275
liegenden	-8276
▁halle	-8277
▁einhaltung	-8278
▁meines	-8279
schlagen	-8280
▁geltenden	-8281
zeile	-8282
▁gerichte	-8283
akete	-8284
bereichen	-8285
▁einklang	-8286
▁auflösung	-8287
.11	-8288
▁sö	-8289
▁rosen	-8290
▁effektiv	-8291
▁unterricht	-8292
konzept	-8293
freundlich	-8294
▁vergrößer	-8295
ous	-8296
kern	-8297
riffe	-8298
eigerung	-8299
▁firmware	-8300
cer	-8301
▁23.	-8302
▁are	-8303
ialen	-8304
▁leip	-8305
beständ	-8306
▁frucht	-8307
▁werfen	-8308
▁stünd	-8309
stehenden	-8310
verhalten	-8311
▁nächstgelegen	-8312
tial	-8313
▁bewöl	-8314
lichten	-8315
look	-8316
▁füllen	-8317
wärts	-8318
mitten	-8319
▁rufen	-8320
▁weist	-8321
▁52	-8322
▁sho	-8323
▁hans	-8324
▁angabe	-8325
▁verlieren	-8326
wal	-8327
▁faq	-8328
künften	-8329
▁budapest	-8330
▁weltkrie	-8331
▁equ	-8332
ni	-8333
iers	-8334
▁	-8335
e	-8336
n	-8337
i	-8338
r	-8339
t	-8340
s	-8341
a	-8342
d	-8343
u	-8344
h	-8345
l	-8346
o	-8347
g	-8348
c	-8349
m	-8350
b	-8351
f	-8352
k	-8353
w	-8354
p	-8355
z	-8356
v	-8357
,	-8358
.	-8359
ü	-8360
ä	-8361
-	-8362
0	-8363
1	-8364
ö	-8365
2	-8366
y	-8367
j	-8368
:	-8369
;	-8370
ß	-8371
&	-8372
)	-8373
(	-8374
x	-8375
3	-8376
5	-8377
4	-8378
q	-8379
9	-8380
6	-8381
8	-8382
7	-8383
/	-8384
–	-8385
?	-8386
#	-8387
!	-8388
“	-8389
„	-8390
%	-8391
€	-8392
+	-8393
é	-8394
*	-8395
”	-8396
»	-8397
®	-8398
«	-8399
•	-8400
’	-8401
$	-8402
°	-8403
á	-8404
_	-8405
—	-8406
­	-8407
M	-8408
T	-8409
@	-8410
=	-8411
í	-8412
ó	-8413
›	-8414
‘	-8415
è	-8416
§	-8417
š	-8418
ø	-8419
\	-8420
©	-8421
č	-8422
·	-8423
‚	-8424
à	-8425
́	-8426
‐	-8427
ô	-8428
ñ	-8429
ç	-8430
~	-8431
`	-8432
â	-8433
├	-8434
ã	-8435
å	-8436
ú	-8437
£	-8438
→	-8439
{	-8440
×	-8441
ł	-8442
ž	-8443
}	-8444
‹	-8445
†	-8446
ć	-8447
ā	-8448
●	-8449
ă	-8450
←	-8451
ľ	-8452
ë	-8453
⁄	-8454
β	-8455
ý	-8456
ê	-8457
μ	-8458
╝	-8459
ş	-8460
±	-8461
►	-8462
ř	-8463
↑	-8464
ō	-8465
ě	-8466
′	-8467
ı	-8468
√	-8469
ą	-8470
î	-8471
★	-8472
æ	-8473
−	-8474
а	-8475
ï	-8476
ń	-8477
о	-8478
^	-8479
ś	-8480
и	-8481
■	-8482
ò	-8483
е	-8484
ğ	-8485
ī	-8486
ū	-8487
н	-8488
ő	-8489
✓	-8490
ę	-8491
р	-8492
с	-8493
ż	-8494
в	-8495
̇	-8496
т	-8497
ì	-8498
✔	-8499
ș	-8500
☆	-8501
≥	-8502
л	-8503
к	-8504
ù	-8505
̈	-8506
ð	-8507
ė	-8508
🙂	-8509
đ	-8510
ň	-8511
õ	-8512
♥	-8513
д	-8514
¬	-8515
↓	-8516
⇒	-8517
ů	-8518
ź	-8519
▪	-8520
▶	-8521
♦	-8522
≤	-8523
▷	-8524
C	-8525
м	-8526
ē	-8527
г	-8528
฿	-8529
û	-8530
─	-8531
😉	-8532
œ	-8533
∙	-8534
█	-8535
я	-8536
¶	-8537
α	-8538
б	-8539
у	-8540
п	-8541
‒	-8542
̶	-8543
ṣ	-8544
▼	-8545
¤	-8546
└	-8547
ṇ	-8548
ο	-8549
ţ	-8550
ا	-8551
◆	-8552
з	-8553
ű	-8554
↔	-8555
❭	-8556
ț	-8557
ṛ	-8558
ʿ	-8559
ц	-8560
ι	-8561
ə	-8562
й	-8563
ы	-8564
ل	-8565
ρ	-8566
ь	-8567
N	-8568
ω	-8569
ÿ	-8570
і	-8571
ن	-8572
τ	-8573
♫	-8574
þ	-8575
ε	-8576
ч	-8577
ν	-8578
ς	-8579
σ	-8580
▲	-8581
✕	-8582
・	-8583
▸	-8584
ʼ	-8585
≈	-8586
̧	-8587
○	-8588
¥	-8589
κ	-8590
ņ	-8591
❤	-8592
🦊	-8593
أ	-8594
‟	-8595
ų	-8596
γ	-8597
λ	-8598
┬	-8599
¡	-8600
÷	-8601
η	-8602
∞	-8603
ي	-8604
π	-8605
ر	-8606
▾	-8607
ʻ	-8608
ộ	-8609
◄	-8610
¿	-8611
ď	-8612
ĺ	-8613
ј	-8614
ḥ	-8615
➔	-8616
ш	-8617
ṭ	-8618
✈	-8619
ĭ	-8620
ŭ	-8621
ˈ	-8622
δ	-8623
ӧ	-8624
า	-8625
ạ	-8626
ħ	-8627
φ	-8628
х	-8629
₹	-8630
📑	-8631
م	-8632
ế	-8633
∂	-8634
☰	-8635
➤	-8636
ġ	-8637
̊	-8638
¢	-8639
ː	-8640
ό	-8641
ķ	-8642
υ	-8643
‰	-8644
ǀ	-8645
ί	-8646
ж	-8647
ф	-8648
י	-8649
ب	-8650
ك	-8651
۞	-8652
ร	-8653
♡	-8654
ŏ	-8655
ʾ	-8656
و	-8657
อ	-8658
ẵ	-8659
※	-8660
の	-8661
ŕ	-8662
ِ	-8663
⇩	-8664
♛	-8665
😀	-8666
ļ	-8667
э	-8668
ة	-8669
د	-8670
ṅ	-8671
ệ	-8672
―	-8673
□	-8674
😊	-8675
ˇ	-8676
χ	-8677
ϋ	-8678
ר	-8679
ع	-8680
เ	-8681
‡	-8682
₺	-8683
⋅	-8684
❙	-8685
🚫	-8686
¦	-8687
ť	-8688
ǎ	-8689
ά	-8690
ю	-8691
ו	-8692
מ	-8693
ت	-8694
ị	-8695
╗	-8696
♭	-8697
❘	-8698
	-8699
ǧ	-8700
ɪ	-8701
έ	-8702
ή	-8703
θ	-8704
ώ	-8705
ъ	-8706
س	-8707
น	-8708
ḍ	-8709
ẹ	-8710
⇢	-8711
∅	-8712
∗	-8713
◦	-8714
♪	-8715
✅	-8716
⟶	-8717
ー	-8718
F	-8719
ɔ	-8720
ˑ	-8721
ق	-8722
ง	-8723
ว	-8724
⇧	-8725
∇	-8726
⌀	-8727
⌘	-8728
▌	-8729
❯	-8730
➜	-8731
》	-8732
👍	-8733
ơ	-8734
̄	-8735
ա	-8736
خ	-8737
ط	-8738
บ	-8739
ํ	-8740
ი	-8741
‣	-8742
₪	-8743
∆	-8744
∫	-8745
│	-8746
╠	-8747
◢	-8748
☺	-8749
♣	-8750
⚓	-8751
✎	-8752
✖	-8753
✤	-8754
✨	-8755
⠀	-8756
小	-8757
채	-8758
	-8759
	-8760
🎉	-8761
ĕ	-8762
ȇ	-8763
ש	-8764
ف	-8765
ی	-8766
ท	-8767
ม	-8768
ḩ	-8769
ṃ	-8770
ả	-8771
ọ	-8772
↳	-8773
≠	-8774
≫	-8775
◉	-8776
☀	-8777
♠	-8778
ク	-8779
长	-8780
🔥	-8781
S	-8782
	-8783
ģ	-8784
ǔ	-8785
ȕ	-8786
ξ	-8787
ύ	-8788
ה	-8789
ל	-8790
נ	-8791
ת	-8792
غ	-8793
ा	-8794
ล	-8795
‧	-8796
℗	-8797
↩	-8798
⇓	-8799
∀	-8800
∑	-8801
┐	-8802
◊	-8803
♚	-8804
⚠	-8805
✧	-8806
《	-8807
「	-8808
ア	-8809
リ	-8810
ン	-8811
美	-8812
🇪	-8813
R	-8814
	-8815
ɑ	-8816
ɛ	-8817
ˆ	-8818
щ	-8819
ї	-8820
մ	-8821
ր	-8822
א	-8823
ב	-8824
כ	-8825
ן	-8826
ج	-8827
ح	-8828
٠	-8829
١	-8830
त	-8831
र	-8832
ก	-8833
ต	-8834
ไ	-8835
ḫ	-8836
ứ	-8837
⁡	-8838
≡	-8839
⊗	-8840
◀	-8841
❀	-8842
❺	-8843
」	-8844
ト	-8845
レ	-8846
本	-8847
東	-8848
林	-8849
眉	-8850
野	-8851
🇩	-8852
ċ	-8853
ŋ	-8854
ũ	-8855
ǐ	-8856
ʃ	-8857
ʺ	-8858
̨	-8859
ψ	-8860
џ	-8861
ի	-8862
ד	-8863
ח	-8864
ע	-8865
ز	-8866
म	-8867
ข	-8868
พ	-8869
ภ	-8870
ย	-8871
ศ	-8872
ส	-8873
ั	-8874
่	-8875
้	-8876
ა	-8877
რ	-8878
ầ	-8879
ễ	-8880
ố	-8881
‖	-8882
‛	-8883
⁃	-8884
₩	-8885
↗	-8886
≙	-8887
⋆	-8888
╳	-8889
░	-8890
◎	-8891
◙	-8892
◾	-8893
☄	-8894
☉	-8895
☞	-8896
♀	-8897
♤	-8898
⚑	-8899
⚭	-8900
✰	-8901
✿	-8902
❑	-8903
❚	-8904
➢	-8905
⭐	-8906
ん	-8907
イ	-8908
ウ	-8909
ド	-8910
メ	-8911
ラ	-8912
ル	-8913
二	-8914
人	-8915
南	-8916
大	-8917
天	-8918
家	-8919
文	-8920
枚	-8921
水	-8922
湖	-8923
虎	-8924
部	-8925
馬	-8926
高	-8927
點	-8928
고	-8929
	-8930
	-8931
	-8932
🎁	-8933
🏆	-8934
👌	-8935
💎	-8936
💡	-8937
🔊	-8938
😍	-8939
😛	-8940
🙁	-8941
ŝ	-8942
ȁ	-8943
̃	-8944
̆	-8945
̋	-8946
̯	-8947
є	-8948
ћ	-8949
ҫ	-8950
կ	-8951
ն	-8952
ո	-8953
ם	-8954
ث	-8955
ض	-8956
ه	-8957
٧	-8958
۩	-8959
ह	-8960
จ	-8961
ด	-8962
ถ	-8963
ิ	-8964
ู	-8965
გ	-8966
ლ	-8967
ា	-8968
ḳ	-8969
ṁ	-8970
ṯ	-8971
ẖ	-8972
ấ	-8973
ề	-8974
ồ	-8975
ἀ	-8976
ὒ	-8977
₱	-8978
₴	-8979
₽	-8980
↵	-8981
⇐	-8982
⇱	-8983
∈	-8984
∘	-8985
∪	-8986
∴	-8987
∼	-8988
␣	-8989
▀	-8990
◇	-8991
◗	-8992
☁	-8993
☑	-8994
☠	-8995
☢	-8996
⚇	-8997
⚜	-8998
⚽	-8999
✗	-9000
✦	-9001
✩	-9002
✪	-9003
✭	-9004
✶	-9005
➋	-9006
➡	-9007
➩	-9008
⟩	-9009
⦁	-9010
が	-9011
て	-9012
に	-9013
る	-9014
オ	-9015
ス	-9016
ッ	-9017
ナ	-9018
バ	-9019
プ	-9020
マ	-9021
ロ	-9022
一	-9023
三	-9024
东	-9025
之	-9026
乞	-9027
其	-9028
博	-9029
原	-9030
学	-9031
暇	-9032
森	-9033
洪	-9034
球	-9035
田	-9036
盲	-9037
羅	-9038
行	-9039
道	-9040
鋜	-9041
雄	-9042
雷	-9043
顧	-9044
黨	-9045
사	-9046
체	-9047
	-9048
🇨	-9049
🇸	-9050
🌍	-9051
🌏	-9052
🎄	-9053
👤	-9054
💕	-9055
💰	-9056
💶	-9057
😂	-9058
😋	-9059
😎	-9060
😮	-9061
	-9062
	-9063
	-9064
ĝ	-9065
ĵ	-9066
ŵ	-9067
ƥ	-9068
ư	-9069
ƶ	-9070
ǭ	-9071
ȝ	-9072
ɗ	-9073
ɡ	-9074
ɣ	-9075
ɬ	-9076
ɾ	-9077
ʁ	-9078
ʊ	-9079
ʑ	-9080
ˌ	-9081
̥	-9082
͡	-9083
ё	-9084
դ	-9085
ե	-9086
խ	-9087
յ	-9088
ֶ	-9089
ס	-9090
פ	-9091
צ	-9092
ק	-9093
،	-9094
آ	-9095
إ	-9096
ش	-9097
ص	-9098
ى	-9099
٢	-9100
پ	-9101
چ	-9102
ک	-9103
߬	-9104
ग	-9105
न	-9106
व	-9107
ी	-9108
१	-9109
ผ	-9110
ห	-9111
ะ	-9112
ี	-9113
ื	-9114
ุ	-9115
แ	-9116
์	-9117
๏	-9118
ე	-9119
ვ	-9120
ო	-9121
ტ	-9122
ស	-9123
អ	-9124
៊	-9125
ḏ	-9126
ḷ	-9127
ắ	-9128
ỏ	-9129
ớ	-9130
ừ	-9131
ữ	-9132
ỹ	-9133
⁝	-9134
⁠	-9135
⇔	-9136
∨	-9137
∮	-9138
∶	-9139
≦	-9140
≧	-9141
⋮	-9142
⌅	-9143
▄	-9144
▹	-9145
◁	-9146
◂	-9147
◌	-9148
◕	-9149
◤	-9150
◻	-9151
☛	-9152
☹	-9153
♯	-9154
⚡	-9155
✆	-9156
✝	-9157
✺	-9158
❏	-9159
❐	-9160
❷	-9161
❿	-9162
➀	-9163
➍	-9164
➛	-9165
➼	-9166
⮱	-9167
ⲉ	-9168
〉	-9169
』	-9170
〜	-9171
い	-9172
き	-9173
さ	-9174
じ	-9175
は	-9176
ろ	-9177
ィ	-9178
カ	-9179
タ	-9180
テ	-9181
ニ	-9182
フ	-9183
世	-9184
丙	-9185
丸	-9186
乙	-9187
交	-9188
体	-9189
修	-9190
俱	-9191
先	-9192
党	-9193
军	-9194
出	-9195
助	-9196
化	-9197
华	-9198
名	-9199
回	-9200
土	-9201
地	-9202
堂	-9203
复	-9204
太	-9205
夫	-9206
宮	-9207
寺	-9208
山	-9209
崎	-9210
崔	-9211
川	-9212
广	-9213
廣	-9214
德	-9215
志	-9216
惣	-9217
戌	-9218
手	-9219
拳	-9220
族	-9221
日	-9222
月	-9223
朝	-9224
期	-9225
朱	-9226
橋	-9227
正	-9228
武	-9229
歩	-9230
波	-9231
湯	-9232
澤	-9233
灸	-9234
炎	-9235
獣	-9236
生	-9237
甲	-9238
留	-9239
皇	-9240
神	-9241
秦	-9242
脛	-9243
良	-9244
英	-9245
華	-9246
萬	-9247
藤	-9248
許	-9249
論	-9250
足	-9251
路	-9252
連	-9253
達	-9254
郎	-9255
鋍	-9256
鰊	-9257
鳴	-9258
黵	-9259
눇	-9260
랑	-9261
을	-9262
이	-9263
최	-9264
	-9265
	-9266
	-9267
🆕	-9268
🇧	-9269
🇬	-9270
🇺	-9271
🌅	-9272
🌵	-9273
🍪	-9274
🎅	-9275
🎈	-9276
🏕	-9277
🏻	-9278
👇	-9279
👉	-9280
👎	-9281
👟	-9282
💝	-9283
💥	-9284
📝	-9285
📷	-9286
🔗	-9287
🔴	-9288
🕔	-9289
😃	-9290
🚗	-9291
🤘	-9292
🥳	-9293
B	-9294
O	-9295
	-9296
	-9297
	-9298
ĩ	-9299
ŗ	-9300
ŷ	-9301
ƀ	-9302
ƈ	-9303
ƨ	-9304
ǁ	-9305
ǂ	-9306
ǝ	-9307
ǫ	-9308
ȉ	-9309
ȋ	-9310
ɐ	-9311
ɒ	-9312
ɟ	-9313
ɦ	-9314
ɯ	-9315
ɹ	-9316
ʀ	-9317
ʂ	-9318
ʅ	-9319
ʋ	-9320
ʌ	-9321
ʎ	-9322
ʔ	-9323
˄	-9324
˅	-9325
ˉ	-9326
ˎ	-9327
̀	-9328
̅	-9329
͘	-9330
ζ	-9331
ϊ	-9332
ў	-9333
ғ	-9334
ұ	-9335
ӆ	-9336
թ	-9337
հ	-9338
ղ	-9339
պ	-9340
վ	-9341
տ	-9342
օ	-9343
ֆ	-9344
ְ	-9345
ֵ	-9346
ַ	-9347
ט	-9348
ذ	-9349
ً	-9350
٥	-9351
٦	-9352
٨	-9353
٩	-9354
ھ	-9355
ं	-9356
क	-9357
ख	-9358
च	-9359
ड	-9360
ढ	-9361
ब	-9362
श	-9363
स	-9364
़	-9365
ि	-9366
ौ	-9367
्	-9368
०	-9369
२	-9370
६	-9371
८	-9372
ਕ	-9373
ਗ	-9374
ਚ	-9375
ਡ	-9376
ਥ	-9377
ਪ	-9378
ਰ	-9379
ਲ	-9380
ਹ	-9381
ਾ	-9382
ੀ	-9383
ੂ	-9384
੍	-9385
ੜ	-9386
ੰ	-9387
ค	-9388
ช	-9389
ณ	-9390
ธ	-9391
ษ	-9392
โ	-9393
๖	-9394
ງ	-9395
ຖ	-9396
ວ	-9397
ສ	-9398
ອ	-9399
ແ	-9400
༓	-9401
༺	-9402
င	-9403
ပ	-9404
မ	-9405
သ	-9406
ါ	-9407
ီ	-9408
ေ	-9409
း	-9410
်	-9411
მ	-9412
ფ	-9413
ქ	-9414
შ	-9415
ር	-9416
ቅ	-9417
ቤ	-9418
ን	-9419
ጥ	-9420
ᐃ	-9421
ᐣ	-9422
ᐧ	-9423
ᑎ	-9424
ᑫ	-9425
ᓂ	-9426
ᓅ	-9427
ក	-9428
ង	-9429
យ	-9430
វ	-9431
ឡ	-9432
ី	-9433
េ	-9434
ែ	-9435
្	-9436
ᴓ	-9437
ḯ	-9438
ḱ	-9439
ṉ	-9440
ẓ	-9441
ẕ	-9442
ẫ	-9443
ằ	-9444
ẽ	-9445
ỉ	-9446
ủ	-9447
ἄ	-9448
ῆ	-9449
ῶ	-9450
₣	-9451
₵	-9452
℔	-9453
℧	-9454
↕	-9455
↤	-9456
↪	-9457
↹	-9458
⇆	-9459
⇑	-9460
⇛	-9461
⇣	-9462
≪	-9463
⊂	-9464
⊃	-9465
⊞	-9466
⊹	-9467
⌂	-9468
⌃	-9469
⌕	-9470
⌥	-9471
⌦	-9472
⌧	-9473
⎇	-9474
⎙	-9475
⎪	-9476
⎮	-9477
⏏	-9478
⏷	-9479
┼	-9480
▎	-9481
▓	-9482
△	-9483
▽	-9484
◯	-9485
◼	-9486
☂	-9487
☎	-9488
☜	-9489
☣	-9490
☻	-9491
☼	-9492
♂	-9493
♋	-9494
♌	-9495
♍	-9496
♏	-9497
♐	-9498
♑	-9499
♬	-9500
⚙	-9501
⛱	-9502
⛵	-9503
✉	-9504
✘	-9505
✙	-9506
✚	-9507
✟	-9508
✮	-9509
✲	-9510
✷	-9511
❋	-9512
❌	-9513
❕	-9514
❖	-9515
❗	-9516
❝	-9517
❞	-9518
❣	-9519
❶	-9520
➊	-9521
➌	-9522
➎	-9523
➗	-9524
➘	-9525
➚	-9526
➝	-9527
➠	-9528
➥	-9529
➨	-9530
➮	-9531
➸	-9532
⟨	-9533
⟵	-9534
⦿	-9535
⯈	-9536
⯐	-9537
ⱡ	-9538
ⲙ	-9539
ⲛ	-9540
ⲣ	-9541
ⲧ	-9542
、	-9543
あ	-9544
お	-9545
か	-9546
く	-9547
け	-9548
こ	-9549
し	-9550
そ	-9551
ち	-9552
つ	-9553
で	-9554
ど	-9555
な	-9556
ま	-9557
み	-9558
め	-9559
ゃ	-9560
わ	-9561
゚	-9562
ゥ	-9563
ェ	-9564
エ	-9565
ガ	-9566
ギ	-9567
サ	-9568
シ	-9569
ジ	-9570
ダ	-9571
ノ	-9572
ハ	-9573
ビ	-9574
ブ	-9575
ポ	-9576
ミ	-9577
ュ	-9578
ョ	-9579
㜠	-9580
㝁	-9581
䩬	-9582
上	-9583
下	-9584
不	-9585
中	-9586
久	-9587
乐	-9588
九	-9589
乱	-9590
亀	-9591
五	-9592
井	-9593
京	-9594
亭	-9595
仗	-9596
令	-9597
仲	-9598
任	-9599
伊	-9600
伍	-9601
伏	-9602
伸	-9603
使	-9604
依	-9605
侯	-9606
係	-9607
保	-9608
信	-9609
光	-9610
入	-9611
公	-9612
兵	-9613
典	-9614
内	-9615
刀	-9616
刊	-9617
刘	-9618
初	-9619
劉	-9620
加	-9621
努	-9622
区	-9623
匿	-9624
十	-9625
協	-9626
友	-9627
受	-9628
变	-9629
号	-9630
司	-9631
合	-9632
同	-9633
呂	-9634
呑	-9635
和	-9636
哈	-9637
啓	-9638
团	-9639
団	-9640
國	-9641
址	-9642
坂	-9643
坝	-9644
型	-9645
城	-9646
埔	-9647
報	-9648
壁	-9649
壩	-9650
士	-9651
夏	-9652
外	-9653
奥	-9654
姦	-9655
子	-9656
字	-9657
孟	-9658
宁	-9659
宗	-9660
定	-9661
寒	-9662
寛	-9663
専	-9664
尔	-9665
就	-9666
居	-9667
屋	-9668
屰	-9669
峡	-9670
峽	-9671
州	-9672
工	-9673
巨	-9674
巾	-9675
帆	-9676
师	-9677
師	-9678
平	-9679
年	-9680
広	-9681
張	-9682
弹	-9683
形	-9684
彦	-9685
役	-9686
徳	-9687
徵	-9688
怪	-9689
恒	-9690
惑	-9691
慎	-9692
或	-9693
所	-9694
技	-9695
捲	-9696
排	-9697
換	-9698
摺	-9699
撃	-9700
撲	-9701
支	-9702
政	-9703
敏	-9704
数	-9705
断	-9706
斯	-9707
新	-9708
旅	-9709
旗	-9710
时	-9711
明	-9712
昭	-9713
時	-9714
晉	-9715
服	-9716
木	-9717
末	-9718
村	-9719
柴	-9720
栗	-9721
校	-9722
桃	-9723
桓	-9724
楊	-9725
業	-9726
楷	-9727
楼	-9728
榮	-9729
樂	-9730
模	-9731
樹	-9732
欧	-9733
殺	-9734
比	-9735
毛	-9736
氏	-9737
永	-9738
汉	-9739
江	-9740
決	-9741
治	-9742
法	-9743
津	-9744
派	-9745
流	-9746
浄	-9747
浅	-9748
浜	-9749
涼	-9750
添	-9751
渋	-9752
温	-9753
溝	-9754
溥	-9755
演	-9756
炸	-9757
焗	-9758
照	-9759
熊	-9760
熱	-9761
物	-9762
独	-9763
獨	-9764
王	-9765
玛	-9766
玲	-9767
理	-9768
琳	-9769
畑	-9770
番	-9771
百	-9772
相	-9773
真	-9774
知	-9775
砂	-9776
研	-9777
社	-9778
禅	-9779
科	-9780
秘	-9781
究	-9782
立	-9783
章	-9784
竹	-9785
笈	-9786
笠	-9787
等	-9788
米	-9789
紀	-9790
約	-9791
組	-9792
結	-9793
絳	-9794
經	-9795
经	-9796
罗	-9797
群	-9798
義	-9799
羽	-9800
老	-9801
脱	-9802
至	-9803
舅	-9804
與	-9805
興	-9806
舟	-9807
舩	-9808
茂	-9809
荣	-9810
营	-9811
薬	-9812
血	-9813
衆	-9814
術	-9815
街	-9816
袖	-9817
襲	-9818
西	-9819
見	-9820
触	-9821
話	-9822
說	-9823
謝	-9824
譚	-9825
谭	-9826
谷	-9827
豊	-9828
貴	-9829
賈	-9830
贾	-9831
赤	-9832
輪	-9833
辞	-9834
辟	-9835
辱	-9836
迅	-9837
返	-9838
远	-9839
连	-9840
迷	-9841
速	-9842
週	-9843
進	-9844
違	-9845
選	-9846
邱	-9847
郑	-9848
郜	-9849
醜	-9850
重	-9851
金	-9852
針	-9853
銀	-9854
鋒	-9855
鋘	-9856
鋝	-9857
錦	-9858
鐵	-9859
针	-9860
铁	-9861
镇	-9862
門	-9863
開	-9864
間	-9865
關	-9866
阳	-9867
阿	-9868
院	-9869
陵	-9870
集	-9871
雛	-9872
雲	-9873
電	-9874
韓	-9875
音	-9876
顔	-9877
顾	-9878
風	-9879
骨	-9880
鬻	-9881
鰎	-9882
黱	-9883
黶	-9884
龙	-9885
광	-9886
국	-9887
기	-9888
나	-9889
난	-9890
내	-9891
네	-9892
년	-9893
는	-9894
다	-9895
단	-9896
대	-9897
라	-9898
맙	-9899
명	-9900
볼	-9901
삼	-9902
성	-9903
손	-9904
수	-9905
슬	-9906
신	-9907
쓰	-9908
아	-9909
영	-9910
유	-9911
은	-9912
의	-9913
잃	-9914
잡	-9915
털	-9916
한	-9917
해	-9918
행	-9919
호	-9920
	-9921
	-9922
	-9923
	-9924
	-9925
	-9926
	-9927
	-9928
🆓	-9929
🇦	-9930
🇫	-9931
🇭	-9932
🇴	-9933
🇷	-9934
🌈	-9935
🌎	-9936
🌞	-9937
🌟	-9938
🌯	-9939
🌱	-9940
🌸	-9941
🍇	-9942
🍍	-9943
🍎	-9944
🍑	-9945
🍒	-9946
🍴	-9947
🍿	-9948
🎤	-9949
🎧	-9950
🎬	-9951
🎮	-9952
🎷	-9953
🏝	-9954
🏠	-9955
🏡	-9956
🏭	-9957
🏴	-9958
🏼	-9959
🏽	-9960
🐙	-9961
🐧	-9962
👆	-9963
👑	-9964
👗	-9965
💁	-9966
💋	-9967
💙	-9968
💦	-9969
💪	-9970
💱	-9971
💲	-9972
💵	-9973
💸	-9974
📆	-9975
📚	-9976
📜	-9977
📞	-9978
📡	-9979
📸	-9980
📹	-9981
🔧	-9982
🔹	-9983
🖖	-9984
😁	-9985
😄	-9986
😅	-9987
😘	-9988
😞	-9989
😭	-9990
😯	-9991
😰	-9992
😴	-9993
😵	-9994
🙈	-9995
🙌	-9996
