<unk>	0
<s>	0
</s>	0
en	-0
er	-1
ch	-2
▁d	-3
in	-4
ie	-5
▁s	-6
▁,	-7
▁w	-8
un	-9
▁a	-10
▁.	-11
ich	-12
▁e	-13
▁m	-14
st	-15
▁un	-16
as	-17
▁g	-18
▁die	-19
an	-20
ei	-21
▁ein	-22
▁b	-23
te	-24
▁v	-25
▁i	-26
▁h	-27
▁und	-28
▁n	-29
▁k	-30
▁z	-31
es	-32
▁das	-33
on	-34
ir	-35
▁f	-36
le	-37
ar	-38
ten	-39
sch	-40
▁in	-41
▁zu	-42
▁wir	-43
▁sie	-44
el	-45
gen	-46
hr	-47
▁au	-48
▁der	-49
or	-50
▁ich	-51
ti	-52
em	-53
▁ist	-54
der	-55
au	-56
▁es	-57
ein	-58
it	-59
al	-60
▁p	-61
▁al	-62
lich	-63
▁er	-64
den	-65
ge	-66
ach	-67
ben	-68
ber	-69
▁an	-70
de	-71
▁ha	-72
ter	-73
ier	-74
icht	-75
▁ver	-76
▁t	-77
ur	-78
▁dies	-79
ot	-80
▁ge	-81
▁l	-82
▁r	-83
ol	-84
▁j	-85
ung	-86
▁&	-87
▁den	-88
▁be	-89
qu	-90
▁sch	-91
um	-92
ür	-93
quot	-94
nen	-95
mm	-96
▁nicht	-97
▁von	-98
▁auf	-99
sen	-100
▁dass	-101
▁eine	-102
ro	-103
▁als	-104
▁mit	-105
eit	-106
is	-107
▁o	-108
▁wie	-109
ck	-110
tz	-111
ann	-112
eh	-113
len	-114
ra	-115
▁uns	-116
il	-117
▁so	-118
ind	-119
▁war	-120
ig	-121
ent	-122
▁da	-123
▁le	-124
▁sich	-125
re	-126
▁wen	-127
über	-128
▁st	-129
▁man	-130
▁was	-131
▁aus	-132
at	-133
schen	-134
▁um	-135
us	-136
ahr	-137
▁für	-138
▁sind	-139
ön	-140
▁aber	-141
and	-142
tion	-143
be	-144
▁wenn	-145
▁:	-146
▁haben	-147
ft	-148
▁über	-149
ag	-150
▁?	-151
▁hat	-152
am	-153
ehr	-154
iel	-155
▁ges	-156
▁wer	-157
▁ihr	-158
▁kön	-159
▁diese	-160
▁mein	-161
än	-162
ff	-163
▁vor	-164
▁im	-165
se	-166
eu	-167
▁wei	-168
och	-169
ehen	-170
om	-171
▁sp	-172
▁dem	-173
▁re	-174
ik	-175
sten	-176
▁ar	-177
▁je	-178
▁sein	-179
▁pro	-180
▁des	-181
kt	-182
ern	-183
▁also	-184
▁men	-185
▁-	-186
tw	-187
os	-188
▁einen	-189
chen	-190
▁bei	-191
▁nach	-192
bt	-193
mmen	-194
oll	-195
▁ih	-196
rei	-197
▁können	-198
▁unser	-199
elt	-200
▁ent	-201
▁hier	-202
isch	-203
▁oder	-204
wei	-205
▁werden	-206
▁jahr	-207
ah	-208
ut	-209
▁geh	-210
men	-211
ungen	-212
gt	-213
sp	-214
ne	-215
ieren	-216
▁ander	-217
zu	-218
▁mach	-219
igen	-220
▁gr	-221
ien	-222
▁kann	-223
ste	-224
ell	-225
ken	-226
▁–	-227
▁her	-228
▁einer	-229
ation	-230
▁auch	-231
▁1	-232
rau	-233
scha	-234
▁dar	-235
iert	-236
▁einem	-237
▁dann	-238
▁sehr	-239
anz	-240
ück	-241
▁ko	-242
li	-243
aus	-244
▁etw	-245
tig	-246
▁wird	-247
▁nur	-248
▁viel	-249
tel	-250
▁all	-251
▁unter	-252
ort	-253
uch	-254
00	-255
▁gi	-256
▁gen	-257
▁c	-258
ess	-259
▁menschen	-260
▁kon	-261
ör	-262
▁mich	-263
▁leben	-264
ute	-265
▁gibt	-266
▁ihnen	-267
fen	-268
äch	-269
issen	-270
urch	-271
▁kein	-272
▁gesch	-273
▁te	-274
äh	-275
▁wur	-276
▁ab	-277
lau	-278
tzt	-279
▁sehen	-280
og	-281
▁alle	-282
ischen	-283
hal	-284
▁dieser	-285
ing	-286
▁noch	-287
ab	-288
schaft	-289
▁etwas	-290
▁--	-291
▁am	-292
ap	-293
▁durch	-294
und	-295
▁gro	-296
ät	-297
▁mö	-298
▁welt	-299
lt	-300
▁habe	-301
ang	-302
dern	-303
▁wissen	-304
▁mehr	-305
▁sag	-306
agen	-307
ver	-308
bei	-309
▁wo	-310
▁zur	-311
▁mir	-312
heit	-313
ün	-314
mal	-315
mmer	-316
ri	-317
üh	-318
▁mus	-319
▁groß	-320
lichen	-321
keit	-322
▁wirk	-323
ke	-324
ige	-325
▁vie	-326
ko	-327
▁einf	-328
▁we	-329
ffen	-330
är	-331
all	-332
▁zum	-333
liche	-334
▁ganz	-335
we	-336
▁zwei	-337
▁2	-338
▁en	-339
▁bes	-340
tr	-341
▁ihre	-342
▁br	-343
▁wür	-344
sa	-345
▁wirklich	-346
mit	-347
eil	-348
ellen	-349
▁meine	-350
▁hin	-351
▁weil	-352
▁zeit	-353
ähr	-354
tiv	-355
tet	-356
▁nun	-357
▁wurde	-358
üs	-359
hen	-360
▁machen	-361
ass	-362
ere	-363
▁neu	-364
▁dieses	-365
▁sel	-366
▁einfach	-367
me	-368
ick	-369
assen	-370
ische	-371
tzen	-372
▁ch	-373
▁inter	-374
eln	-375
▁verb	-376
▁me	-377
per	-378
ru	-379
▁gew	-380
her	-381
ul	-382
▁immer	-383
for	-384
bst	-385
▁lie	-386
▁tun	-387
▁din	-388
acht	-389
▁bis	-390
ühr	-391
ht	-392
he	-393
cht	-394
▁unsere	-395
end	-396
▁kle	-397
ungs	-398
▁gem	-399
ad	-400
▁jetzt	-401
▁ne	-402
bar	-403
▁bil	-404
▁fra	-405
▁beg	-406
ges	-407
ob	-408
chte	-409
▁se	-410
ran	-411
wer	-412
lie	-413
▁gef	-414
nte	-415
▁vers	-416
mmt	-417
▁hatte	-418
ze	-419
▁du	-420
pf	-421
glich	-422
▁klein	-423
inden	-424
▁denn	-425
rie	-426
▁selbst	-427
▁keine	-428
tier	-429
▁eigen	-430
ktion	-431
▁tat	-432
▁pa	-433
▁leute	-434
che	-435
pp	-436
▁viele	-437
ster	-438
eiten	-439
▁diesem	-440
ner	-441
ehmen	-442
onen	-443
▁müs	-444
▁gel	-445
schie	-446
stell	-447
▁ger	-448
▁ber	-449
leich	-450
▁ob	-451
di	-452
ingen	-453
▁sagte	-454
▁geb	-455
▁sagen	-456
olog	-457
chn	-458
▁dinge	-459
äu	-460
▁eines	-461
dem	-462
omp	-463
▁diesen	-464
▁zei	-465
▁pl	-466
▁soll	-467
▁mil	-468
ichtig	-469
▁waren	-470
ler	-471
ble	-472
▁weiter	-473
▁alles	-474
ßen	-475
▁glau	-476
▁wieder	-477
▁art	-478
▁bin	-479
▁kl	-480
zen	-481
äl	-482
gend	-483
▁jahren	-484
▁heu	-485
▁son	-486
▁müssen	-487
▁bl	-488
unden	-489
▁erf	-490
▁kin	-491
ger	-492
kommen	-493
▁andere	-494
▁nat	-495
du	-496
▁nie	-497
▁würde	-498
▁ste	-499
zi	-500
ichte	-501
▁wel	-502
ma	-503
▁anderen	-504
▁entw	-505
ollen	-506
fl	-507
▁stel	-508
▁zusa	-509
▁gl	-510
geb	-511
det	-512
▁ex	-513
leicht	-514
▁mal	-515
▁damit	-516
▁per	-517
angen	-518
ser	-519
▁zusammen	-520
▁heraus	-521
ist	-522
tisch	-523
auf	-524
▁verst	-525
▁vielleicht	-526
▁proble	-527
nis	-528
gef	-529
▁tats	-530
auen	-531
ekt	-532
op	-533
▁schw	-534
▁wahr	-535
nt	-536
des	-537
▁fl	-538
▁zw	-539
▁or	-540
▁gut	-541
▁dan	-542
▁dav	-543
under	-544
ität	-545
▁for	-546
age	-547
▁erz	-548
▁milli	-549
▁geht	-550
änder	-551
▁jahre	-552
ion	-553
rä	-554
▁entwick	-555
yst	-556
iger	-557
▁ja	-558
ast	-559
▁zurück	-560
ache	-561
▁best	-562
oh	-563
▁techn	-564
ug	-565
off	-566
ale	-567
▁kam	-568
tern	-569
ystem	-570
▁gleich	-571
fe	-572
uten	-573
▁heute	-574
▁ide	-575
ächlich	-576
nten	-577
▁teil	-578
beit	-579
▁kinder	-580
br	-581
▁dr	-582
▁drei	-583
▁muss	-584
spiel	-585
ill	-586
▁schon	-587
▁warum	-588
▁arbei	-589
▁letz	-590
zent	-591
▁ö	-592
▁pass	-593
▁mo	-594
▁reg	-595
▁dort	-596
▁einige	-597
halten	-598
▁gegen	-599
▁einz	-600
äre	-601
▁möchte	-602
▁genau	-603
▁ir	-604
öß	-605
tes	-606
▁oh	-607
▁ben	-608
▁macht	-609
▁sei	-610
stellen	-611
▁tatsächlich	-612
▁frau	-613
sam	-614
art	-615
apos	-616
kl	-617
cken	-618
▁brau	-619
tigen	-620
▁3	-621
▁de	-622
inn	-623
vor	-624
▁verw	-625
▁geschichte	-626
pt	-627
tik	-628
▁davon	-629
ak	-630
▁mensch	-631
▁land	-632
ationen	-633
alen	-634
ok	-635
▁jem	-636
▁möglich	-637
aten	-638
▁bede	-639
▁tag	-640
▁weg	-641
elle	-642
▁denken	-643
rechen	-644
esen	-645
▁spr	-646
▁hand	-647
▁zie	-648
ine	-649
aut	-650
▁hatten	-651
▁fr	-652
▁bild	-653
▁seine	-654
ichten	-655
▁wichtig	-656
▁besch	-657
▁paar	-658
▁könnte	-659
uchen	-660
ahl	-661
dien	-662
ater	-663
achte	-664
▁hei	-665
▁mei	-666
halb	-667
mer	-668
mlich	-669
tige	-670
olle	-671
ologie	-672
▁verl	-673
▁darüber	-674
▁natür	-675
000	-676
▁schl	-677
▁grund	-678
weise	-679
tt	-680
form	-681
▁größ	-682
▁ihn	-683
esser	-684
ade	-685
gel	-686
ek	-687
iz	-688
ennen	-689
ant	-690
▁lassen	-691
▁gehen	-692
▁arbeit	-693
▁stu	-694
att	-695
▁ph	-696
äd	-697
aum	-698
anden	-699
▁pers	-700
▁wollen	-701
▁währ	-702
▁fre	-703
▁fun	-704
▁werde	-705
achen	-706
▁schn	-707
iv	-708
igkeit	-709
pro	-710
▁woll	-711
oren	-712
▁lei	-713
ändern	-714
gar	-715
uss	-716
vers	-717
▁komp	-718
▁jeder	-719
fr	-720
ha	-721
▁beispiel	-722
irn	-723
est	-724
reich	-725
▁meiner	-726
▁sicher	-727
net	-728
gr	-729
zeu	-730
▁ihren	-731
▁tra	-732
▁aut	-733
▁weiß	-734
▁erzäh	-735
itt	-736
▁während	-737
▁wurden	-738
schein	-739
ierte	-740
▁wor	-741
für	-742
▁funktion	-743
▁problem	-744
hin	-745
▁sta	-746
▁führ	-747
▁irgend	-748
▁dazu	-749
▁;	-750
▁kommen	-751
▁lang	-752
schieden	-753
amen	-754
unde	-755
▁mar	-756
▁erst	-757
▁neue	-758
fer	-759
▁mon	-760
tra	-761
▁sti	-762
utzen	-763
▁interess	-764
▁gab	-765
tlich	-766
hn	-767
ander	-768
▁bewe	-769
▁hal	-770
▁wäre	-771
▁natürlich	-772
▁denke	-773
▁vom	-774
gie	-775
▁sondern	-776
▁unserer	-777
▁will	-778
▁sogar	-779
▁zwischen	-780
▁versuch	-781
▁19	-782
▁lebens	-783
änd	-784
▁gemein	-785
▁gemacht	-786
▁5	-787
▁glaube	-788
▁doch	-789
▁!	-790
▁hät	-791
▁denen	-792
▁frage	-793
▁wasser	-794
▁gerade	-795
▁wissenschaft	-796
▁näch	-797
achten	-798
▁finden	-799
▁einmal	-800
zie	-801
▁sol	-802
▁geben	-803
ühl	-804
▁schu	-805
▁ersten	-806
▁ihrer	-807
▁ohne	-808
od	-809
im	-810
▁kur	-811
schl	-812
▁nichts	-813
▁scha	-814
ss	-815
gew	-816
▁pol	-817
▁letzten	-818
▁prozent	-819
geben	-820
▁20	-821
▁dafür	-822
▁bi	-823
gehen	-824
▁ins	-825
▁erw	-826
▁nor	-827
▁anf	-828
▁lö	-829
nehmen	-830
gan	-831
▁kommt	-832
ßer	-833
licht	-834
▁würden	-835
keiten	-836
▁zeigen	-837
▁bew	-838
dr	-839
▁gehirn	-840
▁kre	-841
ce	-842
alt	-843
ativ	-844
ften	-845
ika	-846
▁besser	-847
lung	-848
hem	-849
▁passiert	-850
▁verstehen	-851
▁ok	-852
▁betr	-853
ay	-854
▁rei	-855
▁vier	-856
▁produ	-857
▁4	-858
ph	-859
▁uni	-860
ult	-861
ören	-862
tschaft	-863
▁vielen	-864
▁verschieden	-865
cher	-866
▁erste	-867
bl	-868
▁qu	-869
▁daran	-870
▁sieht	-871
uter	-872
ünf	-873
aufen	-874
öl	-875
▁meisten	-876
▁millionen	-877
▁ak	-878
▁min	-879
pl	-880
chten	-881
ierung	-882
▁ele	-883
ikan	-884
▁ung	-885
unkt	-886
▁konnte	-887
▁spiel	-888
zin	-889
rank	-890
bs	-891
▁daten	-892
ys	-893
örper	-894
▁idee	-895
ergie	-896
▁geld	-897
▁ganze	-898
enden	-899
▁fol	-900
.000	-901
schei	-902
▁dabei	-903
▁stellen	-904
imm	-905
str	-906
▁nehmen	-907
ört	-908
ahren	-909
gung	-910
▁fall	-911
▁sagt	-912
▁große	-913
th	-914
teil	-915
▁etwa	-916
▁glück	-917
▁jemand	-918
▁könnten	-919
id	-920
▁sollte	-921
chs	-922
▁sa	-923
stellt	-924
gesch	-925
ckt	-926
▁arbeiten	-927
▁star	-928
ign	-929
▁bek	-930
gra	-931
licher	-932
innen	-933
ane	-934
▁frauen	-935
▁ged	-936
▁ziemlich	-937
ange	-938
yp	-939
äng	-940
▁spie	-941
▁univers	-942
ül	-943
▁tr	-944
tieren	-945
▁fragen	-946
▁10	-947
▁pr	-948
▁raum	-949
▁inform	-950
▁schnell	-951
▁sollten	-952
▁di	-953
▁fin	-954
▁bef	-955
▁welche	-956
ollar	-957
los	-958
ker	-959
▁ti	-960
▁hau	-961
▁wollte	-962
▁dir	-963
legen	-964
kun	-965
ogen	-966
▁co	-967
▁sprechen	-968
mus	-969
▁system	-970
schied	-971
▁bekommen	-972
mme	-973
▁beh	-974
▁gute	-975
▁meinen	-976
▁verg	-977
agt	-978
ate	-979
▁nah	-980
▁meinem	-981
utz	-982
▁darauf	-983
ppe	-984
▁irgendw	-985
ingt	-986
ust	-987
▁comp	-988
▁us	-989
erst	-990
▁hel	-991
▁körper	-992
▁hoch	-993
▁veränder	-994
ite	-995
ts	-996
▁amer	-997
jekt	-998
mö	-999
▁ging	-1000
sehen	-1001
▁außer	-1002
▁y	-1003
▁lin	-1004
ären	-1005
ktur	-1006
nung	-1007
spr	-1008
▁gest	-1009
▁bedeute	-1010
▁kleinen	-1011
▁em	-1012
▁stra	-1013
utter	-1014
hl	-1015
ßt	-1016
▁tei	-1017
ernen	-1018
▁verf	-1019
ution	-1020
scheinlich	-1021
▁bo	-1022
kunft	-1023
▁seit	-1024
▁bereit	-1025
▁eigentlich	-1026
▁ende	-1027
amil	-1028
mals	-1029
▁technologie	-1030
no	-1031
kte	-1032
▁verk	-1033
▁fal	-1034
▁dollar	-1035
gte	-1036
ide	-1037
sst	-1038
▁wunder	-1039
▁weniger	-1040
zei	-1041
▁kind	-1042
enz	-1043
▁buch	-1044
laub	-1045
woh	-1046
▁energie	-1047
eht	-1048
▁organ	-1049
itz	-1050
onder	-1051
▁glauben	-1052
▁afr	-1053
▁get	-1054
▁poli	-1055
annt	-1056
▁sache	-1057
▁hö	-1058
▁jeden	-1059
▁fünf	-1060
reiben	-1061
▁ganzen	-1062
▁sah	-1063
sicht	-1064
▁bringen	-1065
pr	-1066
tische	-1067
▁lernen	-1068
▁mom	-1069
▁mor	-1070
twort	-1071
ischer	-1072
▁schön	-1073
▁bedeutet	-1074
▁famil	-1075
▁großen	-1076
stand	-1077
▁namen	-1078
fte	-1079
äter	-1080
▁spe	-1081
itte	-1082
▁computer	-1083
asch	-1084
▁ma	-1085
▁komple	-1086
▁ihm	-1087
▁jedes	-1088
▁wahrscheinlich	-1089
nah	-1090
▁unseren	-1091
▁gesehen	-1092
▁dachte	-1093
▁sozi	-1094
▁ihrem	-1095
▁..	-1096
▁frei	-1097
▁kleine	-1098
▁fil	-1099
▁recht	-1100
hema	-1101
ic	-1102
oten	-1103
usst	-1104
▁schle	-1105
ard	-1106
▁brauchen	-1107
tischen	-1108
ga	-1109
raft	-1110
▁weise	-1111
arbei	-1112
achsen	-1113
▁offen	-1114
▁par	-1115
▁eben	-1116
▁entschei	-1117
▁voll	-1118
▁versuchen	-1119
▁ted	-1120
▁seite	-1121
▁person	-1122
▁200	-1123
are	-1124
▁mann	-1125
▁danke	-1126
ruck	-1127
▁ur	-1128
▁zukunft	-1129
▁fest	-1130
▁lehr	-1131
▁erken	-1132
▁hinter	-1133
▁öff	-1134
▁zeigt	-1135
ia	-1136
dig	-1137
ies	-1138
immt	-1139
▁...	-1140
lick	-1141
▁ern	-1142
fall	-1143
▁hil	-1144
▁versch	-1145
▁gar	-1146
▁nein	-1147
▁menge	-1148
adt	-1149
▁ang	-1150
vol	-1151
▁ho	-1152
▁kar	-1153
▁unterschied	-1154
▁su	-1155
▁hoff	-1156
▁gesund	-1157
▁besonder	-1158
▁wirtschaft	-1159
tei	-1160
▁unglaub	-1161
▁tre	-1162
▁indem	-1163
▁gru	-1164
▁wenig	-1165
ert	-1166
essen	-1167
unter	-1168
alis	-1169
eren	-1170
▁mag	-1171
▁beim	-1172
▁form	-1173
▁chin	-1174
▁musik	-1175
mittel	-1176
ultur	-1177
▁6	-1178
our	-1179
ild	-1180
tiert	-1181
▁essen	-1182
ald	-1183
▁früh	-1184
▁fot	-1185
tzlich	-1186
▁später	-1187
▁hätte	-1188
wir	-1189
▁nutzen	-1190
▁natur	-1191
▁bed	-1192
▁gern	-1193
▁seiner	-1194
▁ort	-1195
▁erkl	-1196
#9	-1197
▁&#9	-1198
▁keinen	-1199
▁grün	-1200
▁entde	-1201
schaften	-1202
wohl	-1203
tete	-1204
eist	-1205
▁eigenen	-1206
ott	-1207
▁rich	-1208
▁woch	-1209
▁gra	-1210
▁fast	-1211
ierten	-1212
▁moment	-1213
stellung	-1214
▁sy	-1215
denken	-1216
asse	-1217
▁licht	-1218
ernt	-1219
▁bau	-1220
ommen	-1221
führ	-1222
▁augen	-1223
▁gesagt	-1224
kon	-1225
▁tau	-1226
ogra	-1227
leben	-1228
▁erde	-1229
ief	-1230
▁dank	-1231
▁plane	-1232
▁ster	-1233
▁schaffen	-1234
▁gesell	-1235
zeit	-1236
▁ange	-1237
si	-1238
fft	-1239
▁el	-1240
umen	-1241
▁bet	-1242
▁jede	-1243
gefähr	-1244
ial	-1245
land	-1246
▁mutter	-1247
ruktur	-1248
▁aller	-1249
▁kurz	-1250
▁milliar	-1251
lig	-1252
▁the	-1253
▁richtig	-1254
▁fäh	-1255
▁bere	-1256
▁män	-1257
gang	-1258
▁ungefähr	-1259
reis	-1260
ünst	-1261
ome	-1262
ließ	-1263
unst	-1264
reichen	-1265
ält	-1266
▁schwer	-1267
▁schauen	-1268
▁at	-1269
volution	-1270
▁funktioniert	-1271
sel	-1272
▁oft	-1273
▁u	-1274
▁bevor	-1275
▁anders	-1276
▁ü	-1277
stoff	-1278
▁gesundheit	-1279
▁füh	-1280
zeich	-1281
▁lu	-1282
▁spielen	-1283
▁prä	-1284
▁dein	-1285
▁exper	-1286
▁kunst	-1287
▁haus	-1288
▁elekt	-1289
welt	-1290
so	-1291
▁ro	-1292
▁konnten	-1293
▁erfol	-1294
▁mater	-1295
▁krie	-1296
▁organis	-1297
▁probleme	-1298
▁8	-1299
▁weit	-1300
alität	-1301
satz	-1302
▁medi	-1303
▁schwier	-1304
atur	-1305
ppen	-1306
▁kultur	-1307
bo	-1308
schn	-1309
▁neuen	-1310
▁allen	-1311
▁heißt	-1312
▁helfen	-1313
▁internet	-1314
▁erzählen	-1315
▁ru	-1316
▁kor	-1317
▁genug	-1318
▁ideen	-1319
ord	-1320
eich	-1321
▁wohl	-1322
▁nächsten	-1323
mp	-1324
ße	-1325
ähn	-1326
ahlen	-1327
▁komm	-1328
▁verm	-1329
▁stadt	-1330
▁9	-1331
▁eng	-1332
itten	-1333
▁herum	-1334
▁liebe	-1335
▁he	-1336
▁lange	-1337
▁verbr	-1338
hau	-1339
tze	-1340
▁flie	-1341
▁inner	-1342
▁kennen	-1343
▁sit	-1344
▁krank	-1345
▁15	-1346
alten	-1347
▁unserem	-1348
ow	-1349
▁na	-1350
▁bisschen	-1351
fel	-1352
▁30	-1353
▁rob	-1354
▁design	-1355
▁new	-1356
▁manch	-1357
▁begann	-1358
lichkeit	-1359
▁bem	-1360
▁glob	-1361
ädchen	-1362
ks	-1363
cke	-1364
▁7	-1365
▁überall	-1366
▁vide	-1367
system	-1368
▁50	-1369
▁klar	-1370
▁%	-1371
▁fort	-1372
ahrung	-1373
▁seinen	-1374
sy	-1375
▁darum	-1376
nisse	-1377
▁blei	-1378
▁euch	-1379
aden	-1380
▁bauen	-1381
▁erfolg	-1382
▁arten	-1383
ucht	-1384
▁manchmal	-1385
▁erh	-1386
▁feh	-1387
zess	-1388
▁planeten	-1389
trag	-1390
▁einzel	-1391
▁leuten	-1392
▁tran	-1393
enten	-1394
liches	-1395
hunder	-1396
finden	-1397
▁100	-1398
▁okay	-1399
lte	-1400
▁pati	-1401
fäl	-1402
ition	-1403
▁reden	-1404
▁sü	-1405
▁mädchen	-1406
isten	-1407
heiten	-1408
▁dich	-1409
▁sechs	-1410
zeug	-1411
▁eur	-1412
richt	-1413
▁rel	-1414
▁milliarden	-1415
▁anst	-1416
▁statt	-1417
ta	-1418
asst	-1419
▁bel	-1420
▁projekt	-1421
kten	-1422
äche	-1423
möglich	-1424
▁niem	-1425
▁großar	-1426
▁str	-1427
▁wus	-1428
▁forsch	-1429
▁amerikan	-1430
ücken	-1431
kel	-1432
ieht	-1433
▁far	-1434
▁seinem	-1435
▁bür	-1436
▁nennen	-1437
▁pri	-1438
gramm	-1439
▁afrika	-1440
▁schule	-1441
▁stehen	-1442
▁verein	-1443
▁bewusst	-1444
tigt	-1445
ip	-1446
▁anderes	-1447
▁sagten	-1448
▁geschichten	-1449
ven	-1450
▁pu	-1451
▁wert	-1452
▁behand	-1453
jek	-1454
raum	-1455
▁mat	-1456
▁gesellschaft	-1457
▁is	-1458
▁indien	-1459
▁verhalten	-1460
sche	-1461
▁gesam	-1462
▁to	-1463
▁film	-1464
utzt	-1465
▁kopf	-1466
▁gener	-1467
▁punkt	-1468
iss	-1469
glichen	-1470
▁hören	-1471
▁universum	-1472
▁entwickelt	-1473
rom	-1474
▁liegt	-1475
▁ober	-1476
▁gehört	-1477
▁stand	-1478
▁verändern	-1479
▁ähn	-1480
atz	-1481
▁kontr	-1482
▁normal	-1483
▁schein	-1484
▁abs	-1485
▁besonders	-1486
▁los	-1487
▁netz	-1488
ührt	-1489
▁lös	-1490
▁usa	-1491
▁schul	-1492
▁deshalb	-1493
▁gebäu	-1494
▁unternehmen	-1495
▁informationen	-1496
indung	-1497
▁arm	-1498
▁schr	-1499
▁jahrhunder	-1500
▁sor	-1501
bringen	-1502
ennt	-1503
zahl	-1504
ände	-1505
▁namens	-1506
gem	-1507
▁mod	-1508
tive	-1509
▁interessan	-1510
ös	-1511
▁flug	-1512
▁sinn	-1513
lo	-1514
druck	-1515
▁erinn	-1516
▁vorher	-1517
io	-1518
▁oben	-1519
▁erreichen	-1520
son	-1521
▁kn	-1522
▁res	-1523
▁halten	-1524
▁teilen	-1525
▁bereits	-1526
▁benutzen	-1527
anken	-1528
einander	-1529
et	-1530
▁künst	-1531
hol	-1532
spie	-1533
▁ausge	-1534
▁minuten	-1535
setzen	-1536
zieh	-1537
▁bas	-1538
dlich	-1539
fin	-1540
▁op	-1541
forder	-1542
▁musste	-1543
zus	-1544
▁antwort	-1545
▁mittel	-1546
▁verschiedene	-1547
lei	-1548
isches	-1549
▁hätten	-1550
min	-1551
▁stud	-1552
▁veran	-1553
▁familie	-1554
▁niemand	-1555
▁mu	-1556
▁vert	-1557
▁machte	-1558
▁stück	-1559
▁schü	-1560
igkeiten	-1561
▁fa	-1562
▁eff	-1563
▁typ	-1564
▁anzu	-1565
▁phys	-1566
▁bestimm	-1567
▁li	-1568
allen	-1569
aun	-1570
omen	-1571
halt	-1572
akter	-1573
▁auto	-1574
▁entf	-1575
▁erkennen	-1576
rat	-1577
▁darin	-1578
▁steht	-1579
voll	-1580
▁komplex	-1581
sä	-1582
öff	-1583
▁arch	-1584
▁kosten	-1585
ahn	-1586
kommt	-1587
▁aktiv	-1588
änger	-1589
▁beein	-1590
öhn	-1591
zentr	-1592
richten	-1593
▁bilder	-1594
one	-1595
iges	-1596
annte	-1597
▁vater	-1598
▁freund	-1599
▁gefühl	-1600
tter	-1601
endet	-1602
▁gerne	-1603
bare	-1604
▁beob	-1605
▁inst	-1606
▁gruppe	-1607
ium	-1608
twor	-1609
▁öffent	-1610
gestellt	-1611
▁einzige	-1612
▁bein	-1613
▁gott	-1614
ock	-1615
stra	-1616
▁robo	-1617
▁geschä	-1618
▁jedem	-1619
▁pf	-1620
neh	-1621
stü	-1622
grund	-1623
▁welch	-1624
▁unters	-1625
zieren	-1626
wend	-1627
ölker	-1628
dung	-1629
▁möglichkeit	-1630
unge	-1631
▁stunden	-1632
ffe	-1633
vi	-1634
▁hunder	-1635
▁bewegen	-1636
▁braucht	-1637
▁kap	-1638
punkt	-1639
bild	-1640
rieben	-1641
▁entwickeln	-1642
man	-1643
▁fir	-1644
▁bemer	-1645
▁medizin	-1646
▁innerhalb	-1647
▁alt	-1648
▁luft	-1649
▁herz	-1650
▁bereich	-1651
▁po	-1652
trie	-1653
▁wegen	-1654
ständ	-1655
▁drau	-1656
▁besten	-1657
▁irgendwie	-1658
ässt	-1659
anzen	-1660
▁ergeb	-1661
▁fu	-1662
▁eins	-1663
ehn	-1664
arten	-1665
racht	-1666
wand	-1667
▁mik	-1668
▁ries	-1669
rak	-1670
inen	-1671
ließlich	-1672
▁jen	-1673
▁gese	-1674
tem	-1675
euer	-1676
▁rep	-1677
▁ansch	-1678
▁sachen	-1679
▁treffen	-1680
iere	-1681
▁dis	-1682
bel	-1683
▁folgen	-1684
▁obwohl	-1685
lek	-1686
▁beginnen	-1687
▁vir	-1688
▁krebs	-1689
▁umwelt	-1690
auer	-1691
▁verschiedenen	-1692
ume	-1693
▁patienten	-1694
▁vorstellen	-1695
▁do	-1696
sych	-1697
▁erhalten	-1698
▁material	-1699
▁nä	-1700
▁einigen	-1701
▁gemeinsam	-1702
▁intel	-1703
▁nation	-1704
▁sprache	-1705
affen	-1706
▁stellt	-1707
▁erstaun	-1708
▁unglaublich	-1709
▁menschlichen	-1710
ings	-1711
▁beiden	-1712
fra	-1713
gten	-1714
ider	-1715
haupt	-1716
inner	-1717
▁gleiche	-1718
▁haupt	-1719
▁fe	-1720
▁vis	-1721
schnitt	-1722
▁kindern	-1723
▁yor	-1724
ligen	-1725
▁rest	-1726
▁verwenden	-1727
ris	-1728
tten	-1729
▁pos	-1730
▁entst	-1731
tis	-1732
▁städ	-1733
▁nämlich	-1734
▁persön	-1735
zustellen	-1736
häng	-1737
▁erk	-1738
▁sk	-1739
▁reich	-1740
ehe	-1741
▁kü	-1742
esse	-1743
werk	-1744
äten	-1745
▁sage	-1746
erweise	-1747
▁näh	-1748
▁fern	-1749
genommen	-1750
▁struktur	-1751
sk	-1752
▁kli	-1753
▁wollten	-1754
▁fäl	-1755
enzen	-1756
sei	-1757
ank	-1758
▁kä	-1759
▁verr	-1760
▁erzeu	-1761
▁werk	-1762
ranken	-1763
▁bitte	-1764
▁china	-1765
▁ju	-1766
blik	-1767
▁bez	-1768
▁inv	-1769
▁daher	-1770
▁morgen	-1771
otz	-1772
▁damals	-1773
▁erscha	-1774
app	-1775
annen	-1776
▁ziel	-1777
▁regierung	-1778
gabe	-1779
sein	-1780
▁masch	-1781
▁bezieh	-1782
▁gebäude	-1783
lin	-1784
▁gene	-1785
▁mathema	-1786
▁unterstü	-1787
ziel	-1788
▁win	-1789
▁schwar	-1790
▁eltern	-1791
▁kommun	-1792
bes	-1793
iken	-1794
▁angst	-1795
▁weltw	-1796
▁versucht	-1797
▁18	-1798
▁lage	-1799
▁tausen	-1800
▁technolog	-1801
▁sau	-1802
▁unbe	-1803
▁führen	-1804
schr	-1805
▁tut	-1806
onnen	-1807
▁psych	-1808
▁hause	-1809
▁überr	-1810
▁schau	-1811
▁männer	-1812
▁ändern	-1813
▁bab	-1814
tzung	-1815
▁prof	-1816
weg	-1817
▁wand	-1818
zt	-1819
als	-1820
▁zer	-1821
▁neur	-1822
völker	-1823
tigkeit	-1824
uer	-1825
▁fing	-1826
▁richt	-1827
▁überhaupt	-1828
▁verfü	-1829
▁nächste	-1830
▁schreiben	-1831
abor	-1832
ktor	-1833
▁inno	-1834
▁lehrer	-1835
▁fand	-1836
ase	-1837
han	-1838
baren	-1839
reifen	-1840
▁innov	-1841
gal	-1842
▁meer	-1843
▁zwar	-1844
denten	-1845
▁anfang	-1846
▁direkt	-1847
▁demok	-1848
▁getan	-1849
▁neben	-1850
▁nachdem	-1851
▁gleichen	-1852
ans	-1853
▁chem	-1854
▁roboter	-1855
▁öl	-1856
▁verd	-1857
▁wort	-1858
▁mikro	-1859
▁länder	-1860
gese	-1861
haus	-1862
▁char	-1863
▁leiden	-1864
▁programm	-1865
zug	-1866
▁sh	-1867
rop	-1868
▁tri	-1869
▁sieben	-1870
ohn	-1871
tte	-1872
ismus	-1873
▁invest	-1874
aschen	-1875
▁allem	-1876
▁kraft	-1877
▁elektr	-1878
ud	-1879
ren	-1880
▁40	-1881
dition	-1882
▁trotz	-1883
▁rad	-1884
▁eher	-1885
fläche	-1886
▁verändert	-1887
urs	-1888
▁ehr	-1889
▁erklär	-1890
orie	-1891
▁fas	-1892
ängt	-1893
▁sicht	-1894
▁finanz	-1895
▁entwicklung	-1896
▁gol	-1897
nahme	-1898
ziert	-1899
aktion	-1900
yn	-1901
bte	-1902
gegen	-1903
orden	-1904
▁prozess	-1905
hand	-1906
▁erle	-1907
▁beste	-1908
▁junge	-1909
▁archite	-1910
▁erre	-1911
▁falsch	-1912
▁schick	-1913
▁menschliche	-1914
aren	-1915
enne	-1916
▁dessen	-1917
na	-1918
indet	-1919
ore	-1920
sto	-1921
▁tief	-1922
▁kom	-1923
▁part	-1924
▁lässt	-1925
▁relig	-1926
▁bedeut	-1927
▁worden	-1928
▁fühlen	-1929
▁ka	-1930
ielt	-1931
▁jed	-1932
▁fahr	-1933
▁gedanken	-1934
äus	-1935
▁geist	-1936
sta	-1937
ager	-1938
▁absol	-1939
▁bringt	-1940
▁dingen	-1941
▁pfl	-1942
ionen	-1943
▁letzte	-1944
▁äl	-1945
▁oze	-1946
▁wes	-1947
▁anderer	-1948
▁vortrag	-1949
▁on	-1950
▁jungen	-1951
▁publik	-1952
▁wochen	-1953
zip	-1954
lungs	-1955
▁tages	-1956
▁unten	-1957
▁hervor	-1958
▁betrachten	-1959
▁sicherheit	-1960
eig	-1961
▁tö	-1962
▁kamen	-1963
ive	-1964
▁york	-1965
▁krieg	-1966
▁tier	-1967
▁erlau	-1968
▁är	-1969
▁alter	-1970
▁vertrau	-1971
▁welches	-1972
dete	-1973
▁ris	-1974
▁zahl	-1975
▁zehn	-1976
▁weitere	-1977
spir	-1978
▁trä	-1979
▁jedoch	-1980
▁staaten	-1981
▁zweiten	-1982
▁12	-1983
stet	-1984
▁erfahrung	-1985
▁deu	-1986
▁dun	-1987
teten	-1988
▁zent	-1989
▁lesen	-1990
▁eigene	-1991
iet	-1992
zept	-1993
arbeit	-1994
▁hilfe	-1995
▁zeich	-1996
1;	-1997
elte	-1998
▁&#91;	-1999
▁tiere	-2000
▁meines	-2001
3;	-2002
▁fer	-2003
▁sow	-2004
▁&#93;	-2005
innt	-2006
▁team	-2007
▁kranken	-2008
▁geschäft	-2009
hlen	-2010
▁zun	-2011
▁wider	-2012
▁grunde	-2013
▁gesicht	-2014
▁herausforder	-2015
fiz	-2016
▁go	-2017
▁hol	-2018
▁information	-2019
tho	-2020
▁sen	-2021
▁verschw	-2022
▁publikum	-2023
eim	-2024
ügen	-2025
▁fliegen	-2026
bauen	-2027
▁prin	-2028
▁genaus	-2029
▁med	-2030
▁rück	-2031
rieden	-2032
▁25	-2033
▁auss	-2034
▁deren	-2035
▁schließlich	-2036
▁situ	-2037
▁pap	-2038
▁plö	-2039
▁funktionieren	-2040
▁völ	-2041
▁auszu	-2042
▁exist	-2043
▁solche	-2044
▁genauso	-2045
▁mussten	-2046
▁erinnern	-2047
ure	-2048
kehr	-2049
stum	-2050
wesen	-2051
achtet	-2052
▁umgeb	-2053
ue	-2054
ve	-2055
bung	-2056
▁har	-2057
▁thema	-2058
▁kreativ	-2059
▁politik	-2060
sichtlich	-2061
bau	-2062
ograf	-2063
▁erinner	-2064
blick	-2065
▁samm	-2066
annten	-2067
▁falls	-2068
▁übr	-2069
eigen	-2070
▁zellen	-2071
▁inspir	-2072
▁interessant	-2073
ala	-2074
amp	-2075
inde	-2076
anten	-2077
führen	-2078
ließen	-2079
▁guten	-2080
▁sollen	-2081
▁zweite	-2082
▁möglichkeiten	-2083
▁acht	-2084
gefühl	-2085
wär	-2086
entlich	-2087
▁zahlen	-2088
reten	-2089
▁video	-2090
▁zuvor	-2091
▁sterben	-2092
▁gemeinschaft	-2093
ont	-2094
cker	-2095
aler	-2096
jähr	-2097
rieb	-2098
▁sek	-2099
▁aben	-2100
▁tage	-2101
▁platz	-2102
▁woche	-2103
▁beschä	-2104
immen	-2105
ählen	-2106
▁markt	-2107
▁kaufen	-2108
▁lösung	-2109
▁bü	-2110
gemein	-2111
▁boden	-2112
▁defin	-2113
▁verwand	-2114
elbe	-2115
uren	-2116
nahmen	-2117
▁führt	-2118
▁wusste	-2119
itze	-2120
▁aufzu	-2121
▁lösen	-2122
▁zerst	-2123
achstum	-2124
▁fragte	-2125
▁erschaffen	-2126
▁eis	-2127
▁danach	-2128
▁freunde	-2129
▁technik	-2130
▁verbunden	-2131
itzen	-2132
▁empf	-2133
ja	-2134
▁entscheiden	-2135
▁kri	-2136
ächst	-2137
▁such	-2138
▁neues	-2139
▁langsam	-2140
▁benö	-2141
▁hast	-2142
▁wich	-2143
▁verbindung	-2144
▁zug	-2145
zeigt	-2146
▁europ	-2147
▁monate	-2148
cen	-2149
▁job	-2150
▁mer	-2151
▁klima	-2152
▁schwe	-2153
▁bleiben	-2154
▁familien	-2155
hält	-2156
▁wären	-2157
▁schwierig	-2158
merk	-2159
▁blick	-2160
▁fähigkeit	-2161
els	-2162
▁lau	-2163
jekte	-2164
▁nimmt	-2165
▁künstler	-2166
▁plötzlich	-2167
▁mite	-2168
zeuge	-2169
gewöhn	-2170
lossen	-2171
▁intelligen	-2172
scht	-2173
▁blau	-2174
ziehen	-2175
▁gegenüber	-2176
▁glücklich	-2177
les	-2178
▁laufen	-2179
▁manche	-2180
▁mitein	-2181
▁überzeu	-2182
ib	-2183
igt	-2184
itiv	-2185
hören	-2186
▁modell	-2187
▁aussehen	-2188
▁vergleich	-2189
▁verantwort	-2190
▁wissenschaftler	-2191
amer	-2192
▁rein	-2193
▁evolution	-2194
▁sin	-2195
▁extr	-2196
▁völlig	-2197
arbeitet	-2198
▁besteht	-2199
▁draußen	-2200
ack	-2201
mar	-2202
wirk	-2203
▁aufge	-2204
▁autos	-2205
▁ihres	-2206
▁süd	-2207
▁indu	-2208
▁wachsen	-2209
▁bevölker	-2210
▁gefunden	-2211
co	-2212
auft	-2213
riff	-2214
falls	-2215
kraft	-2216
spro	-2217
▁ding	-2218
▁indi	-2219
hren	-2220
▁lern	-2221
▁ä	-2222
▁bar	-2223
▁spa	-2224
chter	-2225
reiten	-2226
▁super	-2227
eister	-2228
▁not	-2229
alter	-2230
▁zuerst	-2231
reck	-2232
▁beschäf	-2233
alien	-2234
igten	-2235
▁wahl	-2236
▁ersch	-2237
▁allein	-2238
▁kat	-2239
▁fant	-2240
▁labor	-2241
▁extrem	-2242
▁möchten	-2243
▁wil	-2244
▁schli	-2245
▁suchen	-2246
▁scheint	-2247
▁überleben	-2248
▁bist	-2249
gliche	-2250
jen	-2251
▁hör	-2252
▁kont	-2253
weisen	-2254
▁kolle	-2255
▁beginnt	-2256
▁unseres	-2257
▁erklären	-2258
ieten	-2259
▁änder	-2260
▁größte	-2261
▁schritt	-2262
▁entdeck	-2263
▁konzentr	-2264
▁sex	-2265
▁hinein	-2266
fahr	-2267
▁dig	-2268
▁molek	-2269
prochen	-2270
▁transp	-2271
▁gewesen	-2272
▁miteinander	-2273
▁60	-2274
▁ans	-2275
durch	-2276
gende	-2277
▁moral	-2278
iff	-2279
tag	-2280
ücke	-2281
▁raus	-2282
▁größten	-2283
▁herauszu	-2284
▁tradition	-2285
ho	-2286
▁erd	-2287
atten	-2288
ochen	-2289
▁medik	-2290
▁beeinfl	-2291
äuf	-2292
▁ad	-2293
ienen	-2294
dungen	-2295
▁reihe	-2296
▁stelle	-2297
▁nachdenken	-2298
▁technologien	-2299
elten	-2300
▁phil	-2301
▁digit	-2302
▁erzählt	-2303
▁krankheit	-2304
ile	-2305
▁daraus	-2306
▁anstatt	-2307
▁ländern	-2308
▁tatsache	-2309
ity	-2310
▁nahm	-2311
▁erfor	-2312
▁älter	-2313
gesetzt	-2314
mt	-2315
wert	-2316
▁anal	-2317
▁anfangen	-2318
▁bewegung	-2319
▁stär	-2320
ikation	-2321
▁muster	-2322
▁passieren	-2323
lef	-2324
line	-2325
gessen	-2326
▁niemals	-2327
▁vergangen	-2328
▁anzahl	-2329
▁gelernt	-2330
▁geworden	-2331
▁ter	-2332
tragen	-2333
▁antwor	-2334
▁jemals	-2335
▁jahrhundert	-2336
zw	-2337
ond	-2338
rum	-2339
ment	-2340
▁kal	-2341
▁ner	-2342
gaben	-2343
▁nutz	-2344
▁mache	-2345
äuft	-2346
ament	-2347
▁stark	-2348
▁überw	-2349
▁größer	-2350
▁revolution	-2351
fort	-2352
ückt	-2353
otion	-2354
▁nacht	-2355
▁medien	-2356
▁physik	-2357
▁bildung	-2358
lauf	-2359
▁beru	-2360
zellen	-2361
▁formen	-2362
▁kontroll	-2363
▁sehe	-2364
▁aufre	-2365
▁ernst	-2366
▁verle	-2367
▁genannt	-2368
▁richtung	-2369
▁verloren	-2370
äß	-2371
bten	-2372
▁foto	-2373
▁reise	-2374
▁faszin	-2375
xt	-2376
enn	-2377
ance	-2378
ator	-2379
▁kil	-2380
▁ser	-2381
▁egal	-2382
samkeit	-2383
▁prinzip	-2384
▁studenten	-2385
▁met	-2386
▁nord	-2387
▁sonnen	-2388
gn	-2389
änden	-2390
▁gesp	-2391
▁teile	-2392
▁verwendet	-2393
fahren	-2394
roffen	-2395
▁iden	-2396
lungen	-2397
▁beide	-2398
▁einfl	-2399
▁kleiner	-2400
▁kleines	-2401
▁mathematik	-2402
ese	-2403
mung	-2404
ative	-2405
▁herr	-2406
▁gefähr	-2407
▁durchschnitt	-2408
iko	-2409
ktu	-2410
▁links	-2411
▁gezeigt	-2412
kle	-2413
osph	-2414
lassen	-2415
▁hinaus	-2416
ame	-2417
stein	-2418
▁preis	-2419
▁staat	-2420
▁sprach	-2421
ers	-2422
zogen	-2423
spiele	-2424
agieren	-2425
▁findet	-2426
▁nachzu	-2427
▁bekannt	-2428
fol	-2429
▁dor	-2430
▁bekommt	-2431
▁emotion	-2432
▁stellte	-2433
▁wahrheit	-2434
▁schlechte	-2435
▁dna	-2436
▁kan	-2437
▁sonst	-2438
▁disk	-2439
gangen	-2440
▁fanden	-2441
▁leicht	-2442
▁umgebung	-2443
▁vorstellung	-2444
weis	-2445
▁gebaut	-2446
▁aufmerk	-2447
▁benutzt	-2448
▁soziale	-2449
iti	-2450
▁großartig	-2451
fäh	-2452
roh	-2453
▁tä	-2454
dent	-2455
▁gebe	-2456
▁toll	-2457
▁bürger	-2458
▁fehler	-2459
▁mitgefühl	-2460
▁tie	-2461
▁regel	-2462
▁situation	-2463
▁80	-2464
älfte	-2465
▁indivi	-2466
▁instit	-2467
▁aufgabe	-2468
▁schlecht	-2469
▁lieben	-2470
▁veröff	-2471
wirtschaft	-2472
amm	-2473
ossen	-2474
▁individu	-2475
▁blut	-2476
ian	-2477
▁tür	-2478
mente	-2479
unkte	-2480
▁richtige	-2481
ose	-2482
▁alten	-2483
▁amerika	-2484
▁entfernt	-2485
▁forschung	-2486
tu	-2487
▁sym	-2488
icher	-2489
▁—	-2490
ware	-2491
reibt	-2492
▁männ	-2493
▁schä	-2494
geführt	-2495
▁meinung	-2496
▁entwicklungs	-2497
▁sc	-2498
haft	-2499
viel	-2500
▁199	-2501
▁plan	-2502
pe	-2503
änge	-2504
▁stre	-2505
▁metho	-2506
▁bakter	-2507
▁jemanden	-2508
▁bedeutung	-2509
▁west	-2510
▁stimme	-2511
▁schrieb	-2512
▁zeu	-2513
▁kamer	-2514
▁fahren	-2515
sprechen	-2516
▁einfache	-2517
▁versuche	-2518
öh	-2519
äss	-2520
▁gere	-2521
▁anges	-2522
▁mitte	-2523
▁mögen	-2524
▁gewalt	-2525
▁erreicht	-2526
▁moder	-2527
▁strom	-2528
▁spricht	-2529
rist	-2530
itäten	-2531
zeitig	-2532
▁urspr	-2533
mu	-2534
ry	-2535
zer	-2536
▁fuß	-2537
iesen	-2538
ument	-2539
▁rede	-2540
▁präsen	-2541
▁schmer	-2542
▁gesundheits	-2543
▁voraus	-2544
▁straßen	-2545
lten	-2546
digen	-2547
▁wind	-2548
▁hoffe	-2549
▁fertig	-2550
▁gegeben	-2551
▁miss	-2552
▁größe	-2553
▁länger	-2554
▁geboren	-2555
▁genommen	-2556
zep	-2557
▁wann	-2558
▁ozean	-2559
▁rolle	-2560
▁brachte	-2561
▁interessiert	-2562
ales	-2563
▁maß	-2564
▁sonne	-2565
▁einfluss	-2566
tau	-2567
▁tod	-2568
▁offensichtlich	-2569
ins	-2570
kre	-2571
▁th	-2572
ierend	-2573
▁setzen	-2574
▁sofort	-2575
▁fortschr	-2576
▁geschrieben	-2577
▁vereinigten	-2578
▁dra	-2579
▁bekam	-2580
▁absolut	-2581
▁komplett	-2582
▁pflanzen	-2583
▁erwachsen	-2584
krie	-2585
tzut	-2586
jenigen	-2587
▁gingen	-2588
▁hälfte	-2589
▁übrigen	-2590
▁irgendein	-2591
legt	-2592
asser	-2593
ängen	-2594
▁oper	-2595
▁prak	-2596
tzutage	-2597
▁ähnlich	-2598
▁erschein	-2599
▁heutzutage	-2600
▁veränderung	-2601
ieg	-2602
▁my	-2603
itzt	-2604
rift	-2605
spek	-2606
▁online	-2607
▁ansehen	-2608
▁einzelne	-2609
stu	-2610
▁ök	-2611
▁lok	-2612
▁rau	-2613
iment	-2614
nation	-2615
▁ziehen	-2616
struktur	-2617
▁gesamte	-2618
▁bewusstsein	-2619
▁la	-2620
lage	-2621
wind	-2622
▁fel	-2623
▁verurs	-2624
▁fantast	-2625
oss	-2626
eiden	-2627
▁engl	-2628
abhäng	-2629
dessen	-2630
▁prote	-2631
▁bücher	-2632
▁sorgen	-2633
▁oberfläche	-2634
sh	-2635
schu	-2636
verb	-2637
lagen	-2638
▁regen	-2639
▁stimmt	-2640
▁erkennt	-2641
▁11	-2642
▁anw	-2643
auern	-2644
▁experi	-2645
▁städte	-2646
▁tragen	-2647
▁hoffnung	-2648
▁erfolgreich	-2649
▁herauszufinden	-2650
ändig	-2651
ichtet	-2652
▁seiten	-2653
▁vertei	-2654
▁schulen	-2655
▁geschieht	-2656
ratie	-2657
▁nennt	-2658
▁poten	-2659
▁trotzdem	-2660
asen	-2661
▁diag	-2662
▁jung	-2663
▁wachstum	-2664
▁fähigkeiten	-2665
▁normalerweise	-2666
lang	-2667
wegen	-2668
▁goog	-2669
▁john	-2670
▁krei	-2671
▁car	-2672
▁tot	-2673
▁abge	-2674
▁visu	-2675
▁vergessen	-2676
beh	-2677
istan	-2678
▁sign	-2679
▁regeln	-2680
▁machten	-2681
▁hy	-2682
▁kannst	-2683
▁liegen	-2684
▁ergebnis	-2685
▁verständ	-2686
▁allgemein	-2687
▁herausforderung	-2688
gru	-2689
▁app	-2690
▁bald	-2691
▁zeige	-2692
▁bewegt	-2693
arbeiten	-2694
alle	-2695
▁sob	-2696
▁wör	-2697
▁bemerken	-2698
vie	-2699
▁ca	-2700
glie	-2701
▁nahe	-2702
▁papier	-2703
▁maschine	-2704
▁beziehung	-2705
reg	-2706
sor	-2707
▁ra	-2708
wissen	-2709
▁internation	-2710
▁interessante	-2711
ll	-2712
isse	-2713
äume	-2714
ösen	-2715
▁ind	-2716
▁hinzu	-2717
▁meter	-2718
▁generation	-2719
urt	-2720
▁et	-2721
dert	-2722
▁ant	-2723
▁ton	-2724
▁jahrz	-2725
▁leist	-2726
▁gesprochen	-2727
igner	-2728
▁bess	-2729
▁neun	-2730
▁kompli	-2731
▁kontrolle	-2732
tist	-2733
ister	-2734
itter	-2735
▁dorf	-2736
ologen	-2737
schung	-2738
▁finde	-2739
▁monat	-2740
▁verfol	-2741
▁speziel	-2742
▁pe	-2743
ilis	-2744
techn	-2745
▁prot	-2746
▁firma	-2747
▁dachten	-2748
chan	-2749
▁and	-2750
▁hiv	-2751
▁wichtige	-2752
▁anschauen	-2753
▁nachrichten	-2754
pa	-2755
▁16	-2756
tikel	-2757
ummer	-2758
▁straße	-2759
▁realität	-2760
▁gleichzeitig	-2761
ath	-2762
trä	-2763
ktiv	-2764
▁sim	-2765
▁identi	-2766
▁aufmerksamkeit	-2767
ds	-2768
ari	-2769
mod	-2770
▁begr	-2771
essour	-2772
▁vorbei	-2773
▁produkt	-2774
▁weltweit	-2775
▁vertrauen	-2776
▁wichtiger	-2777
bin	-2778
fre	-2779
pfer	-2780
eltsam	-2781
▁beobachten	-2782
to	-2783
lex	-2784
▁bot	-2785
stens	-2786
▁test	-2787
indungen	-2788
▁gelegen	-2789
bil	-2790
uchs	-2791
▁hab	-2792
▁himm	-2793
essern	-2794
▁regier	-2795
▁gruppen	-2796
▁seltsam	-2797
▁90	-2798
daten	-2799
▁heim	-2800
▁redu	-2801
▁druck	-2802
▁effek	-2803
▁afrikan	-2804
▁nachhal	-2805
kop	-2806
▁enor	-2807
▁spaß	-2808
ferenz	-2809
▁jahrzeh	-2810
▁begannen	-2811
▁übrigens	-2812
▁einzelnen	-2813
▁innovation	-2814
nete	-2815
stru	-2816
▁abzu	-2817
▁lauf	-2818
▁früher	-2819
gebracht	-2820
▁arbeitet	-2821
▁schneller	-2822
▁ga	-2823
▁priv	-2824
bildung	-2825
▁rechts	-2826
▁sobald	-2827
▁bedeuten	-2828
▁ermöglich	-2829
▁bestimmten	-2830
▁experiment	-2831
pfen	-2832
▁gutes	-2833
▁monaten	-2834
▁sozialen	-2835
▁leidenschaft	-2836
üss	-2837
▁ta	-2838
isst	-2839
▁zeug	-2840
ina	-2841
sum	-2842
▁hü	-2843
schlag	-2844
▁deine	-2845
▁zuminde	-2846
▁menschheit	-2847
tzte	-2848
zies	-2849
ühne	-2850
▁großer	-2851
▁passierte	-2852
▁verlieren	-2853
▁demokratie	-2854
▁bevölkerung	-2855
sion	-2856
▁kop	-2857
▁ord	-2858
▁ernähr	-2859
▁studie	-2860
▁bessere	-2861
▁gearbeitet	-2862
ull	-2863
rech	-2864
▁trau	-2865
ograph	-2866
▁denkt	-2867
▁benutz	-2868
▁ressour	-2869
▁richtigen	-2870
male	-2871
hnung	-2872
produ	-2873
▁einge	-2874
▁europa	-2875
▁möglichen	-2876
schw	-2877
▁mot	-2878
▁san	-2879
▁ziv	-2880
tiger	-2881
ftware	-2882
▁auswirk	-2883
▁gewinnen	-2884
▁universität	-2885
▁entscheidungen	-2886
mpfen	-2887
▁gebiet	-2888
ith	-2889
▁no	-2890
ssen	-2891
▁hig	-2892
▁jap	-2893
eller	-2894
masch	-2895
▁winz	-2896
▁grenzen	-2897
▁studien	-2898
▁verlassen	-2899
▁nachzudenken	-2900
umm	-2901
win	-2902
ragt	-2903
ählt	-2904
ussen	-2905
▁erwäh	-2906
▁außerdem	-2907
▁zumindest	-2908
fik	-2909
▁vol	-2910
wasser	-2911
▁tagen	-2912
▁google	-2913
▁wussten	-2914
windigkeit	-2915
▁versuchte	-2916
▁/	-2917
▁bri	-2918
recht	-2919
▁angef	-2920
▁armut	-2921
▁feuer	-2922
▁großes	-2923
▁zugang	-2924
▁reaktion	-2925
wo	-2926
lern	-2927
orien	-2928
quenz	-2929
▁einzu	-2930
▁sahen	-2931
▁schreck	-2932
wür	-2933
ielle	-2934
orben	-2935
setzt	-2936
▁baum	-2937
▁kern	-2938
eitung	-2939
sweise	-2940
▁train	-2941
▁produzieren	-2942
▁af	-2943
atte	-2944
▁bro	-2945
▁arme	-2946
▁david	-2947
▁sowohl	-2948
▁bestimmt	-2949
▁verbesser	-2950
▁verbessern	-2951
seh	-2952
feld	-2953
▁see	-2954
▁webs	-2955
tierte	-2956
▁japan	-2957
▁karte	-2958
▁stamm	-2959
▁taten	-2960
▁wieso	-2961
▁zufäl	-2962
▁biolog	-2963
▁sitzen	-2964
▁nachbar	-2965
flik	-2966
artet	-2967
rauch	-2968
▁orte	-2969
gendes	-2970
▁gerät	-2971
▁bleibt	-2972
▁gesetz	-2973
▁dadurch	-2974
▁geschehen	-2975
ca	-2976
ct	-2977
ons	-2978
▁bat	-2979
▁behau	-2980
▁landes	-2981
▁videos	-2982
▁beispiele	-2983
▁entdecken	-2984
▁diejenigen	-2985
▁14	-2986
schir	-2987
▁fein	-2988
▁fühl	-2989
▁gründe	-2990
hei	-2991
abel	-2992
tler	-2993
▁haut	-2994
nehmer	-2995
▁telef	-2996
▁wechs	-2997
▁bilden	-2998
▁spezies	-2999
rad	-3000
tiver	-3001
▁freu	-3002
▁näher	-3003
▁theorie	-3004
▁erzeugen	-3005
ama	-3006
blich	-3007
▁uner	-3008
▁chines	-3009
▁tausende	-3010
ühle	-3011
▁kür	-3012
▁rund	-3013
▁sand	-3014
▁entwe	-3015
▁schei	-3016
▁unabhäng	-3017
ka	-3018
oph	-3019
fern	-3020
▁lag	-3021
▁gala	-3022
▁echte	-3023
▁nenne	-3024
▁schüler	-3025
▁fü	-3026
▁äu	-3027
▁wein	-3028
▁fisch	-3029
▁orten	-3030
osphäre	-3031
▁erlaubt	-3032
▁konzept	-3033
▁gebracht	-3034
▁unmöglich	-3035
▁vergangenheit	-3036
öst	-3037
▁dien	-3038
werfen	-3039
▁objekt	-3040
zeichnet	-3041
bert	-3042
▁pil	-3043
▁opti	-3044
stehen	-3045
uchten	-3046
▁personen	-3047
mo	-3048
zun	-3049
ende	-3050
▁profess	-3051
▁wirklichkeit	-3052
ub	-3053
▁tro	-3054
orfen	-3055
üssel	-3056
▁häuf	-3057
▁sohn	-3058
▁region	-3059
▁spielt	-3060
▁voller	-3061
▁fotograf	-3062
▁verbinden	-3063
gi	-3064
ox	-3065
wart	-3066
▁gek	-3067
machen	-3068
sionen	-3069
▁befinden	-3070
▁irgendwo	-3071
▁medikamen	-3072
ande	-3073
▁deta	-3074
▁dahin	-3075
▁galax	-3076
ierende	-3077
▁warten	-3078
▁aussieht	-3079
▁bakterien	-3080
▁krankheiten	-3081
▁70	-3082
ital	-3083
▁anti	-3084
▁schla	-3085
ulation	-3086
▁firmen	-3087
▁großartige	-3088
ed	-3089
▁»	-3090
▁rom	-3091
genie	-3092
seite	-3093
änomen	-3094
▁kombin	-3095
▁globalen	-3096
▁nachricht	-3097
50	-3098
itu	-3099
zte	-3100
iker	-3101
onie	-3102
▁ker	-3103
▁schö	-3104
ichter	-3105
zimmer	-3106
▁führte	-3107
▁hundert	-3108
▁ständig	-3109
▁sprachen	-3110
▁arbeitete	-3111
go	-3112
ball	-3113
grün	-3114
itär	-3115
▁för	-3116
ativen	-3117
▁keiner	-3118
▁entweder	-3119
nü	-3120
ror	-3121
▁17	-3122
eite	-3123
irur	-3124
▁wün	-3125
mmern	-3126
▁erwei	-3127
▁trans	-3128
▁gekommen	-3129
▁«	-3130
▁kr	-3131
volle	-3132
▁außen	-3133
▁worte	-3134
schluss	-3135
▁einzig	-3136
▁erfahren	-3137
▁zusammenh	-3138
▁überraschen	-3139
rise	-3140
▁flü	-3141
raten	-3142
▁ökon	-3143
▁präsi	-3144
▁geheim	-3145
▁charakter	-3146
▁wü	-3147
▁mob	-3148
asche	-3149
herap	-3150
▁alte	-3151
peratur	-3152
▁aufgrund	-3153
▁software	-3154
geh	-3155
eits	-3156
reib	-3157
▁mäch	-3158
▁sinne	-3159
▁spezi	-3160
▁altern	-3161
▁messen	-3162
▁statist	-3163
▁ursprün	-3164
▁herstellen	-3165
▁verständnis	-3166
rab	-3167
ürf	-3168
iter	-3169
▁klin	-3170
▁berüh	-3171
▁ebene	-3172
▁höher	-3173
▁kommunikation	-3174
az	-3175
▁bus	-3176
schul	-3177
tischer	-3178
▁ebenso	-3179
▁kohlen	-3180
▁meeres	-3181
▁flugzeug	-3182
▁antworten	-3183
fs	-3184
▁grü	-3185
assung	-3186
▁runter	-3187
▁ingenie	-3188
▁riesige	-3189
▁welcher	-3190
entlichen	-3191
▁amerikanischen	-3192
größ	-3193
lige	-3194
▁sto	-3195
▁baby	-3196
reitet	-3197
▁bezug	-3198
▁partner	-3199
▁ressourcen	-3200
ix	-3201
▁of	-3202
▁wol	-3203
ächen	-3204
▁höch	-3205
▁spre	-3206
astrop	-3207
▁dritte	-3208
▁himmel	-3209
▁konflik	-3210
▁dasselbe	-3211
▁phänomen	-3212
▁betrachtet	-3213
ark	-3214
▁log	-3215
▁lebt	-3216
▁lust	-3217
ometer	-3218
▁fotos	-3219
▁wesen	-3220
▁sammeln	-3221
▁einander	-3222
▁amerikaner	-3223
▁entschieden	-3224
rier	-3225
▁198	-3226
▁pau	-3227
▁hilft	-3228
sätzlich	-3229
▁million	-3230
▁mittler	-3231
▁nahrung	-3232
licherweise	-3233
▁verstanden	-3234
hil	-3235
rig	-3236
stes	-3237
izieren	-3238
▁arbeits	-3239
▁vorstell	-3240
▁ermöglicht	-3241
▁außergewöhn	-3242
schä	-3243
tzten	-3244
ständig	-3245
trieben	-3246
▁bisher	-3247
▁notwend	-3248
spl	-3249
üllen	-3250
ütter	-3251
▁innen	-3252
▁perfe	-3253
▁fangen	-3254
▁erklärt	-3255
▁entdeckt	-3256
▁sekunden	-3257
▁wundersch	-3258
▁grundlegen	-3259
mäß	-3260
▁exp	-3261
eisch	-3262
stern	-3263
werke	-3264
▁brust	-3265
▁linie	-3266
▁architektur	-3267
fa	-3268
haf	-3269
ghan	-3270
ynam	-3271
teile	-3272
▁höhe	-3273
▁bühne	-3274
▁dritten	-3275
▁frieden	-3276
▁solchen	-3277
▁gesamten	-3278
▁schönheit	-3279
▁krankenhaus	-3280
stä	-3281
izien	-3282
stoffe	-3283
mension	-3284
▁bestimmte	-3285
▁ergebnisse	-3286
▁entscheidung	-3287
▁nü	-3288
▁hum	-3289
▁läch	-3290
▁finger	-3291
hi	-3292
ums	-3293
mann	-3294
▁ach	-3295
▁hände	-3296
▁kampf	-3297
ingungen	-3298
▁arbeite	-3299
▁handeln	-3300
▁englisch	-3301
▁institution	-3302
get	-3303
altet	-3304
press	-3305
▁schm	-3306
altung	-3307
▁afghan	-3308
▁gefäng	-3309
▁spiele	-3310
▁wörter	-3311
▁gefragt	-3312
▁gehirns	-3313
▁schmerz	-3314
▁befindet	-3315
▁freiheit	-3316
▁geschäfts	-3317
▁geschaffen	-3318
▁organisation	-3319
cks	-3320
ton	-3321
äte	-3322
▁kaum	-3323
▁herzen	-3324
▁selben	-3325
▁leisten	-3326
▁außerhalb	-3327
▁untersuchen	-3328
zü	-3329
▁13	-3330
rate	-3331
ulti	-3332
▁bege	-3333
▁könig	-3334
▁plast	-3335
▁unver	-3336
▁seines	-3337
▁zeigte	-3338
▁handelt	-3339
ils	-3340
lam	-3341
oli	-3342
lose	-3343
▁berg	-3344
▁denk	-3345
▁mars	-3346
▁ereig	-3347
ktionen	-3348
ssystem	-3349
▁versor	-3350
zunehmen	-3351
inge	-3352
üllt	-3353
eisen	-3354
inder	-3355
▁heil	-3356
▁lebe	-3357
▁naja	-3358
▁traf	-3359
▁farbe	-3360
▁geräu	-3361
▁ordnung	-3362
▁verdien	-3363
▁verstand	-3364
▁zunächst	-3365
arf	-3366
üll	-3367
▁arzt	-3368
▁fund	-3369
▁hält	-3370
▁quad	-3371
▁verz	-3372
ahrungs	-3373
▁beginn	-3374
▁nummer	-3375
▁bestehen	-3376
▁erzählte	-3377
▁getroffen	-3378
▁interesse	-3379
▁uhr	-3380
▁name	-3381
▁park	-3382
▁trag	-3383
gebaut	-3384
ktoren	-3385
▁geburt	-3386
▁nieder	-3387
▁verhin	-3388
▁einkommen	-3389
▁behandlung	-3390
orn	-3391
falt	-3392
▁dür	-3393
nungen	-3394
▁dauer	-3395
▁tisch	-3396
mitteln	-3397
▁leider	-3398
▁artikel	-3399
▁gründen	-3400
▁designer	-3401
▁gestellt	-3402
▁unterschei	-3403
anda	-3404
seits	-3405
▁iran	-3406
laufen	-3407
▁indust	-3408
▁schwarz	-3409
▁herunter	-3410
▁national	-3411
▁verkaufen	-3412
ps	-3413
rän	-3414
öse	-3415
▁zwe	-3416
eitet	-3417
▁büro	-3418
▁cool	-3419
▁laut	-3420
iellen	-3421
ierter	-3422
▁hörte	-3423
▁kreis	-3424
▁motiv	-3425
▁jahres	-3426
▁klimawand	-3427
▁sod	-3428
iegen	-3429
räfte	-3430
äuser	-3431
▁hirn	-3432
▁mark	-3433
▁stol	-3434
schirm	-3435
▁wohin	-3436
greifen	-3437
▁behaup	-3438
▁chance	-3439
▁einzigen	-3440
▁auswirkungen	-3441
▁herausfinden	-3442
▁unterstützen	-3443
kar	-3444
stag	-3445
▁dro	-3446
▁abend	-3447
▁belie	-3448
▁gespr	-3449
▁optim	-3450
▁eigent	-3451
▁schaut	-3452
▁methode	-3453
▁kollegen	-3454
▁einfachen	-3455
▁unglaubliche	-3456
mpf	-3457
▁ep	-3458
▁arg	-3459
▁kol	-3460
▁deut	-3461
rochen	-3462
▁traum	-3463
frieden	-3464
schiede	-3465
▁erstens	-3466
▁wunderbar	-3467
▁fortschritt	-3468
▁landwirtschaft	-3469
abr	-3470
gere	-3471
▁tru	-3472
▁ausl	-3473
▁läuft	-3474
▁suche	-3475
erstoff	-3476
zusagen	-3477
▁bedürf	-3478
▁geschah	-3479
▁telefon	-3480
▁deswegen	-3481
▁erstaunlich	-3482
ai	-3483
ids	-3484
kam	-3485
ahlt	-3486
webe	-3487
wick	-3488
▁201	-3489
ahmen	-3490
räsen	-3491
▁hart	-3492
▁retten	-3493
▁letztes	-3494
▁religion	-3495
rt	-3496
kur	-3497
plan	-3498
samm	-3499
▁pal	-3500
▁woh	-3501
▁bill	-3502
▁hall	-3503
▁muse	-3504
▁punkte	-3505
▁ehrlich	-3506
▁zeitpunkt	-3507
oma	-3508
▁ei	-3509
▁blo	-3510
organ	-3511
ong	-3512
äst	-3513
ffer	-3514
itann	-3515
riere	-3516
schte	-3517
stück	-3518
▁gele	-3519
▁chirur	-3520
▁sozial	-3521
▁worten	-3522
▁erfunden	-3523
▁erinnere	-3524
▁erwarten	-3525
la	-3526
bed	-3527
▁1,	-3528
▁21	-3529
▁pop	-3530
▁heran	-3531
▁äußer	-3532
▁betrie	-3533
▁verste	-3534
▁ausdruck	-3535
bli	-3536
ehme	-3537
▁fen	-3538
▁grad	-3539
▁inse	-3540
▁stab	-3541
▁wohn	-3542
brechen	-3543
▁klasse	-3544
▁kontin	-3545
gefunden	-3546
▁schlimm	-3547
▁hunderte	-3548
▁position	-3549
▁begeister	-3550
vel	-3551
zut	-3552
▁bu	-3553
▁lo	-3554
geht	-3555
stre	-3556
▁tal	-3557
krieg	-3558
▁aktu	-3559
▁ausw	-3560
▁beweg	-3561
▁anwend	-3562
arbeiter	-3563
▁globale	-3564
▁mehrere	-3565
▁schicken	-3566
▁stattdessen	-3567
leg	-3568
▁del	-3569
▁wun	-3570
istor	-3571
▁hung	-3572
▁stei	-3573
stände	-3574
▁spekt	-3575
▁nahmen	-3576
▁sodass	-3577
▁untersuch	-3578
▁mär	-3579
▁blog	-3580
▁frem	-3581
▁armen	-3582
▁islam	-3583
barkeit	-3584
▁fallen	-3585
▁plastik	-3586
▁lösungen	-3587
▁schützen	-3588
▁verrückt	-3589
▁ebenfalls	-3590
▁angefangen	-3591
ober	-3592
▁säu	-3593
artig	-3594
ragen	-3595
▁vern	-3596
passen	-3597
▁werte	-3598
▁ganzes	-3599
▁stunde	-3600
▁stimmen	-3601
▁eigenschaften	-3602
▁sm	-3603
afft	-3604
bahn	-3605
buch	-3606
▁mond	-3607
indust	-3608
selben	-3609
▁gewal	-3610
▁rechte	-3611
▁risiko	-3612
▁schluss	-3613
möglichen	-3614
▁netzwerk	-3615
▁behandeln	-3616
▁bal	-3617
ühlen	-3618
▁fett	-3619
antwor	-3620
▁verfüg	-3621
▁wichtigste	-3622
▁beziehungen	-3623
▁jahrhunderts	-3624
apt	-3625
iete	-3626
▁las	-3627
hilfe	-3628
▁autor	-3629
▁gehir	-3630
▁selten	-3631
▁strate	-3632
▁zeiten	-3633
▁systeme	-3634
industrie	-3635
▁produkte	-3636
▁bemerkens	-3637
▁öffentlichen	-3638
ami	-3639
ron	-3640
▁km	-3641
▁hor	-3642
▁rot	-3643
inken	-3644
reise	-3645
▁auge	-3646
▁beit	-3647
▁jene	-3648
▁resp	-3649
▁tanz	-3650
▁fällt	-3651
▁abhäng	-3652
▁ahnung	-3653
▁aussch	-3654
▁sommer	-3655
ierenden	-3656
▁gedacht	-3657
▁wiederhol	-3658
▁regierungen	-3659
▁konzentrieren	-3660
ket	-3661
üst	-3662
takt	-3663
▁tim	-3664
bewer	-3665
itive	-3666
ittel	-3667
▁dopp	-3668
▁instr	-3669
▁liste	-3670
itannien	-3671
▁projekte	-3672
▁materialien	-3673
▁bud	-3674
▁ball	-3675
▁isra	-3676
tember	-3677
▁guter	-3678
alismus	-3679
▁kamera	-3680
▁schlag	-3681
▁version	-3682
▁biologie	-3683
▁heutigen	-3684
geschichte	-3685
▁zi	-3686
sage	-3687
▁gil	-3688
▁lond	-3689
▁farben	-3690
▁philos	-3691
▁verbrau	-3692
▁zustand	-3693
▁nahrungs	-3694
▁gefängnis	-3695
kan	-3696
keln	-3697
ourn	-3698
▁jün	-3699
▁umf	-3700
alist	-3701
wärts	-3702
▁high	-3703
▁hört	-3704
▁gering	-3705
▁schutz	-3706
▁industrie	-3707
▁herzustellen	-3708
ifor	-3709
▁500	-3710
▁dok	-3711
▁ten	-3712
etzen	-3713
▁inte	-3714
teilen	-3715
▁infra	-3716
▁klass	-3717
▁liebl	-3718
▁motor	-3719
haltung	-3720
▁massen	-3721
▁militär	-3722
alisierung	-3723
▁schlüssel	-3724
▁medikamente	-3725
▁veränderungen	-3726
öpf	-3727
leist	-3728
▁gehe	-3729
▁angeb	-3730
▁kenne	-3731
▁freude	-3732
▁terror	-3733
▁entfern	-3734
bi	-3735
eid	-3736
mon	-3737
oge	-3738
▁24	-3739
scher	-3740
▁wege	-3741
▁erfahr	-3742
▁öffnen	-3743
▁größeren	-3744
▁jemandem	-3745
▁zweitens	-3746
je	-3747
bur	-3748
maß	-3749
▁gu	-3750
▁hey	-3751
▁nerv	-3752
ochter	-3753
▁fluss	-3754
▁neuer	-3755
▁wenige	-3756
▁eigenes	-3757
▁erleben	-3758
▁erzeugt	-3759
▁gegangen	-3760
britannien	-3761
▁werkzeuge	-3762
hy	-3763
▁atm	-3764
▁fok	-3765
ausen	-3766
▁darf	-3767
▁wett	-3768
liegen	-3769
vollen	-3770
▁westen	-3771
▁bestand	-3772
▁fenster	-3773
▁rechten	-3774
▁zivilis	-3775
▁verbringen	-3776
▁verantwortung	-3777
bol	-3778
gibt	-3779
ikas	-3780
othe	-3781
▁tem	-3782
iforn	-3783
▁glas	-3784
▁kauf	-3785
▁absch	-3786
▁titel	-3787
▁weiss	-3788
▁jugend	-3789
▁wichtigsten	-3790
▁ag	-3791
anke	-3792
osau	-3793
▁erl	-3794
meter	-3795
ühren	-3796
▁temp	-3797
▁chris	-3798
▁genom	-3799
▁niedr	-3800
▁seien	-3801
▁dunkel	-3802
▁langen	-3803
▁lernte	-3804
▁mechan	-3805
▁knochen	-3806
▁erlauben	-3807
▁entschied	-3808
ickt	-3809
▁web	-3810
frika	-3811
krank	-3812
losen	-3813
rifft	-3814
wechs	-3815
örung	-3816
▁brot	-3817
▁loch	-3818
▁merk	-3819
▁frühen	-3820
▁tieren	-3821
▁waffen	-3822
▁elektron	-3823
▁folgendes	-3824
künf	-3825
lege	-3826
▁196	-3827
▁mut	-3828
▁mass	-3829
▁rech	-3830
▁gross	-3831
▁komme	-3832
▁legen	-3833
drücken	-3834
▁israel	-3835
▁endlich	-3836
▁neuronen	-3837
▁existiert	-3838
▁maschinen	-3839
▁kreativität	-3840
▁x	-3841
sse	-3842
mmun	-3843
ätze	-3844
auert	-3845
maßen	-3846
bieren	-3847
schutz	-3848
▁osten	-3849
▁london	-3850
▁trifft	-3851
▁dorthin	-3852
▁positiv	-3853
▁begonnen	-3854
▁verfügung	-3855
▁zusammenhang	-3856
ana	-3857
tens	-3858
ährt	-3859
▁tum	-3860
ießen	-3861
▁gang	-3862
▁habt	-3863
▁koll	-3864
▁vorh	-3865
tation	-3866
▁lasst	-3867
▁typen	-3868
entwick	-3869
▁fühlte	-3870
▁vermut	-3871
▁gefühle	-3872
▁tochter	-3873
▁entstehen	-3874
geschlossen	-3875
▁beeinflusst	-3876
▁erfahrungen	-3877
▁komplexität	-3878
ote	-3879
pfl	-3880
▁ed	-3881
▁fo	-3882
üsse	-3883
▁300	-3884
dings	-3885
▁fran	-3886
▁vari	-3887
ulieren	-3888
▁größere	-3889
▁konstru	-3890
▁verhält	-3891
▁zentrum	-3892
▁repräsen	-3893
▁sicherlich	-3894
▁auseinander	-3895
▁infrastruktur	-3896
▁großbritannien	-3897
▁geschwindigkeit	-3898
cy	-3899
up	-3900
rah	-3901
üch	-3902
ames	-3903
angt	-3904
ling	-3905
▁hom	-3906
▁schöne	-3907
▁spitze	-3908
▁wählen	-3909
▁fernsehen	-3910
zy	-3911
▁ah	-3912
▁as	-3913
▁jo	-3914
gien	-3915
lück	-3916
oper	-3917
▁mex	-3918
▁wär	-3919
▁echt	-3920
▁eröff	-3921
▁zelle	-3922
▁gelegenheit	-3923
abt	-3924
prü	-3925
▁yo	-3926
geln	-3927
▁197	-3928
▁eth	-3929
▁imp	-3930
▁atom	-3931
▁holz	-3932
▁umzu	-3933
▁bäume	-3934
▁ärzte	-3935
▁erstes	-3936
▁rücken	-3937
▁sauber	-3938
minister	-3939
▁nächstes	-3940
▁standard	-3941
▁geschafft	-3942
▁sauerstoff	-3943
▁investieren	-3944
imp	-3945
stau	-3946
▁daß	-3947
▁ken	-3948
aktiv	-3949
fisch	-3950
lieben	-3951
▁tolle	-3952
▁haupts	-3953
▁deutlich	-3954
▁erinnert	-3955
▁freunden	-3956
▁einfacher	-3957
▁produziert	-3958
▁unterschiede	-3959
arm	-3960
gor	-3961
arch	-3962
gern	-3963
ogel	-3964
▁con	-3965
▁red	-3966
bruch	-3967
gress	-3968
▁face	-3969
▁ließ	-3970
▁besor	-3971
▁desto	-3972
▁todes	-3973
▁wirst	-3974
▁kostet	-3975
▁entlang	-3976
▁kompliz	-3977
▁gewonnen	-3978
▁ermöglichen	-3979
ool	-3980
▁sub	-3981
▁wal	-3982
▁zit	-3983
▁zäh	-3984
▁aufw	-3985
digung	-3986
▁fühle	-3987
▁somit	-3988
▁virus	-3989
▁zentr	-3990
▁fällen	-3991
▁häufig	-3992
▁result	-3993
▁materie	-3994
▁unsicht	-3995
▁weiterhin	-3996
ged	-3997
▁kir	-3998
laden	-3999
stadt	-4000
▁fühlt	-4001
▁kennt	-4002
▁nehme	-4003
▁bitten	-4004
▁richard	-4005
▁spreche	-4006
▁kilometer	-4007
▁konferenz	-4008
▁verbindungen	-4009
▁interessanter	-4010
hör	-4011
par	-4012
▁it	-4013
ttet	-4014
▁neg	-4015
▁weib	-4016
osystem	-4017
▁besuch	-4018
▁gebrau	-4019
▁vision	-4020
maschine	-4021
▁perspek	-4022
▁kontrollieren	-4023
appen	-4024
▁feld	-4025
ations	-4026
ielten	-4027
▁hielt	-4028
spielen	-4029
▁drehen	-4030
▁reicht	-4031
▁wunsch	-4032
▁einsatz	-4033
▁klassen	-4034
▁modernen	-4035
▁politische	-4036
▁temperatur	-4037
fil	-4038
▁ku	-4039
fest	-4040
üben	-4041
markt	-4042
▁nähe	-4043
nissen	-4044
▁ansatz	-4045
▁gewöhn	-4046
▁reisen	-4047
verständ	-4048
▁begriff	-4049
▁demokra	-4050
▁industr	-4051
▁brauchte	-4052
▁riesigen	-4053
▁irgendwann	-4054
▁afghanistan	-4055
▁aufgenommen	-4056
▁entwicklungsl	-4057
▁gesellschaften	-4058
▁mc	-4059
ingu	-4060
stab	-4061
▁kos	-4062
▁mel	-4063
▁aids	-4064
▁spür	-4065
▁stil	-4066
formen	-4067
▁dynam	-4068
setzung	-4069
vention	-4070
▁kunden	-4071
dimension	-4072
▁benötigen	-4073
▁experimen	-4074
▁allerdings	-4075
▁verursacht	-4076
mel	-4077
gier	-4078
hause	-4079
▁müll	-4080
▁einst	-4081
▁stolz	-4082
tisches	-4083
▁beteil	-4084
▁ökonom	-4085
zeichnen	-4086
▁dagegen	-4087
▁dennoch	-4088
▁schrift	-4089
▁wahrneh	-4090
▁karriere	-4091
▁werkzeug	-4092
▁botschaft	-4093
▁katastrop	-4094
▁erforschen	-4095
▁universums	-4096
▁klimawandel	-4097
▁politischen	-4098
▁unternehmer	-4099
vis	-4100
▁che	-4101
hemen	-4102
▁poliz	-4103
spieler	-4104
▁bienen	-4105
▁genutzt	-4106
▁kämpfen	-4107
▁gemeinde	-4108
▁wiederum	-4109
▁reagieren	-4110
▁ökosystem	-4111
▁verhaltens	-4112
ley	-4113
ägt	-4114
book	-4115
gest	-4116
text	-4117
▁sal	-4118
heben	-4119
isser	-4120
neten	-4121
▁golf	-4122
▁kürz	-4123
ration	-4124
▁basis	-4125
▁halte	-4126
▁journ	-4127
▁roten	-4128
steller	-4129
▁berühm	-4130
▁passen	-4131
▁selber	-4132
▁mitglie	-4133
▁aufgaben	-4134
▁benötigt	-4135
▁intervie	-4136
wissenschaft	-4137
▁hoffentlich	-4138
▁wunderschön	-4139
hle	-4140
anne	-4141
enze	-4142
▁bru	-4143
ttern	-4144
▁band	-4145
tigung	-4146
▁niger	-4147
▁roman	-4148
▁starb	-4149
▁töten	-4150
▁zusch	-4151
stellte	-4152
▁verkehr	-4153
▁beantwor	-4154
▁großteil	-4155
▁sozusagen	-4156
▁letztendlich	-4157
▁nö	-4158
ckte	-4159
leun	-4160
twas	-4161
▁end	-4162
erken	-4163
▁fach	-4164
▁port	-4165
artige	-4166
modell	-4167
▁akzep	-4168
▁kaffe	-4169
tzungen	-4170
▁werfen	-4171
▁schafft	-4172
▁stecken	-4173
▁produktion	-4174
▁lebensmittel	-4175
▁möglicherweise	-4176
ac	-4177
eff	-4178
iden	-4179
▁dün	-4180
▁mos	-4181
sagen	-4182
▁erhö	-4183
▁expl	-4184
▁davor	-4185
bereich	-4186
▁entspr	-4187
zwischen	-4188
▁buchstä	-4189
▁fernseh	-4190
▁patient	-4191
▁verrück	-4192
▁verkauft	-4193
▁vollkommen	-4194
bank	-4195
digt	-4196
ente	-4197
▁irak	-4198
▁steu	-4199
treten	-4200
umente	-4201
▁begeg	-4202
▁dreht	-4203
▁metap	-4204
▁stoff	-4205
▁meilen	-4206
▁sterne	-4207
▁fleisch	-4208
▁gefangen	-4209
abe	-4210
opp	-4211
üle	-4212
▁wa	-4213
ford	-4214
▁000	-4215
▁saß	-4216
▁sil	-4217
teilt	-4218
teles	-4219
tiere	-4220
▁halb	-4221
▁klang	-4222
▁multi	-4223
▁virtu	-4224
▁drogen	-4225
▁religi	-4226
▁verwir	-4227
▁stellten	-4228
▁vielfalt	-4229
▁intelligenz	-4230
▁wirtschafts	-4231
asi	-4232
▁ev	-4233
agne	-4234
vier	-4235
folge	-4236
ilien	-4237
mögen	-4238
ätsel	-4239
▁geor	-4240
▁fragt	-4241
▁stein	-4242
änglich	-4243
▁diagno	-4244
▁hinweg	-4245
▁konsum	-4246
▁identit	-4247
▁sekunde	-4248
alisieren	-4249
▁effizien	-4250
ungssystem	-4251
▁erstellen	-4252
▁natürliche	-4253
▁beschäftigt	-4254
rup	-4255
tert	-4256
igung	-4257
▁dick	-4258
▁histor	-4259
schlagen	-4260
▁polizei	-4261
▁relativ	-4262
▁zuhause	-4263
chtigkeit	-4264
zubringen	-4265
▁dieselbe	-4266
▁insekten	-4267
▁überzeugen	-4268
▁hintergrund	-4269
▁ke	-4270
▁mem	-4271
▁syn	-4272
▁tex	-4273
▁zut	-4274
fälle	-4275
hafte	-4276
gorith	-4277
gruppe	-4278
testen	-4279
▁erzie	-4280
▁gaben	-4281
▁schäd	-4282
▁solch	-4283
tierten	-4284
▁bauern	-4285
▁schwei	-4286
osaurier	-4287
▁diskuss	-4288
▁drittel	-4289
▁worüber	-4290
▁gewissen	-4291
▁verdienen	-4292
▁ausbildung	-4293
▁beeinflussen	-4294
▁herausgefunden	-4295
gri	-4296
urm	-4297
amin	-4298
fekt	-4299
netz	-4300
▁dom	-4301
ichts	-4302
krebs	-4303
▁dreh	-4304
▁ehem	-4305
▁leid	-4306
heorie	-4307
schule	-4308
▁angew	-4309
▁lautet	-4310
▁linken	-4311
▁vorber	-4312
▁männern	-4313
lan	-4314
▁asp	-4315
haben	-4316
stimm	-4317
▁arab	-4318
▁astr	-4319
▁gold	-4320
proble	-4321
untern	-4322
▁solar	-4323
▁vogel	-4324
zusehen	-4325
▁klingt	-4326
▁zukünf	-4327
▁ändert	-4328
▁geführt	-4329
▁objekte	-4330
▁tausend	-4331
▁gelangen	-4332
▁philosoph	-4333
▁augenblick	-4334
▁vollständig	-4335
▁buchstäblich	-4336
▁entwickelten	-4337
▁kommunizieren	-4338
▁zusammenarbeit	-4339
▁üb	-4340
auber	-4341
dingt	-4342
halte	-4343
▁lief	-4344
▁beruf	-4345
▁paten	-4346
jährige	-4347
▁kurzem	-4348
jährigen	-4349
▁effektiv	-4350
▁qualität	-4351
▁verfolgen	-4352
▁atmosphäre	-4353
▁strukturen	-4354
▁durchgeführt	-4355
▁wesentlichen	-4356
otyp	-4357
▁bio	-4358
▁ske	-4359
▁2000	-4360
▁gilt	-4361
▁hund	-4362
gleich	-4363
▁affen	-4364
▁austr	-4365
▁colle	-4366
▁jungs	-4367
fiziert	-4368
quenzen	-4369
▁mitten	-4370
▁depress	-4371
▁gestern	-4372
▁verkauf	-4373
▁eindruck	-4374
▁facebook	-4375
▁zufällig	-4376
▁entwerfen	-4377
▁problemen	-4378
bew	-4379
rag	-4380
▁cl	-4381
ufen	-4382
▁150	-4383
▁inn	-4384
zität	-4385
▁enth	-4386
▁getr	-4387
▁laden	-4388
▁sogen	-4389
schauen	-4390
▁integr	-4391
▁schlau	-4392
▁kontakt	-4393
▁besseren	-4394
▁bezahlen	-4395
▁meistens	-4396
▁behandelt	-4397
▁schließen	-4398
▁zufrieden	-4399
▁bedingungen	-4400
▁amerikanische	-4401
lü	-4402
ov	-4403
ada	-4404
ille	-4405
▁fei	-4406
▁ign	-4407
aptop	-4408
ildet	-4409
zeiten	-4410
▁furch	-4411
▁sport	-4412
▁experten	-4413
▁kaliforn	-4414
▁weiteren	-4415
▁unbedingt	-4416
▁veröffent	-4417
▁vermutlich	-4418
▁wunderbare	-4419
ara	-4420
▁20.	-4421
ement	-4422
ologe	-4423
platz	-4424
▁orig	-4425
mutter	-4426
▁sitzt	-4427
organis	-4428
sichtig	-4429
▁erhält	-4430
▁steigen	-4431
▁umgehen	-4432
▁unglück	-4433
▁überras	-4434
▁besitzen	-4435
▁scheinen	-4436
▁übertragen	-4437
▁hauptsächlich	-4438
del	-4439
▁gä	-4440
iell	-4441
illi	-4442
▁city	-4443
▁rand	-4444
▁szen	-4445
istenz	-4446
▁brenn	-4447
teilung	-4448
▁museum	-4449
▁rätsel	-4450
▁persönlich	-4451
▁vergleichen	-4452
▁unterstützung	-4453
▁organisationen	-4454
met	-4455
eien	-4456
klus	-4457
wood	-4458
▁jobs	-4459
▁klei	-4460
jekten	-4461
▁freiw	-4462
▁gefäl	-4463
▁hohen	-4464
▁ignor	-4465
▁minde	-4466
▁analys	-4467
▁einsch	-4468
▁nerven	-4469
▁restau	-4470
alisiert	-4471
▁geschle	-4472
▁irgende	-4473
▁fundament	-4474
▁gestalten	-4475
▁milliarde	-4476
▁beschreiben	-4477
kn	-4478
amb	-4479
dru	-4480
unt	-4481
▁cha	-4482
▁kra	-4483
▁usw	-4484
▁wik	-4485
macht	-4486
tiker	-4487
▁bank	-4488
▁null	-4489
▁russ	-4490
reffen	-4491
▁masse	-4492
▁lieber	-4493
▁steckt	-4494
▁nochmal	-4495
▁perfekt	-4496
▁entsteht	-4497
▁präsident	-4498
▁wettbewer	-4499
▁irgendetwas	-4500
▁veröffentlicht	-4501
▁ac	-4502
inne	-4503
sinn	-4504
ttel	-4505
▁fle	-4506
ichen	-4507
▁abges	-4508
▁angel	-4509
▁laufe	-4510
herapie	-4511
▁erster	-4512
▁liefer	-4513
▁rahmen	-4514
▁leistung	-4515
▁schwarze	-4516
▁weiteres	-4517
▁überzeugt	-4518
ban	-4519
dia	-4520
far	-4521
bewe	-4522
jahr	-4523
onom	-4524
pfel	-4525
▁nan	-4526
▁seh	-4527
werte	-4528
▁bett	-4529
▁bloß	-4530
▁prim	-4531
▁mobil	-4532
zeichen	-4533
▁bedroh	-4534
▁berech	-4535
▁haufen	-4536
▁karten	-4537
▁themen	-4538
▁wächst	-4539
▁elektro	-4540
▁kümmern	-4541
▁neugier	-4542
▁spieler	-4543
▁gegensei	-4544
▁zurückzu	-4545
▁dinosaurier	-4546
▁kohlenstoff	-4547
▁ol	-4548
▁vö	-4549
▁les	-4550
▁hohe	-4551
▁text	-4552
▁flüss	-4553
▁hängt	-4554
▁setzt	-4555
▁stift	-4556
▁gewebe	-4557
▁element	-4558
▁teilchen	-4559
richtungen	-4560
ruf	-4561
▁tw	-4562
▁400	-4563
▁ehe	-4564
träge	-4565
▁kurze	-4566
▁könnt	-4567
▁liter	-4568
▁studi	-4569
▁woher	-4570
geladen	-4571
▁dienst	-4572
▁schaff	-4573
▁symbol	-4574
▁wandel	-4575
richtung	-4576
▁gesetze	-4577
▁betrifft	-4578
▁nützlich	-4579
▁aktivität	-4580
▁verbracht	-4581
▁bildschirm	-4582
▁gefährlich	-4583
▁verbreitet	-4584
▁verhindern	-4585
pre	-4586
zur	-4587
▁ap	-4588
berg	-4589
fter	-4590
▁prü	-4591
terie	-4592
trieb	-4593
▁wald	-4594
▁extra	-4595
▁frank	-4596
▁symme	-4597
▁christ	-4598
▁geräte	-4599
▁gewinn	-4600
▁korrup	-4601
programm	-4602
▁anderem	-4603
▁falsche	-4604
▁morgens	-4605
▁städten	-4606
▁erwartet	-4607
▁beschleun	-4608
▁einsetzen	-4609
zäh	-4610
▁emp	-4611
▁tor	-4612
▁tue	-4613
▁fabr	-4614
▁getö	-4615
▁sexu	-4616
▁aufst	-4617
▁sowie	-4618
achtung	-4619
▁testen	-4620
▁zucker	-4621
▁bildern	-4622
▁schwester	-4623
▁verlangen	-4624
by	-4625
ieß	-4626
▁ox	-4627
fach	-4628
▁amp	-4629
▁bie	-4630
frage	-4631
▁ecke	-4632
▁gras	-4633
▁halt	-4634
afrika	-4635
gramme	-4636
▁babys	-4637
▁beine	-4638
meister	-4639
▁dürfen	-4640
▁gedanke	-4641
▁normale	-4642
▁schnitt	-4643
▁zeichen	-4644
▁begeistert	-4645
▁forschungs	-4646
kr	-4647
ole	-4648
läss	-4649
ramm	-4650
▁bom	-4651
▁col	-4652
▁hyp	-4653
frist	-4654
▁ment	-4655
▁zell	-4656
▁bewir	-4657
▁drama	-4658
▁radik	-4659
▁mütter	-4660
▁erzähle	-4661
▁kontext	-4662
▁bestimmen	-4663
▁identität	-4664
▁vorhanden	-4665
technologie	-4666
▁hergestellt	-4667
gyp	-4668
ante	-4669
dige	-4670
esch	-4671
hese	-4672
iven	-4673
ächt	-4674
▁ban	-4675
▁ruh	-4676
▁impf	-4677
▁roll	-4678
▁demon	-4679
▁franz	-4680
▁konse	-4681
▁parad	-4682
▁weder	-4683
▁echten	-4684
▁lachen	-4685
▁schönen	-4686
▁angesehen	-4687
▁praktisch	-4688
▁experimente	-4689
ens	-4690
▁ki	-4691
test	-4692
▁ass	-4693
▁fak	-4694
▁pen	-4695
▁sep	-4696
▁grös	-4697
▁prop	-4698
stellten	-4699
▁ameisen	-4700
▁begrenz	-4701
▁einiger	-4702
▁geschen	-4703
▁modelle	-4704
▁schwein	-4705
ungskraft	-4706
▁eingesetzt	-4707
▁verbreiten	-4708
▁investition	-4709
▁verantwortlich	-4710
▁cy	-4711
▁rä	-4712
adem	-4713
serv	-4714
deten	-4715
▁bekä	-4716
▁intu	-4717
▁kreu	-4718
▁pfer	-4719
▁wild	-4720
▁total	-4721
▁wahre	-4722
▁ausgeb	-4723
▁gehabt	-4724
▁heimat	-4725
▁laptop	-4726
▁nannte	-4727
▁steuer	-4728
▁zimmer	-4729
▁gewisse	-4730
▁gewisser	-4731
▁mögliche	-4732
▁ungewöhn	-4733
▁zunehmen	-4734
▁restauran	-4735
▁öffentlichkeit	-4736
▁1.	-4737
band	-4738
idem	-4739
▁rie	-4740
hingt	-4741
▁mess	-4742
▁satz	-4743
▁holen	-4744
▁teuer	-4745
▁automa	-4746
▁gefahr	-4747
▁glaubt	-4748
▁häuser	-4749
▁intens	-4750
▁norden	-4751
▁riesen	-4752
▁schimp	-4753
▁alleine	-4754
▁entschl	-4755
▁fragten	-4756
▁gewicht	-4757
▁welchen	-4758
▁kindheit	-4759
▁kürzlich	-4760
▁soldaten	-4761
▁interview	-4762
▁schwimmen	-4763
▁verwandeln	-4764
▁erwachsenen	-4765
▁kalifornien	-4766
▁interagieren	-4767
▁interessieren	-4768
dy	-4769
kla	-4770
sich	-4771
▁deb	-4772
▁ros	-4773
▁ven	-4774
▁wow	-4775
nimmt	-4776
▁paul	-4777
▁umge	-4778
▁beloh	-4779
▁viren	-4780
führung	-4781
▁10.000	-4782
▁bruder	-4783
▁planet	-4784
▁college	-4785
▁getötet	-4786
▁verzwei	-4787
▁schlimmer	-4788
▁versuchten	-4789
gl	-4790
asa	-4791
kor	-4792
rid	-4793
ump	-4794
▁kogn	-4795
▁stau	-4796
atoren	-4797
kehren	-4798
zeugen	-4799
▁filme	-4800
▁pingu	-4801
hington	-4802
▁helden	-4803
▁mission	-4804
▁reichen	-4805
▁schimpan	-4806
▁september	-4807
▁erstaunliche	-4808
ash	-4809
lös	-4810
von	-4811
▁35	-4812
▁wäh	-4813
reite	-4814
tiges	-4815
tigte	-4816
usion	-4817
▁post	-4818
▁volk	-4819
werten	-4820
▁tiefe	-4821
schrift	-4822
ständen	-4823
▁bieten	-4824
▁händen	-4825
▁charles	-4826
▁genauer	-4827
ologische	-4828
▁algorith	-4829
▁aufhören	-4830
▁forscher	-4831
▁erkenntnis	-4832
▁washington	-4833
▁perspektive	-4834
▁$	-4835
▁ill	-4836
▁rat	-4837
schlä	-4838
▁dran	-4839
▁sitz	-4840
▁ägyp	-4841
▁nutzt	-4842
ographie	-4843
▁bekamen	-4844
▁england	-4845
▁gehalten	-4846
stellungen	-4847
▁gegenteil	-4848
▁definition	-4849
▁verschwinden	-4850
▁nu	-4851
skop	-4852
▁gas	-4853
▁boot	-4854
iertes	-4855
▁block	-4856
▁disku	-4857
▁musli	-4858
▁weißt	-4859
artigen	-4860
gegeben	-4861
▁schlie	-4862
▁gehirne	-4863
▁gelesen	-4864
▁moleküle	-4865
▁lieblings	-4866
▁inspiriert	-4867
▁organismen	-4868
▁überrascht	-4869
▁institutionen	-4870
vin	-4871
▁45	-4872
lett	-4873
gerät	-4874
▁folge	-4875
▁franc	-4876
▁lebte	-4877
▁opfer	-4878
▁trend	-4879
▁trägt	-4880
▁wisst	-4881
▁kurzen	-4882
▁sparen	-4883
▁starke	-4884
▁steuern	-4885
blichkeit	-4886
▁komplexe	-4887
▁normalen	-4888
▁existieren	-4889
▁entwickelte	-4890
ls	-4891
uß	-4892
gas	-4893
tex	-4894
sätz	-4895
▁ech	-4896
geber	-4897
▁drin	-4898
▁maus	-4899
▁mund	-4900
▁stat	-4901
▁unge	-4902
▁witz	-4903
werden	-4904
ändert	-4905
▁lernt	-4906
▁dauert	-4907
▁kaffee	-4908
▁minute	-4909
▁weißen	-4910
▁willen	-4911
▁elektri	-4912
▁spiegel	-4913
▁vorteil	-4914
▁gestorben	-4915
▁wahrnehmung	-4916
▁öffentliche	-4917
wa	-4918
bas	-4919
för	-4920
gro	-4921
lev	-4922
wegs	-4923
reien	-4924
▁radio	-4925
▁unend	-4926
▁ziele	-4927
▁deinen	-4928
▁kräfte	-4929
▁kapital	-4930
▁quadrat	-4931
▁aufbauen	-4932
▁erkannte	-4933
▁verbindet	-4934
▁angenommen	-4935
▁landschaft	-4936
▁mindestens	-4937
▁reduzieren	-4938
▁interaktion	-4939
▁0	-4940
deu	-4941
fir	-4942
izi	-4943
pie	-4944
sal	-4945
▁dur	-4946
▁got	-4947
▁tom	-4948
bares	-4949
fügen	-4950
ischt	-4951
schau	-4952
▁code	-4953
versor	-4954
▁anspr	-4955
▁domin	-4956
▁insel	-4957
▁still	-4958
gewicht	-4959
▁beweis	-4960
▁garten	-4961
▁meiste	-4962
▁privat	-4963
fizieren	-4964
▁basiert	-4965
▁bemerkt	-4966
▁erkrank	-4967
▁fördern	-4968
▁moderne	-4969
▁seitdem	-4970
▁verschl	-4971
▁überprü	-4972
▁entgegen	-4973
▁schlagen	-4974
▁aufregend	-4975
▁brauchten	-4976
▁professor	-4977
▁arbeiteten	-4978
▁erscheinen	-4979
▁individuen	-4980
▁zugänglich	-4981
▁fantastisch	-4982
▁grundlegende	-4983
▁unterscheiden	-4984
2-	-4985
com	-4986
▁bon	-4987
kreis	-4988
▁eure	-4989
▁erleb	-4990
▁musst	-4991
▁grenze	-4992
▁schien	-4993
▁verblü	-4994
▁überle	-4995
▁starten	-4996
▁stärker	-4997
▁behalten	-4998
▁brachten	-4999
▁gegensatz	-5000
▁verfügbar	-5001
▁zeitalter	-5002
▁schlechten	-5003
kä	-5004
tial	-5005
üste	-5006
▁klu	-5007
▁tab	-5008
holen	-5009
komme	-5010
▁baut	-5011
derung	-5012
▁kohle	-5013
▁abstra	-5014
▁doktor	-5015
▁heisst	-5016
▁wander	-5017
▁bezahlt	-5018
▁schaden	-5019
▁erfinden	-5020
▁galaxien	-5021
▁interpre	-5022
▁lebewesen	-5023
▁korruption	-5024
▁persönliche	-5025
sc	-5026
ym	-5027
ipe	-5028
lad	-5029
ippe	-5030
ones	-5031
ular	-5032
▁ref	-5033
▁roh	-5034
▁unw	-5035
liten	-5036
tiven	-5037
▁gäbe	-5038
▁billi	-5039
▁ließen	-5040
▁schiff	-5041
▁beinhal	-5042
▁führung	-5043
▁kriegen	-5044
▁körpers	-5045
▁einstein	-5046
ologischen	-5047
▁netzwerke	-5048
▁politiker	-5049
▁generationen	-5050
gs	-5051
tan	-5052
flug	-5053
▁kno	-5054
▁wom	-5055
▁zog	-5056
▁frie	-5057
gesell	-5058
kosten	-5059
muster	-5060
▁handy	-5061
▁unbek	-5062
▁verne	-5063
▁wobei	-5064
istisch	-5065
▁beinah	-5066
▁chemik	-5067
▁darwin	-5068
▁europä	-5069
▁zauber	-5070
▁brauche	-5071
▁respekt	-5072
▁theater	-5073
▁annehmen	-5074
▁weltraum	-5075
▁betroffen	-5076
▁emotionen	-5077
▁entspricht	-5078
▁elektrizität	-5079
hel	-5080
yse	-5081
▁sä	-5082
lieb	-5083
ößen	-5084
▁len	-5085
passt	-5086
▁auff	-5087
▁cent	-5088
▁gemü	-5089
▁jähr	-5090
▁wurz	-5091
fische	-5092
gehend	-5093
uliert	-5094
▁zweck	-5095
flächen	-5096
▁auftau	-5097
▁drüben	-5098
▁fische	-5099
▁grafik	-5100
▁hoffen	-5101
▁schock	-5102
▁francis	-5103
▁wenigen	-5104
▁überein	-5105
▁abhängig	-5106
▁anwenden	-5107
▁gefahren	-5108
▁entworfen	-5109
▁erklärung	-5110
▁entstanden	-5111
▁grundsätzlich	-5112
fun	-5113
pol	-5114
▁gü	-5115
▁hi	-5116
akte	-5117
nern	-5118
besch	-5119
dient	-5120
ängst	-5121
▁fiel	-5122
stelle	-5123
▁aufgew	-5124
▁fehlen	-5125
bewegung	-5126
▁schaute	-5127
▁täglich	-5128
▁verhand	-5129
▁besondere	-5130
20	-5131
utt	-5132
war	-5133
▁zü	-5134
frau	-5135
hung	-5136
hört	-5137
sver	-5138
▁bra	-5139
▁off	-5140
zelle	-5141
▁bele	-5142
▁bras	-5143
▁lass	-5144
▁behin	-5145
▁bibli	-5146
▁milch	-5147
▁stufe	-5148
▁sucht	-5149
▁weile	-5150
amerika	-5151
ordnung	-5152
▁ansicht	-5153
▁geistes	-5154
▁intelle	-5155
mensionen	-5156
▁elemente	-5157
▁korallen	-5158
▁architekt	-5159
▁geheimnis	-5160
▁entsprechen	-5161
▁persönlichen	-5162
▁zivilisation	-5163
▁unterschiedlich	-5164
ld	-5165
amt	-5166
ühen	-5167
ühlt	-5168
inter	-5169
▁fähig	-5170
▁fängt	-5171
▁micha	-5172
▁wuchs	-5173
alisten	-5174
▁verlie	-5175
▁gehören	-5176
▁langwei	-5177
fähigkeit	-5178
▁entschul	-5179
▁nationen	-5180
▁aufgebaut	-5181
▁erscheint	-5182
▁mittleren	-5183
▁zerstören	-5184
▁entdeckung	-5185
yr	-5186
int	-5187
tro	-5188
uhr	-5189
äne	-5190
▁tu	-5191
iten	-5192
stat	-5193
▁dach	-5194
▁open	-5195
aturen	-5196
utzung	-5197
▁halbe	-5198
▁quasi	-5199
▁wagen	-5200
▁müsste	-5201
▁rechen	-5202
▁soviel	-5203
amerikan	-5204
▁beweise	-5205
▁inneren	-5206
▁install	-5207
▁beschrän	-5208
▁ersetzen	-5209
▁gespielt	-5210
▁konflikt	-5211
▁vorfahren	-5212
▁verbrachte	-5213
▁wesentlich	-5214
möglichkeiten	-5215
▁traditionellen	-5216
ehm	-5217
olly	-5218
▁erm	-5219
▁feu	-5220
▁fig	-5221
mäßig	-5222
▁aufs	-5223
▁fuhr	-5224
▁krise	-5225
▁world	-5226
▁zieht	-5227
agement	-5228
▁chemie	-5229
▁furcht	-5230
▁mexiko	-5231
▁setzte	-5232
▁wetter	-5233
▁details	-5234
▁spannen	-5235
▁verdopp	-5236
▁lebenser	-5237
▁ungleich	-5238
▁vertraut	-5239
▁digitalen	-5240
unternehmen	-5241
▁medikament	-5242
▁architekten	-5243
▁medizinische	-5244
dit	-5245
jem	-5246
▁99	-5247
aria	-5248
▁lan	-5249
▁hilf	-5250
▁isol	-5251
▁lied	-5252
▁live	-5253
fragen	-5254
▁gehör	-5255
▁stimm	-5256
▁toten	-5257
▁besitz	-5258
▁dutzen	-5259
▁erlebt	-5260
▁kooper	-5261
▁wellen	-5262
▁berechn	-5263
▁kulturen	-5264
▁methoden	-5265
▁nachbarn	-5266
▁zeichnen	-5267
▁zerstört	-5268
▁unabhängig	-5269
▁vermitteln	-5270
▁beantworten	-5271
▁feststellen	-5272
til	-5273
ügt	-5274
▁sl	-5275
eben	-5276
itel	-5277
kurr	-5278
▁anb	-5279
▁pat	-5280
▁atem	-5281
▁fehl	-5282
▁thom	-5283
▁zahn	-5284
▁hyper	-5285
▁start	-5286
▁times	-5287
itation	-5288
umenten	-5289
zentrum	-5290
ächtnis	-5291
▁ausmaß	-5292
▁ausser	-5293
▁effekt	-5294
▁hinten	-5295
▁lustig	-5296
▁schlaf	-5297
▁zählen	-5298
▁auswahl	-5299
▁michael	-5300
▁vergröß	-5301
▁besessen	-5302
▁hinsicht	-5303
▁widerspr	-5304
▁jahrzehnt	-5305
▁notwendig	-5306
▁studieren	-5307
▁wichtigen	-5308
▁wohlstand	-5309
▁untersucht	-5310
▁beschlossen	-5311
▁beschäftigen	-5312
▁veröffentlich	-5313
ex	-5314
tä	-5315
ikt	-5316
pha	-5317
use	-5318
kopf	-5319
sser	-5320
ugel	-5321
elles	-5322
fahrt	-5323
fluss	-5324
▁ausr	-5325
▁ermu	-5326
▁anrei	-5327
▁hotel	-5328
▁lager	-5329
▁nötig	-5330
▁passt	-5331
▁toile	-5332
▁tumor	-5333
▁verpf	-5334
▁voran	-5335
▁übrig	-5336
gruppen	-5337
▁anhand	-5338
▁aspekt	-5339
▁bietet	-5340
▁herein	-5341
▁quelle	-5342
▁vieler	-5343
wachstum	-5344
▁galaxie	-5345
▁prototyp	-5346
▁irgendjem	-5347
▁beobachtet	-5348
▁darstellen	-5349
▁diskussion	-5350
ey	-5351
ns	-5352
res	-5353
igte	-5354
oler	-5355
öpfe	-5356
▁air	-5357
▁dre	-5358
▁süß	-5359
acher	-5360
▁zuzu	-5361
kistan	-5362
recher	-5363
äusern	-5364
▁konfr	-5365
issionen	-5366
zusetzen	-5367
▁twitter	-5368
▁welchem	-5369
▁werbung	-5370
istischen	-5371
▁beeindru	-5372
▁besuchen	-5373
▁kreieren	-5374
▁gemeinden	-5375
▁produktiv	-5376
▁aufzubauen	-5377
▁bewegungen	-5378
▁jedenfalls	-5379
▁schlechter	-5380
▁verhältnis	-5381
▁natürlichen	-5382
▁schimpansen	-5383
▁selbstverständ	-5384
,5	-5385
eut	-5386
ozi	-5387
heim	-5388
reen	-5389
▁fru	-5390
wagen	-5391
▁rake	-5392
▁teen	-5393
iziert	-5394
riften	-5395
▁ledig	-5396
projekt	-5397
▁lebten	-5398
▁stammt	-5399
▁steigt	-5400
▁treten	-5401
▁träume	-5402
▁wolken	-5403
istische	-5404
▁fischer	-5405
▁gebeten	-5406
▁malaria	-5407
▁molekül	-5408
▁sequenz	-5409
▁viertel	-5410
▁gespräch	-5411
▁geändert	-5412
▁abschluss	-5413
▁entdeckte	-5414
▁kontinent	-5415
▁überlegen	-5416
▁definieren	-5417
po	-5418
ink	-5419
ird	-5420
▁ew	-5421
ston	-5422
ulpt	-5423
▁bur	-5424
▁jan	-5425
▁ult	-5426
ember	-5427
karte	-5428
tritt	-5429
ücher	-5430
▁kerl	-5431
▁kosm	-5432
▁rote	-5433
ilität	-5434
▁gehol	-5435
▁james	-5436
▁platt	-5437
▁schne	-5438
▁anteil	-5439
▁dauern	-5440
▁dunkle	-5441
▁junger	-5442
▁kochen	-5443
▁lehren	-5444
▁sonder	-5445
▁beinahe	-5446
▁berührt	-5447
▁einheit	-5448
▁erwähnt	-5449
▁hindern	-5450
▁konkurr	-5451
▁lektion	-5452
▁lächeln	-5453
▁beweisen	-5454
▁eingesch	-5455
▁komponen	-5456
▁ernährung	-5457
▁lediglich	-5458
bio	-5459
prä	-5460
see	-5461
alog	-5462
mail	-5463
▁täu	-5464
asste	-5465
eilen	-5466
fähig	-5467
nungs	-5468
phone	-5469
▁juli	-5470
▁stad	-5471
▁wahn	-5472
rechte	-5473
▁seele	-5474
▁verab	-5475
▁vorne	-5476
▁vögel	-5477
stimmen	-5478
ungsver	-5479
▁pflege	-5480
▁französ	-5481
▁wechsel	-5482
▁arbeiter	-5483
▁bereiche	-5484
▁erstellt	-5485
▁positive	-5486
▁schatten	-5487
▁operation	-5488
▁verbessert	-5489
öd	-5490
let	-5491
zig	-5492
äft	-5493
esie	-5494
herr	-5495
ward	-5496
ützt	-5497
lager	-5498
othek	-5499
preis	-5500
tzeit	-5501
▁dipl	-5502
▁spir	-5503
▁synt	-5504
▁trop	-5505
endung	-5506
tismus	-5507
▁hallo	-5508
gründet	-5509
stoffen	-5510
▁george	-5511
▁linien	-5512
▁modern	-5513
▁tiefer	-5514
besonder	-5515
▁derzeit	-5516
▁wirkung	-5517
▁folgende	-5518
▁geräusch	-5519
▁momentan	-5520
▁pakistan	-5521
▁westlichen	-5522
▁mitarbeiter	-5523
▁unterrichten	-5524
▁unglaublichen	-5525
▁beispielsweise	-5526
hre	-5527
ise	-5528
uni	-5529
▁il	-5530
▁kö	-5531
mord	-5532
anger	-5533
ierer	-5534
▁blät	-5535
▁phot	-5536
▁reag	-5537
▁blieb	-5538
▁repar	-5539
▁epidem	-5540
▁gottes	-5541
▁kümmer	-5542
▁mittag	-5543
▁pflanz	-5544
▁school	-5545
▁thomas	-5546
▁verknü	-5547
▁wikipe	-5548
▁absicht	-5549
▁gefällt	-5550
▁müssten	-5551
▁solange	-5552
▁website	-5553
▁wieviel	-5554
besondere	-5555
forschung	-5556
▁gefallen	-5557
▁schlafen	-5558
▁geschickt	-5559
▁schwarzen	-5560
▁wirkliche	-5561
▁australien	-5562
▁schrecklich	-5563
▁menschlicher	-5564
▁internationalen	-5565
ram	-5566
▁hu	-5567
▁ve	-5568
burg	-5569
hrop	-5570
mehr	-5571
rale	-5572
ufel	-5573
vard	-5574
▁21.	-5575
▁gal	-5576
▁leg	-5577
viert	-5578
zieht	-5579
▁rief	-5580
fangen	-5581
▁feind	-5582
▁gehei	-5583
▁letzt	-5584
▁schen	-5585
▁stock	-5586
▁stuhl	-5587
▁zitat	-5588
▁gegend	-5589
▁innere	-5590
▁langer	-5591
▁digitale	-5592
▁existenz	-5593
▁verteilt	-5594
versorgung	-5595
▁berichten	-5596
▁widerstand	-5597
▁insbesondere	-5598
da	-5599
zz	-5600
umb	-5601
nahm	-5602
reif	-5603
▁hem	-5604
▁urs	-5605
▁haar	-5606
▁enden	-5607
▁fälle	-5608
▁human	-5609
einhalb	-5610
fordert	-5611
reibung	-5612
▁ausgel	-5613
▁gelöst	-5614
▁handel	-5615
▁inhalt	-5616
▁nachts	-5617
▁schuld	-5618
▁willst	-5619
▁besitzt	-5620
▁kapitel	-5621
▁spielte	-5622
▁zuhören	-5623
▁äußerst	-5624
▁schätzen	-5625
▁gesichter	-5626
▁großmutter	-5627
▁chemikalien	-5628
▁statistiken	-5629
▁afrikanischen	-5630
▁schwierigkeiten	-5631
oc	-5632
ube	-5633
urf	-5634
önt	-5635
eise	-5636
klen	-5637
phen	-5638
▁rum	-5639
chern	-5640
weile	-5641
▁2008	-5642
▁hind	-5643
▁koch	-5644
▁kons	-5645
▁nasa	-5646
▁tedx	-5647
olitik	-5648
wohner	-5649
▁bauch	-5650
▁blind	-5651
▁enorm	-5652
▁kabel	-5653
▁bauten	-5654
▁grosse	-5655
▁singen	-5656
▁harvard	-5657
▁hierher	-5658
▁signale	-5659
▁solcher	-5660
▁umgeben	-5661
▁verschm	-5662
▁entstand	-5663
▁transpar	-5664
▁versteht	-5665
▁bekannten	-5666
▁erfindung	-5667
▁wikipedia	-5668
▁überrasch	-5669
▁interessen	-5670
▁verwandelt	-5671
▁irgendjemand	-5672
pft	-5673
rel	-5674
erne	-5675
loss	-5676
rige	-5677
star	-5678
äuse	-5679
▁erg	-5680
▁sum	-5681
▁top	-5682
ehung	-5683
kette	-5684
mater	-5685
unken	-5686
äufer	-5687
▁glam	-5688
haften	-5689
kultur	-5690
▁brief	-5691
▁folgt	-5692
▁jewei	-5693
▁blumen	-5694
▁erlaub	-5695
▁herren	-5696
telliten	-5697
▁chirurg	-5698
▁einiges	-5699
▁maßstab	-5700
▁verlust	-5701
▁verring	-5702
losigkeit	-5703
▁bildungs	-5704
▁offenbar	-5705
▁arbeitspl	-5706
▁potential	-5707
▁beinhaltet	-5708
▁geschlecht	-5709
▁unterhaltung	-5710
oben	-5711
barer	-5712
ckten	-5713
▁alex	-5714
▁eier	-5715
▁kehr	-5716
▁lich	-5717
karten	-5718
schrän	-5719
wenden	-5720
▁damen	-5721
▁drauf	-5722
▁grüne	-5723
▁initi	-5724
▁ausgew	-5725
▁austau	-5726
▁belieb	-5727
▁enorme	-5728
▁führer	-5729
▁gelebt	-5730
▁heißen	-5731
▁winter	-5732
▁überqu	-5733
▁erneuer	-5734
▁glamour	-5735
▁mächtig	-5736
▁student	-5737
▁wissens	-5738
verbrauch	-5739
▁ähnliche	-5740
▁bereichen	-5741
▁beschloss	-5742
▁gegründet	-5743
▁zusammenf	-5744
▁faszinierend	-5745
▁internationale	-5746
▁75	-5747
▁bä	-5748
nach	-5749
zipl	-5750
▁600	-5751
▁anh	-5752
▁ath	-5753
▁mas	-5754
erung	-5755
▁brow	-5756
üstung	-5757
▁folie	-5758
▁wofür	-5759
▁diesel	-5760
▁grünen	-5761
▁market	-5762
▁streit	-5763
▁worauf	-5764
qualität	-5765
▁italien	-5766
▁anstelle	-5767
▁echtzeit	-5768
▁freiwill	-5769
▁freundin	-5770
▁mehrheit	-5771
▁gegenwart	-5772
▁erwachsene	-5773
▁intellektu	-5774
▁verbrechen	-5775
▁akzeptieren	-5776
▁allgemeinen	-5777
▁bedürfnisse	-5778
▁kompliziert	-5779
▁präsentation	-5780
▁vorzustellen	-5781
hu	-5782
kri	-5783
eile	-5784
ines	-5785
kung	-5786
▁tur	-5787
ancen	-5788
denkt	-5789
linie	-5790
▁böse	-5791
▁heiß	-5792
▁legt	-5793
▁male	-5794
▁nähr	-5795
▁spät	-5796
▁weis	-5797
▁baute	-5798
▁gemäl	-5799
▁nukle	-5800
▁pfund	-5801
▁sowas	-5802
itieren	-5803
schland	-5804
sprache	-5805
▁billig	-5806
▁blauen	-5807
▁eindeu	-5808
▁erwart	-5809
▁gesamt	-5810
▁vorder	-5811
material	-5812
▁buchsta	-5813
▁lokalen	-5814
▁momente	-5815
▁schreib	-5816
▁zeitung	-5817
▁diagramm	-5818
▁spektrum	-5819
▁betrachte	-5820
▁einfaches	-5821
▁erweitern	-5822
▁gemeinsame	-5823
▁moralische	-5824
▁verblüffen	-5825
▁zusätzlich	-5826
▁großartigen	-5827
▁stammzellen	-5828
yl	-5829
ams	-5830
own	-5831
▁23	-5832
▁gö	-5833
▁mr	-5834
förm	-5835
leib	-5836
▁ann	-5837
▁com	-5838
▁eli	-5839
▁pun	-5840
rufen	-5841
sätze	-5842
▁entz	-5843
▁span	-5844
▁tour	-5845
bilden	-5846
fernen	-5847
▁kreuz	-5848
▁manip	-5849
▁rufen	-5850
▁vorzu	-5851
▁golden	-5852
▁mangel	-5853
▁signal	-5854
bevölker	-5855
▁afrikas	-5856
▁anerken	-5857
▁trinken	-5858
▁aufnahme	-5859
▁ausgeben	-5860
▁darunter	-5861
▁leichter	-5862
▁mikroben	-5863
▁perfekte	-5864
▁entfernen	-5865
▁profession	-5866
▁veränderte	-5867
eis	-5868
eng	-5869
fig	-5870
ida	-5871
reu	-5872
vir	-5873
▁ip	-5874
▁ri	-5875
▁anp	-5876
▁gig	-5877
▁lar	-5878
▁sam	-5879
▁repu	-5880
design	-5881
reisen	-5882
▁stahl	-5883
▁teles	-5884
▁trick	-5885
▁weiße	-5886
▁wovon	-5887
▁hunger	-5888
▁konzep	-5889
▁teufel	-5890
▁grundle	-5891
▁konserv	-5892
▁vermeiden	-5893
bevölkerung	-5894
▁übernehmen	-5895
▁unterstützt	-5896
▁vorhersagen	-5897
▁menschliches	-5898
▁überraschend	-5899
bür	-5900
tal	-5901
▁wh	-5902
anen	-5903
rett	-5904
▁etc	-5905
▁nar	-5906
▁pra	-5907
▁sar	-5908
boden	-5909
orgen	-5910
ützen	-5911
▁brut	-5912
▁elef	-5913
▁ener	-5914
▁farb	-5915
▁kamp	-5916
▁kate	-5917
▁qual	-5918
ischem	-5919
lernen	-5920
werken	-5921
ührung	-5922
▁immun	-5923
▁meist	-5924
▁steve	-5925
▁süden	-5926
▁wüste	-5927
owissen	-5928
systeme	-5929
▁größen	-5930
▁kirche	-5931
▁löcher	-5932
▁skulpt	-5933
▁tiefen	-5934
schätzen	-5935
▁aussage	-5936
▁konfron	-5937
▁nigeria	-5938
▁risiken	-5939
▁ereignis	-5940
▁webseite	-5941
▁anwendung	-5942
▁langfrist	-5943
▁instrument	-5944
▁speziellen	-5945
▁schwieriger	-5946
do	-5947
ep	-5948
ati	-5949
asie	-5950
frei	-5951
ging	-5952
tzer	-5953
üche	-5954
▁194	-5955
▁geg	-5956
▁sur	-5957
▁anim	-5958
▁seht	-5959
▁stir	-5960
bstoff	-5961
▁aspek	-5962
▁erdbe	-5963
▁gewöh	-5964
▁ohren	-5965
▁tests	-5966
▁versp	-5967
ließend	-5968
▁akadem	-5969
▁anfing	-5970
▁kanada	-5971
▁mengen	-5972
▁origin	-5973
▁tanzen	-5974
▁tonnen	-5975
sprozess	-5976
▁veranst	-5977
▁besseres	-5978
▁gesichts	-5979
▁lebenden	-5980
▁transport	-5981
▁geschlossen	-5982
▁situationen	-5983
▁ursprünglich	-5984
cyc	-5985
its	-5986
mma	-5987
alte	-5988
iein	-5989
nütz	-5990
▁leh	-5991
▁nad	-5992
▁pan	-5993
biert	-5994
lesen	-5995
plant	-5996
▁kurs	-5997
▁show	-5998
▁yout	-5999
gerung	-6000
▁blatt	-6001
▁fokus	-6002
▁hilfs	-6003
▁hunde	-6004
sterben	-6005
▁aufbau	-6006
▁bedarf	-6007
▁ergibt	-6008
▁ozeane	-6009
▁robert	-6010
▁zusätz	-6011
▁aufgere	-6012
▁fahrrad	-6013
▁gekauft	-6014
▁grossen	-6015
▁niedrig	-6016
▁trocken	-6017
▁bedenken	-6018
▁lebendig	-6019
▁metapher	-6020
▁transpor	-6021
▁ingenieur	-6022
▁beschreibt	-6023
▁prinzipien	-6024
▁überwinden	-6025
▁aktivitäten	-6026
▁inspirieren	-6027
▁kombination	-6028
col	-6029
ruh	-6030
täu	-6031
ohnt	-6032
äden	-6033
▁don	-6034
▁haw	-6035
linge	-6036
stero	-6037
▁eink	-6038
▁hing	-6039
▁höre	-6040
▁länd	-6041
▁seid	-6042
ichern	-6043
lösung	-6044
▁schie	-6045
▁stehe	-6046
▁freien	-6047
▁kannte	-6048
▁stücke	-6049
▁ansieht	-6050
▁bekomme	-6051
▁dauerte	-6052
▁erlebnis	-6053
▁wechseln	-6054
▁weiterer	-6055
▁betreiben	-6056
▁dieselben	-6057
▁strategie	-6058
▁transform	-6059
▁religionen	-6060
▁weltweiten	-6061
▁deutschland	-6062
▁gegenseitig	-6063
▁fortschritte	-6064
▁medizinischen	-6065
▁wirtschaftliche	-6066
lu	-6067
ics	-6068
ney	-6069
ühe	-6070
▁rö	-6071
spar	-6072
zenz	-6073
▁11.	-6074
▁19.	-6075
▁att	-6076
▁can	-6077
▁wüs	-6078
▁zeh	-6079
staat	-6080
▁froh	-6081
▁stan	-6082
▁kapit	-6083
▁korre	-6084
▁stern	-6085
▁worum	-6086
▁brücke	-6087
▁durchs	-6088
▁fakten	-6089
▁rollen	-6090
▁senden	-6091
▁soweit	-6092
▁umfeld	-6093
▁enthält	-6094
▁youtube	-6095
▁anschein	-6096
▁francisco	-6097
▁gebraucht	-6098
▁marketing	-6099
▁zuschauer	-6100
▁bevölkerungs	-6101
▁konzentriert	-6102
▁untersuchung	-6103
ago	-6104
bom	-6105
ire	-6106
▁mic	-6107
▁okt	-6108
▁ost	-6109
▁pre	-6110
dreht	-6111
iveau	-6112
▁bang	-6113
▁lieb	-6114
▁mode	-6115
▁nase	-6116
▁real	-6117
kungen	-6118
nommen	-6119
▁atmen	-6120
▁bestä	-6121
▁direk	-6122
▁günst	-6123
▁phase	-6124
▁schme	-6125
▁zwang	-6126
▁achten	-6127
▁gewiss	-6128
▁grippe	-6129
▁lungen	-6130
▁unfall	-6131
▁winzig	-6132
▁100.000	-6133
▁drücken	-6134
▁geschma	-6135
▁mittels	-6136
▁taschen	-6137
▁verstär	-6138
▁geholfen	-6139
▁kongress	-6140
▁teenager	-6141
▁unmittel	-6142
▁geräusche	-6143
▁kostenlos	-6144
▁südafrika	-6145
▁erinnerung	-6146
▁wahrnehmen	-6147
▁sicherheits	-6148
▁gerechtigkeit	-6149
oo	-6150
leh	-6151
azin	-6152
bein	-6153
eten	-6154
ters	-6155
▁brü	-6156
▁hir	-6157
▁2007	-6158
▁bezü	-6159
▁trug	-6160
dollar	-6161
drückt	-6162
freund	-6163
punkte	-6164
▁1.000	-6165
▁asien	-6166
▁draht	-6167
▁fährt	-6168
▁küste	-6169
▁lügen	-6170
▁weihn	-6171
▁woran	-6172
wechsel	-6173
▁ausger	-6174
▁besagt	-6175
▁geschw	-6176
▁leiten	-6177
▁annahme	-6178
▁gebiete	-6179
▁liefern	-6180
▁streben	-6181
▁überwäl	-6182
icherheit	-6183
probieren	-6184
▁erfinder	-6185
▁physiker	-6186
▁regionen	-6187
▁resultat	-6188
produktion	-6189
▁aufnehmen	-6190
▁tausenden	-6191
▁teilweise	-6192
▁beibringen	-6193
▁geburtstag	-6194
▁irgendeine	-6195
▁chinesische	-6196
▁inspiration	-6197
▁neurowissen	-6198
▁lebenserwart	-6199
hö	-6200
akt	-6201
bet	-6202
ied	-6203
kap	-6204
pos	-6205
uls	-6206
urz	-6207
▁sw	-6208
beln	-6209
klär	-6210
pern	-6211
▁hüh	-6212
▁lad	-6213
▁stä	-6214
drück	-6215
küste	-6216
menge	-6217
riffe	-6218
weite	-6219
▁glüh	-6220
▁quer	-6221
stechn	-6222
winkel	-6223
▁kenia	-6224
▁noten	-6225
▁phant	-6226
▁teilt	-6227
▁fingen	-6228
▁fokuss	-6229
▁meinte	-6230
▁realen	-6231
pflanzen	-6232
▁besorgt	-6233
▁einzeln	-6234
▁standen	-6235
▁diagnost	-6236
▁sichtbar	-6237
▁verstehe	-6238
▁wertvoll	-6239
▁aufgeregt	-6240
▁billionen	-6241
▁brasilien	-6242
▁leistungs	-6243
▁videospie	-6244
▁wenigstens	-6245
▁wundervoll	-6246
gesellschaft	-6247
▁biologische	-6248
▁gemeinsamen	-6249
▁sonnenlicht	-6250
▁informations	-6251
▁konsequenzen	-6252
▁verschwunden	-6253
▁interessantes	-6254
ica	-6255
ots	-6256
pri	-6257
ymp	-6258
▁ug	-6259
here	-6260
iche	-6261
▁err	-6262
▁kla	-6263
▁pla	-6264
behör	-6265
icken	-6266
kontr	-6267
ordin	-6268
samen	-6269
stuhl	-6270
▁ausb	-6271
▁genü	-6272
▁kart	-6273
▁gelie	-6274
▁räume	-6275
▁spann	-6276
▁sympt	-6277
problem	-6278
▁alltag	-6279
▁astero	-6280
▁faktor	-6281
▁hinauf	-6282
▁krimin	-6283
▁rennen	-6284
▁schalt	-6285
▁stärke	-6286
ollywood	-6287
▁musiker	-6288
▁quanten	-6289
▁verlang	-6290
▁zweimal	-6291
▁nebenbei	-6292
▁springen	-6293
▁wahnsinn	-6294
▁behaupten	-6295
▁ernsthaft	-6296
▁mikroskop	-6297
▁beschrieben	-6298
▁innovationen	-6299
▁mittlerweile	-6300
irk	-6301
▁2.	-6302
▁py	-6303
▁zy	-6304
oxid	-6305
▁dör	-6306
▁tin	-6307
andid	-6308
athie	-6309
gewal	-6310
hlung	-6311
krise	-6312
▁bahn	-6313
fallen	-6314
recken	-6315
tausen	-6316
▁erwar	-6317
▁sorge	-6318
▁teams	-6319
▁treib	-6320
▁flügel	-6321
▁gemüse	-6322
▁märkte	-6323
▁vieles	-6324
▁führten	-6325
▁glaubte	-6326
▁manchen	-6327
▁merkwür	-6328
▁offenen	-6329
▁treiben	-6330
▁schritte	-6331
▁vielmehr	-6332
▁bezüglich	-6333
▁literatur	-6334
▁fasziniert	-6335
▁satelliten	-6336
▁verglichen	-6337
▁durchführen	-6338
▁elektrische	-6339
▁verursachen	-6340
▁dreidimension	-6341
▁klassenzimmer	-6342
har	-6343
kat	-6344
leb	-6345
▁27	-6346
▁ums	-6347
euert	-6348
osion	-6349
vater	-6350
▁biom	-6351
▁hell	-6352
▁mini	-6353
bücher	-6354
dieren	-6355
quelle	-6356
reiche	-6357
▁alpha	-6358
▁anstr	-6359
▁armee	-6360
▁erwär	-6361
▁micro	-6362
▁umher	-6363
chester	-6364
gedacht	-6365
prozess	-6366
▁aktion	-6367
▁ausges	-6368
▁fabrik	-6369
▁erkannt	-6370
▁meister	-6371
▁quellen	-6372
▁tatsäch	-6373
▁unteren	-6374
schriften	-6375
▁proteine	-6376
▁schreibt	-6377
▁weisheit	-6378
▁betrieben	-6379
▁erforscht	-6380
▁komplexen	-6381
▁buchstaben	-6382
▁automatisch	-6383
▁aufgewachsen	-6384
▁vorstellungen	-6385
geschwindigkeit	-6386
hof	-6387
ime	-6388
ison	-6389
mpft	-6390
▁250	-6391
▁abh	-6392
▁cle	-6393
▁jer	-6394
▁ruf	-6395
▁wid	-6396
metho	-6397
räume	-6398
ünden	-6399
▁bund	-6400
▁fürs	-6401
▁skla	-6402
dienst	-6403
isiert	-6404
öntgen	-6405
▁jener	-6406
▁warte	-6407
▁womit	-6408
lischen	-6409
▁diplom	-6410
▁global	-6411
▁ration	-6412
▁schuhe	-6413
▁strand	-6414
▁stress	-6415
▁erhöhen	-6416
▁schicht	-6417
▁spenden	-6418
▁sternen	-6419
arbeitung	-6420
▁anschaut	-6421
▁erweiter	-6422
▁hinunter	-6423
▁seltsame	-6424
▁speziell	-6425
oberfläche	-6426
▁darstellt	-6427
▁folgenden	-6428
▁grundlage	-6429
▁schmerzen	-6430
▁bezeichnen	-6431
▁inzwischen	-6432
▁wettbewerb	-6433
▁zusammenzu	-6434
▁ausstellung	-6435
▁dargestellt	-6436
▁dimensionen	-6437
▁glücklicher	-6438
▁fantastische	-6439
▁lebenserwartung	-6440
ele	-6441
kür	-6442
▁22	-6443
comp	-6444
hyth	-6445
▁cen	-6446
▁mad	-6447
telef	-6448
▁2005	-6449
▁budd	-6450
▁chip	-6451
▁dumm	-6452
▁erhe	-6453
▁flor	-6454
▁jüng	-6455
▁moch	-6456
▁angen	-6457
▁anzei	-6458
▁chaos	-6459
▁horiz	-6460
▁karik	-6461
▁liber	-6462
▁anführ	-6463
▁beglei	-6464
▁detail	-6465
▁kriegs	-6466
▁lokale	-6467
▁pollen	-6468
▁schrei	-6469
▁street	-6470
▁völker	-6471
▁zufall	-6472
▁ältere	-6473
gelassen	-6474
▁komment	-6475
▁weshalb	-6476
▁zeigten	-6477
▁älteren	-6478
▁bekannte	-6479
▁krankenh	-6480
▁physikal	-6481
▁vorteile	-6482
leistungen	-6483
▁basierend	-6484
▁irgendwel	-6485
▁scheitern	-6486
▁schicksal	-6487
▁umzugehen	-6488
▁unterhalt	-6489
▁bezeichnet	-6490
▁eingeladen	-6491
▁unterricht	-6492
▁jahrzehnten	-6493
▁nachgedacht	-6494
▁verbreitung	-6495
▁kontrolliert	-6496
▁organisieren	-6497
▁überraschung	-6498
va	-6499
abl	-6500
ory	-6501
▁ba	-6502
inst	-6503
schi	-6504
▁flu	-6505
ender	-6506
gangs	-6507
viele	-6508
älter	-6509
▁2010	-6510
▁chic	-6511
▁ethn	-6512
▁proz	-6513
▁ritu	-6514
▁sing	-6515
fahrer	-6516
tionen	-6517
▁knapp	-6518
▁relev	-6519
systems	-6520
tierung	-6521
▁bezahl	-6522
▁island	-6523
▁presse	-6524
▁rezept	-6525
▁spüren	-6526
▁status	-6527
▁blätter	-6528
▁chancen	-6529
▁doppelt	-6530
▁dahinter	-6531
▁erdbeben	-6532
▁geschenk	-6533
▁versagen	-6534
▁visuelle	-6535
▁afrikaner	-6536
▁aufnahmen	-6537
▁langsamer	-6538
▁verfahren	-6539
▁weltkrieg	-6540
▁eingeführt	-6541
▁university	-6542
▁zerstörung	-6543
▁alternative	-6544
▁voneinander	-6545
▁entdeckungen	-6546
▁grundlegenden	-6547
▁außergewöhnlich	-6548
30	-6549
ba	-6550
if	-6551
za	-6552
kul	-6553
xis	-6554
▁ts	-6555
back	-6556
bern	-6557
eilt	-6558
gelt	-6559
gert	-6560
schm	-6561
zial	-6562
öser	-6563
kehrt	-6564
▁flex	-6565
▁grie	-6566
▁hieß	-6567
▁mart	-6568
▁nett	-6569
eilung	-6570
▁haiti	-6571
▁level	-6572
▁paris	-6573
mischen	-6574
▁alters	-6575
▁boston	-6576
▁deiner	-6577
▁falten	-6578
▁gesamm	-6579
▁metall	-6580
gegangen	-6581
▁beenden	-6582
▁gemälde	-6583
▁gewählt	-6584
▁letzter	-6585
▁röntgen	-6586
▁schönes	-6587
▁genügend	-6588
▁pinguine	-6589
▁derselben	-6590
▁eindeutig	-6591
▁scheinbar	-6592
▁bibliothek	-6593
▁entfernung	-6594
▁genetische	-6595
▁restaurant	-6596
▁einstellung	-6597
▁herstellung	-6598
▁wunderbaren	-6599
▁weiterentwick	-6600
▁gemeinschaften	-6601
▁nachhaltigkeit	-6602
erte	-6603
hrer	-6604
inkt	-6605
komp	-6606
▁höl	-6607
führt	-6608
nchen	-6609
weich	-6610
üssen	-6611
▁jack	-6612
▁kühl	-6613
▁mama	-6614
▁mosk	-6615
▁pazi	-6616
▁ruhe	-6617
▁stür	-6618
▁tele	-6619
gebiet	-6620
messer	-6621
riffen	-6622
tigten	-6623
zahlen	-6624
▁fehlt	-6625
▁gefol	-6626
▁bedien	-6627
▁dienen	-6628
▁gelang	-6629
▁höhere	-6630
▁kindes	-6631
▁landen	-6632
▁planen	-6633
▁wirken	-6634
bekommen	-6635
▁angriff	-6636
▁gedicht	-6637
▁starben	-6638
▁argument	-6639
▁batterie	-6640
▁beachten	-6641
▁begegnen	-6642
▁bemerkte	-6643
▁kleidung	-6644
▁leuchten	-6645
▁verwende	-6646
▁ausgesetzt	-6647
▁ingenieure	-6648
▁jahrzehnte	-6649
▁psychologie	-6650
▁verletzlich	-6651
hrt	-6652
män	-6653
▁dh	-6654
▁eu	-6655
dach	-6656
denz	-6657
derm	-6658
▁cor	-6659
▁sms	-6660
eidet	-6661
eihen	-6662
unruh	-6663
▁infe	-6664
▁wach	-6665
bilder	-6666
gesamt	-6667
licken	-6668
▁angem	-6669
▁blaue	-6670
▁cyber	-6671
▁impro	-6672
▁kurve	-6673
▁magie	-6674
▁proje	-6675
ausende	-6676
▁abfall	-6677
▁berück	-6678
▁unwahr	-6679
▁angesch	-6680
▁beunruh	-6681
▁hielten	-6682
▁nutzung	-6683
verhalten	-6684
▁ernähren	-6685
▁schauten	-6686
▁schulter	-6687
▁vergewal	-6688
▁definiert	-6689
▁einschrän	-6690
▁enthalten	-6691
▁hoffnungs	-6692
▁kreativen	-6693
▁nationale	-6694
▁unterwegs	-6695
▁wichtiges	-6696
gehensweise	-6697
▁schwierige	-6698
▁darstellung	-6699
▁instrumente	-6700
▁mathematiker	-6701
▁interessanten	-6702
way	-6703
ossi	-6704
▁abl	-6705
▁van	-6706
halts	-6707
teste	-6708
vileg	-6709
ünder	-6710
▁meth	-6711
▁simp	-6712
stücke	-6713
▁expon	-6714
▁front	-6715
▁malen	-6716
▁nahen	-6717
▁obama	-6718
▁unvor	-6719
▁angeht	-6720
▁dichte	-6721
▁fläche	-6722
▁kaufte	-6723
▁marken	-6724
▁wohlbe	-6725
▁dringen	-6726
▁musikal	-6727
▁versamm	-6728
▁ägypten	-6729
schneiden	-6730
▁einblick	-6731
▁schlacht	-6732
▁schweden	-6733
▁wünschte	-6734
▁gebrochen	-6735
▁mitnehmen	-6736
▁reduziert	-6737
zeichnungen	-6738
▁arabischen	-6739
▁depression	-6740
▁hinzufügen	-6741
▁regierungs	-6742
▁richtungen	-6743
▁hinterlassen	-6744
▁nachbarschaft	-6745
kw	-6746
car	-6747
don	-6748
ony	-6749
ota	-6750
züg	-6751
▁mü	-6752
cket	-6753
wehr	-6754
▁cir	-6755
▁mak	-6756
▁max	-6757
asien	-6758
utern	-6759
▁1960	-6760
▁stim	-6761
ikaner	-6762
mittag	-6763
▁eisen	-6764
▁misch	-6765
▁scien	-6766
▁subst	-6767
▁säuge	-6768
▁ungeh	-6769
▁verur	-6770
mittelt	-6771
spiegel	-6772
örungen	-6773
▁feiern	-6774
▁heilen	-6775
▁iphone	-6776
▁lächer	-6777
▁theore	-6778
aufnahme	-6779
▁chicago	-6780
▁flächen	-6781
▁general	-6782
▁nannten	-6783
▁spiritu	-6784
▁traurig	-6785
▁vermute	-6786
▁zweifel	-6787
▁chinesen	-6788
▁erfüllen	-6789
▁horizont	-6790
▁verschie	-6791
▁indischen	-6792
▁spezielle	-6793
▁vorschlag	-6794
▁gedächtnis	-6795
▁moralischen	-6796
▁wunderschöne	-6797
spe	-6798
andt	-6799
▁lab	-6800
▁nir	-6801
▁vag	-6802
▁wem	-6803
▁ärm	-6804
ahnen	-6805
gespr	-6806
nügen	-6807
reift	-6808
▁1000	-6809
▁base	-6810
▁half	-6811
▁knie	-6812
▁kore	-6813
▁sech	-6814
achter	-6815
▁alltä	-6816
▁bibel	-6817
▁erhol	-6818
▁polio	-6819
▁wärme	-6820
bewusst	-6821
isieren	-6822
mitglie	-6823
uchtung	-6824
▁enttäu	-6825
▁späten	-6826
▁staats	-6827
▁trafen	-6828
▁weisen	-6829
isierung	-6830
jähriger	-6831
leistung	-6832
▁aspekte	-6833
▁debatte	-6834
▁diszipl	-6835
▁dokumen	-6836
▁erhielt	-6837
▁gezogen	-6838
▁stoppen	-6839
maschinen	-6840
▁drittens	-6841
▁falschen	-6842
▁gebäuden	-6843
▁genießen	-6844
▁training	-6845
▁verdient	-6846
▁angelegen	-6847
▁letztlich	-6848
▁niemanden	-6849
▁schwanger	-6850
▁umständen	-6851
▁versteckt	-6852
▁zunehmend	-6853
▁kulturelle	-6854
▁grundlegend	-6855
▁vorbereitet	-6856
▁funktionierte	-6857
▁programmieren	-6858
hai	-6859
ias	-6860
bran	-6861
eigt	-6862
fung	-6863
stür	-6864
züge	-6865
▁abt	-6866
▁beu	-6867
▁erb	-6868
▁gps	-6869
▁imm	-6870
▁ohr	-6871
▁feed	-6872
▁myth	-6873
▁ther	-6874
▁trei	-6875
ausend	-6876
bringt	-6877
klasse	-6878
pflanz	-6879
▁heben	-6880
▁küche	-6881
▁misst	-6882
▁olymp	-6883
▁peter	-6884
▁titan	-6885
▁zähne	-6886
station	-6887
zwungen	-6888
▁hängen	-6889
▁höchst	-6890
▁merken	-6891
▁reihen	-6892
▁schnee	-6893
▁unterr	-6894
▁welten	-6895
designer	-6896
gekommen	-6897
ieinhalb	-6898
▁abgesch	-6899
▁gericht	-6900
▁nervenz	-6901
▁schlägt	-6902
▁skelett	-6903
▁starken	-6904
▁erfassen	-6905
▁gegenwär	-6906
▁jenseits	-6907
▁privileg	-6908
▁vorwärts	-6909
ussendlich	-6910
▁bedrohung	-6911
▁vergnügen	-6912
▁wachstums	-6913
▁eigenschaft	-6914
▁einfachheit	-6915
▁einzigartig	-6916
▁genetischen	-6917
▁präsentiert	-6918
▁wundervolle	-6919
sterblichkeit	-6920
▁schlussendlich	-6921
pu	-6922
vo	-6923
uth	-6924
ärm	-6925
▁dü	-6926
komm	-6927
obel	-6928
omie	-6929
▁jur	-6930
▁kab	-6931
▁ära	-6932
gener	-6933
malen	-6934
orter	-6935
▁akte	-6936
▁nimm	-6937
▁sorg	-6938
lichem	-6939
mechan	-6940
othese	-6941
▁berge	-6942
▁diabe	-6943
▁erhöh	-6944
▁samen	-6945
▁staub	-6946
▁zehnt	-6947
fliegen	-6948
ierungs	-6949
ografie	-6950
▁center	-6951
▁erhöht	-6952
▁erneut	-6953
▁hörten	-6954
▁partei	-6955
▁tasche	-6956
▁umwand	-6957
stimmung	-6958
▁anstieg	-6959
▁koordin	-6960
▁aufstieg	-6961
▁exponent	-6962
▁gelassen	-6963
▁russland	-6964
▁studiert	-6965
▁verfolgt	-6966
▁anzusehen	-6967
▁bekämpfen	-6968
▁beobachte	-6969
▁beteiligt	-6970
▁versorgen	-6971
▁ähnliches	-6972
▁besonderen	-6973
▁emotionale	-6974
▁gemeinnütz	-6975
▁verwendung	-6976
▁algorithmen	-6977
▁beigebracht	-6978
▁neuigkeiten	-6979
▁philosophie	-6980
▁wasserstoff	-6981
▁elektrischen	-6982
aff	-6983
cin	-6984
enk	-6985
zum	-6986
▁ky	-6987
fand	-6988
ight	-6989
okol	-6990
part	-6991
städ	-6992
uche	-6993
vide	-6994
wort	-6995
älte	-6996
öten	-6997
▁kün	-6998
▁mac	-6999
▁mau	-7000
▁ras	-7001
▁tja	-7002
▁wäl	-7003
gebäu	-7004
iness	-7005
romos	-7006
ässer	-7007
▁kalt	-7008
▁line	-7009
▁raub	-7010
▁rett	-7011
▁kolon	-7012
▁lasse	-7013
▁scham	-7014
▁serie	-7015
gezogen	-7016
▁geruch	-7017
▁kriege	-7018
▁offene	-7019
▁organe	-7020
▁schaue	-7021
▁studio	-7022
ierungen	-7023
▁krieges	-7024
▁protein	-7025
▁schwere	-7026
▁anhalten	-7027
▁berühren	-7028
▁mehreren	-7029
▁umfassen	-7030
▁abgesehen	-7031
▁belohnung	-7032
▁berechnen	-7033
▁empfinden	-7034
▁insgesamt	-7035
▁potenzial	-7036
▁dazwischen	-7037
▁dunkelheit	-7038
▁anscheinend	-7039
▁bemerkenswert	-7040
ppt	-7041
van	-7042
wen	-7043
▁ät	-7044
trau	-7045
önen	-7046
▁ark	-7047
▁box	-7048
▁jon	-7049
▁rek	-7050
▁sus	-7051
atein	-7052
brech	-7053
liste	-7054
▁1990	-7055
▁bush	-7056
▁ehre	-7057
▁grav	-7058
▁präz	-7059
drücke	-7060
schten	-7061
▁befeh	-7062
▁bewer	-7063
▁fossi	-7064
▁griff	-7065
▁kongo	-7066
▁recyc	-7067
fischen	-7068
ichtete	-7069
schläge	-7070
sproble	-7071
▁abente	-7072
▁atomen	-7073
▁fliege	-7074
▁latein	-7075
▁muskel	-7076
▁schach	-7077
▁schild	-7078
▁suchte	-7079
▁öffnet	-7080
computer	-7081
schaffen	-7082
▁ergeben	-7083
▁gesetzt	-7084
▁wünsche	-7085
▁demonstr	-7086
▁fettleib	-7087
▁gegenden	-7088
▁gemessen	-7089
▁getrennt	-7090
▁improvis	-7091
▁systemen	-7092
▁winzigen	-7093
▁computern	-7094
▁elefanten	-7095
▁geschäfte	-7096
▁resultate	-7097
▁ereignisse	-7098
▁schlechtes	-7099
▁sogenannte	-7100
▁teilnehmer	-7101
▁vorsichtig	-7102
▁übersetzen	-7103
▁technischen	-7104
▁biologischen	-7105
▁konfrontiert	-7106
ike	-7107
tic	-7108
uar	-7109
arma	-7110
emin	-7111
zung	-7112
▁195	-7113
stamm	-7114
▁2009	-7115
▁camp	-7116
▁ghan	-7117
▁haie	-7118
▁leer	-7119
▁rock	-7120
▁umso	-7121
ativer	-7122
findet	-7123
▁anruf	-7124
▁beton	-7125
▁brand	-7126
▁desig	-7127
▁fried	-7128
▁gebur	-7129
▁geome	-7130
▁offiz	-7131
lektion	-7132
▁analog	-7133
▁beherr	-7134
▁benzin	-7135
▁bundes	-7136
▁einzus	-7137
▁gewann	-7138
▁hassen	-7139
▁kommer	-7140
▁reflek	-7141
▁vorhin	-7142
zuführen	-7143
▁besucht	-7144
▁lebende	-7145
▁träumen	-7146
▁verlauf	-7147
▁besuchte	-7148
▁faktoren	-7149
▁höchsten	-7150
▁kampagne	-7151
▁problems	-7152
▁ursprung	-7153
▁ausmachen	-7154
▁begreifen	-7155
▁projekten	-7156
▁brustkrebs	-7157
▁frankreich	-7158
▁langweilig	-7159
▁ländlichen	-7160
▁mitglieder	-7161
▁motivation	-7162
▁irgendeinem	-7163
▁erinnerungen	-7164
wissenschaften	-7165
▁verschiedener	-7166
wissenschaftler	-7167
▁persönlichkeit	-7168
▁veröffentlichen	-7169
erk	-7170
ice	-7171
kra	-7172
pen	-7173
tin	-7174
tit	-7175
appt	-7176
king	-7177
ülle	-7178
▁fro	-7179
▁hüb	-7180
▁kuh	-7181
▁ren	-7182
illen	-7183
▁adam	-7184
▁fair	-7185
▁gelb	-7186
▁radi	-7187
▁strö	-7188
▁türk	-7189
▁wozu	-7190
attung	-7191
▁besei	-7192
▁derek	-7193
▁hoher	-7194
▁kugel	-7195
▁könne	-7196
▁leber	-7197
▁prior	-7198
▁reser	-7199
▁rhyth	-7200
griffen	-7201
schicht	-7202
▁beides	-7203
▁eingeb	-7204
▁inklus	-7205
▁kaputt	-7206
▁machst	-7207
▁neigen	-7208
▁polizi	-7209
▁wahlen	-7210
▁berühmt	-7211
▁schokol	-7212
▁spinnen	-7213
▁systema	-7214
▁epidemie	-7215
▁glaubten	-7216
▁gründete	-7217
▁intensiv	-7218
▁kreative	-7219
▁verliert	-7220
▁zeitraum	-7221
▁bedeutete	-7222
▁berichtet	-7223
▁chemische	-7224
▁wiederher	-7225
▁antwortete	-7226
▁beeindruck	-7227
▁berücksich	-7228
▁nachhaltig	-7229
▁änderungen	-7230
▁analysieren	-7231
▁beeindrucken	-7232
▁chinesischen	-7233
▁investitionen	-7234
bit	-7235
ses	-7236
üge	-7237
▁28	-7238
▁hä	-7239
aner	-7240
ilen	-7241
tien	-7242
▁mün	-7243
anzig	-7244
arden	-7245
auten	-7246
firma	-7247
leute	-7248
schwe	-7249
▁dist	-7250
endete	-7251
graben	-7252
linien	-7253
spanne	-7254
ängste	-7255
▁achse	-7256
▁carol	-7257
▁exakt	-7258
▁verde	-7259
gebiete	-7260
standen	-7261
zustand	-7262
▁aussah	-7263
▁glücks	-7264
▁liebte	-7265
▁medium	-7266
funktion	-7267
▁symmetr	-7268
▁anpassen	-7269
▁ökonomen	-7270
▁bedürfnis	-7271
▁plattform	-7272
▁programme	-7273
▁britischen	-7274
▁mobiltelef	-7275
▁nationalen	-7276
▁präsidenten	-7277
▁vergangenen	-7278
▁videospiele	-7279
▁zurückkehren	-7280
▁einrichtungen	-7281
▁identifizieren	-7282
▁weltbevölkerung	-7283
500	-7284
ats	-7285
gin	-7286
lip	-7287
rew	-7288
alls	-7289
lant	-7290
otto	-7291
sthe	-7292
strä	-7293
tend	-7294
▁dru	-7295
▁hai	-7296
▁ham	-7297
▁sir	-7298
▁zen	-7299
▁ört	-7300
▁2004	-7301
▁bier	-7302
▁saal	-7303
▁vorn	-7304
gelegt	-7305
geräte	-7306
izient	-7307
körper	-7308
▁apple	-7309
▁brill	-7310
▁freie	-7311
▁garan	-7312
▁hitze	-7313
▁humor	-7314
▁kämpf	-7315
▁saßen	-7316
dringen	-7317
▁bekann	-7318
▁bildet	-7319
▁explod	-7320
▁keinem	-7321
▁proben	-7322
▁stille	-7323
▁uganda	-7324
stration	-7325
▁angeles	-7326
▁argumen	-7327
▁ausgest	-7328
▁gesunde	-7329
▁kameras	-7330
▁klavier	-7331
▁liefert	-7332
▁wurzeln	-7333
▁übersch	-7334
alisierte	-7335
▁aktuelle	-7336
▁ausnahme	-7337
▁bewirken	-7338
▁erklärte	-7339
▁mitglied	-7340
▁kollektiv	-7341
▁ungeheuer	-7342
▁verrückte	-7343
▁ausgegeben	-7344
▁sichtweise	-7345
▁öffentlich	-7346
▁komponenten	-7347
▁konsumenten	-7348
▁entscheidend	-7349
▁katastrophen	-7350
▁wohlbefinden	-7351
nd	-7352
arr	-7353
sex	-7354
film	-7355
nehm	-7356
sper	-7357
urop	-7358
ähen	-7359
▁akt	-7360
▁arz	-7361
▁gän	-7362
▁vul	-7363
eifen	-7364
eiter	-7365
ohlen	-7366
tteln	-7367
▁amaz	-7368
▁bord	-7369
▁trat	-7370
führer	-7371
▁autom	-7372
▁bösen	-7373
▁ghana	-7374
▁green	-7375
▁marke	-7376
▁pferd	-7377
▁selbe	-7378
▁texas	-7379
▁befest	-7380
▁deinem	-7381
▁drehte	-7382
▁myster	-7383
▁oberen	-7384
▁paläst	-7385
▁poster	-7386
▁schlug	-7387
▁stirbt	-7388
▁umgang	-7389
▁vierte	-7390
▁analyse	-7391
▁büchern	-7392
▁dichter	-7393
▁dunklen	-7394
▁flederm	-7395
▁paralle	-7396
▁systems	-7397
▁zentral	-7398
▁zerstör	-7399
▁autismus	-7400
▁dokument	-7401
▁eingehen	-7402
▁erwähnen	-7403
▁hinblick	-7404
▁stanford	-7405
▁zugleich	-7406
▁geschmack	-7407
▁symmetrie	-7408
▁weibliche	-7409
▁künstliche	-7410
▁flüssigkeit	-7411
▁katastrophe	-7412
▁oberflächen	-7413
▁verbesserung	-7414
▁globalisierung	-7415
ny	-7416
sl	-7417
dat	-7418
eme	-7419
ops	-7420
sph	-7421
▁36	-7422
▁bf	-7423
hiop	-7424
wald	-7425
üger	-7426
▁leb	-7427
alley	-7428
auben	-7429
endes	-7430
milli	-7431
otten	-7432
ratet	-7433
stete	-7434
▁dame	-7435
▁frag	-7436
▁lese	-7437
▁manh	-7438
▁nano	-7439
▁stap	-7440
andelt	-7441
anlage	-7442
mensch	-7443
uchtet	-7444
▁bemüh	-7445
▁beruh	-7446
▁kateg	-7447
▁szene	-7448
▁wände	-7449
▁übert	-7450
gemacht	-7451
quellen	-7452
▁amazon	-7453
▁clever	-7454
▁fliegt	-7455
▁handys	-7456
▁kandid	-7457
▁keines	-7458
▁leiter	-7459
▁nahezu	-7460
▁nervös	-7461
▁preise	-7462
▁wenden	-7463
▁äthiop	-7464
chnitten	-7465
gefallen	-7466
▁betrieb	-7467
▁designs	-7468
▁geraten	-7469
▁gewöhnt	-7470
▁jeweils	-7471
▁kreiert	-7472
▁stärken	-7473
▁tauchen	-7474
▁ausgaben	-7475
▁gerettet	-7476
▁riesiges	-7477
▁errichten	-7478
▁gespräche	-7479
▁infiziert	-7480
▁politisch	-7481
▁treibhaus	-7482
▁weltweite	-7483
▁entstehung	-7484
▁funktionen	-7485
▁investiert	-7486
▁population	-7487
▁aufeinander	-7488
▁eigentliche	-7489
▁sogenannten	-7490
▁zukünftigen	-7491
▁erkrankungen	-7492
▁geschichtener	-7493
▁schriftsteller	-7494
rey	-7495
▁65	-7496
▁cm	-7497
▁ye	-7498
,000	-7499
holt	-7500
rang	-7501
soft	-7502
tika	-7503
uell	-7504
▁120	-7505
▁ast	-7506
▁hoh	-7507
euern	-7508
größe	-7509
kamer	-7510
▁2001	-7511
▁füße	-7512
▁risk	-7513
▁zwöl	-7514
chnung	-7515
heimer	-7516
kräfte	-7517
rieren	-7518
stisch	-7519
▁brach	-7520
▁enkel	-7521
▁frühe	-7522
▁jenen	-7523
▁lande	-7524
▁ruhig	-7525
▁stärk	-7526
▁talen	-7527
▁tritt	-7528
▁zivil	-7529
▁assozi	-7530
▁authen	-7531
▁dinger	-7532
▁kredit	-7533
▁moskit	-7534
▁respek	-7535
▁wartet	-7536
geschäft	-7537
▁benutze	-7538
▁fremden	-7539
▁höheren	-7540
▁lehrern	-7541
▁muskeln	-7542
▁raketen	-7543
▁rechner	-7544
▁ursache	-7545
▁zwingen	-7546
ulationen	-7547
▁anführer	-7548
▁baseball	-7549
▁bedauern	-7550
▁feedback	-7551
▁hindurch	-7552
▁hundertt	-7553
▁beitragen	-7554
▁denkweise	-7555
▁intuition	-7556
▁techniken	-7557
▁angesichts	-7558
▁journalist	-7559
▁physischen	-7560
▁teilnehmen	-7561
▁willkommen	-7562
▁anwendungen	-7563
▁kulturellen	-7564
▁nachhaltige	-7565
▁operationen	-7566
▁organisiert	-7567
▁andererseits	-7568
▁traditionelle	-7569
sw	-7570
üd	-7571
aku	-7572
bir	-7573
ham	-7574
med	-7575
mor	-7576
▁26	-7577
▁32	-7578
ftig	-7579
okra	-7580
rick	-7581
▁bob	-7582
▁lim	-7583
▁mah	-7584
▁tee	-7585
ammen	-7586
andem	-7587
ffekt	-7588
heber	-7589
inger	-7590
mails	-7591
ridge	-7592
ülern	-7593
▁2006	-7594
▁bran	-7595
▁harm	-7596
▁häss	-7597
▁juni	-7598
▁plus	-7599
andern	-7600
drehen	-7601
gebung	-7602
lament	-7603
▁autob	-7604
▁befür	-7605
▁ehren	-7606
▁event	-7607
▁geeig	-7608
▁haare	-7609
▁logik	-7610
▁neutr	-7611
▁satur	-7612
▁stieg	-7613
▁wirkt	-7614
▁zweit	-7615
fleisch	-7616
▁belast	-7617
▁dialog	-7618
▁doppel	-7619
▁ehemal	-7620
▁filmen	-7621
▁futter	-7622
▁jünger	-7623
▁niveau	-7624
▁synthe	-7625
zukommen	-7626
▁dutzend	-7627
▁fließen	-7628
▁geteilt	-7629
▁großzüg	-7630
▁kinders	-7631
▁negativ	-7632
▁neulich	-7633
▁science	-7634
▁diabetes	-7635
▁männchen	-7636
▁schweine	-7637
▁teleskop	-7638
▁abenteuer	-7639
▁austausch	-7640
▁denselben	-7641
▁effizienz	-7642
▁gesammelt	-7643
▁inklusive	-7644
▁physische	-7645
▁statistik	-7646
ischerweise	-7647
▁angemessen	-7648
▁technische	-7649
▁wirklichen	-7650
▁erwartungen	-7651
▁intelligente	-7652
▁schauspieler	-7653
▁bemerkenswerte	-7654
eg	-7655
bie	-7656
▁0,	-7657
▁vi	-7658
brau	-7659
ffin	-7660
mith	-7661
osex	-7662
same	-7663
stät	-7664
zten	-7665
äger	-7666
ügel	-7667
▁aug	-7668
▁dns	-7669
▁hon	-7670
▁krä	-7671
▁kul	-7672
▁por	-7673
▁zig	-7674
grenz	-7675
srate	-7676
weist	-7677
▁enzy	-7678
▁nest	-7679
▁skal	-7680
▁stet	-7681
itiven	-7682
steine	-7683
summen	-7684
wirken	-7685
▁bewoh	-7686
▁entsp	-7687
▁gedul	-7688
▁higgs	-7689
▁lehre	-7690
▁meere	-7691
▁volle	-7692
▁willi	-7693
brochen	-7694
▁brauch	-7695
▁frustr	-7696
▁januar	-7697
▁kompon	-7698
▁martin	-7699
▁metaph	-7700
▁metern	-7701
▁potent	-7702
▁praxis	-7703
▁ruanda	-7704
ologisch	-7705
▁bericht	-7706
▁brechen	-7707
▁diesmal	-7708
▁enormen	-7709
▁kümmert	-7710
▁nirgend	-7711
▁pflanze	-7712
▁begrenzt	-7713
▁fahrzeug	-7714
▁gebieten	-7715
▁symptome	-7716
▁theorien	-7717
▁umstände	-7718
geschlagen	-7719
▁gezwungen	-7720
▁microsoft	-7721
▁visuellen	-7722
▁weihnacht	-7723
▁reparieren	-7724
▁treibstoff	-7725
▁zusammenge	-7726
▁diskutieren	-7727
▁zurückgehen	-7728
▁entschlossen	-7729
▁irgendwelche	-7730
▁verschwindet	-7731
▁gleichgewicht	-7732
▁universitäten	-7733
--	-7734
ci	-7735
tn	-7736
aps	-7737
fot	-7738
iens	-7739
äufe	-7740
▁amb	-7741
▁gei	-7742
▁oel	-7743
diger	-7744
▁2003	-7745
▁flog	-7746
▁gand	-7747
▁grau	-7748
▁konz	-7749
▁meet	-7750
▁sper	-7751
fachen	-7752
reicht	-7753
▁altes	-7754
▁ausbr	-7755
▁bewäl	-7756
▁circa	-7757
▁conne	-7758
▁graus	-7759
▁invol	-7760
▁legte	-7761
▁prima	-7762
▁rüber	-7763
▁smith	-7764
▁wohlt	-7765
▁abends	-7766
▁budget	-7767
▁frucht	-7768
▁oxford	-7769
▁sektor	-7770
▁sprung	-7771
▁verhei	-7772
mögliche	-7773
▁angehen	-7774
▁bevorzu	-7775
▁digital	-7776
▁ersetzt	-7777
▁manhatt	-7778
▁urheber	-7779
▁verwirk	-7780
▁vorgang	-7781
▁ärmsten	-7782
▁ausgehen	-7783
▁eröffnet	-7784
▁fantasie	-7785
▁früheren	-7786
▁privaten	-7787
▁speicher	-7788
▁benutzten	-7789
▁höhepunkt	-7790
▁konflikte	-7791
▁orchester	-7792
▁abendessen	-7793
▁asteroiden	-7794
▁außerorden	-7795
▁nachmittag	-7796
▁offensicht	-7797
▁schlimmsten	-7798
▁transparenz	-7799
▁wiederholen	-7800
▁berechnungen	-7801
▁festgestellt	-7802
▁komplizierte	-7803
▁repräsentiert	-7804
agd	-7805
ech	-7806
flu	-7807
ift	-7808
kal	-7809
ost	-7810
ros	-7811
une	-7812
urr	-7813
▁95	-7814
▁av	-7815
▁vo	-7816
ampe	-7817
boot	-7818
schü	-7819
vort	-7820
▁fau	-7821
▁hob	-7822
▁lkw	-7823
▁lux	-7824
aster	-7825
roren	-7826
▁brie	-7827
▁bron	-7828
▁kond	-7829
▁last	-7830
▁seil	-7831
▁thun	-7832
▁urkn	-7833
dioxid	-7834
gewebe	-7835
straße	-7836
wellen	-7837
▁linke	-7838
▁lokal	-7839
▁magne	-7840
▁onkel	-7841
steigen	-7842
zugehen	-7843
▁füllen	-7844
▁patent	-7845
▁profit	-7846
▁recher	-7847
▁therap	-7848
▁tricks	-7849
eitungen	-7850
tisieren	-7851
▁inhalte	-7852
▁kontinu	-7853
▁magazin	-7854
▁molekul	-7855
▁schmutz	-7856
▁verließ	-7857
▁vernünf	-7858
▁zweites	-7859
regierung	-7860
▁anbieten	-7861
▁betracht	-7862
▁diplomat	-7863
▁gegessen	-7864
▁geograph	-7865
▁kleinere	-7866
▁kopieren	-7867
▁original	-7868
▁schickte	-7869
▁wünschen	-7870
▁auftreten	-7871
▁gestartet	-7872
▁positiven	-7873
▁englischen	-7874
▁kommerziel	-7875
▁reaktionen	-7876
▁vermittelt	-7877
▁versorgung	-7878
▁wiederholt	-7879
▁unterwasser	-7880
▁abhängigkeit	-7881
▁hinsichtlich	-7882
▁erstaunlichen	-7883
▁faszinierende	-7884
▁wunderschönen	-7885
▁zufriedenheit	-7886
▁ausschließlich	-7887
jo	-7888
bor	-7889
ümm	-7890
▁kb	-7891
▁pc	-7892
akul	-7893
appe	-7894
baum	-7895
grad	-7896
ktes	-7897
pack	-7898
üren	-7899
▁ank	-7900
▁anl	-7901
▁hen	-7902
forma	-7903
letzt	-7904
lässt	-7905
ächer	-7906
▁1980	-7907
▁anre	-7908
▁befr	-7909
▁beur	-7910
▁klug	-7911
▁mahl	-7912
▁mamm	-7913
▁mist	-7914
▁schi	-7915
steckt	-7916
▁bedro	-7917
▁einbe	-7918
▁katze	-7919
▁konst	-7920
▁käfer	-7921
▁spont	-7922
▁waffe	-7923
▁wirft	-7924
▁zählt	-7925
▁öfter	-7926
politik	-7927
timeter	-7928
wendung	-7929
▁anweis	-7930
▁astron	-7931
▁babies	-7932
▁ebenen	-7933
▁echtes	-7934
▁fließt	-7935
▁vagina	-7936
▁valley	-7937
▁yorker	-7938
▁beschäd	-7939
▁ehemann	-7940
▁höchste	-7941
▁lernten	-7942
▁lichter	-7943
▁schwach	-7944
▁schwanz	-7945
▁schöner	-7946
▁wodurch	-7947
▁würdest	-7948
▁zurecht	-7949
▁zwanzig	-7950
katastrop	-7951
schließen	-7952
▁befreien	-7953
▁bescheid	-7954
▁bewahren	-7955
▁energien	-7956
▁gesunden	-7957
▁hinweise	-7958
▁reagiert	-7959
▁sozialer	-7960
▁therapie	-7961
▁internets	-7962
▁irgendwas	-7963
▁nachdenkt	-7964
▁parlament	-7965
▁dramatisch	-7966
▁selbstmord	-7967
▁standpunkt	-7968
▁angetrieben	-7969
▁blickwinkel	-7970
▁kombinieren	-7971
▁profitieren	-7972
▁terrorismus	-7973
▁versprechen	-7974
▁schreckliche	-7975
▁durcheinander	-7976
▁entscheidende	-7977
ms	-7978
drü	-7979
lag	-7980
ope	-7981
anal	-7982
anst	-7983
fabr	-7984
gefä	-7985
ödie	-7986
▁alz	-7987
▁big	-7988
▁ego	-7989
▁nov	-7990
▁tel	-7991
▁tän	-7992
▁töd	-7993
lösen	-7994
soren	-7995
ündet	-7996
▁camb	-7997
▁homo	-7998
▁meme	-7999
▁noti	-8000
ramide	-8001
speich	-8002
stoßen	-8003
terien	-8004
versen	-8005
wecken	-8006
▁5.000	-8007
▁brown	-8008
▁derer	-8009
▁figur	-8010
▁klick	-8011
▁meint	-8012
▁nobel	-8013
▁stick	-8014
▁volks	-8015
▁werbe	-8016
gerufen	-8017
konstru	-8018
tragung	-8019
▁20.000	-8020
▁ballon	-8021
▁howard	-8022
▁kalten	-8023
▁klinik	-8024
▁ratten	-8025
▁schall	-8026
▁wahren	-8027
▁werten	-8028
▁wirbel	-8029
aufgaben	-8030
pedition	-8031
▁auftrag	-8032
▁empfind	-8033
▁greifen	-8034
▁pazifik	-8035
▁regener	-8036
▁richten	-8037
▁verbrei	-8038
setzungen	-8039
▁gebrauch	-8040
▁gebäudes	-8041
▁konzepte	-8042
▁stiftung	-8043
▁vorträge	-8044
▁änderung	-8045
alisierten	-8046
krankungen	-8047
▁alzheimer	-8048
▁bewegungs	-8049
▁chirurgen	-8050
▁erwärmung	-8051
▁flugzeuge	-8052
▁schlagzei	-8053
▁verteilen	-8054
▁wiederauf	-8055
▁ausdrücken	-8056
▁aussterben	-8057
▁konvention	-8058
▁unsichtbar	-8059
▁verbraucht	-8060
▁verbrauchen	-8061
anc	-8062
las	-8063
able	-8064
ammt	-8065
ardo	-8066
ckel	-8067
ival	-8068
kins	-8069
ores	-8070
orte	-8071
tain	-8072
utet	-8073
änen	-8074
▁aqu	-8075
▁blö	-8076
▁lob	-8077
▁rem	-8078
▁vit	-8079
fache	-8080
griff	-8081
umpen	-8082
üchte	-8083
▁king	-8084
▁lärm	-8085
▁matt	-8086
▁sieh	-8087
▁spur	-8088
andert	-8089
effekt	-8090
fältig	-8091
mitten	-8092
▁behör	-8093
▁dient	-8094
▁flach	-8095
▁harte	-8096
▁power	-8097
▁schiz	-8098
▁synch	-8099
▁trage	-8100
▁vietn	-8101
gebäude	-8102
ologien	-8103
technik	-8104
▁bomben	-8105
▁inseln	-8106
▁kontra	-8107
▁kuchen	-8108
▁pharma	-8109
▁steven	-8110
▁tränen	-8111
▁werdet	-8112
▁wesent	-8113
▁wüsten	-8114
gleichen	-8115
▁anfängt	-8116
▁anwesen	-8117
▁bedeckt	-8118
▁beitrag	-8119
▁spitzen	-8120
▁unerwar	-8121
ianischen	-8122
▁aufrecht	-8123
▁ausmacht	-8124
▁erkunden	-8125
▁geworfen	-8126
▁hingehen	-8127
▁schließt	-8128
▁schnelle	-8129
▁verlangt	-8130
▁bedeutend	-8131
▁betreffen	-8132
▁cambridge	-8133
▁gleichung	-8134
▁institute	-8135
▁manhattan	-8136
▁schrieben	-8137
▁täuschung	-8138
▁unterhalb	-8139
▁vorkommen	-8140
▁wiederver	-8141
▁zeitungen	-8142
▁elektronen	-8143
▁gewöhnlich	-8144
▁ignorieren	-8145
▁schwestern	-8146
▁unterhalten	-8147
▁afrikanische	-8148
▁zurückkommen	-8149
▁bürgermeister	-8150
▁nahrungsmittel	-8151
fo	-8152
hh	-8153
bru	-8154
dio	-8155
gut	-8156
mat	-8157
nei	-8158
äub	-8159
öss	-8160
ehrt	-8161
eier	-8162
ette	-8163
osen	-8164
team	-8165
vice	-8166
ästh	-8167
▁700	-8168
▁cal	-8169
▁gib	-8170
▁jim	-8171
▁kör	-8172
▁non	-8173
achel	-8174
ampen	-8175
formt	-8176
hafen	-8177
ppich	-8178
ville	-8179
▁ford	-8180
▁gete	-8181
▁hard	-8182
▁irre	-8183
▁mais	-8184
▁pein	-8185
▁tote	-8186
archie	-8187
lehrer	-8188
ritten	-8189
schild	-8190
skraft	-8191
▁allzu	-8192
▁geöff	-8193
▁gigan	-8194
▁lagen	-8195
▁leder	-8196
▁orien	-8197
▁urban	-8198
▁wasch	-8199
▁zwölf	-8200
fordern	-8201
staaten	-8202
▁brilli	-8203
▁eingef	-8204
▁herbei	-8205
▁köpfen	-8206
▁obdach	-8207
▁phosph	-8208
▁sprich	-8209
▁stämme	-8210
▁wohltä	-8211
▁überfl	-8212
▁erfolgs	-8213
▁erfüllt	-8214
▁glühbir	-8215
▁niederl	-8216
▁weltall	-8217
▁absolute	-8218
▁amerikas	-8219
▁astronom	-8220
▁außerird	-8221
▁befassen	-8222
▁biologen	-8223
▁diagnose	-8224
▁einziges	-8225
▁erledigt	-8226
▁führungs	-8227
▁handlung	-8228
▁illusion	-8229
▁inmitten	-8230
▁schwerer	-8231
▁schülern	-8232
▁weltbank	-8233
▁wieviele	-8234
▁überlebt	-8235
unterricht	-8236
zentration	-8237
▁ansichten	-8238
▁erinnerte	-8239
▁hollywood	-8240
▁neugierig	-8241
▁strahlung	-8242
▁verpflich	-8243
▁westliche	-8244
▁ähnlichen	-8245
▁allgemeine	-8246
▁auswirkung	-8247
▁regelmäßig	-8248
▁verteilung	-8249
▁ausgebildet	-8250
▁vorgestellt	-8251
▁einschließlich	-8252
ki	-8253
kö	-8254
deh	-8255
dis	-8256
gül	-8257
hlt	-8258
mot	-8259
put	-8260
typ	-8261
▁ec	-8262
agte	-8263
fang	-8264
haut	-8265
reut	-8266
tere	-8267
uzin	-8268
▁bip	-8269
▁mig	-8270
▁out	-8271
▁pas	-8272
▁öst	-8273
exper	-8274
igend	-8275
▁1950	-8276
▁1970	-8277
▁elen	-8278
▁euer	-8279
▁gast	-8280
▁jose	-8281
▁tony	-8282
▁ulti	-8283
▁üben	-8284
lehnen	-8285
schiff	-8286
▁annäh	-8287
▁atlan	-8288
▁blase	-8289
▁dreie	-8290
▁füßen	-8291
▁probe	-8292
▁raten	-8293
▁rauch	-8294
▁summe	-8295
▁ästhe	-8296
wachsen	-8297
▁erfand	-8298
▁fremde	-8299
▁gipfel	-8300
▁saturn	-8301
▁tedtal	-8302
▁tolles	-8303
▁verlor	-8304
▁angebot	-8305
▁ausland	-8306
▁beträgt	-8307
▁chromos	-8308
▁drucker	-8309
▁flasche	-8310
▁gefüllt	-8311
▁handels	-8312
▁klingen	-8313
▁korrekt	-8314
▁paradig	-8315
▁protest	-8316
▁richter	-8317
▁setzten	-8318
▁trennen	-8319
aktivität	-8320
▁behinder	-8321
▁betreten	-8322
▁draussen	-8323
▁gebildet	-8324
▁nochmals	-8325
▁sinnvoll	-8326
▁spannend	-8327
▁toilette	-8328
▁zentrale	-8329
▁probieren	-8330
▁vollständ	-8331
krankheiten	-8332
ministerium	-8333
▁ausrüstung	-8334
▁lebensraum	-8335
▁optimismus	-8336
▁prototypen	-8337
▁schlimmste	-8338
▁zukünftige	-8339
▁überprüfen	-8340
▁schwerkraft	-8341
▁zusätzliche	-8342
▁auszudrücken	-8343
▁entschuldigung	-8344
▁lebensqualität	-8345
▁menschlichkeit	-8346
cer	-8347
gno	-8348
mär	-8349
osn	-8350
ric	-8351
sey	-8352
tre	-8353
öne	-8354
achs	-8355
denk	-8356
felt	-8357
kind	-8358
klar	-8359
strö	-8360
▁191	-8361
▁bay	-8362
▁cap	-8363
▁clo	-8364
▁hut	-8365
▁jüd	-8366
▁nei	-8367
▁ray	-8368
achse	-8369
ehmer	-8370
gänge	-8371
ision	-8372
kohol	-8373
ktive	-8374
right	-8375
samer	-8376
▁chef	-8377
▁flag	-8378
▁foss	-8379
▁prem	-8380
▁tode	-8381
ennung	-8382
fühlen	-8383
gänger	-8384
itiert	-8385
leiten	-8386
ogramm	-8387
ophren	-8388
sitzen	-8389
ändler	-8390
▁anste	-8391
▁begrü	-8392
▁breit	-8393
▁gates	-8394
▁liebt	-8395
▁steig	-8396
▁übung	-8397
▁antark	-8398
▁bäumen	-8399
▁danken	-8400
▁flücht	-8401
▁graben	-8402
▁höhlen	-8403
▁marsch	-8404
▁pandem	-8405
▁republ	-8406
▁stabil	-8407
▁treibt	-8408
sammlung	-8409
▁alkohol	-8410
▁brennen	-8411
▁dynamik	-8412
▁entwurf	-8413
▁geburts	-8414
▁gelangt	-8415
▁indiens	-8416
▁private	-8417
▁stammen	-8418
▁zuletzt	-8419
▁benutzte	-8420
▁getestet	-8421
▁hervorra	-8422
▁jährlich	-8423
▁objekten	-8424
▁schießen	-8425
▁skulptur	-8426
▁vermögen	-8427
▁übergang	-8428
▁überzeug	-8429
temperatur	-8430
▁aktuellen	-8431
▁dimension	-8432
▁erfordert	-8433
▁erledigen	-8434
▁erziehung	-8435
▁rollstuhl	-8436
▁verborgen	-8437
▁übersetzt	-8438
▁gegenstand	-8439
▁verhindert	-8440
gemeinschaft	-8441
▁mittagessen	-8442
▁schizophren	-8443
▁terroristen	-8444
▁einzigartige	-8445
▁fotografiert	-8446
▁kohlendioxid	-8447
▁wundervollen	-8448
▁beeindruckend	-8449
▁komplizierter	-8450
▁ursprüngliche	-8451
ace	-8452
dam	-8453
dro	-8454
het	-8455
ini	-8456
que	-8457
row	-8458
▁kg	-8459
▁up	-8460
arth	-8461
bene	-8462
mark	-8463
phys	-8464
sour	-8465
▁800	-8466
▁blü	-8467
▁här	-8468
▁oxy	-8469
▁tes	-8470
dungs	-8471
ehren	-8472
ismen	-8473
strom	-8474
werks	-8475
▁brei	-8476
▁ever	-8477
▁farm	-8478
▁fels	-8479
breite	-8480
decken	-8481
eltern	-8482
garten	-8483
genden	-8484
leiter	-8485
spunkt	-8486
ustern	-8487
zenten	-8488
zählen	-8489
▁decke	-8490
▁endet	-8491
▁mathe	-8492
▁stets	-8493
▁stich	-8494
▁tempo	-8495
▁tätig	-8496
▁väter	-8497
▁übers	-8498
anlagen	-8499
aterial	-8500
stunden	-8501
verkehr	-8502
▁50.000	-8503
▁befrie	-8504
▁empfeh	-8505
▁fahrer	-8506
▁forder	-8507
▁halben	-8508
▁mannes	-8509
▁mochte	-8510
▁option	-8511
▁pocken	-8512
▁spuren	-8513
▁steine	-8514
▁ultima	-8515
▁verzer	-8516
forscher	-8517
▁anstren	-8518
▁atember	-8519
▁balance	-8520
▁florida	-8521
▁hinweis	-8522
▁landete	-8523
▁rettung	-8524
▁schädel	-8525
▁änderte	-8526
zeichnung	-8527
▁benutzer	-8528
▁geöffnet	-8529
▁prozesse	-8530
▁streiten	-8531
▁angepasst	-8532
▁explosion	-8533
▁flughafen	-8534
▁kreislauf	-8535
▁schwarzes	-8536
▁auffassung	-8537
▁klassische	-8538
▁organismus	-8539
▁virtuellen	-8540
▁anzuschauen	-8541
▁erfindungen	-8542
▁finanzieren	-8543
▁irgendeiner	-8544
▁mittelpunkt	-8545
▁atemberauben	-8546
▁krankenschwe	-8547
▁sonnensystem	-8548
▁international	-8549
▁produktivität	-8550
▁sicherstellen	-8551
bu	-8552
ray	-8553
elen	-8554
feln	-8555
iban	-8556
vern	-8557
wich	-8558
ähmt	-8559
▁dop	-8560
▁dum	-8561
inson	-8562
iogen	-8563
molek	-8564
ucken	-8565
▁adop	-8566
▁appl	-8567
▁besa	-8568
▁eric	-8569
▁gall	-8570
▁just	-8571
▁kilo	-8572
▁watt	-8573
handel	-8574
ingung	-8575
▁abgel	-8576
▁dicht	-8577
▁etabl	-8578
▁frühl	-8579
▁genie	-8580
▁herab	-8581
▁kapaz	-8582
▁kauft	-8583
▁möbel	-8584
▁reale	-8585
▁toler	-8586
▁werke	-8587
tisiert	-8588
▁beinen	-8589
▁fuhren	-8590
▁getrei	-8591
▁lenken	-8592
▁poesie	-8593
▁talent	-8594
▁umfang	-8595
▁weinen	-8596
▁wohnen	-8597
schalten	-8598
▁anreize	-8599
▁beginne	-8600
▁beliebt	-8601
▁dreimal	-8602
schreiben	-8603
▁behaupte	-8604
▁berühmte	-8605
▁erlangen	-8606
▁erschien	-8607
▁sprecher	-8608
▁synchron	-8609
▁vortrags	-8610
▁begriffen	-8611
▁fahrzeuge	-8612
▁geblieben	-8613
▁großvater	-8614
▁karikatur	-8615
▁angeschaut	-8616
▁einkommens	-8617
▁finanziert	-8618
▁handlungen	-8619
▁religiösen	-8620
▁trainieren	-8621
▁großartiger	-8622
▁kooperation	-8623
▁schwierigen	-8624
▁beschreibung	-8625
▁europäischen	-8626
▁durchzuführen	-8627
▁‹	-8628
▁›	-8629
had	-8630
ish	-8631
osh	-8632
ows	-8633
tum	-8634
wol	-8635
▁2,	-8636
▁jh	-8637
alem	-8638
ates	-8639
eife	-8640
stil	-8641
unen	-8642
▁abw	-8643
▁cra	-8644
▁piz	-8645
▁rea	-8646
▁soc	-8647
acken	-8648
haber	-8649
istin	-8650
leger	-8651
äufig	-8652
▁glet	-8653
▁hill	-8654
▁krab	-8655
▁löst	-8656
▁skep	-8657
chtern	-8658
ichert	-8659
▁black	-8660
▁fremd	-8661
▁genen	-8662
▁graph	-8663
▁köpfe	-8664
▁laser	-8665
▁liest	-8666
▁redet	-8667
▁ärger	-8668
hundert	-8669
version	-8670
▁drüber	-8671
▁erfuhr	-8672
▁reform	-8673
▁trends	-8674
▁vertik	-8675
▁virgin	-8676
▁winkel	-8677
▁wälder	-8678
▁wütend	-8679
bereiten	-8680
▁anschau	-8681
▁anthrop	-8682
▁antibio	-8683
▁geredet	-8684
▁laptops	-8685
▁oktober	-8686
▁phantom	-8687
▁punkten	-8688
▁radikal	-8689
▁rechnen	-8690
▁solaren	-8691
▁winzige	-8692
aufnahmen	-8693
▁empathie	-8694
▁gesünder	-8695
▁neuesten	-8696
▁schienen	-8697
▁schlange	-8698
▁soziales	-8699
▁tragödie	-8700
▁verliebt	-8701
▁definitiv	-8702
▁effizient	-8703
▁hilfreich	-8704
▁komplexer	-8705
▁nachfrage	-8706
▁offenheit	-8707
▁religiöse	-8708
bedingungen	-8709
▁aufregende	-8710
▁auftauchen	-8711
▁bandbreite	-8712
▁elektronik	-8713
▁entdeckten	-8714
▁involviert	-8715
▁lächerlich	-8716
▁verbrennen	-8717
▁verwandten	-8718
▁weihnachts	-8719
▁zentimeter	-8720
▁abschließen	-8721
▁hilfsmittel	-8722
▁stattfinden	-8723
▁verarbeiten	-8724
▁angestellten	-8725
▁optimistisch	-8726
▁präsentieren	-8727
▁ungewöhnlich	-8728
▁unternehmens	-8729
▁weitermachen	-8730
▁abgeschlossen	-8731
▁unterscheidet	-8732
fi	-8733
rö	-8734
bon	-8735
isa	-8736
krä	-8737
▁85	-8738
▁mi	-8739
▁ue	-8740
eins	-8741
icon	-8742
klin	-8743
kton	-8744
park	-8745
quem	-8746
setz	-8747
stel	-8748
stoß	-8749
ugen	-8750
ülen	-8751
▁brä	-8752
▁cri	-8753
▁nav	-8754
▁rio	-8755
▁äqu	-8756
bogen	-8757
hörer	-8758
inzip	-8759
osexu	-8760
ropie	-8761
schel	-8762
sorge	-8763
▁anat	-8764
▁aufr	-8765
▁besp	-8766
▁gift	-8767
▁gore	-8768
▁held	-8769
▁klat	-8770
▁mani	-8771
▁maße	-8772
▁papa	-8773
▁teur	-8774
▁warm	-8775
▁zust	-8776
achung	-8777
bellen	-8778
kasten	-8779
kinder	-8780
mengen	-8781
ordnet	-8782
sorgan	-8783
waffen	-8784
zähler	-8785
▁abrah	-8786
▁appar	-8787
▁blogs	-8788
▁bruch	-8789
▁coole	-8790
▁heiße	-8791
▁knopf	-8792
▁koran	-8793
▁leser	-8794
▁nadel	-8795
▁party	-8796
▁proto	-8797
▁smart	-8798
▁south	-8799
▁attrak	-8800
▁binden	-8801
▁buches	-8802
▁psychi	-8803
▁schief	-8804
▁seiden	-8805
▁sinken	-8806
▁ängste	-8807
schungen	-8808
▁blicken	-8809
▁erfasst	-8810
▁gewinnt	-8811
▁komprom	-8812
▁paradox	-8813
▁unangen	-8814
▁zeitgen	-8815
wirkungen	-8816
▁bewohner	-8817
▁direktor	-8818
▁freizeit	-8819
▁herkunft	-8820
▁indische	-8821
▁phosphor	-8822
▁sicherer	-8823
▁verdammt	-8824
▁verfügen	-8825
▁verletzt	-8826
▁vielzahl	-8827
revolution	-8828
▁ausführen	-8829
▁bakterium	-8830
▁disziplin	-8831
▁erhielten	-8832
▁fortgesch	-8833
▁genetisch	-8834
▁perfekten	-8835
▁schichten	-8836
▁speichern	-8837
▁spektakul	-8838
▁technisch	-8839
▁toiletten	-8840
▁vereinten	-8841
▁versicher	-8842
▁ausgewählt	-8843
▁überqueren	-8844
organisation	-8845
▁anerkennung	-8846
▁durchmesser	-8847
▁erforschung	-8848
▁restaurants	-8849
▁stattfindet	-8850
▁kapitalismus	-8851
▁medikamenten	-8852
▁eingeschlossen	-8853
▁verletzlichkeit	-8854
yo	-8855
ect	-8856
jet	-8857
ola	-8858
tzu	-8859
uck	-8860
▁tv	-8861
code	-8862
herz	-8863
kamp	-8864
tech	-8865
ulin	-8866
verl	-8867
▁adr	-8868
▁bit	-8869
▁kub	-8870
▁rab	-8871
▁rut	-8872
▁tas	-8873
▁weh	-8874
board	-8875
dauer	-8876
deckt	-8877
dizin	-8878
insel	-8879
spers	-8880
sters	-8881
▁cous	-8882
▁gött	-8883
▁güte	-8884
▁ipod	-8885
▁nied	-8886
▁wall	-8887
firmen	-8888
jenige	-8889
leiden	-8890
trover	-8891
▁chron	-8892
▁jagen	-8893
▁länge	-8894
▁physi	-8895
▁sensi	-8896
brachte	-8897
gesehen	-8898
sträger	-8899
theorie	-8900
wirkung	-8901
örtlich	-8902
▁kontro	-8903
▁mandel	-8904
▁messer	-8905
▁newton	-8906
▁reiste	-8907
▁spiels	-8908
▁vorles	-8909
reichend	-8910
ächtigen	-8911
▁aggress	-8912
▁antrieb	-8913
▁bedroht	-8914
▁bewegte	-8915
▁bezieht	-8916
▁distanz	-8917
▁drucken	-8918
▁effekte	-8919
▁heutige	-8920
▁schwamm	-8921
▁taliban	-8922
▁unschul	-8923
igerweise	-8924
ikationen	-8925
▁aufgeben	-8926
▁blutgefä	-8927
▁business	-8928
▁erzielen	-8929
▁eröffnen	-8930
▁heiraten	-8931
▁institut	-8932
▁liebling	-8933
▁minister	-8934
▁spannung	-8935
▁strahlen	-8936
▁substanz	-8937
▁weibchen	-8938
▁anstellen	-8939
▁einnehmen	-8940
▁einwohner	-8941
▁geschützt	-8942
▁gewaltige	-8943
▁hunderten	-8944
▁impfstoff	-8945
▁maßnahmen	-8946
▁selektion	-8947
▁zentralen	-8948
▁brennstoff	-8949
▁expedition	-8950
▁glückliche	-8951
▁stabilität	-8952
▁strategien	-8953
▁supermarkt	-8954
▁verringern	-8955
▁einzusetzen	-8956
▁emotionalen	-8957
▁widerspruch	-8958
▁ungleichheit	-8959
▁ursprünglichen	-8960
▁fortgeschritten	-8961
gur	-8962
ora	-8963
▁3.	-8964
holz	-8965
igem	-8966
kern	-8967
lied	-8968
prim	-8969
stei	-8970
synd	-8971
zone	-8972
▁dez	-8973
▁jes	-8974
▁joe	-8975
▁lou	-8976
▁mur	-8977
▁wut	-8978
bruar	-8979
elang	-8980
gehör	-8981
orten	-8982
pfern	-8983
▁come	-8984
▁dete	-8985
▁jeff	-8986
▁mill	-8987
▁poly	-8988
▁prob	-8989
▁räum	-8990
▁salz	-8991
▁tsun	-8992
▁ultr	-8993
bungen	-8994
gesund	-8995
instit	-8996
sprach	-8997
▁anfäl	-8998
▁endes	-8999
▁freit	-9000
▁höhen	-9001
▁löwen	-9002
▁lücke	-9003
▁oxyto	-9004
▁pause	-9005
▁pläne	-9006
▁teure	-9007
▁wette	-9008
▁zogen	-9009
anthrop	-9010
ungslos	-9011
ziehung	-9012
▁blasen	-9013
▁durfte	-9014
▁echter	-9015
▁felsen	-9016
▁katzen	-9017
▁lieder	-9018
▁progno	-9019
▁raffin	-9020
▁unverm	-9021
lizieren	-9022
▁automob	-9023
▁drinnen	-9024
▁einkauf	-9025
▁februar	-9026
▁fressen	-9027
▁fußball	-9028
▁gelehrt	-9029
▁motoren	-9030
▁reicher	-9031
▁unrecht	-9032
konferenz	-9033
▁anhänger	-9034
▁billiger	-9035
▁fabriken	-9036
▁kalorien	-9037
▁mithilfe	-9038
▁sammlung	-9039
▁schaffte	-9040
▁schreibe	-9041
▁anzeichen	-9042
▁erzählten	-9043
▁fischerei	-9044
▁gestaltet	-9045
▁mitteilen	-9046
▁vereinbar	-9047
▁aufmerksam	-9048
▁chemischen	-9049
▁einstellen	-9050
▁emissionen	-9051
▁initiative	-9052
▁kombiniert	-9053
▁königreich	-9054
▁schlussfol	-9055
▁verdoppelt	-9056
▁verurteilt	-9057
▁großartiges	-9058
▁solarenergie	-9059
▁gewissermaßen	-9060
▁schrecklichen	-9061
▁untersuchungen	-9062
zo	-9063
mil	-9064
wäl	-9065
▁dä	-9066
ario	-9067
ilde	-9068
null	-9069
zusp	-9070
▁bir	-9071
▁biz	-9072
▁roy	-9073
flung	-9074
klang	-9075
ophen	-9076
▁clin	-9077
▁dikt	-9078
▁gekl	-9079
▁gewe	-9080
▁lein	-9081
▁leit	-9082
▁leon	-9083
▁nick	-9084
▁vieh	-9085
▁yeah	-9086
anders	-9087
binden	-9088
deuten	-9089
fanden	-9090
männer	-9091
strahl	-9092
zierte	-9093
▁baumw	-9094
▁befol	-9095
▁brian	-9096
▁femin	-9097
▁kopie	-9098
▁mauer	-9099
▁scher	-9100
behörde	-9101
energie	-9102
geboren	-9103
ometern	-9104
verschm	-9105
zentren	-9106
▁arznei	-9107
▁aufgeb	-9108
▁brüder	-9109
▁gerüst	-9110
▁küsten	-9111
▁lincol	-9112
▁prakti	-9113
▁schöpf	-9114
▁senken	-9115
▁tollen	-9116
▁türkei	-9117
▁unklar	-9118
effizien	-9119
fertigen	-9120
gewiesen	-9121
▁abstand	-9122
▁ausgang	-9123
▁banglad	-9124
▁betonen	-9125
▁bewirkt	-9126
▁breiten	-9127
▁dankbar	-9128
▁dopamin	-9129
▁fischen	-9130
▁gefolgt	-9131
▁insulin	-9132
▁komisch	-9133
▁tendenz	-9134
▁wüssten	-9135
▁zugeben	-9136
▁besitzer	-9137
▁dezember	-9138
▁einziger	-9139
▁erwähnte	-9140
▁geringer	-9141
▁halluzin	-9142
▁kollabor	-9143
▁mischung	-9144
▁relevant	-9145
▁begleitet	-9146
▁berühmten	-9147
▁britische	-9148
▁fernseher	-9149
▁jedermann	-9150
▁komplette	-9151
▁niedriger	-9152
▁produkten	-9153
▁schafften	-9154
▁tätigkeit	-9155
▁wohlhaben	-9156
▁ansprechen	-9157
▁bescheiden	-9158
▁besonderes	-9159
▁effektiver	-9160
▁gestaltung	-9161
▁gleichheit	-9162
▁management	-9163
▁schokolade	-9164
▁umzusetzen	-9165
▁vertrauens	-9166
▁zueinander	-9167
▁eingeschrän	-9168
▁fokussieren	-9169
▁zeichnungen	-9170
▁zusammengef	-9171
▁überzeugung	-9172
▁ausprobieren	-9173
▁bewusstseins	-9174
▁finanziellen	-9175
▁industrielle	-9176
▁verzweiflung	-9177
▁konzentration	-9178
▁fettleibigkeit	-9179
ani	-9180
aya	-9181
feh	-9182
inv	-9183
kil	-9184
sbe	-9185
wie	-9186
yle	-9187
▁55	-9188
▁rb	-9189
akes	-9190
bell	-9191
dium	-9192
empf	-9193
erei	-9194
geld	-9195
itar	-9196
olum	-9197
orth	-9198
teln	-9199
uste	-9200
well	-9201
zier	-9202
▁fix	-9203
▁mai	-9204
▁nör	-9205
▁äuß	-9206
burgh	-9207
figur	-9208
hesen	-9209
packt	-9210
äsche	-9211
örder	-9212
▁fuss	-9213
▁iron	-9214
▁reis	-9215
▁ring	-9216
▁ruft	-9217
▁song	-9218
▁verh	-9219
bomben	-9220
fällen	-9221
krimin	-9222
lässig	-9223
strate	-9224
uchsen	-9225
zeigen	-9226
ündung	-9227
▁2.000	-9228
▁apfel	-9229
▁dschi	-9230
▁engag	-9231
▁falle	-9232
▁henry	-9233
▁hügel	-9234
▁jenem	-9235
▁kanad	-9236
▁media	-9237
▁miner	-9238
▁regul	-9239
▁sonnt	-9240
▁verdr	-9241
▁wende	-9242
▁wolke	-9243
▁zehen	-9244
wertung	-9245
zierten	-9246
▁akzept	-9247
▁anreiz	-9248
▁berühr	-9249
▁fasern	-9250
▁impuls	-9251
▁leeren	-9252
▁multip	-9253
▁nutzer	-9254
▁portra	-9255
▁reiche	-9256
▁sensor	-9257
▁stufen	-9258
▁tempor	-9259
▁vollen	-9260
▁widmen	-9261
ierender	-9262
probleme	-9263
wechseln	-9264
zumachen	-9265
▁autoren	-9266
▁brücken	-9267
▁kannten	-9268
▁kolonie	-9269
▁nutzten	-9270
▁realist	-9271
▁strecke	-9272
▁studium	-9273
▁tiefsee	-9274
▁tropfen	-9275
▁töchter	-9276
▁vorbild	-9277
▁wahrhaf	-9278
▁ankommen	-9279
▁annahmen	-9280
▁bedienen	-9281
▁beziehen	-9282
▁dringend	-9283
▁dschihad	-9284
▁kompeten	-9285
▁lehrerin	-9286
▁oxytocin	-9287
▁schenken	-9288
▁spielten	-9289
▁verboten	-9290
▁zerbrech	-9291
▁ältesten	-9292
▁angeboten	-9293
▁auswählen	-9294
▁autorität	-9295
▁feuerwehr	-9296
▁geometrie	-9297
▁hypothese	-9298
▁unendlich	-9299
▁beschützen	-9300
▁bewältigen	-9301
▁grundlagen	-9302
▁leistungen	-9303
▁simulation	-9304
▁stickstoff	-9305
▁überwachen	-9306
▁architekton	-9307
▁atomenergie	-9308
▁finanzielle	-9309
▁intelligent	-9310
▁reihenfolge	-9311
▁voraussagen	-9312
▁alternativen	-9313
▁freiwilligen	-9314
▁konstruktion	-9315
▁unsicherheit	-9316
▁entwicklungen	-9317
▁industriellen	-9318
▁überraschende	-9319
▁bildungssystem	-9320
▁experimentieren	-9321
aw	-9322
▁q	-9323
hur	-9324
rea	-9325
arzt	-9326
pfte	-9327
phin	-9328
weiß	-9329
ünde	-9330
▁17.	-9331
▁gez	-9332
▁law	-9333
▁pip	-9334
athan	-9335
eline	-9336
etten	-9337
ließt	-9338
läuft	-9339
motor	-9340
stock	-9341
uropa	-9342
▁bast	-9343
▁benj	-9344
▁inti	-9345
▁läng	-9346
▁penn	-9347
▁quan	-9348
▁rate	-9349
▁sach	-9350
behand	-9351
ieller	-9352
inseln	-9353
ission	-9354
istent	-9355
üllung	-9356
▁bogen	-9357
▁buddh	-9358
▁dreck	-9359
▁güter	-9360
▁panik	-9361
▁polar	-9362
▁schar	-9363
▁shang	-9364
▁sturm	-9365
▁trink	-9366
▁tötet	-9367
▁ueber	-9368
▁unaus	-9369
aschall	-9370
▁ameise	-9371
▁andrew	-9372
▁breite	-9373
▁deprim	-9374
▁einges	-9375
▁filter	-9376
▁großem	-9377
▁kurzer	-9378
▁küchen	-9379
▁neuron	-9380
▁stoßen	-9381
▁weizen	-9382
anischen	-9383
sorganis	-9384
sprecher	-9385
ästhesie	-9386
▁anzeige	-9387
▁beendet	-9388
▁behaupt	-9389
▁bislang	-9390
▁gelände	-9391
▁goldene	-9392
▁grösser	-9393
▁kletter	-9394
▁konvers	-9395
▁lincoln	-9396
▁basieren	-9397
▁entropie	-9398
▁fossilen	-9399
▁geeignet	-9400
▁negative	-9401
▁normales	-9402
▁primaten	-9403
▁rhythmus	-9404
▁behauptet	-9405
▁computers	-9406
▁ermutigen	-9407
▁erweitert	-9408
▁gestohlen	-9409
▁infektion	-9410
▁kognitive	-9411
▁prozesses	-9412
▁virtuelle	-9413
bewusstsein	-9414
▁geschlagen	-9415
▁kunststoff	-9416
▁verrückten	-9417
▁aufzunehmen	-9418
▁beobachtung	-9419
▁eingestellt	-9420
▁einrichtung	-9421
▁gewöhnliche	-9422
▁konsumieren	-9423
▁städtischen	-9424
▁verbraucher	-9425
▁zweieinhalb	-9426
▁darzustellen	-9427
▁entsprechend	-9428
▁individuelle	-9429
▁schreibtisch	-9430
▁beschleunigen	-9431
▁durchschnitts	-9432
▁fantastischen	-9433
▁aufzeichnungen	-9434
▁interpretation	-9435
▁kommunikations	-9436
oß	-9437
kin	-9438
mie	-9439
neu	-9440
oha	-9441
sek	-9442
ania	-9443
erie	-9444
stad	-9445
▁blu	-9446
▁bün	-9447
▁fik	-9448
▁nel	-9449
▁tar	-9450
block	-9451
ffung	-9452
iefer	-9453
kampf	-9454
kunst	-9455
verse	-9456
ühnen	-9457
▁agen	-9458
▁bell	-9459
▁bern	-9460
▁brun	-9461
▁chor	-9462
▁fröh	-9463
▁hong	-9464
▁mont	-9465
▁pilz	-9466
▁sche	-9467
▁zens	-9468
▁zuge	-9469
haftes	-9470
illige	-9471
itiver	-9472
mische	-9473
school	-9474
tigend	-9475
▁3.000	-9476
▁amate	-9477
▁arist	-9478
▁geprä	-9479
▁glaub	-9480
▁hosen	-9481
▁hölle	-9482
▁luxus	-9483
▁objek	-9484
▁schad	-9485
▁sätze	-9486
▁ultra	-9487
▁welle	-9488
isierte	-9489
methode	-9490
modelle	-9491
syndrom	-9492
verhält	-9493
▁beutel	-9494
▁felder	-9495
▁filmem	-9496
▁gehalt	-9497
▁hühner	-9498
▁nelson	-9499
▁wurzel	-9500
▁wähler	-9501
▁ärzten	-9502
▁überre	-9503
menschen	-9504
vermögen	-9505
änderung	-9506
▁fürchte	-9507
▁gedreht	-9508
▁gestalt	-9509
▁hierbei	-9510
▁kleider	-9511
▁manager	-9512
▁origami	-9513
▁stephen	-9514
▁verteil	-9515
▁züchten	-9516
kontrolle	-9517
tisierung	-9518
▁besserer	-9519
▁erstaunt	-9520
▁gewinner	-9521
▁heiligen	-9522
▁liebsten	-9523
▁problema	-9524
▁strassen	-9525
▁anspruchs	-9526
▁kreaturen	-9527
▁schickten	-9528
▁schneiden	-9529
▁verkaufte	-9530
▁vielerlei	-9531
▁angekommen	-9532
▁individuum	-9533
▁reichweite	-9534
▁umgebungen	-9535
▁verstecken	-9536
▁werkzeugen	-9537
▁hindernisse	-9538
▁nordamerika	-9539
▁traditionen	-9540
▁unglücklich	-9541
▁ausgestorben	-9542
▁erkenntnisse	-9543
▁nervenzellen	-9544
▁fotografieren	-9545
▁intelligenten	-9546
▁sterblichkeit	-9547
▁repräsentieren	-9548
▁unabhängigkeit	-9549
-1	-9550
ux	-9551
ary	-9552
cel	-9553
rix	-9554
▁33	-9555
▁ce	-9556
▁eb	-9557
aben	-9558
face	-9559
fine	-9560
gase	-9561
itor	-9562
last	-9563
lein	-9564
wing	-9565
▁1,5	-9566
▁18.	-9567
▁fün	-9568
▁gif	-9569
▁kau	-9570
▁kro	-9571
▁lot	-9572
▁ski	-9573
beweg	-9574
diert	-9575
jahre	-9576
ramme	-9577
teils	-9578
union	-9579
ynman	-9580
änzen	-9581
öscht	-9582
▁chao	-9583
▁funk	-9584
▁hans	-9585
▁hebt	-9586
▁jazz	-9587
▁käse	-9588
▁umar	-9589
altete	-9590
esseln	-9591
fassen	-9592
ickelt	-9593
mungen	-9594
räumen	-9595
schmer	-9596
senden	-9597
ündete	-9598
▁found	-9599
▁honig	-9600
▁jenes	-9601
▁kevin	-9602
▁larry	-9603
▁malte	-9604
▁pizza	-9605
▁sitze	-9606
legenen	-9607
▁anpass	-9608
▁anwalt	-9609
▁bewahr	-9610
▁bricht	-9611
▁denkst	-9612
▁erzähl	-9613
▁garage	-9614
▁genaue	-9615
▁kreise	-9616
▁prüfen	-9617
▁räumen	-9618
▁vertre	-9619
gegenwär	-9620
gespräch	-9621
versität	-9622
▁ankommt	-9623
▁anwälte	-9624
▁ausländ	-9625
▁detaill	-9626
▁feynman	-9627
▁geformt	-9628
▁heilung	-9629
▁johnson	-9630
▁muslime	-9631
▁stammes	-9632
▁strateg	-9633
▁teppich	-9634
▁urknall	-9635
▁behörden	-9636
▁frühling	-9637
▁getreide	-9638
▁hochzeit	-9639
▁jedesmal	-9640
▁neandert	-9641
▁radikale	-9642
▁schulden	-9643
▁steigern	-9644
▁verkehrs	-9645
▁verraten	-9646
▁vielmals	-9647
gesundheit	-9648
▁aktiviert	-9649
▁anzugehen	-9650
▁auflösung	-9651
▁erzählung	-9652
▁selbstver	-9653
▁spielzeug	-9654
▁täglichen	-9655
▁umgekehrt	-9656
▁zustimmen	-9657
▁anzunehmen	-9658
▁berechnung	-9659
▁biologisch	-9660
▁engagement	-9661
▁kandidaten	-9662
▁künstlerin	-9663
▁verdoppeln	-9664
▁verpflicht	-9665
▁wahrschein	-9666
▁geheimnisse	-9667
▁psychologen	-9668
▁tiefgreifen	-9669
▁unabhängige	-9670
▁verblüffend	-9671
▁verzweifelt	-9672
▁eigentlichen	-9673
▁journalisten	-9674
▁unterrichtet	-9675
▁elektronische	-9676
▁unglaubliches	-9677
▁verwirklichen	-9678
▁wissenschafts	-9679
▁wohltätigkeit	-9680
▁zivilisationen	-9681
▁außerordentlich	-9682
▁sicherzustellen	-9683
▁°	-9684
ata	-9685
gab	-9686
gos	-9687
okl	-9688
spf	-9689
stö	-9690
▁pm	-9691
abil	-9692
amie	-9693
atar	-9694
baut	-9695
blei	-9696
blog	-9697
inos	-9698
kler	-9699
ness	-9700
rufe	-9701
ökon	-9702
▁bzw	-9703
▁bör	-9704
▁han	-9705
▁jac	-9706
▁rap	-9707
hoben	-9708
itäre	-9709
lette	-9710
liebe	-9711
ohnen	-9712
spart	-9713
uchte	-9714
▁2050	-9715
▁brem	-9716
▁gefl	-9717
▁jane	-9718
▁plat	-9719
▁skiz	-9720
ketten	-9721
person	-9722
▁akust	-9723
▁atome	-9724
▁cloud	-9725
▁count	-9726
▁ernte	-9727
▁ethik	-9728
▁flexi	-9729
▁galer	-9730
▁hawai	-9731
▁jesus	-9732
▁kluft	-9733
▁krist	-9734
▁loszu	-9735
▁tiger	-9736
▁umgew	-9737
ografen	-9738
produkt	-9739
wärmung	-9740
▁august	-9741
▁bestes	-9742
▁bestäu	-9743
▁chinas	-9744
▁comics	-9745
▁derzei	-9746
▁elegan	-9747
▁fassen	-9748
▁frisch	-9749
▁gelegt	-9750
▁grauen	-9751
▁instin	-9752
▁knoten	-9753
▁langes	-9754
▁mitlei	-9755
▁ozeans	-9756
▁packen	-9757
▁sinnes	-9758
▁wortes	-9759
freiheit	-9760
getragen	-9761
produkte	-9762
▁beängst	-9763
▁blieben	-9764
▁gelingt	-9765
▁geplant	-9766
▁gründer	-9767
▁königin	-9768
▁leichte	-9769
▁premier	-9770
▁prostat	-9771
▁silicon	-9772
▁sonntag	-9773
▁wandern	-9774
▁willkür	-9775
▁zweiter	-9776
ohnheiten	-9777
programme	-9778
▁andauern	-9779
▁beobacht	-9780
▁bewiesen	-9781
▁frequenz	-9782
▁gleicher	-9783
▁globaler	-9784
▁mächtige	-9785
▁reichtum	-9786
▁riesiger	-9787
▁shanghai	-9788
▁startete	-9789
▁umsetzen	-9790
▁versehen	-9791
▁bedeutsam	-9792
▁berührung	-9793
▁durchführ	-9794
▁einfallen	-9795
▁englische	-9796
▁erschafft	-9797
▁führenden	-9798
▁gletscher	-9799
▁herstellt	-9800
▁hinweisen	-9801
▁meinungen	-9802
▁mitfühlen	-9803
▁molekular	-9804
▁niemandem	-9805
▁schweizer	-9806
▁äthiopien	-9807
▁beschaffen	-9808
▁beschränkt	-9809
▁einführung	-9810
▁festhalten	-9811
▁foundation	-9812
▁gewaltigen	-9813
▁menschlich	-9814
▁netzwerken	-9815
▁wörterbuch	-9816
▁überlassen	-9817
▁gefährliche	-9818
▁islamischen	-9819
▁ultraschall	-9820
▁beizubringen	-9821
▁experimentel	-9822
▁jahrhunderte	-9823
▁klimawandels	-9824
▁republikaner	-9825
▁urheberrecht	-9826
▁angelegenheit	-9827
▁arbeitsplätze	-9828
▁demokratische	-9829
▁technologische	-9830
bab	-9831
ita	-9832
mag	-9833
nel	-9834
ona	-9835
org	-9836
sau	-9837
yer	-9838
yon	-9839
äck	-9840
▁29	-9841
bole	-9842
iser	-9843
meer	-9844
odie	-9845
piel	-9846
ustr	-9847
älen	-9848
▁akk	-9849
▁amy	-9850
▁elf	-9851
▁ero	-9852
▁idi	-9853
▁lee	-9854
▁läh	-9855
▁mio	-9856
▁ret	-9857
ieden	-9858
iefst	-9859
legte	-9860
onanz	-9861
rogen	-9862
steht	-9863
verei	-9864
virus	-9865
▁ausf	-9866
▁blue	-9867
▁ekel	-9868
▁fell	-9869
▁hang	-9870
▁hekt	-9871
▁kalk	-9872
▁kell	-9873
▁kenn	-9874
▁kost	-9875
▁long	-9876
▁prie	-9877
▁treu	-9878
▁warf	-9879
bergen	-9880
brauch	-9881
fabrik	-9882
ladung	-9883
▁	-9884
e	-9885
n	-9886
i	-9887
s	-9888
r	-9889
t	-9890
a	-9891
d	-9892
h	-9893
u	-9894
l	-9895
c	-9896
m	-9897
o	-9898
g	-9899
w	-9900
b	-9901
,	-9902
f	-9903
k	-9904
.	-9905
z	-9906
v	-9907
p	-9908
ü	-9909
ä	-9910
ö	-9911
j	-9912
;	-9913
-	-9914
&	-9915
q	-9916
ß	-9917
0	-9918
y	-9919
:	-9920
?	-9921
1	-9922
–	-9923
x	-9924
2	-9925
5	-9926
9	-9927
3	-9928
4	-9929
8	-9930
6	-9931
7	-9932
!	-9933
#	-9934
%	-9935
—	-9936
/	-9937
»	-9938
«	-9939
$	-9940
é	-9941
‹	-9942
›	-9943
á	-9944
°	-9945
⁄	-9946
+	-9947
ó	-9948
‟	-9949
)	-9950
=	-9951
‚	-9952
β	-9953
è	-9954
í	-9955
‒	-9956
@	-9957
à	-9958
ñ	-9959
(	-9960
^	-9961
`	-9962
ç	-9963
	-9964
	-9965
¥	-9966
ã	-9967
	-9968
­	-9969
â	-9970
ê	-9971
*	-9972
×	-9973
ø	-9974
ú	-9975
œ	-9976
_	-9977
©	-9978
å	-9979
ë	-9980
ô	-9981
ā	-9982
\	-9983
£	-9984
®	-9985
î	-9986
ï	-9987
ý	-9988
ō	-9989
š	-9990
к	-9991
ӓ	-9992
€	-9993
你	-9994
葱	-9995
送	-9996
